unsigned char tflite_models_conv_lr0_0001_bs32_float16_tflite[] = {
  0x1c, 0x00, 0x00, 0x00, 0x54, 0x46, 0x4c, 0x33, 0x14, 0x00, 0x20, 0x00,
  0x1c, 0x00, 0x18, 0x00, 0x14, 0x00, 0x10, 0x00, 0x0c, 0x00, 0x00, 0x00,
  0x08, 0x00, 0x04, 0x00, 0x14, 0x00, 0x00, 0x00, 0x1c, 0x00, 0x00, 0x00,
  0x8c, 0x00, 0x00, 0x00, 0x14, 0x01, 0x00, 0x00, 0xf0, 0x1c, 0x00, 0x00,
  0x00, 0x1d, 0x00, 0x00, 0x80, 0x27, 0x00, 0x00, 0x03, 0x00, 0x00, 0x00,
  0x01, 0x00, 0x00, 0x00, 0x04, 0x00, 0x00, 0x00, 0x76, 0xe2, 0xff, 0xff,
  0x0c, 0x00, 0x00, 0x00, 0x1c, 0x00, 0x00, 0x00, 0x3c, 0x00, 0x00, 0x00,
  0x0f, 0x00, 0x00, 0x00, 0x73, 0x65, 0x72, 0x76, 0x69, 0x6e, 0x67, 0x5f,
  0x64, 0x65, 0x66, 0x61, 0x75, 0x6c, 0x74, 0x00, 0x01, 0x00, 0x00, 0x00,
  0x04, 0x00, 0x00, 0x00, 0x60, 0xff, 0xff, 0xff, 0x11, 0x00, 0x00, 0x00,
  0x04, 0x00, 0x00, 0x00, 0x08, 0x00, 0x00, 0x00, 0x6f, 0x75, 0x74, 0x70,
  0x75, 0x74, 0x5f, 0x30, 0x00, 0x00, 0x00, 0x00, 0x01, 0x00, 0x00, 0x00,
  0x04, 0x00, 0x00, 0x00, 0xb2, 0xe3, 0xff, 0xff, 0x04, 0x00, 0x00, 0x00,
  0x0f, 0x00, 0x00, 0x00, 0x6b, 0x65, 0x72, 0x61, 0x73, 0x5f, 0x74, 0x65,
  0x6e, 0x73, 0x6f, 0x72, 0x5f, 0x31, 0x30, 0x00, 0x03, 0x00, 0x00, 0x00,
  0x64, 0x00, 0x00, 0x00, 0x2c, 0x00, 0x00, 0x00, 0x04, 0x00, 0x00, 0x00,
  0xb0, 0xff, 0xff, 0xff, 0x15, 0x00, 0x00, 0x00, 0x04, 0x00, 0x00, 0x00,
  0x13, 0x00, 0x00, 0x00, 0x43, 0x4f, 0x4e, 0x56, 0x45, 0x52, 0x53, 0x49,
  0x4f, 0x4e, 0x5f, 0x4d, 0x45, 0x54, 0x41, 0x44, 0x41, 0x54, 0x41, 0x00,
  0xd4, 0xff, 0xff, 0xff, 0x14, 0x00, 0x00, 0x00, 0x04, 0x00, 0x00, 0x00,
  0x19, 0x00, 0x00, 0x00, 0x72, 0x65, 0x64, 0x75, 0x63, 0x65, 0x64, 0x5f,
  0x70, 0x72, 0x65, 0x63, 0x69, 0x73, 0x69, 0x6f, 0x6e, 0x5f, 0x73, 0x75,
  0x70, 0x70, 0x6f, 0x72, 0x74, 0x00, 0x00, 0x00, 0x08, 0x00, 0x0c, 0x00,
  0x08, 0x00, 0x04, 0x00, 0x08, 0x00, 0x00, 0x00, 0x13, 0x00, 0x00, 0x00,
  0x04, 0x00, 0x00, 0x00, 0x13, 0x00, 0x00, 0x00, 0x6d, 0x69, 0x6e, 0x5f,
  0x72, 0x75, 0x6e, 0x74, 0x69, 0x6d, 0x65, 0x5f, 0x76, 0x65, 0x72, 0x73,
  0x69, 0x6f, 0x6e, 0x00, 0x16, 0x00, 0x00, 0x00, 0xd8, 0x1b, 0x00, 0x00,
  0xd0, 0x1b, 0x00, 0x00, 0xa0, 0x1b, 0x00, 0x00, 0x28, 0x18, 0x00, 0x00,
  0x10, 0x18, 0x00, 0x00, 0x80, 0x0d, 0x00, 0x00, 0x70, 0x01, 0x00, 0x00,
  0x50, 0x01, 0x00, 0x00, 0x00, 0x01, 0x00, 0x00, 0xf8, 0x00, 0x00, 0x00,
  0xf0, 0x00, 0x00, 0x00, 0xe8, 0x00, 0x00, 0x00, 0xe0, 0x00, 0x00, 0x00,
  0xd8, 0x00, 0x00, 0x00, 0xd0, 0x00, 0x00, 0x00, 0xc8, 0x00, 0x00, 0x00,
  0xc0, 0x00, 0x00, 0x00, 0xb8, 0x00, 0x00, 0x00, 0xb0, 0x00, 0x00, 0x00,
  0x90, 0x00, 0x00, 0x00, 0x74, 0x00, 0x00, 0x00, 0x04, 0x00, 0x00, 0x00,
  0xb6, 0xe4, 0xff, 0xff, 0x04, 0x00, 0x00, 0x00, 0x60, 0x00, 0x00, 0x00,
  0x0c, 0x00, 0x00, 0x00, 0x08, 0x00, 0x0e, 0x00, 0x08, 0x00, 0x04, 0x00,
  0x08, 0x00, 0x00, 0x00, 0x10, 0x00, 0x00, 0x00, 0x28, 0x00, 0x00, 0x00,
  0x00, 0x00, 0x06, 0x00, 0x08, 0x00, 0x04, 0x00, 0x06, 0x00, 0x00, 0x00,
  0x04, 0x00, 0x00, 0x00, 0x01, 0x00, 0x00, 0x00, 0xe9, 0x03, 0x00, 0x00,
  0x0c, 0x00, 0x18, 0x00, 0x14, 0x00, 0x10, 0x00, 0x0c, 0x00, 0x04, 0x00,
  0x0c, 0x00, 0x00, 0x00, 0x11, 0x04, 0xfd, 0x6f, 0x33, 0x18, 0xf8, 0x4a,
  0x02, 0x00, 0x00, 0x00, 0x02, 0x00, 0x00, 0x00, 0x04, 0x00, 0x00, 0x00,
  0x06, 0x00, 0x00, 0x00, 0x32, 0x2e, 0x32, 0x31, 0x2e, 0x30, 0x00, 0x00,
  0x22, 0xe5, 0xff, 0xff, 0x04, 0x00, 0x00, 0x00, 0x0b, 0x00, 0x00, 0x00,
  0x66, 0x70, 0x31, 0x36, 0x61, 0x63, 0x63, 0x66, 0x70, 0x33, 0x32, 0x00,
  0x3a, 0xe5, 0xff, 0xff, 0x04, 0x00, 0x00, 0x00, 0x10, 0x00, 0x00, 0x00,
  0x31, 0x2e, 0x31, 0x35, 0x2e, 0x30, 0x00, 0x00, 0x00, 0x00, 0x00, 0x00,
  0x00, 0x00, 0x00, 0x00, 0xc8, 0xda, 0xff, 0xff, 0xcc, 0xda, 0xff, 0xff,
  0xd0, 0xda, 0xff, 0xff, 0xd4, 0xda, 0xff, 0xff, 0xd8, 0xda, 0xff, 0xff,
  0xdc, 0xda, 0xff, 0xff, 0xe0, 0xda, 0xff, 0xff, 0xe4, 0xda, 0xff, 0xff,
  0xe8, 0xda, 0xff, 0xff, 0xec, 0xda, 0xff, 0xff, 0x7e, 0xe5, 0xff, 0xff,
  0x04, 0x00, 0x00, 0x00, 0x40, 0x00, 0x00, 0x00, 0x31, 0x33, 0xb6, 0x35,
  0x60, 0x37, 0x0c, 0x31, 0xac, 0xb3, 0x43, 0xaf, 0x2d, 0x36, 0x38, 0x2a,
  0xa9, 0x34, 0x1a, 0x36, 0x4a, 0xb2, 0x75, 0x37, 0xfd, 0x34, 0xde, 0x28,
  0x54, 0x30, 0x14, 0xb0, 0xb1, 0x36, 0xc1, 0x36, 0xbf, 0x2e, 0x8a, 0x35,
  0x29, 0x37, 0xdb, 0x2e, 0xbb, 0x32, 0xe5, 0xaf, 0x33, 0x32, 0x1a, 0x35,
  0x0a, 0xb4, 0x9d, 0x35, 0x8e, 0x35, 0x02, 0xb4, 0x73, 0x35, 0x77, 0xb2,
  0xca, 0xe5, 0xff, 0xff, 0x04, 0x00, 0x00, 0x00, 0x0e, 0x00, 0x00, 0x00,
  0x91, 0x9c, 0xaa, 0x2b, 0x6e, 0x37, 0xdf, 0x2c, 0x89, 0xa9, 0x3a, 0x2c,
  0x1a, 0xaa, 0x00, 0x00, 0xe6, 0xe5, 0xff, 0xff, 0x04, 0x00, 0x00, 0x00,
  0x00, 0x0c, 0x00, 0x00, 0xd4, 0x31, 0x2e, 0xa4, 0xd8, 0xb1, 0x1d, 0x2e,
  0xca, 0x32, 0x83, 0xac, 0xd4, 0x9e, 0x02, 0xaa, 0xc4, 0x32, 0x36, 0xb2,
  0xb1, 0xad, 0x79, 0xad, 0x8c, 0x2e, 0xcf, 0x32, 0x8f, 0xac, 0xe0, 0x24,
  0x60, 0xb0, 0xff, 0x2f, 0x1c, 0xb0, 0xf9, 0xa9, 0x3f, 0x30, 0xb5, 0xb1,
  0xf8, 0x34, 0xdd, 0xb0, 0x28, 0x2c, 0x89, 0xad, 0x35, 0x17, 0xd8, 0x25,
  0x96, 0x2e, 0x2c, 0x24, 0x2d, 0xb0, 0x41, 0x31, 0xf3, 0xaa, 0x34, 0x29,
  0xf6, 0x23, 0x74, 0x20, 0xe6, 0x25, 0xbf, 0xb2, 0xc5, 0x2e, 0x92, 0xb0,
  0x97, 0x2a, 0x9f, 0xb1, 0x35, 0xb0, 0xe7, 0xa0, 0xf3, 0xb1, 0x68, 0x32,
  0x28, 0x30, 0xda, 0x2c, 0xff, 0x30, 0x91, 0xb1, 0x8e, 0x22, 0x24, 0x2a,
  0x61, 0x2e, 0x92, 0xb0, 0xf6, 0x2f, 0xa6, 0x28, 0x75, 0xa5, 0xb5, 0xa7,
  0x4a, 0x1f, 0x70, 0x30, 0xad, 0xad, 0xb5, 0x32, 0xff, 0x2f, 0x5a, 0x31,
  0xbf, 0xa9, 0xd1, 0x24, 0x71, 0xae, 0x07, 0x20, 0x3c, 0xa3, 0x98, 0x31,
  0x99, 0xb1, 0xb8, 0x24, 0x10, 0x30, 0xd9, 0x24, 0xc2, 0x20, 0x3f, 0x31,
  0xf9, 0x2f, 0x0c, 0x1c, 0xc2, 0x2e, 0xdb, 0x2f, 0x2a, 0x2c, 0xa7, 0xab,
  0xf7, 0x25, 0x2d, 0x31, 0x52, 0xae, 0x47, 0xb1, 0xf0, 0x19, 0x27, 0x27,
  0x55, 0x2d, 0x9d, 0x28, 0x19, 0xb0, 0x9f, 0xb2, 0xc0, 0xa5, 0xa6, 0x34,
  0x8b, 0x2e, 0xa0, 0xb1, 0x27, 0x30, 0x3a, 0xb0, 0x6a, 0x31, 0x9e, 0x2f,
  0x91, 0xab, 0x9e, 0x32, 0x09, 0xab, 0xe0, 0x2b, 0x1b, 0xb1, 0xad, 0xa6,
  0x88, 0x2d, 0x8e, 0xb0, 0xe8, 0xa4, 0x84, 0x34, 0x0c, 0x32, 0x93, 0x2f,
  0xa5, 0xb0, 0x97, 0x30, 0x43, 0xb1, 0xb1, 0x23, 0x7f, 0xb2, 0x80, 0x1c,
  0xff, 0xad, 0xb2, 0x2d, 0x1b, 0x81, 0xf7, 0x2e, 0xcd, 0x31, 0x7a, 0x28,
  0xc0, 0x2a, 0x27, 0xae, 0xdd, 0xb1, 0xa6, 0x2c, 0x75, 0x2f, 0xd4, 0x30,
  0xc7, 0x30, 0x85, 0xb1, 0x38, 0x2c, 0x3f, 0x30, 0x36, 0x30, 0xdf, 0x32,
  0xbf, 0xae, 0xe3, 0xac, 0x1e, 0x2a, 0xd0, 0x2c, 0xbe, 0x2b, 0x68, 0x34,
  0x7d, 0xb1, 0x20, 0x31, 0xab, 0x24, 0x38, 0x31, 0x0c, 0x32, 0xbf, 0x2c,
  0x6f, 0x2f, 0x14, 0xad, 0xaf, 0x32, 0x19, 0xa7, 0x4d, 0xb0, 0x98, 0xaf,
  0xf0, 0x30, 0x6d, 0x2c, 0xd0, 0x2d, 0x63, 0x2a, 0x6b, 0x34, 0xe9, 0xaf,
  0x80, 0x33, 0x59, 0xaf, 0xe1, 0xa2, 0x4e, 0xab, 0xf0, 0xae, 0x08, 0xaf,
  0xeb, 0x90, 0x7d, 0xaa, 0x27, 0x31, 0xd2, 0x2f, 0xbd, 0x2a, 0xae, 0xac,
  0x82, 0xac, 0xea, 0xac, 0x54, 0x2b, 0xe0, 0xb0, 0xfc, 0x30, 0x49, 0xae,
  0x97, 0xaf, 0x79, 0xae, 0x80, 0xa8, 0x07, 0x2f, 0xf3, 0xad, 0x51, 0x2f,
  0x5d, 0x2b, 0xb3, 0xa4, 0x39, 0x1e, 0x2b, 0xac, 0x8f, 0x28, 0x37, 0xab,
  0xb8, 0x2f, 0x81, 0x32, 0x86, 0xa8, 0x67, 0x2f, 0x0f, 0x1f, 0xbf, 0xac,
  0xfd, 0xae, 0xd6, 0xab, 0x74, 0xa4, 0x9c, 0x28, 0x0f, 0xb3, 0x49, 0xb0,
  0x10, 0x2f, 0x75, 0x27, 0x19, 0xa4, 0xb8, 0x31, 0xd2, 0xa8, 0xaa, 0xa7,
  0x0d, 0xad, 0x1f, 0x29, 0x60, 0x32, 0x7d, 0x2e, 0x9b, 0x30, 0xc0, 0xaf,
  0xc5, 0xb3, 0xb9, 0x25, 0xa5, 0xac, 0x39, 0xb2, 0x17, 0x2f, 0x17, 0xac,
  0x60, 0x30, 0x1f, 0xb2, 0x95, 0x32, 0x8b, 0x20, 0xf9, 0xa4, 0x11, 0xae,
  0xc1, 0x2e, 0x72, 0x32, 0x4e, 0x2e, 0x77, 0x20, 0xba, 0xab, 0x9f, 0x96,
  0x35, 0xb0, 0x04, 0xb2, 0xf9, 0xab, 0x9c, 0xb1, 0x19, 0xa5, 0x13, 0x2c,
  0x0f, 0x25, 0x68, 0xa0, 0x3b, 0xb4, 0x0b, 0xb0, 0xa2, 0x2c, 0x40, 0xb2,
  0xbd, 0xa7, 0x1b, 0xaf, 0xcf, 0x31, 0xf9, 0x27, 0x30, 0x2b, 0x2c, 0x32,
  0x31, 0x30, 0x09, 0xaa, 0x49, 0xac, 0x18, 0x30, 0xc9, 0xb3, 0xb0, 0x2c,
  0x9e, 0x2c, 0x03, 0xb0, 0x2b, 0x31, 0x45, 0x19, 0xc2, 0xa0, 0x8d, 0xae,
  0xcf, 0xb0, 0xf1, 0x2c, 0x4d, 0xb1, 0x2e, 0x2a, 0x76, 0xb0, 0x09, 0x2c,
  0x28, 0xa8, 0xd1, 0x9d, 0xe4, 0xb0, 0x71, 0xa6, 0x70, 0xb4, 0xed, 0x29,
  0x2f, 0xb0, 0x87, 0x2a, 0xf8, 0xaf, 0xf7, 0xaa, 0x3b, 0xac, 0x63, 0xa6,
  0xeb, 0x9c, 0x93, 0x30, 0x30, 0x2f, 0xa7, 0xa9, 0xc9, 0xaf, 0x2b, 0xb2,
  0xef, 0xaa, 0x87, 0x2a, 0x9b, 0x20, 0x72, 0x9d, 0x5f, 0x2b, 0x6f, 0x05,
  0x08, 0x2c, 0x4d, 0x30, 0xab, 0x32, 0xa4, 0xad, 0x2a, 0xac, 0x3e, 0xac,
  0x09, 0x22, 0xf4, 0x26, 0x1e, 0xb1, 0x12, 0x34, 0x40, 0xb0, 0x5a, 0x9e,
  0xf0, 0xb0, 0x23, 0x26, 0x0e, 0xb1, 0x9f, 0xae, 0x1a, 0x29, 0xb0, 0x35,
  0xba, 0x2e, 0x8b, 0xa9, 0xff, 0xa4, 0x6f, 0x30, 0xce, 0x31, 0x44, 0x32,
  0x3f, 0x32, 0x72, 0x33, 0x3c, 0xb3, 0xd5, 0xa2, 0x23, 0x30, 0x3f, 0xb1,
  0xc9, 0xa5, 0x01, 0x2f, 0x6c, 0xab, 0x8d, 0x34, 0xb7, 0x30, 0x76, 0xa4,
  0x6a, 0x30, 0x3c, 0x24, 0xc2, 0xac, 0x6c, 0xb2, 0x8c, 0x27, 0x1e, 0x34,
  0xff, 0xb1, 0x0e, 0xb0, 0x27, 0x2c, 0x24, 0x31, 0x95, 0x2d, 0x38, 0xac,
  0x4d, 0x32, 0xe9, 0x2e, 0x01, 0x32, 0x67, 0xae, 0x96, 0x30, 0x04, 0xb0,
  0xbb, 0xab, 0x4e, 0x32, 0xb2, 0xa4, 0x6c, 0xad, 0xcc, 0x33, 0xac, 0x24,
  0xf3, 0x2e, 0x99, 0x30, 0x91, 0x27, 0xa8, 0xa4, 0x37, 0xa1, 0x5f, 0xb0,
  0x97, 0xad, 0xc5, 0x29, 0xb4, 0xac, 0xb8, 0x2e, 0x90, 0x32, 0xb3, 0xaa,
  0x02, 0xac, 0x91, 0x9a, 0x72, 0xad, 0xfe, 0xa4, 0x0c, 0x25, 0xd9, 0xb0,
  0x17, 0x2a, 0x7b, 0xb0, 0x7b, 0xaf, 0x83, 0x2d, 0x13, 0xb2, 0xf6, 0xac,
  0xd9, 0x31, 0xe5, 0xad, 0xf5, 0x28, 0x3e, 0x31, 0x7b, 0xa4, 0x8d, 0x20,
  0xe1, 0xac, 0x3d, 0xb0, 0x9a, 0x2a, 0x0f, 0x30, 0xcd, 0xab, 0xee, 0x2c,
  0xe8, 0x33, 0x33, 0x2d, 0xa5, 0x2d, 0xba, 0x2f, 0xd4, 0xb0, 0x99, 0xb0,
  0xc3, 0xb1, 0x42, 0xaf, 0x95, 0xa8, 0xef, 0x2c, 0x91, 0x27, 0x24, 0x30,
  0x63, 0x2d, 0x7b, 0x27, 0xb9, 0xa3, 0x0b, 0x2b, 0xcc, 0x30, 0xd7, 0x27,
  0x57, 0x2f, 0x70, 0xa0, 0x03, 0xb3, 0x3b, 0x2e, 0xc5, 0xae, 0x3e, 0xaa,
  0xa4, 0xb1, 0x46, 0xb1, 0x6b, 0x2d, 0x84, 0xb0, 0xa2, 0xaf, 0xdb, 0xad,
  0xae, 0xa5, 0x44, 0xad, 0x74, 0x33, 0xd8, 0x2f, 0xd3, 0x31, 0x1f, 0x33,
  0xe8, 0xae, 0x6c, 0x21, 0x64, 0x30, 0x85, 0x20, 0xd4, 0xad, 0xaa, 0xb1,
  0x1c, 0x32, 0x6a, 0x30, 0xcc, 0x31, 0x2c, 0x30, 0x47, 0x32, 0xd8, 0xb1,
  0x80, 0x19, 0x7b, 0x30, 0xee, 0xad, 0x09, 0x33, 0x62, 0x2c, 0x44, 0xae,
  0x16, 0x27, 0x5c, 0x2e, 0x88, 0xa3, 0x57, 0x30, 0xc4, 0xa9, 0x1e, 0x32,
  0xc0, 0x33, 0x4f, 0x31, 0xa8, 0xad, 0x99, 0x31, 0x49, 0xac, 0x7b, 0x2b,
  0xdb, 0xa1, 0xbb, 0xac, 0xbf, 0xae, 0x13, 0x2d, 0xae, 0xaf, 0x53, 0xaf,
  0xc2, 0xb0, 0xdc, 0x30, 0x1f, 0xb1, 0x0e, 0x2e, 0xc3, 0xae, 0xe0, 0xb1,
  0x04, 0x26, 0xf8, 0xa4, 0x21, 0x31, 0xa7, 0x30, 0xba, 0xa4, 0xd2, 0x33,
  0x96, 0x10, 0xdd, 0x29, 0x17, 0x31, 0xb9, 0xb0, 0xc7, 0x17, 0x6f, 0x28,
  0xd8, 0x2a, 0xe8, 0xa8, 0xc1, 0xaf, 0x1f, 0x30, 0x32, 0xb2, 0x56, 0x2e,
  0x5d, 0x2d, 0x64, 0xad, 0x20, 0x30, 0x1c, 0xaf, 0x3a, 0xaa, 0x0b, 0xb1,
  0x6e, 0x2f, 0xae, 0xb1, 0xf7, 0xb2, 0x36, 0xa1, 0x4c, 0x32, 0x4f, 0x30,
  0x57, 0x31, 0x6f, 0xb2, 0x51, 0xaa, 0xce, 0x2b, 0xe2, 0x2c, 0xdb, 0xb1,
  0x13, 0x2c, 0x69, 0x30, 0x32, 0xab, 0x6b, 0x2c, 0x9c, 0x29, 0xfc, 0xac,
  0x69, 0x30, 0xf5, 0xb1, 0xd6, 0xb1, 0xd6, 0xb0, 0x61, 0xb0, 0xad, 0x30,
  0x3f, 0xaf, 0x98, 0x31, 0x1b, 0x2f, 0xc3, 0x2a, 0xd5, 0x2e, 0x0b, 0xae,
  0x83, 0x31, 0xbb, 0xae, 0xce, 0x2f, 0xfa, 0x2d, 0xba, 0x2f, 0x53, 0x27,
  0x55, 0xb1, 0x76, 0xb1, 0x18, 0x27, 0x33, 0x30, 0x8f, 0x30, 0xfd, 0xaa,
  0xb9, 0x2c, 0x3a, 0xad, 0xd9, 0xaf, 0xca, 0x32, 0x0a, 0x9f, 0x31, 0xad,
  0xcf, 0xab, 0x43, 0xa9, 0x0d, 0x29, 0x3a, 0xa9, 0xb5, 0x9c, 0x14, 0xb1,
  0x5d, 0x2c, 0x2d, 0x31, 0x00, 0xb0, 0xfe, 0xaf, 0x5a, 0x2c, 0x51, 0x33,
  0xbc, 0xa4, 0x35, 0x34, 0x4c, 0x30, 0x3a, 0x2d, 0x15, 0x31, 0x63, 0x2d,
  0xeb, 0x2d, 0xee, 0x30, 0xc9, 0x2d, 0xa9, 0x2f, 0xaa, 0x31, 0xdc, 0xb1,
  0xcb, 0x2b, 0x68, 0x2e, 0x5d, 0xac, 0xa1, 0x30, 0xc3, 0x2e, 0x69, 0xa8,
  0xb3, 0x31, 0x62, 0x2c, 0xa3, 0x31, 0x89, 0xac, 0x83, 0x31, 0x7f, 0x34,
  0x87, 0xae, 0x34, 0x29, 0x20, 0x2c, 0x1c, 0x2a, 0xc5, 0x31, 0xa1, 0x2d,
  0xea, 0xb0, 0x6e, 0x30, 0xe9, 0x32, 0xbc, 0xad, 0x5a, 0x2c, 0x7b, 0x27,
  0x33, 0x32, 0x81, 0x2b, 0xd0, 0x29, 0x3c, 0x30, 0x45, 0xb2, 0xb1, 0x2f,
  0x5a, 0x2e, 0x72, 0xb0, 0xed, 0xb1, 0x16, 0xac, 0xc5, 0xb1, 0x2a, 0x34,
  0xd9, 0x98, 0xd4, 0x28, 0x94, 0x2c, 0x6a, 0x2f, 0x0f, 0xb0, 0xc2, 0xa9,
  0x08, 0x2e, 0x24, 0xb0, 0xce, 0xaf, 0x36, 0xb1, 0xb2, 0xb2, 0x1c, 0xac,
  0x79, 0xad, 0xdf, 0x2c, 0x18, 0xad, 0x9b, 0x28, 0xab, 0xb1, 0x7f, 0x34,
  0x68, 0x2e, 0x84, 0x30, 0xf3, 0x31, 0x72, 0x30, 0x03, 0x32, 0x72, 0x24,
  0x73, 0xb2, 0x15, 0x30, 0x1f, 0xb1, 0x98, 0x25, 0xca, 0x29, 0x25, 0xa1,
  0x57, 0xab, 0xd1, 0xb0, 0xb7, 0xb3, 0x68, 0x2a, 0x74, 0x32, 0xf5, 0xa3,
  0x63, 0x31, 0xb1, 0xb0, 0xff, 0xa5, 0x80, 0xae, 0x4b, 0x26, 0x33, 0x32,
  0x93, 0x31, 0xf1, 0x2c, 0x1d, 0xae, 0xcd, 0x2f, 0x6c, 0xa6, 0x4f, 0xad,
  0xe8, 0xad, 0x89, 0xb2, 0xad, 0x33, 0x17, 0xa8, 0x8b, 0xb0, 0xa3, 0x2f,
  0xfb, 0xac, 0x9d, 0xae, 0x93, 0x2f, 0xb8, 0x32, 0x04, 0xab, 0x4e, 0xb0,
  0x1c, 0x33, 0x90, 0xb0, 0x32, 0x2c, 0xb1, 0x30, 0x3e, 0xad, 0x53, 0xae,
  0x71, 0x32, 0xe1, 0xb0, 0xd3, 0x8e, 0x93, 0x2f, 0x94, 0x31, 0x20, 0x21,
  0xee, 0x28, 0x26, 0xad, 0x72, 0xb2, 0x02, 0xad, 0xb2, 0xaf, 0xe5, 0xaa,
  0x14, 0x28, 0x68, 0x30, 0x42, 0x12, 0x61, 0xa2, 0x29, 0xae, 0xfd, 0x31,
  0xbe, 0xac, 0x82, 0x2f, 0xfd, 0x32, 0x68, 0x30, 0xc5, 0x30, 0xc3, 0x28,
  0xb1, 0xb0, 0x9a, 0x30, 0x53, 0x2f, 0x7e, 0xae, 0xa8, 0x14, 0x74, 0xa4,
  0xcf, 0x32, 0x46, 0x2d, 0x0c, 0x2d, 0x60, 0x1c, 0x53, 0x30, 0xce, 0xaf,
  0x1c, 0xa4, 0xac, 0x2a, 0x41, 0x2c, 0xdd, 0x2a, 0xc0, 0xb0, 0x43, 0xa7,
  0x8c, 0xa8, 0xa6, 0x18, 0x13, 0x31, 0x81, 0xb0, 0x41, 0xac, 0x6b, 0xb4,
  0xe3, 0xaf, 0x69, 0x30, 0xa2, 0xb0, 0x5e, 0xaf, 0x54, 0x32, 0xb2, 0x2e,
  0x7e, 0xb0, 0xc5, 0xa7, 0x64, 0xb1, 0xc2, 0xa9, 0x10, 0xb0, 0x92, 0x30,
  0xd0, 0xac, 0x0e, 0xad, 0x1c, 0x2c, 0xb2, 0xa8, 0x9b, 0x25, 0xa9, 0x32,
  0x72, 0xae, 0x8d, 0x30, 0x5c, 0xa7, 0x4a, 0x29, 0x61, 0x33, 0x76, 0x30,
  0x7f, 0x2e, 0xe9, 0x1f, 0x42, 0x32, 0x27, 0xaf, 0x1b, 0x2c, 0x54, 0xad,
  0x0c, 0xb0, 0x46, 0xaa, 0xc8, 0x2c, 0xf4, 0xa4, 0x26, 0x20, 0x81, 0xb0,
  0x96, 0xb0, 0xca, 0xa8, 0x34, 0xac, 0x51, 0x31, 0x9b, 0xad, 0x8d, 0x30,
  0x19, 0x31, 0x30, 0xae, 0xeb, 0xac, 0xda, 0xb4, 0x9b, 0xb2, 0x5b, 0x2b,
  0xaa, 0x31, 0x66, 0x2d, 0x07, 0x32, 0x0b, 0xb1, 0x19, 0xb3, 0xbb, 0x2a,
  0x4f, 0x20, 0xa0, 0xb0, 0x06, 0x24, 0x18, 0xb1, 0xcc, 0xab, 0xb2, 0x31,
  0x9a, 0x32, 0x04, 0x34, 0x6a, 0x32, 0x1f, 0x31, 0x7a, 0xa4, 0x08, 0x33,
  0x2f, 0x9c, 0x8c, 0x22, 0x4b, 0x31, 0xdd, 0x25, 0x74, 0x31, 0xa0, 0xb0,
  0xea, 0xb0, 0x6c, 0x9a, 0x55, 0xb1, 0x49, 0xaf, 0x9e, 0x32, 0x9f, 0x31,
  0x4c, 0x31, 0x30, 0xaf, 0xc8, 0xb2, 0x24, 0x32, 0x96, 0x2e, 0xf8, 0xae,
  0x30, 0xb2, 0xd4, 0xac, 0x69, 0xac, 0xb0, 0x31, 0x8f, 0xad, 0x80, 0xb1,
  0x1c, 0x28, 0x23, 0x2a, 0xb7, 0x21, 0x55, 0x33, 0x08, 0x2e, 0x00, 0x24,
  0xcc, 0xae, 0x7d, 0xac, 0x3e, 0xac, 0xf6, 0x2c, 0x07, 0xac, 0x95, 0x32,
  0x60, 0x9d, 0x78, 0x31, 0x9a, 0x20, 0x73, 0x31, 0xb7, 0xb0, 0x33, 0x31,
  0x7d, 0xb1, 0x5a, 0xaf, 0x38, 0xa4, 0xa4, 0x30, 0x7b, 0xaf, 0x17, 0xb0,
  0x8a, 0xa9, 0x1b, 0xad, 0x5a, 0xa5, 0x68, 0x23, 0xef, 0x27, 0xc3, 0xad,
  0x78, 0x30, 0x98, 0xb0, 0x0e, 0xa9, 0x63, 0x2c, 0x20, 0xae, 0xdb, 0xa7,
  0x9b, 0x28, 0x4d, 0x34, 0xce, 0xaa, 0x89, 0xb0, 0x01, 0xaf, 0xa3, 0xb1,
  0xd5, 0x30, 0x71, 0x31, 0xcb, 0xb0, 0x31, 0x29, 0x80, 0x33, 0xcf, 0xa9,
  0x23, 0x2e, 0x02, 0xb0, 0x40, 0xae, 0xff, 0x31, 0x39, 0x2c, 0xd5, 0x34,
  0xb7, 0x32, 0x0b, 0xad, 0x3e, 0x30, 0xcc, 0x30, 0xd4, 0x1c, 0xe6, 0x9e,
  0xd2, 0x30, 0xf7, 0x30, 0xa8, 0xad, 0x53, 0x26, 0x34, 0xac, 0x5d, 0xae,
  0x80, 0x2e, 0x05, 0xae, 0x51, 0x31, 0xa0, 0xab, 0xa2, 0x1b, 0x17, 0x17,
  0x7a, 0x27, 0xbb, 0xa9, 0x8e, 0x27, 0xa2, 0xb1, 0x80, 0x30, 0xf1, 0x2e,
  0x7f, 0xb0, 0x26, 0xb2, 0x39, 0xad, 0x92, 0x23, 0x3c, 0xb1, 0x1a, 0x35,
  0x02, 0xad, 0x05, 0x31, 0x29, 0x29, 0xa7, 0x30, 0x5f, 0xae, 0x66, 0x2f,
  0xe8, 0xa5, 0xe4, 0x30, 0x34, 0xb0, 0x39, 0x32, 0x40, 0xb2, 0x71, 0x2f,
  0x7d, 0x32, 0xc5, 0x2c, 0x84, 0x24, 0xe0, 0x30, 0x0e, 0x31, 0xdb, 0x31,
  0x6c, 0x27, 0xcc, 0xab, 0x01, 0x31, 0xa2, 0x2b, 0xf8, 0x29, 0x60, 0xb0,
  0x61, 0x30, 0x43, 0xb0, 0xc2, 0x33, 0x89, 0x2f, 0x01, 0xa9, 0x69, 0xb1,
  0xf5, 0x33, 0x6e, 0xb0, 0x16, 0xb3, 0x5c, 0x2d, 0x05, 0x2c, 0xc5, 0xae,
  0xa3, 0xa5, 0x41, 0xad, 0x60, 0xb0, 0x8f, 0x34, 0x25, 0x34, 0x84, 0x2e,
  0x1e, 0x2f, 0x9d, 0x1e, 0x59, 0xb0, 0xfd, 0x2a, 0xf6, 0x2a, 0xad, 0xaf,
  0xee, 0x2f, 0xe4, 0x30, 0xa7, 0x2c, 0x65, 0x2e, 0x65, 0xa9, 0x63, 0x2f,
  0xe4, 0xad, 0x07, 0xad, 0x6f, 0x32, 0x42, 0x20, 0x6b, 0xb1, 0x39, 0x2d,
  0xe2, 0x1c, 0xed, 0xaa, 0x21, 0x26, 0x29, 0xb1, 0x7d, 0x30, 0xd6, 0x31,
  0x8a, 0x31, 0xa7, 0xaf, 0xf8, 0x2e, 0x25, 0x2f, 0x45, 0x29, 0x52, 0x34,
  0xd8, 0xa8, 0xa5, 0x28, 0xf6, 0x2b, 0x81, 0x28, 0x6d, 0xb1, 0x42, 0x2f,
  0x7a, 0x31, 0x1e, 0x27, 0x29, 0x30, 0xbd, 0x30, 0x63, 0x24, 0x1e, 0x2d,
  0x01, 0xa0, 0xaf, 0xa1, 0x57, 0xa2, 0xb1, 0xae, 0x91, 0x2e, 0x4b, 0x32,
  0x0c, 0x2b, 0x14, 0x19, 0x52, 0x32, 0xfc, 0x31, 0x0b, 0x30, 0x9b, 0x2c,
  0x2d, 0xab, 0xdb, 0x34, 0x03, 0xad, 0x9c, 0x2a, 0x33, 0x2f, 0x1f, 0xb2,
  0x06, 0x30, 0x0f, 0x33, 0x9e, 0x31, 0x0d, 0xa7, 0x18, 0xb0, 0x21, 0x28,
  0x97, 0x32, 0xbf, 0xa8, 0x38, 0xaf, 0xcd, 0x33, 0x35, 0x30, 0x27, 0x2f,
  0xa1, 0x24, 0x1c, 0xa8, 0x36, 0x31, 0x50, 0x25, 0x10, 0x20, 0x9e, 0xad,
  0x4d, 0xa4, 0xbb, 0x2e, 0x6c, 0x33, 0xe6, 0x2d, 0xde, 0x30, 0xed, 0x25,
  0x40, 0xb0, 0x47, 0xa7, 0x0d, 0xa5, 0x25, 0x30, 0x96, 0x31, 0x40, 0xb2,
  0x45, 0xae, 0xed, 0xae, 0x9d, 0x32, 0x54, 0xa6, 0x64, 0x2b, 0xcb, 0xa7,
  0x9b, 0x30, 0x72, 0xac, 0x2f, 0x25, 0xa7, 0x9a, 0xe8, 0xb1, 0xb2, 0x2c,
  0x26, 0x26, 0x51, 0x2e, 0xcc, 0x2c, 0x1d, 0xb3, 0x44, 0xaa, 0x13, 0x2f,
  0x98, 0xac, 0x3b, 0x9b, 0x71, 0x2c, 0xb8, 0xa9, 0xa4, 0x32, 0xbb, 0x2f,
  0x68, 0xa9, 0x4b, 0xb0, 0x40, 0x22, 0xf5, 0x30, 0x2c, 0xa8, 0xda, 0xae,
  0x55, 0xaf, 0x10, 0x2f, 0x17, 0xac, 0xaa, 0xac, 0x4f, 0xb1, 0x99, 0xa6,
  0xaf, 0x31, 0x78, 0xb0, 0x80, 0xaa, 0xa4, 0x27, 0x57, 0xaf, 0x95, 0xaf,
  0x9b, 0x31, 0xc1, 0x2e, 0x27, 0x32, 0xa2, 0x2f, 0x76, 0x2a, 0x41, 0xb0,
  0xd8, 0x2a, 0xe3, 0x2e, 0xb5, 0xa2, 0x43, 0xad, 0xb9, 0xb2, 0x9d, 0x24,
  0x71, 0x32, 0x38, 0x2b, 0xb9, 0xa8, 0x5e, 0xb0, 0x0f, 0x90, 0x03, 0x34,
  0x88, 0x2e, 0xd2, 0x2e, 0x4a, 0xab, 0x14, 0x2f, 0xf1, 0x2c, 0xcb, 0xa2,
  0xfa, 0xa7, 0x24, 0x21, 0x05, 0x31, 0xd5, 0x2d, 0x39, 0xb2, 0xe8, 0xb1,
  0xdb, 0xb0, 0x6e, 0x2f, 0x7e, 0xa6, 0x84, 0x2d, 0x30, 0xa0, 0x00, 0x2c,
  0x86, 0x32, 0x3a, 0xa8, 0x95, 0x28, 0x29, 0xa8, 0x40, 0xaa, 0x07, 0x30,
  0xd5, 0xb2, 0x9e, 0xa5, 0x04, 0x2b, 0x1d, 0x2e, 0x3d, 0x9e, 0x47, 0xb1,
  0x3b, 0x2c, 0x46, 0xac, 0x80, 0xb0, 0x1e, 0xb1, 0xd9, 0xaa, 0x85, 0x2d,
  0x9d, 0xa9, 0x33, 0x2f, 0xdb, 0x30, 0x3f, 0xb1, 0xee, 0xa8, 0x4d, 0xb1,
  0x5f, 0xb1, 0x41, 0xae, 0xfa, 0x2e, 0x51, 0xb0, 0x41, 0xb1, 0x03, 0xb2,
  0xb9, 0x2a, 0x47, 0xae, 0x1e, 0xa6, 0xf2, 0x9c, 0xde, 0x21, 0xbc, 0x27,
  0x1d, 0xb3, 0x48, 0x29, 0x0c, 0xa9, 0xe0, 0xaf, 0xc8, 0x31, 0x39, 0xae,
  0x38, 0x26, 0x1c, 0xb2, 0x0f, 0xb1, 0xa2, 0x2b, 0x80, 0x2f, 0x3b, 0xad,
  0x22, 0xb1, 0x37, 0xaf, 0xe6, 0xa1, 0x09, 0x2d, 0xf5, 0xab, 0xab, 0xb2,
  0x28, 0xa8, 0x9b, 0xb0, 0x8a, 0xb1, 0x17, 0xa8, 0x26, 0x2c, 0xb4, 0xac,
  0x78, 0x2b, 0x4b, 0xab, 0x6b, 0xa0, 0xb5, 0xb4, 0xce, 0x30, 0xa9, 0x2c,
  0x8f, 0x29, 0x6e, 0x30, 0xc1, 0x2c, 0xfd, 0x1e, 0x7a, 0x2e, 0x98, 0x1d,
  0x5c, 0xb2, 0x30, 0xaa, 0xbe, 0xaf, 0x42, 0x28, 0x05, 0xaa, 0xe2, 0xb1,
  0x51, 0xa6, 0xa4, 0xae, 0x31, 0x1b, 0x9d, 0x9a, 0xe6, 0x31, 0xa0, 0xaa,
  0x37, 0xb2, 0x19, 0xae, 0xc4, 0xaf, 0x8c, 0xb0, 0x1d, 0x2d, 0x60, 0xac,
  0x04, 0x32, 0x0e, 0xae, 0xb4, 0x26, 0x7c, 0xab, 0xa6, 0xa8, 0x74, 0x2b,
  0x26, 0x2d, 0xa1, 0x32, 0xb6, 0xb0, 0x6e, 0x30, 0xe4, 0xb1, 0x57, 0x32,
  0x42, 0xab, 0x80, 0xb1, 0xa2, 0x31, 0xa6, 0xa9, 0x85, 0x1d, 0x50, 0x2f,
  0x0f, 0x9d, 0xbe, 0xaf, 0x2f, 0x22, 0xc9, 0x2c, 0x0e, 0xa8, 0x85, 0xa9,
  0x3a, 0xa8, 0xfa, 0xa8, 0x4c, 0xa7, 0x0f, 0xb0, 0x0f, 0xac, 0x51, 0x2e,
  0x65, 0xb0, 0xfa, 0xb0, 0xbf, 0xb2, 0x0a, 0x21, 0x5c, 0x30, 0x48, 0x27,
  0x57, 0x30, 0x8d, 0x32, 0xd6, 0x2b, 0xc0, 0x30, 0x05, 0x2a, 0x02, 0x29,
  0xe2, 0x2b, 0x6e, 0xad, 0x61, 0x31, 0xf7, 0xb2, 0xd6, 0x33, 0x63, 0x30,
  0x6c, 0x29, 0x57, 0x30, 0xce, 0x29, 0x6c, 0x32, 0x17, 0x33, 0x77, 0x33,
  0xd9, 0xad, 0xf4, 0x2a, 0xd9, 0xad, 0x50, 0xb0, 0xc8, 0xb0, 0x36, 0x30,
  0x18, 0xb0, 0x8c, 0x30, 0x92, 0x30, 0x4e, 0xb1, 0x71, 0x28, 0xf4, 0x2d,
  0xb5, 0xaf, 0x2f, 0x2e, 0x80, 0xb3, 0xa4, 0x24, 0x02, 0xb0, 0xf8, 0xb1,
  0x9c, 0x2e, 0x50, 0x30, 0x27, 0x29, 0x9d, 0xb2, 0xeb, 0xb1, 0x96, 0x2f,
  0x75, 0x24, 0x67, 0x30, 0x17, 0xa6, 0x58, 0x2f, 0xce, 0xac, 0xa1, 0xb3,
  0x34, 0x27, 0x4b, 0x2b, 0x72, 0xaf, 0x18, 0x24, 0xe4, 0xb1, 0x7c, 0xb1,
  0xef, 0x31, 0x52, 0x26, 0xe1, 0x2d, 0x42, 0x31, 0x76, 0xb0, 0x18, 0xa9,
  0x4a, 0xaf, 0x79, 0xad, 0x4f, 0x26, 0x32, 0xa7, 0x7b, 0xb2, 0x59, 0xa2,
  0x32, 0xb2, 0x12, 0xb4, 0xe6, 0xad, 0xa3, 0xab, 0xbb, 0x31, 0x91, 0xb5,
  0x61, 0x2e, 0xe5, 0xad, 0x7a, 0xad, 0x32, 0x30, 0x57, 0xac, 0x82, 0xac,
  0x49, 0x29, 0xb7, 0x32, 0x70, 0xaa, 0x5e, 0x2c, 0x9e, 0xb2, 0xb4, 0xaf,
  0xe7, 0xaf, 0x7f, 0x29, 0x13, 0xac, 0x2c, 0x32, 0x31, 0xb1, 0xbf, 0x2b,
  0x2b, 0x2b, 0xf3, 0x2f, 0xa2, 0xa5, 0xfc, 0xaf, 0x7b, 0x29, 0x5f, 0x2d,
  0x85, 0x31, 0x9d, 0xad, 0x8c, 0x0e, 0x62, 0x2f, 0xf7, 0x2c, 0xe5, 0x32,
  0x12, 0x22, 0x15, 0x24, 0x88, 0xb1, 0x94, 0x2c, 0xa9, 0x2e, 0xd2, 0xaf,
  0x15, 0xad, 0xec, 0x25, 0xe7, 0xad, 0xd0, 0x2b, 0x6c, 0x31, 0xe9, 0x33,
  0x0c, 0x31, 0xcd, 0x32, 0x63, 0x30, 0x69, 0xaa, 0xdc, 0xad, 0x2c, 0x32,
  0x87, 0x1e, 0xad, 0xa9, 0x5a, 0xaf, 0xd8, 0x25, 0x55, 0xad, 0x22, 0xac,
  0x4f, 0x2d, 0x37, 0xaf, 0x13, 0x31, 0x67, 0xb2, 0xd4, 0x31, 0x15, 0xac,
  0x71, 0xad, 0x14, 0xa5, 0x3c, 0x2d, 0x47, 0x2f, 0xef, 0x31, 0x19, 0x33,
  0x0d, 0xb0, 0x02, 0x23, 0xe4, 0xb1, 0x33, 0x2d, 0x15, 0x2a, 0x4d, 0xb0,
  0x77, 0xad, 0xa3, 0xb2, 0xb0, 0xa0, 0x44, 0xb0, 0x31, 0xb0, 0x1f, 0xaa,
  0x9a, 0xb0, 0xc9, 0xaa, 0x02, 0xb0, 0x27, 0x2b, 0x1c, 0x2b, 0x0e, 0x31,
  0xe9, 0xa5, 0xc2, 0xaf, 0x02, 0x31, 0x7a, 0xb0, 0x84, 0x34, 0x6a, 0xb3,
  0xae, 0x2e, 0x23, 0xad, 0x5a, 0x2f, 0x59, 0xa6, 0x33, 0x22, 0x0f, 0x33,
  0x5d, 0xa8, 0x98, 0x2b, 0x1a, 0xb3, 0x0c, 0x30, 0xfd, 0xaf, 0x61, 0x2d,
  0xb6, 0xb0, 0xe8, 0xad, 0xb0, 0xa0, 0xb7, 0xa5, 0x98, 0xb1, 0x0f, 0x25,
  0xab, 0x98, 0x92, 0x2d, 0x08, 0x2c, 0x63, 0x2a, 0xdf, 0xac, 0xae, 0x22,
  0xd9, 0x2a, 0x3c, 0x25, 0xd6, 0xab, 0x47, 0xac, 0x88, 0x27, 0xd7, 0xb0,
  0x47, 0xae, 0x50, 0x28, 0xfe, 0x24, 0x3c, 0xa2, 0x60, 0xac, 0x50, 0xb2,
  0x50, 0xb0, 0xd5, 0x2e, 0x03, 0xaa, 0x62, 0x31, 0x1f, 0xb0, 0xc6, 0x2e,
  0x02, 0x29, 0xc6, 0x2b, 0x4c, 0x2c, 0xaf, 0xad, 0x24, 0x31, 0x98, 0x2c,
  0xe1, 0x2e, 0x04, 0x34, 0x1c, 0x9d, 0xc0, 0xb2, 0x1f, 0x2d, 0xdd, 0xa6,
  0x55, 0xac, 0x7b, 0x31, 0xcf, 0x2c, 0x54, 0x32, 0x11, 0x32, 0xcf, 0xb0,
  0xcb, 0xa6, 0x4a, 0xb1, 0x9f, 0x26, 0xe5, 0x31, 0x72, 0x33, 0x57, 0xaa,
  0x36, 0xb1, 0x6a, 0xb0, 0x7e, 0x24, 0x09, 0x34, 0x65, 0xa8, 0x32, 0x30,
  0x93, 0x33, 0x27, 0x31, 0xe4, 0xa2, 0x12, 0xae, 0x6c, 0xa8, 0x98, 0x27,
  0x11, 0xb3, 0x97, 0xa8, 0x0e, 0x33, 0x72, 0x96, 0x38, 0x29, 0x51, 0x30,
  0x0f, 0x26, 0xc3, 0x33, 0x65, 0x2f, 0xf4, 0x2b, 0xee, 0x30, 0x62, 0x30,
  0x47, 0xa9, 0x17, 0xb2, 0x8d, 0x29, 0x1d, 0xa6, 0xe2, 0xab, 0x9d, 0xa4,
  0x18, 0x27, 0x44, 0xb0, 0xc7, 0x2d, 0xee, 0x28, 0x26, 0xb3, 0xe5, 0x9c,
  0xdb, 0x31, 0x9d, 0xb2, 0x6a, 0xb0, 0xd2, 0x2f, 0xd0, 0x2c, 0x5b, 0xb0,
  0xa3, 0x28, 0xeb, 0x9c, 0x48, 0x2b, 0x0f, 0x2b, 0x65, 0xb1, 0x79, 0x30,
  0xfb, 0x84, 0x3b, 0xad, 0x03, 0x2e, 0xdd, 0xa8, 0x3e, 0x25, 0xa9, 0xb1,
  0xaf, 0xb1, 0x89, 0x30, 0x31, 0xa8, 0x69, 0x2e, 0xd7, 0x2f, 0xfc, 0x29,
  0xd4, 0xb1, 0x22, 0xb1, 0x95, 0x9c, 0xbf, 0x2f, 0x9a, 0x30, 0x44, 0x2d,
  0x49, 0x31, 0xad, 0xb1, 0x78, 0x31, 0xff, 0xac, 0x94, 0xab, 0xa6, 0x2f,
  0xc8, 0xae, 0x6d, 0xad, 0x59, 0x99, 0xbd, 0x32, 0x73, 0xa9, 0x48, 0xac,
  0x22, 0xaa, 0x50, 0x30, 0x80, 0x2f, 0x12, 0xb2, 0x6b, 0x30, 0xcd, 0xb0,
  0x7b, 0x2b, 0x91, 0x27, 0xf2, 0xf1, 0xff, 0xff, 0x04, 0x00, 0x00, 0x00,
  0x80, 0x0a, 0x00, 0x00, 0x7f, 0x2a, 0x89, 0x2e, 0x57, 0x2e, 0xf3, 0x2f,
  0xc7, 0x32, 0xd7, 0x27, 0xea, 0xa9, 0x4b, 0x25, 0xf0, 0x28, 0xc0, 0x2d,
  0xc5, 0xac, 0xd8, 0xac, 0xd7, 0xb1, 0x74, 0xb2, 0x28, 0xab, 0x45, 0xa9,
  0xf0, 0xa7, 0xe5, 0x28, 0xa7, 0xb1, 0x04, 0xaf, 0x48, 0xb0, 0x43, 0x28,
  0xf0, 0xad, 0xc9, 0xae, 0x81, 0x21, 0x52, 0x2f, 0x89, 0xaf, 0x7d, 0xa8,
  0xd8, 0x2f, 0x0d, 0x2e, 0xe3, 0x21, 0xea, 0xac, 0xc3, 0x9f, 0x05, 0xb0,
  0x19, 0xae, 0x7c, 0xac, 0x92, 0x2a, 0xcc, 0xb2, 0x3b, 0x31, 0xa8, 0x30,
  0x83, 0x2d, 0x78, 0xaf, 0xad, 0x2d, 0x0b, 0x31, 0x72, 0xb0, 0x33, 0xb1,
  0x3b, 0xb4, 0x3e, 0x2f, 0x42, 0xac, 0x44, 0xad, 0x96, 0xab, 0xc8, 0xab,
  0xdd, 0xaa, 0x2e, 0xb0, 0x07, 0xa7, 0x03, 0x2e, 0x83, 0x27, 0x0e, 0x28,
  0xbf, 0xa2, 0x7b, 0x31, 0x9a, 0xaa, 0x79, 0xaa, 0x4d, 0x2b, 0x5f, 0xa0,
  0x77, 0xa7, 0xc1, 0x24, 0x7c, 0x29, 0x09, 0x2e, 0xeb, 0x31, 0x35, 0xb0,
  0x6a, 0x2c, 0x36, 0x2b, 0xd3, 0x2f, 0xd4, 0xad, 0x9c, 0xa2, 0x2a, 0x30,
  0x74, 0xac, 0xf2, 0x29, 0x42, 0xb3, 0x0f, 0x30, 0x03, 0xb2, 0x0f, 0x9d,
  0x87, 0x2f, 0xcb, 0xa9, 0x75, 0xae, 0x8c, 0x2c, 0x51, 0x28, 0x68, 0x2f,
  0x3d, 0x2d, 0x23, 0xac, 0xab, 0x29, 0xd1, 0x25, 0x82, 0x2b, 0x8c, 0xa5,
  0x18, 0x25, 0xda, 0xb0, 0x76, 0xab, 0xa0, 0x23, 0x2b, 0xa7, 0x35, 0x31,
  0xad, 0xae, 0x30, 0xad, 0x92, 0xb0, 0x5c, 0x30, 0x3d, 0x30, 0x67, 0xae,
  0xc1, 0x2d, 0x48, 0xab, 0xde, 0xa5, 0x44, 0x2d, 0x6c, 0x1c, 0xce, 0x2a,
  0xc8, 0x2f, 0xad, 0xab, 0x1d, 0xac, 0xee, 0x30, 0x2d, 0x2f, 0xdb, 0x30,
  0x19, 0x2a, 0xf4, 0x2c, 0x3b, 0x2e, 0x7d, 0x21, 0x4c, 0x2c, 0x17, 0xae,
  0x0b, 0x2b, 0x5f, 0x25, 0x0c, 0x2e, 0xc0, 0xaf, 0x24, 0x30, 0x34, 0x29,
  0x56, 0xb0, 0xc4, 0x31, 0x67, 0x2a, 0x56, 0xa4, 0x1c, 0xa8, 0x30, 0x2c,
  0x83, 0x2c, 0xe2, 0x2e, 0x2e, 0x2e, 0xba, 0xb0, 0xb7, 0xb1, 0x88, 0xa4,
  0x1c, 0xb2, 0x3f, 0x24, 0xf0, 0xa4, 0xcf, 0x2f, 0x26, 0xb1, 0x72, 0x31,
  0x56, 0xb0, 0x99, 0x2b, 0x33, 0xac, 0xf3, 0xaa, 0xe1, 0xa7, 0x0f, 0x24,
  0xe8, 0x30, 0x34, 0xab, 0x9f, 0xab, 0x35, 0x2d, 0x2b, 0x2a, 0x4f, 0xae,
  0x40, 0xa8, 0x9f, 0x30, 0xaf, 0x2a, 0x97, 0x32, 0xac, 0x2d, 0xe0, 0xae,
  0x8c, 0xb1, 0x05, 0x29, 0x8b, 0x9c, 0xb8, 0xb0, 0xa7, 0x2f, 0x3f, 0x2c,
  0xc6, 0xac, 0x35, 0x32, 0xcd, 0xb0, 0x09, 0x33, 0x42, 0x11, 0x82, 0x2a,
  0xfd, 0xb0, 0x61, 0x2d, 0x24, 0x2d, 0x2c, 0x30, 0xbc, 0x2f, 0x07, 0xa9,
  0xe5, 0x30, 0x7f, 0x9d, 0x38, 0xa7, 0xa4, 0xb0, 0x36, 0x31, 0x16, 0x2b,
  0x65, 0x2e, 0x37, 0x2d, 0x9b, 0xaf, 0x3d, 0xa9, 0xac, 0xaf, 0xe3, 0x2b,
  0x8a, 0x30, 0xe7, 0x33, 0xff, 0xa8, 0x40, 0x2d, 0x0d, 0xb0, 0x7c, 0x29,
  0x33, 0x2c, 0xd7, 0xa8, 0x65, 0x27, 0xf1, 0x29, 0x2f, 0x25, 0x7c, 0x2c,
  0xd0, 0x30, 0x65, 0xa9, 0xfc, 0x2d, 0xf2, 0x2e, 0x51, 0xac, 0x77, 0x2d,
  0x14, 0xb1, 0xad, 0xaa, 0x0f, 0x2d, 0x5e, 0xa9, 0x52, 0xb0, 0x8a, 0x30,
  0xe4, 0x27, 0xa3, 0x20, 0xcc, 0x28, 0x20, 0x23, 0xae, 0x2e, 0x87, 0x30,
  0x77, 0xaf, 0x89, 0xae, 0x19, 0x23, 0x13, 0x9e, 0x4a, 0xaf, 0xe2, 0x30,
  0x6f, 0x85, 0x2b, 0xa9, 0xd7, 0xa2, 0xde, 0x28, 0x80, 0xaf, 0x57, 0xaf,
  0x6e, 0x2f, 0x25, 0xaf, 0x68, 0x25, 0x14, 0xb1, 0xab, 0xb0, 0xcf, 0x2f,
  0x1d, 0x2d, 0x32, 0xaf, 0x03, 0x30, 0x12, 0xa4, 0x9e, 0x2e, 0x21, 0xa8,
  0x9a, 0xaf, 0xf1, 0xad, 0xa8, 0xac, 0xc8, 0x30, 0x0c, 0xb1, 0x95, 0xad,
  0x97, 0xae, 0x00, 0x31, 0x11, 0x2d, 0x72, 0xa9, 0xcb, 0x30, 0x84, 0x2e,
  0x42, 0x2f, 0xc7, 0xb1, 0x02, 0x2d, 0x35, 0x1f, 0x12, 0xb0, 0xcc, 0xa7,
  0x5c, 0xb0, 0xe5, 0xa2, 0x28, 0xb0, 0xf1, 0xa9, 0xf4, 0x2c, 0xd8, 0xb1,
  0x85, 0x2d, 0x42, 0xa5, 0x41, 0x31, 0x67, 0xa5, 0xaa, 0xb1, 0xf3, 0x2e,
  0x37, 0x2a, 0xa0, 0x29, 0xc7, 0x31, 0xb3, 0x1c, 0x48, 0x2e, 0xae, 0x2a,
  0xfa, 0x29, 0x2a, 0x2f, 0x9a, 0x21, 0x9c, 0x31, 0x3f, 0x2a, 0x70, 0x2f,
  0x6c, 0xad, 0x16, 0xab, 0x11, 0x28, 0xd5, 0x2c, 0x89, 0x2f, 0x14, 0x1c,
  0xb4, 0x29, 0x1b, 0xab, 0x98, 0xad, 0x2a, 0xab, 0xb5, 0x30, 0xcb, 0x2f,
  0x04, 0x31, 0x0e, 0x99, 0xa8, 0xa1, 0x2c, 0xae, 0x0e, 0xab, 0x00, 0x31,
  0x4e, 0xb0, 0x80, 0x2c, 0x86, 0xab, 0x52, 0xad, 0x49, 0x30, 0x07, 0xa9,
  0x07, 0x25, 0x80, 0x2f, 0x5b, 0xad, 0xb4, 0x31, 0x62, 0x2e, 0x82, 0x31,
  0x7e, 0x27, 0x9e, 0x2c, 0x34, 0xa8, 0x13, 0x33, 0x06, 0xa8, 0xb2, 0xb0,
  0xf7, 0x2a, 0xeb, 0xab, 0x30, 0xb0, 0x3f, 0xa0, 0xe4, 0x28, 0x79, 0xb0,
  0xa5, 0xa8, 0x95, 0x29, 0x5b, 0xa4, 0x30, 0xb0, 0xff, 0xaf, 0x30, 0x30,
  0xce, 0x2d, 0x14, 0xb2, 0x6b, 0xaf, 0xd7, 0xae, 0xc0, 0x2b, 0xfa, 0xae,
  0x43, 0x2f, 0x17, 0xb0, 0x57, 0x32, 0xd7, 0x2b, 0x71, 0xb0, 0xae, 0xac,
  0x6a, 0xae, 0xb2, 0x2f, 0x1c, 0x2b, 0xc9, 0x9e, 0x9b, 0xa7, 0x87, 0x30,
  0x58, 0xa8, 0xef, 0x2a, 0x4f, 0xa8, 0x81, 0xac, 0x58, 0xb0, 0xe7, 0x14,
  0xb5, 0x30, 0xfa, 0x21, 0x91, 0x31, 0xca, 0xa6, 0xd0, 0x2d, 0x17, 0xaf,
  0x2b, 0x24, 0x23, 0x29, 0x12, 0xaf, 0xeb, 0xa2, 0xc1, 0x2f, 0x7d, 0xad,
  0x69, 0x2e, 0x04, 0x1f, 0x22, 0xab, 0xf1, 0x20, 0xd4, 0x2b, 0x93, 0xa8,
  0xb9, 0xa4, 0x67, 0xa4, 0x25, 0x34, 0xf4, 0xaa, 0x67, 0xae, 0x92, 0xad,
  0xda, 0xb0, 0x7c, 0xab, 0xf3, 0x2c, 0xfb, 0xab, 0xad, 0x2f, 0xf4, 0x2d,
  0x6c, 0x9d, 0xfd, 0x24, 0xcf, 0x2b, 0xcd, 0xb0, 0xa5, 0x2d, 0xa8, 0x29,
  0x47, 0x27, 0xef, 0x31, 0x7a, 0xaa, 0x97, 0x31, 0x78, 0x30, 0x98, 0x33,
  0x6a, 0x20, 0x2d, 0xae, 0x7b, 0xb0, 0xb9, 0xad, 0xa9, 0xb0, 0x27, 0x2d,
  0x0a, 0x2e, 0x60, 0xb1, 0x2e, 0x34, 0x62, 0x25, 0x66, 0x31, 0x08, 0x30,
  0x51, 0xae, 0x10, 0x2f, 0x80, 0x2d, 0xcc, 0xad, 0xc6, 0x29, 0xb1, 0x30,
  0xdb, 0x32, 0x58, 0xa0, 0xdd, 0xae, 0x5e, 0xa9, 0xd9, 0x2e, 0xb7, 0xb0,
  0x14, 0x32, 0x55, 0xad, 0x26, 0x31, 0x9e, 0x2d, 0x53, 0x2b, 0x9c, 0xaa,
  0x9e, 0xab, 0xe8, 0xaa, 0x30, 0x32, 0x69, 0xa5, 0x02, 0x31, 0xc3, 0xaa,
  0x18, 0xb1, 0x22, 0x30, 0x4f, 0x31, 0xd7, 0xb0, 0xaf, 0xa5, 0xd8, 0xb0,
  0xac, 0x90, 0x9d, 0x31, 0x48, 0x30, 0x47, 0x31, 0x25, 0xae, 0x01, 0x24,
  0xc7, 0x2c, 0xb8, 0x28, 0xf3, 0x32, 0xf9, 0x30, 0x81, 0x2a, 0x81, 0x31,
  0x4b, 0x2f, 0xfb, 0x30, 0x44, 0x26, 0xab, 0xaa, 0x0f, 0x32, 0xd5, 0x32,
  0xcf, 0xa8, 0x80, 0x2b, 0xfd, 0xa2, 0x74, 0x33, 0xad, 0xad, 0x4f, 0xb1,
  0xb7, 0xa5, 0xa5, 0x28, 0x69, 0x24, 0x93, 0xa8, 0xe8, 0x2d, 0xcd, 0xae,
  0x44, 0x25, 0xa3, 0xad, 0xb4, 0x26, 0x7a, 0x2c, 0x68, 0x30, 0x4e, 0x30,
  0xb8, 0xa9, 0x59, 0xb0, 0xfa, 0xa8, 0x9c, 0xab, 0x47, 0x33, 0x89, 0x29,
  0x3f, 0x2c, 0x19, 0x2d, 0xfd, 0x28, 0x91, 0x2b, 0x00, 0x2b, 0x22, 0xaf,
  0x0e, 0x33, 0x98, 0x32, 0x91, 0xae, 0x29, 0x1a, 0x18, 0x31, 0xfd, 0xac,
  0xb1, 0x2f, 0x2a, 0x2c, 0x1b, 0xae, 0xe6, 0x30, 0xd0, 0xad, 0x38, 0xad,
  0x9f, 0x2d, 0x16, 0x30, 0x09, 0x2a, 0xcc, 0x30, 0x32, 0x23, 0xb7, 0x28,
  0x1a, 0x31, 0xed, 0xaf, 0x35, 0xb1, 0x58, 0xad, 0xdd, 0x30, 0x35, 0xa4,
  0x11, 0xa4, 0x34, 0xa7, 0xf5, 0xac, 0x8c, 0x2f, 0x81, 0x2d, 0x1b, 0xa3,
  0xb1, 0x2d, 0xdf, 0x2c, 0x01, 0x34, 0x52, 0xac, 0xb5, 0x27, 0x87, 0x2f,
  0xcf, 0x30, 0x85, 0x2e, 0x4c, 0xa5, 0x2b, 0xac, 0xe3, 0x31, 0x90, 0x30,
  0xbd, 0x1f, 0xf1, 0x32, 0x19, 0x34, 0xe7, 0x23, 0xc7, 0x32, 0x4d, 0xaf,
  0x62, 0x22, 0x1b, 0xa9, 0xb4, 0x31, 0x75, 0xa8, 0x39, 0xac, 0x9a, 0x2d,
  0x7d, 0x32, 0x9f, 0x9c, 0x63, 0x2b, 0x32, 0x31, 0x42, 0xae, 0x5e, 0x30,
  0x9d, 0xac, 0x7a, 0x25, 0xb0, 0x31, 0xd8, 0xac, 0x56, 0x30, 0xba, 0x23,
  0xf1, 0x31, 0x04, 0x2c, 0x5f, 0x2d, 0x56, 0xac, 0x06, 0x30, 0x34, 0x2c,
  0x91, 0x2f, 0x33, 0x2e, 0x28, 0xaf, 0xf8, 0x27, 0xea, 0x29, 0x7a, 0x2f,
  0xd5, 0xa2, 0xcb, 0xa4, 0xf3, 0x20, 0xe6, 0x29, 0xa9, 0x2e, 0xde, 0xa4,
  0x09, 0x9b, 0xcb, 0x28, 0x93, 0xb0, 0x71, 0x1a, 0x84, 0x2f, 0x75, 0x2d,
  0xb0, 0x1f, 0x61, 0xb0, 0xfc, 0x2c, 0x7c, 0x2a, 0x14, 0xaf, 0xa7, 0xb1,
  0x47, 0x30, 0xfb, 0xa6, 0x36, 0x25, 0x31, 0xad, 0x2f, 0x29, 0xce, 0xa2,
  0x57, 0x2b, 0x19, 0xb0, 0x50, 0xb0, 0x5b, 0x2b, 0xab, 0x27, 0x95, 0x29,
  0x05, 0x0d, 0x11, 0x23, 0x39, 0x22, 0x8e, 0xa0, 0x66, 0x9b, 0x8a, 0xad,
  0x4e, 0xb1, 0xcf, 0x2c, 0x69, 0x29, 0x6a, 0xa9, 0x69, 0x30, 0xde, 0xa9,
  0x33, 0xb2, 0xbb, 0xaa, 0x63, 0x24, 0x9f, 0x2a, 0xf3, 0xa9, 0x8f, 0x2b,
  0xb8, 0x25, 0xe5, 0x2d, 0xdf, 0xae, 0xfe, 0x21, 0x45, 0xb0, 0x66, 0x2f,
  0x76, 0xb0, 0x50, 0x2d, 0x17, 0xab, 0x31, 0x2b, 0x22, 0x2b, 0x54, 0x2b,
  0x21, 0xa1, 0xe7, 0x2a, 0xfe, 0x27, 0xd0, 0x27, 0x00, 0xaa, 0x4a, 0x1e,
  0x30, 0xa9, 0xf3, 0xa6, 0x7f, 0x93, 0xc9, 0xae, 0xe0, 0x28, 0x1c, 0x21,
  0x07, 0x2e, 0x68, 0xac, 0xcf, 0xa3, 0x9e, 0x23, 0x32, 0xa9, 0x59, 0x31,
  0xb5, 0x2d, 0x16, 0xaa, 0x68, 0x2c, 0x59, 0xa2, 0x07, 0xaa, 0x9b, 0xae,
  0xa7, 0x2c, 0x4f, 0x2c, 0xbc, 0x9d, 0x4f, 0xad, 0xcc, 0x28, 0x3f, 0x2f,
  0xd6, 0x28, 0xf6, 0xb0, 0x9a, 0x27, 0x7a, 0xb0, 0x4a, 0xac, 0x06, 0x20,
  0x01, 0x1a, 0xf4, 0xae, 0x58, 0x2c, 0xa5, 0x1f, 0x87, 0x2d, 0x5d, 0x2d,
  0x4d, 0xae, 0x72, 0x2e, 0xfe, 0xaf, 0x3e, 0x2f, 0x70, 0x30, 0x5b, 0xad,
  0x92, 0xa6, 0xbc, 0xb0, 0x72, 0x26, 0xb5, 0xac, 0x29, 0x30, 0x14, 0x2f,
  0x21, 0xa5, 0x2b, 0x30, 0x5b, 0xaa, 0x28, 0x2c, 0xa9, 0x2b, 0x09, 0x20,
  0xca, 0xa4, 0x6c, 0xa2, 0x3b, 0x2c, 0xe6, 0x30, 0x5c, 0x28, 0x8f, 0x2d,
  0xc8, 0xa4, 0xbb, 0xa8, 0xb2, 0x2c, 0x37, 0x31, 0x09, 0x2d, 0xef, 0xa5,
  0x08, 0x30, 0x76, 0x30, 0x63, 0x2e, 0x6f, 0xaf, 0x34, 0xab, 0x4f, 0xac,
  0x96, 0xae, 0x4f, 0x2c, 0x7d, 0x28, 0x5a, 0x2e, 0xf3, 0xaa, 0xc8, 0xad,
  0x17, 0xad, 0x38, 0xac, 0x99, 0x2c, 0xec, 0xb0, 0xbf, 0x2e, 0x3b, 0x22,
  0x51, 0xa2, 0x1e, 0x9b, 0x74, 0xae, 0x12, 0x10, 0x52, 0xa9, 0xfb, 0xad,
  0x70, 0xa7, 0x1b, 0xaa, 0x7c, 0xac, 0x86, 0x21, 0x79, 0x2c, 0x4c, 0xac,
  0xe2, 0xae, 0x8f, 0x2c, 0x5c, 0xaf, 0xa8, 0xb0, 0x82, 0xac, 0xb0, 0xa4,
  0x4b, 0x2d, 0x9b, 0x24, 0x40, 0x2b, 0xcd, 0x98, 0x13, 0x2c, 0x7f, 0xac,
  0x30, 0xa8, 0x86, 0x2f, 0x6e, 0xaa, 0x0b, 0x2b, 0x4f, 0x9a, 0x82, 0x30,
  0xf2, 0x9e, 0xfa, 0xaf, 0xea, 0x14, 0xd1, 0x26, 0xf3, 0x2b, 0x11, 0xae,
  0x3a, 0x29, 0xbb, 0xa9, 0x19, 0xac, 0x48, 0xa3, 0xae, 0x2e, 0x2f, 0xa8,
  0x60, 0xb0, 0xa2, 0x23, 0xc8, 0x2a, 0xe8, 0xaf, 0xc4, 0x24, 0x0e, 0x25,
  0x53, 0xa1, 0xd4, 0xac, 0x05, 0x9d, 0xbb, 0x25, 0x5c, 0x2d, 0x96, 0xa4,
  0x16, 0x2c, 0xc5, 0x28, 0x3c, 0x2e, 0x56, 0xb1, 0x7a, 0x2b, 0x2c, 0xab,
  0x0c, 0xae, 0xd2, 0xb1, 0x80, 0x2b, 0x1c, 0x2d, 0xe7, 0x2e, 0x7f, 0x22,
  0xa1, 0x26, 0x80, 0x2a, 0x64, 0xac, 0x7b, 0xa3, 0x13, 0x30, 0xad, 0x2e,
  0x9b, 0x2d, 0xcd, 0xa9, 0x2d, 0x2a, 0x18, 0xb0, 0xa5, 0xa8, 0xa7, 0x28,
  0x7f, 0x2c, 0xc3, 0xad, 0x4f, 0x29, 0xff, 0x2f, 0x02, 0xa9, 0xce, 0xad,
  0xda, 0xb0, 0xe7, 0x9b, 0x7e, 0xa6, 0xcd, 0xaa, 0x87, 0xa6, 0x0a, 0x2f,
  0x51, 0x30, 0xe2, 0x0e, 0xe9, 0x30, 0x28, 0x2c, 0xfb, 0x1a, 0x4f, 0xab,
  0x59, 0x28, 0x33, 0x2e, 0x0e, 0xac, 0xaf, 0xa6, 0x1b, 0x2c, 0xd4, 0xa9,
  0x3b, 0xae, 0xed, 0xb0, 0xd4, 0xa6, 0x7e, 0xab, 0xf8, 0x2f, 0x1b, 0x29,
  0x99, 0x2b, 0x62, 0x2a, 0xa3, 0xb0, 0x09, 0x9f, 0x45, 0x22, 0x18, 0xae,
  0x39, 0xaa, 0xd6, 0xae, 0xe3, 0x2c, 0x77, 0x2b, 0x9a, 0xac, 0x61, 0x2a,
  0xeb, 0xa7, 0x13, 0xa3, 0x25, 0xb0, 0x2e, 0x28, 0x54, 0xa6, 0x54, 0xa4,
  0x62, 0xb1, 0x12, 0xb0, 0xbe, 0xb0, 0xfd, 0x21, 0xec, 0x2c, 0x9c, 0xaa,
  0x83, 0x2c, 0x45, 0x2c, 0xa2, 0xac, 0x71, 0x2d, 0xb4, 0xad, 0x21, 0x2d,
  0xcf, 0xad, 0x3a, 0x30, 0x53, 0xa5, 0x08, 0x21, 0xf8, 0x30, 0xec, 0x25,
  0x86, 0xae, 0x38, 0xa4, 0xa1, 0x2f, 0x82, 0x2f, 0xb4, 0x23, 0xb7, 0xaa,
  0x8d, 0xa0, 0xcb, 0x2e, 0xa6, 0xa4, 0x1e, 0x2d, 0xe9, 0xa9, 0x73, 0x31,
  0xfa, 0xb0, 0xd4, 0x2d, 0xdb, 0x2a, 0xd5, 0x2f, 0x73, 0xa9, 0xb8, 0x9f,
  0x84, 0x28, 0x45, 0x2c, 0x27, 0xa6, 0x8e, 0x20, 0xf9, 0xaa, 0xd8, 0xae,
  0x36, 0xac, 0xe1, 0x22, 0xd5, 0xae, 0x39, 0xb2, 0xcf, 0xa8, 0x48, 0x2c,
  0xcd, 0xa5, 0xae, 0x2d, 0x0b, 0xa9, 0xb0, 0x29, 0xfe, 0x20, 0xed, 0x2e,
  0x57, 0x28, 0xef, 0xaf, 0xfa, 0x2e, 0xde, 0xae, 0x2e, 0xa3, 0x3e, 0x2d,
  0x28, 0x28, 0x8d, 0xae, 0xb2, 0x25, 0x72, 0x2e, 0x3d, 0x2b, 0xae, 0xae,
  0xd1, 0x2c, 0xdc, 0x9f, 0x36, 0xa1, 0xb2, 0x2c, 0xba, 0x23, 0x7f, 0x2a,
  0x5e, 0xa1, 0xdf, 0x27, 0x04, 0xa6, 0xff, 0x98, 0xb3, 0x24, 0x79, 0x2f,
  0xdb, 0xab, 0xf2, 0xa5, 0xd8, 0xae, 0xc3, 0xac, 0xfb, 0x2e, 0xbf, 0x26,
  0x2f, 0xac, 0xd6, 0xab, 0xd4, 0xaa, 0x98, 0x2e, 0xae, 0xad, 0x75, 0x2e,
  0xa2, 0xad, 0x6e, 0xad, 0x93, 0xaa, 0x7b, 0xab, 0xa3, 0x2e, 0xcb, 0xae,
  0x16, 0x20, 0x59, 0x27, 0x83, 0x19, 0x11, 0xad, 0x50, 0xab, 0xbd, 0xa9,
  0xd0, 0xac, 0x86, 0xaa, 0x31, 0x2e, 0x4f, 0x2d, 0x81, 0x31, 0x34, 0x22,
  0x2c, 0x19, 0x61, 0x21, 0xf3, 0x25, 0xaa, 0xac, 0xdb, 0xae, 0x94, 0x27,
  0x8e, 0xaa, 0xab, 0x24, 0x53, 0x1d, 0xd4, 0x29, 0xa6, 0x28, 0xfe, 0x2c,
  0x0f, 0x2a, 0x03, 0x2c, 0x41, 0xaa, 0x1e, 0xaa, 0xea, 0xa0, 0x09, 0x2c,
  0x57, 0xac, 0xf7, 0xa1, 0x4e, 0x9b, 0xd8, 0xa8, 0xa2, 0x2a, 0x57, 0xa1,
  0x55, 0xb0, 0x30, 0x2c, 0x37, 0x24, 0x83, 0x2b, 0xe0, 0x2c, 0x51, 0xa8,
  0x27, 0x27, 0x8d, 0x24, 0xae, 0x2f, 0xd7, 0xa3, 0x7b, 0xab, 0x4d, 0x2c,
  0xb4, 0x1c, 0xc6, 0xac, 0xbe, 0x2f, 0x67, 0x26, 0x85, 0xaf, 0xb5, 0x20,
  0x93, 0x2c, 0x31, 0x1d, 0xbc, 0xaf, 0xd6, 0x2b, 0x0b, 0x24, 0x05, 0xa9,
  0x35, 0x26, 0x6a, 0x2c, 0x48, 0x30, 0xfb, 0xab, 0x68, 0x29, 0x0b, 0xaa,
  0x8a, 0xae, 0x42, 0xaa, 0x2f, 0x2d, 0xaa, 0xad, 0xa0, 0x29, 0x4c, 0x29,
  0xd1, 0x2d, 0x9e, 0x2a, 0xcd, 0x99, 0x03, 0x98, 0xbe, 0xac, 0xed, 0x1e,
  0x97, 0x24, 0x6d, 0x2d, 0x48, 0xac, 0xe2, 0x26, 0xcd, 0xad, 0x5b, 0x9f,
  0x03, 0x25, 0xa5, 0xb1, 0x03, 0xb1, 0xca, 0xab, 0x8c, 0x2e, 0x8d, 0x29,
  0xe4, 0x28, 0x32, 0xaa, 0xf7, 0xa2, 0x37, 0xaf, 0xc1, 0x27, 0x7c, 0xa2,
  0x9c, 0xae, 0x7c, 0x90, 0x0f, 0x30, 0x66, 0x13, 0xa1, 0x2f, 0x5b, 0xab,
  0x70, 0xac, 0x05, 0xaa, 0x36, 0xb1, 0x19, 0x2b, 0xca, 0x2c, 0x3f, 0xab,
  0xde, 0xa7, 0xdb, 0x2e, 0xc5, 0xac, 0xb7, 0xae, 0x1d, 0x30, 0x15, 0xaf,
  0xbb, 0xad, 0xf8, 0x28, 0x5e, 0xab, 0xc5, 0x2d, 0xd1, 0x28, 0x22, 0xa8,
  0x04, 0xa2, 0xb8, 0xa5, 0x1e, 0xab, 0x3d, 0x2c, 0x3b, 0xa6, 0xa4, 0xa9,
  0xd9, 0xac, 0x16, 0x17, 0x34, 0x2c, 0x13, 0xac, 0xdf, 0xa5, 0xfe, 0xac,
  0xd4, 0xaa, 0x3c, 0x30, 0x5f, 0xad, 0x7b, 0xad, 0xfc, 0xab, 0xf8, 0x2b,
  0x8c, 0x9b, 0xef, 0xac, 0x69, 0x30, 0x59, 0xad, 0x13, 0x2a, 0xfb, 0x2c,
  0x47, 0xa9, 0xdf, 0x2a, 0xa6, 0x2e, 0x4b, 0xa8, 0xcf, 0xa2, 0xd4, 0xa4,
  0x9c, 0xaa, 0xa9, 0x30, 0x47, 0x2c, 0x7b, 0x29, 0x38, 0x2a, 0xad, 0xa3,
  0x61, 0xaa, 0x73, 0xa8, 0x41, 0x28, 0x32, 0xa9, 0x08, 0x9e, 0x61, 0x2e,
  0x44, 0xb0, 0x6f, 0x31, 0x54, 0x28, 0x36, 0x2c, 0x71, 0x2c, 0x86, 0xa9,
  0xab, 0x28, 0x1a, 0x28, 0x7c, 0x20, 0xa7, 0x28, 0x87, 0xae, 0xa7, 0xaa,
  0x26, 0x21, 0x28, 0x98, 0xb8, 0x2c, 0x31, 0x2b, 0x5a, 0xa2, 0xcc, 0xab,
  0x3a, 0x30, 0x98, 0x29, 0xe9, 0x2d, 0x55, 0xaf, 0x92, 0xac, 0xaf, 0xad,
  0xab, 0xad, 0x47, 0x2d, 0x01, 0x2c, 0x4b, 0x2c, 0x67, 0xac, 0xc2, 0x2d,
  0x76, 0x2d, 0xc3, 0xa8, 0x8c, 0x2a, 0xf9, 0xa5, 0xe2, 0xab, 0x5b, 0xaa,
  0x4b, 0x25, 0x05, 0x2e, 0x5c, 0x28, 0x3a, 0xb0, 0xd0, 0xac, 0x75, 0x2c,
  0xad, 0xaa, 0x49, 0x2a, 0xd9, 0x2b, 0x5c, 0x24, 0xb9, 0xa5, 0x00, 0xa7,
  0x8f, 0xb0, 0xf4, 0xac, 0x4a, 0xb0, 0x3b, 0xae, 0x91, 0x2c, 0x51, 0x30,
  0x94, 0xb0, 0x79, 0x30, 0xf4, 0x9f, 0xee, 0xa2, 0x9c, 0x2c, 0x1b, 0xa8,
  0x27, 0xae, 0x68, 0x2c, 0x47, 0x28, 0xcb, 0xa7, 0x54, 0xaa, 0xe3, 0x1c,
  0x5f, 0x28, 0xe7, 0x2d, 0xfd, 0x2a, 0xe8, 0x2c, 0xcb, 0x28, 0x2d, 0xab,
  0x4d, 0xae, 0xa4, 0x2e, 0xa4, 0xaf, 0x9a, 0x28, 0x07, 0x2a, 0xc5, 0xac,
  0x0f, 0xaa, 0x91, 0xa9, 0xde, 0x2f, 0x9d, 0x29, 0x31, 0x2e, 0x13, 0x32,
  0x95, 0xab, 0x61, 0x2a, 0x4c, 0x2d, 0x8b, 0xae, 0x13, 0x25, 0x3b, 0x27,
  0x7f, 0xb1, 0x2d, 0x2f, 0xbe, 0x2a, 0x51, 0xaa, 0x5e, 0x20, 0x98, 0xa9,
  0xb0, 0xb0, 0xc5, 0xac, 0x24, 0x27, 0x95, 0xb0, 0x4a, 0xa8, 0x7c, 0x2a,
  0x54, 0xa9, 0xfb, 0xab, 0xca, 0x30, 0xad, 0xb1, 0xc6, 0xa8, 0x05, 0x2e,
  0x16, 0x30, 0xd5, 0x26, 0x03, 0x2c, 0xcc, 0x30, 0xda, 0x2c, 0x7f, 0x2f,
  0xd9, 0x2c, 0xaf, 0x2c, 0x5d, 0xae, 0x90, 0xa9, 0x84, 0x29, 0xd8, 0x2d,
  0x87, 0xa8, 0x5b, 0x2a, 0x2a, 0xa6, 0x10, 0xae, 0x11, 0x29, 0xe6, 0xa3,
  0x2c, 0x27, 0xea, 0x2e, 0x63, 0x2d, 0x4c, 0x2a, 0x55, 0xaf, 0xa5, 0x23,
  0xd8, 0x2b, 0x20, 0x30, 0x82, 0xa1, 0xc3, 0x2f, 0x93, 0xb0, 0x84, 0xa6,
  0x72, 0x2c, 0x81, 0x2c, 0xaf, 0xb1, 0xfa, 0x24, 0x06, 0x21, 0x9b, 0xb0,
  0x03, 0x2f, 0x05, 0xaa, 0x38, 0xa5, 0xad, 0xac, 0x6e, 0x2e, 0xd6, 0xad,
  0x5c, 0xa0, 0x02, 0x1c, 0x41, 0xad, 0x12, 0x9e, 0xd0, 0x99, 0x9b, 0xa6,
  0xc1, 0x26, 0xce, 0x2c, 0x05, 0x26, 0x39, 0xae, 0xaa, 0xa9, 0x15, 0xaa,
  0x1e, 0x1d, 0x5f, 0x2d, 0xf3, 0xb0, 0x06, 0xb1, 0x21, 0xad, 0xa7, 0xad,
  0xdb, 0x2c, 0xef, 0x28, 0x80, 0x29, 0xf5, 0xad, 0xce, 0xb1, 0xed, 0xa9,
  0xf7, 0xad, 0x84, 0x9f, 0x4b, 0xad, 0x87, 0xac, 0x7c, 0xa1, 0x6b, 0xad,
  0x4e, 0x22, 0x1d, 0xb0, 0x97, 0x29, 0x2e, 0xac, 0xe2, 0x2c, 0xf6, 0xad,
  0x5a, 0x2b, 0x4e, 0x2f, 0xfa, 0x28, 0xf7, 0xac, 0xd3, 0xa8, 0xa0, 0x2d,
  0x19, 0x19, 0xfe, 0x2c, 0xaf, 0x2f, 0x69, 0xb1, 0x3e, 0x2d, 0xc9, 0xac,
  0x65, 0x32, 0x8b, 0x26, 0x64, 0x95, 0x13, 0xac, 0x70, 0x1e, 0xd1, 0xa4,
  0x2f, 0x2e, 0x42, 0x24, 0xaf, 0x2c, 0xd8, 0x2c, 0x5c, 0xae, 0xb4, 0x19,
  0x12, 0xa6, 0x7e, 0xaa, 0x1e, 0xa4, 0x03, 0x30, 0xe6, 0x2b, 0x24, 0xaa,
  0xf6, 0x2b, 0xcc, 0x28, 0x6e, 0x2c, 0xf3, 0xaa, 0x2f, 0xa0, 0x5f, 0x24,
  0xe5, 0xac, 0x56, 0x2a, 0x26, 0x30, 0xb6, 0x9f, 0xdb, 0xaf, 0x85, 0x30,
  0x90, 0xa5, 0x92, 0xae, 0x0c, 0xaf, 0x11, 0x2d, 0x73, 0x1e, 0xcd, 0x2f,
  0x61, 0x14, 0xf1, 0xad, 0x7e, 0xfc, 0xff, 0xff, 0x04, 0x00, 0x00, 0x00,
  0x08, 0x00, 0x00, 0x00, 0x01, 0x00, 0x00, 0x00, 0xc0, 0x00, 0x00, 0x00,
  0x92, 0xfc, 0xff, 0xff, 0x04, 0x00, 0x00, 0x00, 0x60, 0x03, 0x00, 0x00,
  0x29, 0xb0, 0xfc, 0xaa, 0x7e, 0xb1, 0x75, 0xb1, 0xd3, 0xab, 0x19, 0xac,
  0x9c, 0x31, 0x4f, 0x37, 0x4b, 0x30, 0x46, 0xac, 0x47, 0xa9, 0x4d, 0xb2,
  0xf1, 0xb0, 0x0d, 0xa8, 0xbd, 0x32, 0x85, 0x38, 0x24, 0x38, 0xb6, 0xaa,
  0xa3, 0x2e, 0xe4, 0x20, 0x1d, 0x32, 0x5c, 0xb4, 0xd5, 0xad, 0x06, 0x35,
  0xa9, 0x38, 0x1b, 0x2b, 0x40, 0x34, 0x3d, 0xb0, 0x4a, 0x34, 0x4b, 0x30,
  0xb9, 0xa9, 0x19, 0xb4, 0x07, 0xb2, 0xbe, 0x25, 0x48, 0x37, 0x58, 0xb1,
  0x36, 0xb1, 0x04, 0x2c, 0xbe, 0xac, 0x9e, 0xac, 0x5d, 0xa7, 0x79, 0x2c,
  0x58, 0x2b, 0xe4, 0xa0, 0x14, 0x2c, 0x45, 0xae, 0x04, 0xab, 0xee, 0x30,
  0x12, 0x9c, 0xd1, 0xab, 0xa6, 0xa8, 0x25, 0x33, 0x6d, 0x37, 0xd0, 0xb1,
  0xbe, 0x22, 0xc2, 0xb0, 0x04, 0x2f, 0x7e, 0xa7, 0xa6, 0xb0, 0xcd, 0x9b,
  0xa0, 0x2d, 0x99, 0xb2, 0x5d, 0x2f, 0x98, 0xad, 0x0d, 0xb0, 0x9d, 0xb3,
  0x4c, 0x2c, 0xcc, 0xb5, 0xe6, 0x28, 0x03, 0x34, 0xfd, 0xac, 0x28, 0x31,
  0x4d, 0x33, 0x92, 0x2e, 0x06, 0x31, 0x1c, 0x21, 0x06, 0x24, 0x1a, 0xaf,
  0x74, 0x25, 0x35, 0x34, 0x84, 0x34, 0xa2, 0xb3, 0x46, 0xb0, 0x06, 0xad,
  0xc6, 0x2d, 0x72, 0x32, 0xe9, 0x33, 0x47, 0x30, 0x53, 0xb5, 0x95, 0xb1,
  0xf9, 0xb2, 0x7b, 0x31, 0xb3, 0x32, 0xc6, 0x33, 0xc5, 0x32, 0x47, 0x34,
  0x1b, 0x35, 0x4b, 0x32, 0x3d, 0xae, 0xae, 0xad, 0x45, 0x31, 0x71, 0x33,
  0x8d, 0x34, 0x7a, 0xac, 0x2c, 0xac, 0x16, 0x34, 0x54, 0xb5, 0xd7, 0xad,
  0xcc, 0xa4, 0x6a, 0xb0, 0x11, 0x25, 0x23, 0x38, 0x6e, 0xae, 0xaa, 0xb2,
  0xb2, 0xb5, 0xdf, 0x2e, 0x0e, 0xb8, 0x63, 0x2e, 0x66, 0xb0, 0x64, 0xa9,
  0x03, 0x36, 0x68, 0xb4, 0x7c, 0x2e, 0xfd, 0xa7, 0x6f, 0x34, 0x8e, 0xad,
  0x65, 0xb2, 0x71, 0x32, 0x10, 0xaa, 0xb5, 0x33, 0x47, 0xb2, 0xbb, 0x32,
  0x47, 0xad, 0x69, 0xb2, 0xbd, 0xaf, 0xf6, 0x25, 0x29, 0xb0, 0x1c, 0xaa,
  0xc7, 0xb0, 0x11, 0x38, 0x79, 0xb0, 0xe6, 0x33, 0x51, 0xac, 0xd3, 0x34,
  0xf7, 0x2e, 0x3f, 0x34, 0x57, 0xb0, 0x66, 0xb3, 0x31, 0x36, 0x9b, 0xb4,
  0x18, 0x34, 0xff, 0xb5, 0xcf, 0x29, 0x84, 0xb1, 0x72, 0xb0, 0xea, 0x31,
  0x90, 0x31, 0xf6, 0x32, 0xd2, 0x28, 0x97, 0x35, 0x99, 0xb4, 0x0b, 0x31,
  0x62, 0x2d, 0x42, 0x31, 0x18, 0x34, 0x3f, 0x2b, 0xf9, 0x32, 0xe2, 0x31,
  0x77, 0xb5, 0x6b, 0xad, 0xc0, 0xb7, 0x70, 0xac, 0x20, 0x9c, 0x07, 0xb0,
  0x37, 0x35, 0x81, 0xb3, 0x08, 0xad, 0x9d, 0xac, 0x50, 0xb5, 0xa4, 0xb5,
  0xba, 0x2a, 0xe7, 0xa8, 0x28, 0xb1, 0x9b, 0x34, 0x4c, 0xa9, 0xa4, 0x35,
  0x46, 0x33, 0x87, 0x31, 0x24, 0xb8, 0x7b, 0x32, 0x1a, 0x34, 0x9a, 0x30,
  0x21, 0xad, 0xce, 0x30, 0xcb, 0x31, 0x66, 0x38, 0x7d, 0xb1, 0xc4, 0x2c,
  0xc4, 0xb3, 0x81, 0xaa, 0x04, 0x2c, 0x76, 0xb5, 0x49, 0x22, 0x48, 0x36,
  0x85, 0x34, 0xa1, 0xb0, 0x84, 0xb1, 0x76, 0x27, 0xcf, 0xb1, 0x01, 0xb2,
  0x4a, 0x32, 0x2f, 0x30, 0x59, 0x33, 0x7e, 0x38, 0x5e, 0xae, 0x6a, 0x27,
  0x30, 0xb3, 0xdd, 0xb3, 0x27, 0x9b, 0xfd, 0xb3, 0xf0, 0xb4, 0x1a, 0x31,
  0x1f, 0xb3, 0x04, 0x38, 0x46, 0x32, 0x80, 0x1a, 0x85, 0x29, 0x40, 0x2d,
  0x34, 0xb3, 0x1e, 0xb2, 0x24, 0x2f, 0x8a, 0x27, 0xa8, 0x2c, 0xcb, 0x33,
  0x1e, 0x33, 0x31, 0x34, 0x0f, 0x32, 0xe6, 0x2b, 0x66, 0xb2, 0xee, 0xad,
  0x47, 0xac, 0x30, 0x38, 0xf8, 0x35, 0xfb, 0x2d, 0x0e, 0x2c, 0x12, 0xae,
  0xd4, 0x30, 0x37, 0x2e, 0xa3, 0x2f, 0x37, 0xac, 0x8f, 0xb7, 0x51, 0x27,
  0x76, 0xb4, 0xbe, 0x33, 0xc5, 0x24, 0xe9, 0x32, 0xd1, 0x2e, 0x22, 0xb5,
  0xbd, 0xad, 0x0e, 0xb8, 0x75, 0x31, 0xbc, 0x30, 0x94, 0xb1, 0x67, 0x33,
  0x9c, 0x33, 0x80, 0x38, 0xf8, 0x1c, 0xf7, 0x2a, 0x42, 0xb6, 0xa9, 0xaf,
  0x1b, 0x34, 0x86, 0xb4, 0xd7, 0x30, 0x88, 0xb2, 0x57, 0xb3, 0x2d, 0xac,
  0x6e, 0x35, 0x18, 0xad, 0xb4, 0x34, 0x62, 0xb3, 0xc4, 0x30, 0x18, 0xa2,
  0x29, 0x31, 0xc1, 0xb3, 0xe6, 0xb3, 0xe0, 0x2f, 0x33, 0x2b, 0xf7, 0xb1,
  0x2b, 0x33, 0xba, 0x2f, 0xa9, 0xae, 0x5c, 0x32, 0xc8, 0x2b, 0xbf, 0xac,
  0x97, 0xaf, 0x63, 0x1d, 0xbc, 0x32, 0x21, 0xb0, 0xea, 0x2d, 0x91, 0xb1,
  0x9d, 0x32, 0x42, 0x30, 0x02, 0xb0, 0x90, 0x34, 0x9f, 0x33, 0x24, 0x2c,
  0x07, 0xb3, 0xfd, 0xaa, 0x97, 0xb0, 0xc4, 0xb1, 0xe6, 0x2c, 0xf9, 0xb0,
  0x3e, 0x23, 0x68, 0x27, 0x2c, 0xaf, 0xb8, 0x2e, 0x53, 0x2d, 0x6d, 0xad,
  0x64, 0xb5, 0xb0, 0x2b, 0x3c, 0xb1, 0xb9, 0xac, 0xbb, 0x2f, 0x56, 0x35,
  0x27, 0xb3, 0xad, 0xab, 0x57, 0xb2, 0x97, 0xb1, 0xf0, 0x37, 0x72, 0xb4,
  0x63, 0x2b, 0x3f, 0x31, 0xbe, 0x34, 0x0f, 0xb4, 0xac, 0x2a, 0x76, 0xa8,
  0xb2, 0x2b, 0xfe, 0x2f, 0xdd, 0xb5, 0x9e, 0x30, 0xa0, 0xb5, 0x73, 0x31,
  0x01, 0x33, 0x1f, 0xb1, 0x52, 0xaf, 0x6d, 0xae, 0xa2, 0x21, 0x1a, 0xb5,
  0x1b, 0xb2, 0x37, 0xb3, 0xd0, 0x35, 0x69, 0xb0, 0x25, 0x22, 0x55, 0x33,
  0xa2, 0xb3, 0xb3, 0x28, 0x89, 0xb5, 0xe7, 0xb2, 0x50, 0x34, 0x83, 0x34,
  0xb6, 0x2e, 0x34, 0xb2, 0x39, 0xb4, 0xef, 0x29, 0x58, 0xb1, 0x99, 0xac,
  0x83, 0xac, 0x5d, 0xad, 0x1e, 0x37, 0x10, 0x2c, 0xd6, 0x31, 0xed, 0x26,
  0xf0, 0xaf, 0x2c, 0xb0, 0x0a, 0xb4, 0xcd, 0xb5, 0x42, 0x31, 0xba, 0x36,
  0xbc, 0x34, 0x9f, 0x2a, 0x4e, 0x34, 0xbb, 0xa7, 0x4f, 0xb7, 0xe2, 0x1b,
  0x05, 0xb4, 0x00, 0x1e, 0x1b, 0x34, 0x9f, 0xae, 0x10, 0x2c, 0x78, 0xac,
  0x83, 0x37, 0x73, 0xb8, 0x65, 0xa0, 0xcc, 0xab, 0x8d, 0x37, 0xf7, 0xb0,
  0xf4, 0xb1, 0x19, 0xaf, 0x75, 0xb3, 0x19, 0x34, 0xd6, 0xb6, 0xa7, 0xa3,
  0xbf, 0xa3, 0x7e, 0x37, 0x59, 0x33, 0xa6, 0x2f, 0x07, 0xb1, 0xc0, 0xb1,
  0x1a, 0x2d, 0x19, 0xb2, 0xfc, 0x30, 0xd9, 0x32, 0xdb, 0xb1, 0xbb, 0xb7,
  0xec, 0x30, 0xc8, 0xaa, 0x7a, 0x30, 0x66, 0x36, 0xee, 0xab, 0xc2, 0xb2,
  0xa7, 0xb1, 0x82, 0x22, 0x3e, 0xaf, 0x1d, 0xb2, 0x19, 0xad, 0xe3, 0x29,
  0xef, 0x21, 0x4d, 0x9f, 0x15, 0x31, 0x1b, 0x30, 0x67, 0xb1, 0xa3, 0xb4,
  0x00, 0x00, 0x06, 0x00, 0x08, 0x00, 0x04, 0x00, 0x06, 0x00, 0x00, 0x00,
  0x04, 0x00, 0x00, 0x00, 0x20, 0x00, 0x00, 0x00, 0x06, 0x35, 0x9c, 0x19,
  0x4c, 0x2c, 0x91, 0x33, 0x4a, 0x31, 0xe9, 0x35, 0x09, 0x36, 0xda, 0x35,
  0x3e, 0x34, 0x91, 0x34, 0x83, 0x34, 0xc0, 0x2f, 0x0d, 0x33, 0xbb, 0x34,
  0x00, 0x33, 0x55, 0x36, 0xa4, 0xf5, 0xff, 0xff, 0xa8, 0xf5, 0xff, 0xff,
  0x0f, 0x00, 0x00, 0x00, 0x4d, 0x4c, 0x49, 0x52, 0x20, 0x43, 0x6f, 0x6e,
  0x76, 0x65, 0x72, 0x74, 0x65, 0x64, 0x2e, 0x00, 0x01, 0x00, 0x00, 0x00,
  0x14, 0x00, 0x00, 0x00, 0x00, 0x00, 0x0e, 0x00, 0x18, 0x00, 0x14, 0x00,
  0x10, 0x00, 0x0c, 0x00, 0x08, 0x00, 0x04, 0x00, 0x0e, 0x00, 0x00, 0x00,
  0x14, 0x00, 0x00, 0x00, 0x1c, 0x00, 0x00, 0x00, 0x00, 0x02, 0x00, 0x00,
  0x04, 0x02, 0x00, 0x00, 0x08, 0x02, 0x00, 0x00, 0x04, 0x00, 0x00, 0x00,
  0x6d, 0x61, 0x69, 0x6e, 0x00, 0x00, 0x00, 0x00, 0x0a, 0x00, 0x00, 0x00,
  0xc8, 0x01, 0x00, 0x00, 0x9c, 0x01, 0x00, 0x00, 0x7c, 0x01, 0x00, 0x00,
  0x5c, 0x01, 0x00, 0x00, 0x3c, 0x01, 0x00, 0x00, 0x1c, 0x01, 0x00, 0x00,
  0xc8, 0x00, 0x00, 0x00, 0x70, 0x00, 0x00, 0x00, 0x48, 0x00, 0x00, 0x00,
  0x04, 0x00, 0x00, 0x00, 0x56, 0xff, 0xff, 0xff, 0x14, 0x00, 0x00, 0x00,
  0x00, 0x00, 0x00, 0x08, 0x10, 0x00, 0x00, 0x00, 0x14, 0x00, 0x00, 0x00,
  0x03, 0x00, 0x00, 0x00, 0x40, 0xf6, 0xff, 0xff, 0x01, 0x00, 0x00, 0x00,
  0x11, 0x00, 0x00, 0x00, 0x03, 0x00, 0x00, 0x00, 0x10, 0x00, 0x00, 0x00,
  0x0b, 0x00, 0x00, 0x00, 0x09, 0x00, 0x00, 0x00, 0x00, 0x00, 0x0a, 0x00,
  0x10, 0x00, 0x0c, 0x00, 0x08, 0x00, 0x04, 0x00, 0x0a, 0x00, 0x00, 0x00,
  0x0c, 0x00, 0x00, 0x00, 0x10, 0x00, 0x00, 0x00, 0x02, 0x00, 0x00, 0x00,
  0x01, 0x00, 0x00, 0x00, 0x10, 0x00, 0x00, 0x00, 0x02, 0x00, 0x00, 0x00,
  0x0f, 0x00, 0x00, 0x00, 0x03, 0x00, 0x00, 0x00, 0xba, 0xff, 0xff, 0xff,
  0x14, 0x00, 0x00, 0x00, 0x00, 0x00, 0x00, 0x01, 0x20, 0x00, 0x00, 0x00,
  0x24, 0x00, 0x00, 0x00, 0x01, 0x00, 0x00, 0x00, 0xac, 0xff, 0xff, 0xff,
  0x00, 0x00, 0x00, 0x01, 0x01, 0x00, 0x00, 0x00, 0x01, 0x00, 0x00, 0x00,
  0x00, 0x00, 0x00, 0x01, 0x01, 0x00, 0x00, 0x00, 0x0f, 0x00, 0x00, 0x00,
  0x03, 0x00, 0x00, 0x00, 0x0e, 0x00, 0x00, 0x00, 0x0a, 0x00, 0x00, 0x00,
  0x08, 0x00, 0x00, 0x00, 0x00, 0x00, 0x0e, 0x00, 0x18, 0x00, 0x14, 0x00,
  0x10, 0x00, 0x0c, 0x00, 0x0b, 0x00, 0x04, 0x00, 0x0e, 0x00, 0x00, 0x00,
  0x20, 0x00, 0x00, 0x00, 0x00, 0x00, 0x00, 0x01, 0x2c, 0x00, 0x00, 0x00,
  0x30, 0x00, 0x00, 0x00, 0x01, 0x00, 0x00, 0x00, 0x0c, 0x00, 0x14, 0x00,
  0x13, 0x00, 0x0c, 0x00, 0x08, 0x00, 0x07, 0x00, 0x0c, 0x00, 0x00, 0x00,
  0x00, 0x00, 0x00, 0x01, 0x01, 0x00, 0x00, 0x00, 0x01, 0x00, 0x00, 0x00,
  0x00, 0x00, 0x00, 0x01, 0x01, 0x00, 0x00, 0x00, 0x0e, 0x00, 0x00, 0x00,
  0x03, 0x00, 0x00, 0x00, 0x00, 0x00, 0x00, 0x00, 0x0c, 0x00, 0x00, 0x00,
  0x0d, 0x00, 0x00, 0x00, 0x72, 0xff, 0xff, 0xff, 0x08, 0x00, 0x00, 0x00,
  0x0c, 0x00, 0x00, 0x00, 0x01, 0x00, 0x00, 0x00, 0x0d, 0x00, 0x00, 0x00,
  0x01, 0x00, 0x00, 0x00, 0x01, 0x00, 0x00, 0x00, 0x8e, 0xff, 0xff, 0xff,
  0x08, 0x00, 0x00, 0x00, 0x0c, 0x00, 0x00, 0x00, 0x01, 0x00, 0x00, 0x00,
  0x0c, 0x00, 0x00, 0x00, 0x01, 0x00, 0x00, 0x00, 0x02, 0x00, 0x00, 0x00,
  0xaa, 0xff, 0xff, 0xff, 0x08, 0x00, 0x00, 0x00, 0x0c, 0x00, 0x00, 0x00,
  0x01, 0x00, 0x00, 0x00, 0x0b, 0x00, 0x00, 0x00, 0x01, 0x00, 0x00, 0x00,
  0x04, 0x00, 0x00, 0x00, 0xc6, 0xff, 0xff, 0xff, 0x08, 0x00, 0x00, 0x00,
  0x0c, 0x00, 0x00, 0x00, 0x01, 0x00, 0x00, 0x00, 0x0a, 0x00, 0x00, 0x00,
  0x01, 0x00, 0x00, 0x00, 0x05, 0x00, 0x00, 0x00, 0xe2, 0xff, 0xff, 0xff,
  0x08, 0x00, 0x00, 0x00, 0x0c, 0x00, 0x00, 0x00, 0x01, 0x00, 0x00, 0x00,
  0x09, 0x00, 0x00, 0x00, 0x01, 0x00, 0x00, 0x00, 0x06, 0x00, 0x00, 0x00,
  0x00, 0x00, 0x0a, 0x00, 0x0c, 0x00, 0x00, 0x00, 0x08, 0x00, 0x04, 0x00,
  0x0a, 0x00, 0x00, 0x00, 0x08, 0x00, 0x00, 0x00, 0x0c, 0x00, 0x00, 0x00,
  0x01, 0x00, 0x00, 0x00, 0x08, 0x00, 0x00, 0x00, 0x01, 0x00, 0x00, 0x00,
  0x07, 0x00, 0x00, 0x00, 0x01, 0x00, 0x00, 0x00, 0x11, 0x00, 0x00, 0x00,
  0x01, 0x00, 0x00, 0x00, 0x00, 0x00, 0x00, 0x00, 0x12, 0x00, 0x00, 0x00,
  0xf0, 0x07, 0x00, 0x00, 0x2c, 0x07, 0x00, 0x00, 0xb4, 0x06, 0x00, 0x00,
  0x74, 0x06, 0x00, 0x00, 0x24, 0x06, 0x00, 0x00, 0xc4, 0x05, 0x00, 0x00,
  0x74, 0x05, 0x00, 0x00, 0xc0, 0x04, 0x00, 0x00, 0x10, 0x04, 0x00, 0x00,
  0xc4, 0x03, 0x00, 0x00, 0x64, 0x03, 0x00, 0x00, 0x14, 0x03, 0x00, 0x00,
  0xb8, 0x02, 0x00, 0x00, 0x10, 0x02, 0x00, 0x00, 0x5c, 0x01, 0x00, 0x00,
  0xa0, 0x00, 0x00, 0x00, 0x50, 0x00, 0x00, 0x00, 0x04, 0x00, 0x00, 0x00,
  0x6e, 0xf8, 0xff, 0xff, 0x00, 0x00, 0x00, 0x01, 0x10, 0x00, 0x00, 0x00,
  0x10, 0x00, 0x00, 0x00, 0x12, 0x00, 0x00, 0x00, 0x28, 0x00, 0x00, 0x00,
  0x58, 0xf8, 0xff, 0xff, 0x1b, 0x00, 0x00, 0x00, 0x53, 0x74, 0x61, 0x74,
  0x65, 0x66, 0x75, 0x6c, 0x50, 0x61, 0x72, 0x74, 0x69, 0x74, 0x69, 0x6f,
  0x6e, 0x65, 0x64, 0x43, 0x61, 0x6c, 0x6c, 0x5f, 0x31, 0x3a, 0x30, 0x00,
  0x02, 0x00, 0x00, 0x00, 0x01, 0x00, 0x00, 0x00, 0x07, 0x00, 0x00, 0x00,
  0xb6, 0xf8, 0xff, 0xff, 0x00, 0x00, 0x00, 0x01, 0x10, 0x00, 0x00, 0x00,
  0x10, 0x00, 0x00, 0x00, 0x11, 0x00, 0x00, 0x00, 0x2c, 0x00, 0x00, 0x00,
  0xa0, 0xf8, 0xff, 0xff, 0x1e, 0x00, 0x00, 0x00, 0x73, 0x65, 0x71, 0x75,
  0x65, 0x6e, 0x74, 0x69, 0x61, 0x6c, 0x5f, 0x31, 0x2f, 0x66, 0x6c, 0x61,
  0x74, 0x74, 0x65, 0x6e, 0x5f, 0x31, 0x2f, 0x52, 0x65, 0x73, 0x68, 0x61,
  0x70, 0x65, 0x00, 0x00, 0x02, 0x00, 0x00, 0x00, 0x01, 0x00, 0x00, 0x00,
  0xc0, 0x00, 0x00, 0x00, 0x02, 0xf9, 0xff, 0xff, 0x00, 0x00, 0x00, 0x01,
  0x10, 0x00, 0x00, 0x00, 0x10, 0x00, 0x00, 0x00, 0x10, 0x00, 0x00, 0x00,
  0x90, 0x00, 0x00, 0x00, 0xec, 0xf8, 0xff, 0xff, 0x81, 0x00, 0x00, 0x00,
  0x73, 0x65, 0x71, 0x75, 0x65, 0x6e, 0x74, 0x69, 0x61, 0x6c, 0x5f, 0x31,
  0x2f, 0x63, 0x6f, 0x6e, 0x76, 0x32, 0x64, 0x5f, 0x31, 0x5f, 0x32, 0x2f,
  0x52, 0x65, 0x6c, 0x75, 0x3b, 0x73, 0x65, 0x71, 0x75, 0x65, 0x6e, 0x74,
  0x69, 0x61, 0x6c, 0x5f, 0x31, 0x2f, 0x63, 0x6f, 0x6e, 0x76, 0x32, 0x64,
  0x5f, 0x31, 0x5f, 0x32, 0x2f, 0x42, 0x69, 0x61, 0x73, 0x41, 0x64, 0x64,
  0x3b, 0x73, 0x65, 0x71, 0x75, 0x65, 0x6e, 0x74, 0x69, 0x61, 0x6c, 0x5f,
  0x31, 0x2f, 0x63, 0x6f, 0x6e, 0x76, 0x32, 0x64, 0x5f, 0x31, 0x5f, 0x32,
  0x2f, 0x63, 0x6f, 0x6e, 0x76, 0x6f, 0x6c, 0x75, 0x74, 0x69, 0x6f, 0x6e,
  0x3b, 0x73, 0x65, 0x71, 0x75, 0x65, 0x6e, 0x74, 0x69, 0x61, 0x6c, 0x5f,
  0x31, 0x2f, 0x63, 0x6f, 0x6e, 0x76, 0x32, 0x64, 0x5f, 0x31, 0x5f, 0x32,
  0x2f, 0x53, 0x71, 0x75, 0x65, 0x65, 0x7a, 0x65, 0x32, 0x00, 0x00, 0x00,
  0x04, 0x00, 0x00, 0x00, 0x01, 0x00, 0x00, 0x00, 0x06, 0x00, 0x00, 0x00,
  0x01, 0x00, 0x00, 0x00, 0x20, 0x00, 0x00, 0x00, 0xba, 0xf9, 0xff, 0xff,
  0x00, 0x00, 0x00, 0x01, 0x10, 0x00, 0x00, 0x00, 0x10, 0x00, 0x00, 0x00,
  0x0f, 0x00, 0x00, 0x00, 0x88, 0x00, 0x00, 0x00, 0xa4, 0xf9, 0xff, 0xff,
  0x79, 0x00, 0x00, 0x00, 0x73, 0x65, 0x71, 0x75, 0x65, 0x6e, 0x74, 0x69,
  0x61, 0x6c, 0x5f, 0x31, 0x2f, 0x63, 0x6f, 0x6e, 0x76, 0x32, 0x64, 0x5f,
  0x31, 0x2f, 0x52, 0x65, 0x6c, 0x75, 0x3b, 0x73, 0x65, 0x71, 0x75, 0x65,
  0x6e, 0x74, 0x69, 0x61, 0x6c, 0x5f, 0x31, 0x2f, 0x63, 0x6f, 0x6e, 0x76,
  0x32, 0x64, 0x5f, 0x31, 0x2f, 0x42, 0x69, 0x61, 0x73, 0x41, 0x64, 0x64,
  0x3b, 0x73, 0x65, 0x71, 0x75, 0x65, 0x6e, 0x74, 0x69, 0x61, 0x6c, 0x5f,
  0x31, 0x2f, 0x63, 0x6f, 0x6e, 0x76, 0x32, 0x64, 0x5f, 0x31, 0x2f, 0x63,
  0x6f, 0x6e, 0x76, 0x6f, 0x6c, 0x75, 0x74, 0x69, 0x6f, 0x6e, 0x3b, 0x73,
  0x65, 0x71, 0x75, 0x65, 0x6e, 0x74, 0x69, 0x61, 0x6c, 0x5f, 0x31, 0x2f,
  0x63, 0x6f, 0x6e, 0x76, 0x32, 0x64, 0x5f, 0x31, 0x2f, 0x53, 0x71, 0x75,
  0x65, 0x65, 0x7a, 0x65, 0x32, 0x00, 0x00, 0x00, 0x04, 0x00, 0x00, 0x00,
  0x01, 0x00, 0x00, 0x00, 0x08, 0x00, 0x00, 0x00, 0x01, 0x00, 0x00, 0x00,
  0x10, 0x00, 0x00, 0x00, 0x6a, 0xfa, 0xff, 0xff, 0x00, 0x00, 0x00, 0x01,
  0x10, 0x00, 0x00, 0x00, 0x10, 0x00, 0x00, 0x00, 0x0e, 0x00, 0x00, 0x00,
  0x88, 0x00, 0x00, 0x00, 0x54, 0xfa, 0xff, 0xff, 0x79, 0x00, 0x00, 0x00,
  0x73, 0x65, 0x71, 0x75, 0x65, 0x6e, 0x74, 0x69, 0x61, 0x6c, 0x5f, 0x31,
  0x2f, 0x63, 0x6f, 0x6e, 0x76, 0x32, 0x64, 0x5f, 0x31, 0x2f, 0x52, 0x65,
  0x6c, 0x75, 0x3b, 0x73, 0x65, 0x71, 0x75, 0x65, 0x6e, 0x74, 0x69, 0x61,
  0x6c, 0x5f, 0x31, 0x2f, 0x63, 0x6f, 0x6e, 0x76, 0x32, 0x64, 0x5f, 0x31,
  0x2f, 0x42, 0x69, 0x61, 0x73, 0x41, 0x64, 0x64, 0x3b, 0x73, 0x65, 0x71,
  0x75, 0x65, 0x6e, 0x74, 0x69, 0x61, 0x6c, 0x5f, 0x31, 0x2f, 0x63, 0x6f,
  0x6e, 0x76, 0x32, 0x64, 0x5f, 0x31, 0x2f, 0x63, 0x6f, 0x6e, 0x76, 0x6f,
  0x6c, 0x75, 0x74, 0x69, 0x6f, 0x6e, 0x3b, 0x73, 0x65, 0x71, 0x75, 0x65,
  0x6e, 0x74, 0x69, 0x61, 0x6c, 0x5f, 0x31, 0x2f, 0x63, 0x6f, 0x6e, 0x76,
  0x32, 0x64, 0x5f, 0x31, 0x2f, 0x53, 0x71, 0x75, 0x65, 0x65, 0x7a, 0x65,
  0x31, 0x00, 0x00, 0x00, 0x01, 0x00, 0x00, 0x00, 0x10, 0x00, 0x00, 0x00,
  0x0e, 0xfb, 0xff, 0xff, 0x00, 0x00, 0x00, 0x01, 0x10, 0x00, 0x00, 0x00,
  0x10, 0x00, 0x00, 0x00, 0x0d, 0x00, 0x00, 0x00, 0x30, 0x00, 0x00, 0x00,
  0xf8, 0xfa, 0xff, 0xff, 0x22, 0x00, 0x00, 0x00, 0x73, 0x65, 0x71, 0x75,
  0x65, 0x6e, 0x74, 0x69, 0x61, 0x6c, 0x5f, 0x31, 0x2f, 0x63, 0x6f, 0x6e,
  0x76, 0x32, 0x64, 0x5f, 0x31, 0x2f, 0x63, 0x6f, 0x6e, 0x76, 0x6f, 0x6c,
  0x75, 0x74, 0x69, 0x6f, 0x6e, 0x31, 0x00, 0x00, 0x04, 0x00, 0x00, 0x00,
  0x10, 0x00, 0x00, 0x00, 0x03, 0x00, 0x00, 0x00, 0x01, 0x00, 0x00, 0x00,
  0x09, 0x00, 0x00, 0x00, 0x66, 0xfb, 0xff, 0xff, 0x00, 0x00, 0x00, 0x01,
  0x10, 0x00, 0x00, 0x00, 0x10, 0x00, 0x00, 0x00, 0x0c, 0x00, 0x00, 0x00,
  0x2c, 0x00, 0x00, 0x00, 0x50, 0xfb, 0xff, 0xff, 0x1c, 0x00, 0x00, 0x00,
  0x73, 0x65, 0x71, 0x75, 0x65, 0x6e, 0x74, 0x69, 0x61, 0x6c, 0x5f, 0x31,
  0x2f, 0x64, 0x65, 0x6e, 0x73, 0x65, 0x5f, 0x31, 0x2f, 0x4d, 0x61, 0x74,
  0x4d, 0x75, 0x6c, 0x31, 0x00, 0x00, 0x00, 0x00, 0x02, 0x00, 0x00, 0x00,
  0x07, 0x00, 0x00, 0x00, 0xc0, 0x00, 0x00, 0x00, 0xb2, 0xfb, 0xff, 0xff,
  0x00, 0x00, 0x00, 0x01, 0x10, 0x00, 0x00, 0x00, 0x10, 0x00, 0x00, 0x00,
  0x0b, 0x00, 0x00, 0x00, 0x34, 0x00, 0x00, 0x00, 0x9c, 0xfb, 0xff, 0xff,
  0x24, 0x00, 0x00, 0x00, 0x73, 0x65, 0x71, 0x75, 0x65, 0x6e, 0x74, 0x69,
  0x61, 0x6c, 0x5f, 0x31, 0x2f, 0x63, 0x6f, 0x6e, 0x76, 0x32, 0x64, 0x5f,
  0x31, 0x5f, 0x32, 0x2f, 0x63, 0x6f, 0x6e, 0x76, 0x6f, 0x6c, 0x75, 0x74,
  0x69, 0x6f, 0x6e, 0x31, 0x00, 0x00, 0x00, 0x00, 0x04, 0x00, 0x00, 0x00,
  0x20, 0x00, 0x00, 0x00, 0x03, 0x00, 0x00, 0x00, 0x01, 0x00, 0x00, 0x00,
  0x10, 0x00, 0x00, 0x00, 0x0e, 0xfc, 0xff, 0xff, 0x00, 0x00, 0x00, 0x01,
  0x10, 0x00, 0x00, 0x00, 0x10, 0x00, 0x00, 0x00, 0x0a, 0x00, 0x00, 0x00,
  0x2c, 0x00, 0x00, 0x00, 0xf8, 0xfb, 0xff, 0xff, 0x1d, 0x00, 0x00, 0x00,
  0x73, 0x65, 0x71, 0x75, 0x65, 0x6e, 0x74, 0x69, 0x61, 0x6c, 0x5f, 0x31,
  0x2f, 0x64, 0x65, 0x6e, 0x73, 0x65, 0x5f, 0x31, 0x2f, 0x42, 0x69, 0x61,
  0x73, 0x41, 0x64, 0x64, 0x31, 0x00, 0x00, 0x00, 0x01, 0x00, 0x00, 0x00,
  0x07, 0x00, 0x00, 0x00, 0x56, 0xfc, 0xff, 0xff, 0x00, 0x00, 0x00, 0x01,
  0x10, 0x00, 0x00, 0x00, 0x10, 0x00, 0x00, 0x00, 0x09, 0x00, 0x00, 0x00,
  0x90, 0x00, 0x00, 0x00, 0x40, 0xfc, 0xff, 0xff, 0x81, 0x00, 0x00, 0x00,
  0x73, 0x65, 0x71, 0x75, 0x65, 0x6e, 0x74, 0x69, 0x61, 0x6c, 0x5f, 0x31,
  0x2f, 0x63, 0x6f, 0x6e, 0x76, 0x32, 0x64, 0x5f, 0x31, 0x5f, 0x32, 0x2f,
  0x52, 0x65, 0x6c, 0x75, 0x3b, 0x73, 0x65, 0x71, 0x75, 0x65, 0x6e, 0x74,
  0x69, 0x61, 0x6c, 0x5f, 0x31, 0x2f, 0x63, 0x6f, 0x6e, 0x76, 0x32, 0x64,
  0x5f, 0x31, 0x5f, 0x32, 0x2f, 0x42, 0x69, 0x61, 0x73, 0x41, 0x64, 0x64,
  0x3b, 0x73, 0x65, 0x71, 0x75, 0x65, 0x6e, 0x74, 0x69, 0x61, 0x6c, 0x5f,
  0x31, 0x2f, 0x63, 0x6f, 0x6e, 0x76, 0x32, 0x64, 0x5f, 0x31, 0x5f, 0x32,
  0x2f, 0x63, 0x6f, 0x6e, 0x76, 0x6f, 0x6c, 0x75, 0x74, 0x69, 0x6f, 0x6e,
  0x3b, 0x73, 0x65, 0x71, 0x75, 0x65, 0x6e, 0x74, 0x69, 0x61, 0x6c, 0x5f,
  0x31, 0x2f, 0x63, 0x6f, 0x6e, 0x76, 0x32, 0x64, 0x5f, 0x31, 0x5f, 0x32,
  0x2f, 0x53, 0x71, 0x75, 0x65, 0x65, 0x7a, 0x65, 0x31, 0x00, 0x00, 0x00,
  0x01, 0x00, 0x00, 0x00, 0x20, 0x00, 0x00, 0x00, 0xc2, 0xfd, 0xff, 0xff,
  0x00, 0x00, 0x00, 0x01, 0x14, 0x00, 0x00, 0x00, 0x14, 0x00, 0x00, 0x00,
  0x08, 0x00, 0x00, 0x00, 0x00, 0x00, 0x00, 0x01, 0x90, 0x00, 0x00, 0x00,
  0xf0, 0xfc, 0xff, 0xff, 0x80, 0x00, 0x00, 0x00, 0x73, 0x65, 0x71, 0x75,
  0x65, 0x6e, 0x74, 0x69, 0x61, 0x6c, 0x5f, 0x31, 0x2f, 0x63, 0x6f, 0x6e,
  0x76, 0x32, 0x64, 0x5f, 0x31, 0x5f, 0x32, 0x2f, 0x52, 0x65, 0x6c, 0x75,
  0x3b, 0x73, 0x65, 0x71, 0x75, 0x65, 0x6e, 0x74, 0x69, 0x61, 0x6c, 0x5f,
  0x31, 0x2f, 0x63, 0x6f, 0x6e, 0x76, 0x32, 0x64, 0x5f, 0x31, 0x5f, 0x32,
  0x2f, 0x42, 0x69, 0x61, 0x73, 0x41, 0x64, 0x64, 0x3b, 0x73, 0x65, 0x71,
  0x75, 0x65, 0x6e, 0x74, 0x69, 0x61, 0x6c, 0x5f, 0x31, 0x2f, 0x63, 0x6f,
  0x6e, 0x76, 0x32, 0x64, 0x5f, 0x31, 0x5f, 0x32, 0x2f, 0x63, 0x6f, 0x6e,
  0x76, 0x6f, 0x6c, 0x75, 0x74, 0x69, 0x6f, 0x6e, 0x3b, 0x73, 0x65, 0x71,
  0x75, 0x65, 0x6e, 0x74, 0x69, 0x61, 0x6c, 0x5f, 0x31, 0x2f, 0x63, 0x6f,
  0x6e, 0x76, 0x32, 0x64, 0x5f, 0x31, 0x5f, 0x32, 0x2f, 0x53, 0x71, 0x75,
  0x65, 0x65, 0x7a, 0x65, 0x00, 0x00, 0x00, 0x00, 0x01, 0x00, 0x00, 0x00,
  0x20, 0x00, 0x00, 0x00, 0x72, 0xfe, 0xff, 0xff, 0x00, 0x00, 0x00, 0x01,
  0x14, 0x00, 0x00, 0x00, 0x14, 0x00, 0x00, 0x00, 0x07, 0x00, 0x00, 0x00,
  0x00, 0x00, 0x00, 0x01, 0x2c, 0x00, 0x00, 0x00, 0xa0, 0xfd, 0xff, 0xff,
  0x1c, 0x00, 0x00, 0x00, 0x73, 0x65, 0x71, 0x75, 0x65, 0x6e, 0x74, 0x69,
  0x61, 0x6c, 0x5f, 0x31, 0x2f, 0x64, 0x65, 0x6e, 0x73, 0x65, 0x5f, 0x31,
  0x2f, 0x42, 0x69, 0x61, 0x73, 0x41, 0x64, 0x64, 0x00, 0x00, 0x00, 0x00,
  0x01, 0x00, 0x00, 0x00, 0x07, 0x00, 0x00, 0x00, 0xbe, 0xfe, 0xff, 0xff,
  0x00, 0x00, 0x00, 0x01, 0x14, 0x00, 0x00, 0x00, 0x14, 0x00, 0x00, 0x00,
  0x06, 0x00, 0x00, 0x00, 0x00, 0x00, 0x00, 0x01, 0x30, 0x00, 0x00, 0x00,
  0xec, 0xfd, 0xff, 0xff, 0x23, 0x00, 0x00, 0x00, 0x73, 0x65, 0x71, 0x75,
  0x65, 0x6e, 0x74, 0x69, 0x61, 0x6c, 0x5f, 0x31, 0x2f, 0x63, 0x6f, 0x6e,
  0x76, 0x32, 0x64, 0x5f, 0x31, 0x5f, 0x32, 0x2f, 0x63, 0x6f, 0x6e, 0x76,
  0x6f, 0x6c, 0x75, 0x74, 0x69, 0x6f, 0x6e, 0x00, 0x04, 0x00, 0x00, 0x00,
  0x20, 0x00, 0x00, 0x00, 0x03, 0x00, 0x00, 0x00, 0x01, 0x00, 0x00, 0x00,
  0x10, 0x00, 0x00, 0x00, 0x1a, 0xff, 0xff, 0xff, 0x00, 0x00, 0x00, 0x01,
  0x14, 0x00, 0x00, 0x00, 0x14, 0x00, 0x00, 0x00, 0x05, 0x00, 0x00, 0x00,
  0x00, 0x00, 0x00, 0x01, 0x28, 0x00, 0x00, 0x00, 0x48, 0xfe, 0xff, 0xff,
  0x1b, 0x00, 0x00, 0x00, 0x73, 0x65, 0x71, 0x75, 0x65, 0x6e, 0x74, 0x69,
  0x61, 0x6c, 0x5f, 0x31, 0x2f, 0x64, 0x65, 0x6e, 0x73, 0x65, 0x5f, 0x31,
  0x2f, 0x4d, 0x61, 0x74, 0x4d, 0x75, 0x6c, 0x00, 0x02, 0x00, 0x00, 0x00,
  0x07, 0x00, 0x00, 0x00, 0xc0, 0x00, 0x00, 0x00, 0x66, 0xff, 0xff, 0xff,
  0x00, 0x00, 0x00, 0x01, 0x14, 0x00, 0x00, 0x00, 0x14, 0x00, 0x00, 0x00,
  0x04, 0x00, 0x00, 0x00, 0x00, 0x00, 0x00, 0x02, 0x1c, 0x00, 0x00, 0x00,
  0x94, 0xfe, 0xff, 0xff, 0x0e, 0x00, 0x00, 0x00, 0x61, 0x72, 0x69, 0x74,
  0x68, 0x2e, 0x63, 0x6f, 0x6e, 0x73, 0x74, 0x61, 0x6e, 0x74, 0x00, 0x00,
  0x01, 0x00, 0x00, 0x00, 0x02, 0x00, 0x00, 0x00, 0xa2, 0xff, 0xff, 0xff,
  0x00, 0x00, 0x00, 0x01, 0x14, 0x00, 0x00, 0x00, 0x14, 0x00, 0x00, 0x00,
  0x03, 0x00, 0x00, 0x00, 0x00, 0x00, 0x00, 0x01, 0x30, 0x00, 0x00, 0x00,
  0xd0, 0xfe, 0xff, 0xff, 0x21, 0x00, 0x00, 0x00, 0x73, 0x65, 0x71, 0x75,
  0x65, 0x6e, 0x74, 0x69, 0x61, 0x6c, 0x5f, 0x31, 0x2f, 0x63, 0x6f, 0x6e,
  0x76, 0x32, 0x64, 0x5f, 0x31, 0x2f, 0x63, 0x6f, 0x6e, 0x76, 0x6f, 0x6c,
  0x75, 0x74, 0x69, 0x6f, 0x6e, 0x00, 0x00, 0x00, 0x04, 0x00, 0x00, 0x00,
  0x10, 0x00, 0x00, 0x00, 0x03, 0x00, 0x00, 0x00, 0x01, 0x00, 0x00, 0x00,
  0x09, 0x00, 0x00, 0x00, 0x00, 0x00, 0x16, 0x00, 0x1c, 0x00, 0x18, 0x00,
  0x17, 0x00, 0x10, 0x00, 0x0c, 0x00, 0x08, 0x00, 0x00, 0x00, 0x00, 0x00,
  0x00, 0x00, 0x07, 0x00, 0x16, 0x00, 0x00, 0x00, 0x00, 0x00, 0x00, 0x01,
  0x14, 0x00, 0x00, 0x00, 0x14, 0x00, 0x00, 0x00, 0x02, 0x00, 0x00, 0x00,
  0x00, 0x00, 0x00, 0x01, 0x88, 0x00, 0x00, 0x00, 0x44, 0xff, 0xff, 0xff,
  0x78, 0x00, 0x00, 0x00, 0x73, 0x65, 0x71, 0x75, 0x65, 0x6e, 0x74, 0x69,
  0x61, 0x6c, 0x5f, 0x31, 0x2f, 0x63, 0x6f, 0x6e, 0x76, 0x32, 0x64, 0x5f,
  0x31, 0x2f, 0x52, 0x65, 0x6c, 0x75, 0x3b, 0x73, 0x65, 0x71, 0x75, 0x65,
  0x6e, 0x74, 0x69, 0x61, 0x6c, 0x5f, 0x31, 0x2f, 0x63, 0x6f, 0x6e, 0x76,
  0x32, 0x64, 0x5f, 0x31, 0x2f, 0x42, 0x69, 0x61, 0x73, 0x41, 0x64, 0x64,
  0x3b, 0x73, 0x65, 0x71, 0x75, 0x65, 0x6e, 0x74, 0x69, 0x61, 0x6c, 0x5f,
  0x31, 0x2f, 0x63, 0x6f, 0x6e, 0x76, 0x32, 0x64, 0x5f, 0x31, 0x2f, 0x63,
  0x6f, 0x6e, 0x76, 0x6f, 0x6c, 0x75, 0x74, 0x69, 0x6f, 0x6e, 0x3b, 0x73,
  0x65, 0x71, 0x75, 0x65, 0x6e, 0x74, 0x69, 0x61, 0x6c, 0x5f, 0x31, 0x2f,
  0x63, 0x6f, 0x6e, 0x76, 0x32, 0x64, 0x5f, 0x31, 0x2f, 0x53, 0x71, 0x75,
  0x65, 0x65, 0x7a, 0x65, 0x00, 0x00, 0x00, 0x00, 0x01, 0x00, 0x00, 0x00,
  0x10, 0x00, 0x00, 0x00, 0x00, 0x00, 0x16, 0x00, 0x18, 0x00, 0x14, 0x00,
  0x00, 0x00, 0x10, 0x00, 0x0c, 0x00, 0x08, 0x00, 0x00, 0x00, 0x00, 0x00,
  0x00, 0x00, 0x07, 0x00, 0x16, 0x00, 0x00, 0x00, 0x00, 0x00, 0x00, 0x01,
  0x14, 0x00, 0x00, 0x00, 0x14, 0x00, 0x00, 0x00, 0x01, 0x00, 0x00, 0x00,
  0x34, 0x00, 0x00, 0x00, 0x04, 0x00, 0x04, 0x00, 0x04, 0x00, 0x00, 0x00,
  0x21, 0x00, 0x00, 0x00, 0x73, 0x65, 0x72, 0x76, 0x69, 0x6e, 0x67, 0x5f,
  0x64, 0x65, 0x66, 0x61, 0x75, 0x6c, 0x74, 0x5f, 0x6b, 0x65, 0x72, 0x61,
  0x73, 0x5f, 0x74, 0x65, 0x6e, 0x73, 0x6f, 0x72, 0x5f, 0x31, 0x30, 0x3a,
  0x30, 0x00, 0x00, 0x00, 0x04, 0x00, 0x00, 0x00, 0x01, 0x00, 0x00, 0x00,
  0x0a, 0x00, 0x00, 0x00, 0x01, 0x00, 0x00, 0x00, 0x09, 0x00, 0x00, 0x00,
  0x04, 0x00, 0x00, 0x00, 0x4c, 0x00, 0x00, 0x00, 0x30, 0x00, 0x00, 0x00,
  0x14, 0x00, 0x00, 0x00, 0x04, 0x00, 0x00, 0x00, 0xe8, 0xff, 0xff, 0xff,
  0x09, 0x00, 0x00, 0x00, 0x00, 0x00, 0x00, 0x09, 0xf4, 0xff, 0xff, 0xff,
  0x16, 0x00, 0x00, 0x00, 0x00, 0x00, 0x00, 0x16, 0x0c, 0x00, 0x0c, 0x00,
  0x0b, 0x00, 0x00, 0x00, 0x00, 0x00, 0x04, 0x00, 0x0c, 0x00, 0x00, 0x00,
  0x03, 0x00, 0x00, 0x00, 0x00, 0x00, 0x00, 0x03, 0x0c, 0x00, 0x10, 0x00,
  0x0f, 0x00, 0x00, 0x00, 0x08, 0x00, 0x04, 0x00, 0x0c, 0x00, 0x00, 0x00,
  0x06, 0x00, 0x00, 0x00, 0x03, 0x00, 0x00, 0x00, 0x00, 0x00, 0x00, 0x06
};
unsigned int tflite_models_conv_lr0_0001_bs32_float16_tflite_len = 10260;
