unsigned char tflite_models_conv_lr0_0001_bs32_float32_tflite[] = {
  0x1c, 0x00, 0x00, 0x00, 0x54, 0x46, 0x4c, 0x33, 0x14, 0x00, 0x20, 0x00,
  0x1c, 0x00, 0x18, 0x00, 0x14, 0x00, 0x10, 0x00, 0x0c, 0x00, 0x00, 0x00,
  0x08, 0x00, 0x04, 0x00, 0x14, 0x00, 0x00, 0x00, 0x1c, 0x00, 0x00, 0x00,
  0x8c, 0x00, 0x00, 0x00, 0xe4, 0x00, 0x00, 0x00, 0xc0, 0x36, 0x00, 0x00,
  0xd0, 0x36, 0x00, 0x00, 0xc4, 0x3d, 0x00, 0x00, 0x03, 0x00, 0x00, 0x00,
  0x01, 0x00, 0x00, 0x00, 0x04, 0x00, 0x00, 0x00, 0xae, 0xc8, 0xff, 0xff,
  0x0c, 0x00, 0x00, 0x00, 0x1c, 0x00, 0x00, 0x00, 0x3c, 0x00, 0x00, 0x00,
  0x0f, 0x00, 0x00, 0x00, 0x73, 0x65, 0x72, 0x76, 0x69, 0x6e, 0x67, 0x5f,
  0x64, 0x65, 0x66, 0x61, 0x75, 0x6c, 0x74, 0x00, 0x01, 0x00, 0x00, 0x00,
  0x04, 0x00, 0x00, 0x00, 0x90, 0xff, 0xff, 0xff, 0x0b, 0x00, 0x00, 0x00,
  0x04, 0x00, 0x00, 0x00, 0x08, 0x00, 0x00, 0x00, 0x6f, 0x75, 0x74, 0x70,
  0x75, 0x74, 0x5f, 0x30, 0x00, 0x00, 0x00, 0x00, 0x01, 0x00, 0x00, 0x00,
  0x04, 0x00, 0x00, 0x00, 0x42, 0xca, 0xff, 0xff, 0x04, 0x00, 0x00, 0x00,
  0x0f, 0x00, 0x00, 0x00, 0x6b, 0x65, 0x72, 0x61, 0x73, 0x5f, 0x74, 0x65,
  0x6e, 0x73, 0x6f, 0x72, 0x5f, 0x31, 0x30, 0x00, 0x02, 0x00, 0x00, 0x00,
  0x34, 0x00, 0x00, 0x00, 0x04, 0x00, 0x00, 0x00, 0xdc, 0xff, 0xff, 0xff,
  0x0e, 0x00, 0x00, 0x00, 0x04, 0x00, 0x00, 0x00, 0x13, 0x00, 0x00, 0x00,
  0x43, 0x4f, 0x4e, 0x56, 0x45, 0x52, 0x53, 0x49, 0x4f, 0x4e, 0x5f, 0x4d,
  0x45, 0x54, 0x41, 0x44, 0x41, 0x54, 0x41, 0x00, 0x08, 0x00, 0x0c, 0x00,
  0x08, 0x00, 0x04, 0x00, 0x08, 0x00, 0x00, 0x00, 0x0d, 0x00, 0x00, 0x00,
  0x04, 0x00, 0x00, 0x00, 0x13, 0x00, 0x00, 0x00, 0x6d, 0x69, 0x6e, 0x5f,
  0x72, 0x75, 0x6e, 0x74, 0x69, 0x6d, 0x65, 0x5f, 0x76, 0x65, 0x72, 0x73,
  0x69, 0x6f, 0x6e, 0x00, 0x0f, 0x00, 0x00, 0x00, 0xd8, 0x35, 0x00, 0x00,
  0xd0, 0x35, 0x00, 0x00, 0x40, 0x35, 0x00, 0x00, 0x0c, 0x35, 0x00, 0x00,
  0xfc, 0x1c, 0x00, 0x00, 0xec, 0x07, 0x00, 0x00, 0xd4, 0x07, 0x00, 0x00,
  0x04, 0x01, 0x00, 0x00, 0xb4, 0x00, 0x00, 0x00, 0xac, 0x00, 0x00, 0x00,
  0xa4, 0x00, 0x00, 0x00, 0x9c, 0x00, 0x00, 0x00, 0x94, 0x00, 0x00, 0x00,
  0x74, 0x00, 0x00, 0x00, 0x04, 0x00, 0x00, 0x00, 0xfa, 0xca, 0xff, 0xff,
  0x04, 0x00, 0x00, 0x00, 0x60, 0x00, 0x00, 0x00, 0x10, 0x00, 0x00, 0x00,
  0x00, 0x00, 0x00, 0x00, 0x08, 0x00, 0x0e, 0x00, 0x08, 0x00, 0x04, 0x00,
  0x08, 0x00, 0x00, 0x00, 0x10, 0x00, 0x00, 0x00, 0x24, 0x00, 0x00, 0x00,
  0x00, 0x00, 0x06, 0x00, 0x08, 0x00, 0x04, 0x00, 0x06, 0x00, 0x00, 0x00,
  0x04, 0x00, 0x00, 0x00, 0x00, 0x00, 0x00, 0x00, 0x0c, 0x00, 0x18, 0x00,
  0x14, 0x00, 0x10, 0x00, 0x0c, 0x00, 0x04, 0x00, 0x0c, 0x00, 0x00, 0x00,
  0x95, 0x25, 0x6c, 0x9b, 0x65, 0x7d, 0xcf, 0xb0, 0x02, 0x00, 0x00, 0x00,
  0x02, 0x00, 0x00, 0x00, 0x04, 0x00, 0x00, 0x00, 0x06, 0x00, 0x00, 0x00,
  0x32, 0x2e, 0x32, 0x31, 0x2e, 0x30, 0x00, 0x00, 0x66, 0xcb, 0xff, 0xff,
  0x04, 0x00, 0x00, 0x00, 0x10, 0x00, 0x00, 0x00, 0x31, 0x2e, 0x35, 0x2e,
  0x30, 0x00, 0x00, 0x00, 0x00, 0x00, 0x00, 0x00, 0x00, 0x00, 0x00, 0x00,
  0x20, 0xc4, 0xff, 0xff, 0x24, 0xc4, 0xff, 0xff, 0x28, 0xc4, 0xff, 0xff,
  0x2c, 0xc4, 0xff, 0xff, 0x92, 0xcb, 0xff, 0xff, 0x04, 0x00, 0x00, 0x00,
  0x40, 0x00, 0x00, 0x00, 0xc5, 0xbb, 0xa0, 0x3e, 0x42, 0x86, 0x33, 0x3b,
  0x83, 0x7c, 0x89, 0x3d, 0xbf, 0x18, 0x72, 0x3e, 0x61, 0x46, 0x29, 0x3e,
  0x4a, 0x23, 0xbd, 0x3e, 0x63, 0x10, 0xc1, 0x3e, 0x92, 0x34, 0xbb, 0x3e,
  0xc0, 0xcd, 0x87, 0x3e, 0x36, 0x19, 0x92, 0x3e, 0x63, 0x6e, 0x90, 0x3e,
  0x7a, 0x04, 0xf8, 0x3d, 0x53, 0x91, 0x61, 0x3e, 0x3b, 0x68, 0x97, 0x3e,
  0x6c, 0xff, 0x5f, 0x3e, 0xae, 0xaf, 0xca, 0x3e, 0xde, 0xcb, 0xff, 0xff,
  0x04, 0x00, 0x00, 0x00, 0xc0, 0x06, 0x00, 0x00, 0xe1, 0x2f, 0x05, 0xbe,
  0x81, 0x8e, 0x5f, 0xbd, 0xd4, 0xc0, 0x2f, 0xbe, 0x3e, 0x9b, 0x2e, 0xbe,
  0xd6, 0x63, 0x7a, 0xbd, 0xa8, 0x2b, 0x83, 0xbd, 0x18, 0x77, 0x33, 0x3e,
  0x72, 0xdd, 0xe9, 0x3e, 0xde, 0x5e, 0x09, 0x3e, 0x7d, 0xb5, 0x88, 0xbd,
  0x5e, 0xdc, 0x28, 0xbd, 0xfa, 0xa0, 0x49, 0xbe, 0x77, 0x29, 0x1e, 0xbe,
  0x90, 0x97, 0x01, 0xbd, 0x75, 0xaf, 0x57, 0x3e, 0xa4, 0xa1, 0x10, 0x3f,
  0x8f, 0x7d, 0x04, 0x3f, 0xa1, 0xb8, 0x56, 0xbd, 0x98, 0x58, 0xd4, 0x3d,
  0x0a, 0x8f, 0x1c, 0x3c, 0x6d, 0x9e, 0x43, 0x3e, 0x0e, 0x73, 0x8b, 0xbe,
  0xf5, 0x99, 0xba, 0xbd, 0xad, 0xb5, 0xa0, 0x3e, 0xec, 0x2d, 0x15, 0x3f,
  0x89, 0x67, 0x63, 0x3d, 0x23, 0xfc, 0x87, 0x3e, 0x54, 0x9c, 0x07, 0xbe,
  0x08, 0x34, 0x89, 0x3e, 0x10, 0x54, 0x09, 0x3e, 0x46, 0x2f, 0x37, 0xbd,
  0x1c, 0x22, 0x83, 0xbe, 0x6d, 0xdb, 0x40, 0xbe, 0x31, 0xb5, 0xb7, 0x3c,
  0xf1, 0xf3, 0xe8, 0x3e, 0x62, 0xf4, 0x2a, 0xbe, 0xd1, 0xbb, 0x26, 0xbe,
  0xab, 0x71, 0x80, 0x3d, 0x38, 0xc3, 0x97, 0xbd, 0x5a, 0xb5, 0x93, 0xbd,
  0x95, 0xa0, 0xeb, 0xbc, 0x1d, 0x25, 0x8f, 0x3d, 0xe8, 0xf9, 0x6a, 0x3d,
  0xe6, 0x80, 0x1c, 0xbc, 0x44, 0x73, 0x82, 0x3d, 0x5c, 0xac, 0xc8, 0xbd,
  0x52, 0x73, 0x60, 0xbd, 0xe6, 0xb3, 0x1d, 0x3e, 0x27, 0x37, 0x82, 0xbb,
  0x1b, 0x23, 0x7a, 0xbd, 0x7c, 0xcb, 0x14, 0xbd, 0x84, 0x9b, 0x64, 0x3e,
  0xc1, 0xa3, 0xed, 0x3e, 0xa0, 0xf1, 0x39, 0xbe, 0x97, 0xba, 0x57, 0x3c,
  0x49, 0x33, 0x18, 0xbe, 0x36, 0x86, 0xe0, 0x3d, 0x2f, 0xbc, 0xef, 0xbc,
  0x8f, 0xc8, 0x14, 0xbe, 0x64, 0xa3, 0x79, 0xbb, 0xe2, 0x0b, 0xb4, 0x3d,
  0x81, 0x20, 0x53, 0xbe, 0xb2, 0xa6, 0xeb, 0x3d, 0x1c, 0x05, 0xb3, 0xbd,
  0x36, 0xa7, 0x01, 0xbe, 0xe4, 0xab, 0x73, 0xbe, 0x9d, 0x74, 0x89, 0x3d,
  0xf1, 0x7f, 0xb9, 0xbe, 0x24, 0xcd, 0x1c, 0x3d, 0xcd, 0x5d, 0x80, 0x3e,
  0x3d, 0x92, 0x9f, 0xbd, 0x4e, 0x07, 0x25, 0x3e, 0xfc, 0x9c, 0x69, 0x3e,
  0xc3, 0x44, 0xd2, 0x3d, 0xf6, 0xbd, 0x20, 0x3e, 0x45, 0x8c, 0x23, 0x3c,
  0x7d, 0xb8, 0x80, 0x3c, 0xf3, 0x42, 0xe3, 0xbd, 0x4e, 0x79, 0xae, 0x3c,
  0x0b, 0x97, 0x86, 0x3e, 0xf7, 0x73, 0x90, 0x3e, 0xa3, 0x31, 0x74, 0xbe,
  0x99, 0xce, 0x08, 0xbe, 0x42, 0xbf, 0xa0, 0xbd, 0xec, 0xbb, 0xb8, 0x3d,
  0x6f, 0x31, 0x4e, 0x3e, 0x54, 0x17, 0x7d, 0x3e, 0x4b, 0xd9, 0x08, 0x3e,
  0x2b, 0x5d, 0xaa, 0xbe, 0xc4, 0xae, 0x32, 0xbe, 0x73, 0x2a, 0x5f, 0xbe,
  0xcb, 0x69, 0x2f, 0x3e, 0xe8, 0x65, 0x56, 0x3e, 0x4f, 0xcc, 0x78, 0x3e,
  0xc2, 0xa9, 0x58, 0x3e, 0x92, 0xe1, 0x88, 0x3e, 0x2d, 0x55, 0xa3, 0x3e,
  0xec, 0x64, 0x49, 0x3e, 0x5e, 0xa8, 0xc7, 0xbd, 0xde, 0xc8, 0xb5, 0xbd,
  0x57, 0x91, 0x28, 0x3e, 0x7d, 0x2e, 0x6e, 0x3e, 0x10, 0xa2, 0x91, 0x3e,
  0xf5, 0x49, 0x8f, 0xbd, 0x16, 0x8f, 0x85, 0xbd, 0x2c, 0xcf, 0x82, 0x3e,
  0xf2, 0x88, 0xaa, 0xbe, 0xfe, 0xe1, 0xba, 0xbd, 0x98, 0x8f, 0x99, 0xbc,
  0xf9, 0x4b, 0x0d, 0xbe, 0x65, 0x2a, 0xa2, 0x3c, 0x5f, 0x52, 0x04, 0x3f,
  0x18, 0xcf, 0xcd, 0xbd, 0x9d, 0x46, 0x55, 0xbe, 0x66, 0x34, 0xb6, 0xbe,
  0xba, 0xe1, 0xdb, 0x3d, 0xc1, 0xb2, 0x01, 0xbf, 0xfa, 0x5f, 0xcc, 0x3d,
  0x43, 0xc3, 0x0c, 0xbe, 0x95, 0x78, 0x2c, 0xbd, 0xd0, 0x5a, 0xc0, 0x3e,
  0xbb, 0xf2, 0x8c, 0xbe, 0x21, 0x83, 0xcf, 0x3d, 0xde, 0x9e, 0xff, 0xbc,
  0xf2, 0xde, 0x8d, 0x3e, 0x6b, 0xca, 0xb1, 0xbd, 0x30, 0xae, 0x4c, 0xbe,
  0x28, 0x19, 0x4e, 0x3e, 0x94, 0xfd, 0x41, 0xbd, 0x0f, 0x96, 0x76, 0x3e,
  0x1a, 0xd9, 0x48, 0xbe, 0x6a, 0x65, 0x57, 0x3e, 0xed, 0xd2, 0xa8, 0xbd,
  0x28, 0x18, 0x4d, 0xbe, 0x6f, 0x97, 0xf7, 0xbd, 0xac, 0xc5, 0xbe, 0x3c,
  0xd5, 0x2e, 0x05, 0xbe, 0x6d, 0x7d, 0x43, 0xbd, 0xbb, 0xd4, 0x18, 0xbe,
  0x4a, 0x1e, 0x02, 0x3f, 0x77, 0x13, 0x0f, 0xbe, 0xe9, 0xce, 0x7c, 0x3e,
  0xc7, 0x10, 0x8a, 0xbd, 0xe8, 0x63, 0x9a, 0x3e, 0xfd, 0xdc, 0xde, 0x3d,
  0xb4, 0xda, 0x87, 0x3e, 0x0f, 0xe2, 0x0a, 0xbe, 0xe1, 0xb8, 0x6c, 0xbe,
  0x29, 0x29, 0xc6, 0x3e, 0x91, 0x5a, 0x93, 0xbe, 0x84, 0xf9, 0x82, 0x3e,
  0x66, 0xd7, 0xbf, 0xbe, 0x08, 0xe4, 0x39, 0x3d, 0x0a, 0x89, 0x30, 0xbe,
  0x2f, 0x3a, 0x0e, 0xbe, 0x1e, 0x35, 0x3d, 0x3e, 0x37, 0xfd, 0x31, 0x3e,
  0x47, 0xba, 0x5e, 0x3e, 0xb0, 0x40, 0x1a, 0x3d, 0x01, 0xe1, 0xb2, 0x3e,
  0x09, 0x19, 0x93, 0xbe, 0x03, 0x58, 0x21, 0x3e, 0x23, 0x31, 0xac, 0x3d,
  0x10, 0x45, 0x28, 0x3e, 0x85, 0xfb, 0x82, 0x3e, 0x7c, 0xe4, 0x67, 0x3d,
  0xd9, 0x2a, 0x5f, 0x3e, 0x6d, 0x3a, 0x3c, 0x3e, 0xd6, 0xef, 0xae, 0xbe,
  0x03, 0x6b, 0xad, 0xbd, 0x63, 0x0a, 0xf8, 0xbe, 0x12, 0xfe, 0x8d, 0xbd,
  0x18, 0xf0, 0x83, 0xbb, 0xce, 0xef, 0x00, 0xbe, 0xde, 0xda, 0xa6, 0x3e,
  0xdd, 0x1f, 0x70, 0xbe, 0x92, 0x00, 0xa1, 0xbd, 0xc0, 0x9f, 0x93, 0xbd,
  0xe0, 0x03, 0xaa, 0xbe, 0x15, 0x86, 0xb4, 0xbe, 0x97, 0x42, 0x57, 0x3d,
  0x91, 0xe1, 0x1c, 0xbd, 0x53, 0x0b, 0x25, 0xbe, 0x4b, 0x69, 0x93, 0x3e,
  0xd0, 0x72, 0x29, 0xbd, 0x79, 0x75, 0xb4, 0x3e, 0xac, 0xc2, 0x68, 0x3e,
  0x3b, 0xe0, 0x30, 0x3e, 0xd4, 0x87, 0x04, 0xbf, 0x49, 0x6b, 0x4f, 0x3e,
  0xb4, 0x38, 0x83, 0x3e, 0x1a, 0x3e, 0x13, 0x3e, 0xbe, 0x29, 0xa4, 0xbd,
  0x16, 0xb5, 0x19, 0x3e, 0x7f, 0x6c, 0x39, 0x3e, 0x0f, 0xc1, 0x0c, 0x3f,
  0xd9, 0xab, 0x2f, 0xbe, 0x59, 0x88, 0x98, 0x3d, 0x5e, 0x7a, 0x78, 0xbe,
  0x9a, 0x2e, 0x50, 0xbd, 0xeb, 0x8e, 0x80, 0x3d, 0xc6, 0xbe, 0xae, 0xbe,
  0xb1, 0x1b, 0x49, 0x3c, 0x60, 0x03, 0xc9, 0x3e, 0x69, 0xaf, 0x90, 0x3e,
  0x9e, 0x21, 0x14, 0xbe, 0x95, 0x8c, 0x30, 0xbe, 0xb6, 0xbe, 0xee, 0x3c,
  0xbc, 0xd3, 0x39, 0xbe, 0x64, 0x18, 0x40, 0xbe, 0xc1, 0x44, 0x49, 0x3e,
  0x03, 0xea, 0x05, 0x3e, 0x90, 0x27, 0x6b, 0x3e, 0x40, 0xb9, 0x0f, 0x3f,
  0xe2, 0xca, 0xcb, 0xbd, 0xf2, 0x30, 0xed, 0x3c, 0xca, 0x07, 0x66, 0xbe,
  0xfa, 0xa7, 0x7b, 0xbe, 0xa5, 0xe8, 0x64, 0xbb, 0xe5, 0xa1, 0x7f, 0xbe,
  0x88, 0xff, 0x9d, 0xbe, 0x5b, 0x42, 0x23, 0x3e, 0x64, 0xd6, 0x63, 0xbe,
  0x6b, 0x86, 0x00, 0x3f, 0x87, 0xba, 0x48, 0x3e, 0x21, 0x0f, 0x50, 0x3b,
  0xd9, 0x9f, 0x30, 0x3d, 0x9e, 0xf4, 0xa7, 0x3d, 0x55, 0x8f, 0x66, 0xbe,
  0x56, 0xc7, 0x43, 0xbe, 0xb5, 0x8f, 0xe4, 0x3d, 0xc5, 0x36, 0xf1, 0x3c,
  0x2a, 0xfe, 0x94, 0x3d, 0x43, 0x63, 0x79, 0x3e, 0xc5, 0xb0, 0x63, 0x3e,
  0xc0, 0x1b, 0x86, 0x3e, 0x3e, 0xe1, 0x41, 0x3e, 0x14, 0xc2, 0x7c, 0x3d,
  0x27, 0xb8, 0x4c, 0xbe, 0x47, 0xcd, 0xbd, 0xbd, 0x3a, 0xd5, 0x88, 0xbd,
  0x4f, 0xfd, 0x05, 0x3f, 0xd7, 0xf7, 0xbe, 0x3e, 0x55, 0x55, 0xbf, 0x3d,
  0x93, 0xbc, 0x81, 0x3d, 0x21, 0x48, 0xc2, 0xbd, 0xe4, 0x83, 0x1a, 0x3e,
  0x38, 0xeb, 0xc6, 0x3d, 0xf4, 0x5b, 0xf4, 0x3d, 0x1a, 0xe3, 0x86, 0xbd,
  0x39, 0xdd, 0xf1, 0xbe, 0x0e, 0x16, 0xea, 0x3c, 0x03, 0xc8, 0x8e, 0xbe,
  0x65, 0xb9, 0x77, 0x3e, 0xbe, 0xab, 0x98, 0x3c, 0x30, 0x1d, 0x5d, 0x3e,
  0xb9, 0x12, 0xda, 0x3d, 0x3a, 0x3a, 0xa4, 0xbe, 0xfd, 0x92, 0xb7, 0xbd,
  0x62, 0xc0, 0x01, 0xbf, 0x08, 0xa9, 0x2e, 0x3e, 0xe6, 0x8e, 0x17, 0x3e,
  0x32, 0x85, 0x32, 0xbe, 0xdc, 0xec, 0x6c, 0x3e, 0xc8, 0x8c, 0x73, 0x3e,
  0x78, 0xf5, 0x0f, 0x3f, 0xaa, 0x07, 0x9f, 0x3b, 0x1a, 0xe3, 0x5e, 0x3d,
  0x2b, 0x4d, 0xc8, 0xbe, 0x9a, 0x2d, 0xf5, 0xbd, 0x6f, 0x6b, 0x83, 0x3e,
  0x39, 0xc5, 0x90, 0xbe, 0x92, 0xec, 0x1a, 0x3e, 0x32, 0x07, 0x51, 0xbe,
  0xc7, 0xe1, 0x6a, 0xbe, 0x02, 0x9a, 0x85, 0xbd, 0x0b, 0xba, 0xad, 0x3e,
  0xb9, 0x02, 0xa3, 0xbd, 0x52, 0x8f, 0x96, 0x3e, 0x88, 0x4a, 0x6c, 0xbe,
  0xae, 0x85, 0x18, 0x3e, 0x3a, 0xfe, 0x42, 0xbc, 0x0f, 0x20, 0x25, 0x3e,
  0xef, 0x15, 0x78, 0xbe, 0x8d, 0xcb, 0x7c, 0xbe, 0x9e, 0xfd, 0xfb, 0x3d,
  0x20, 0x51, 0x66, 0x3d, 0x25, 0xd5, 0x3e, 0xbe, 0x8d, 0x67, 0x65, 0x3e,
  0x03, 0x44, 0xf7, 0x3d, 0x15, 0x16, 0xd5, 0xbd, 0x89, 0x87, 0x4b, 0x3e,
  0x9f, 0x09, 0x79, 0x3d, 0xfc, 0xeb, 0x97, 0xbd, 0xe8, 0xd7, 0xf2, 0xbd,
  0x4d, 0x54, 0xac, 0x3b, 0xca, 0x82, 0x57, 0x3e, 0x58, 0x10, 0x04, 0xbe,
  0x74, 0x33, 0xbd, 0x3d, 0xc3, 0x29, 0x32, 0xbe, 0xa1, 0x97, 0x53, 0x3e,
  0xe4, 0x3d, 0x08, 0x3e, 0x9b, 0x30, 0x00, 0xbe, 0xdb, 0xf4, 0x91, 0x3e,
  0x90, 0xd6, 0x73, 0x3e, 0xe0, 0x75, 0x84, 0x3d, 0x7d, 0xe7, 0x60, 0xbe,
  0xab, 0x99, 0x5f, 0xbd, 0xf3, 0xd9, 0x12, 0xbe, 0x7a, 0x8d, 0x38, 0xbe,
  0x6e, 0xbf, 0x9c, 0x3d, 0xa2, 0x15, 0x1f, 0xbe, 0xa5, 0xcb, 0x67, 0x3c,
  0x86, 0x05, 0xed, 0x3c, 0x94, 0x8c, 0xe5, 0xbd, 0xe4, 0x09, 0xd7, 0x3d,
  0x89, 0x6d, 0xaa, 0x3d, 0xf5, 0x9e, 0xad, 0xbd, 0x9c, 0x77, 0xac, 0xbe,
  0x66, 0x0d, 0x76, 0x3d, 0xd4, 0x86, 0x27, 0xbe, 0x70, 0x13, 0x97, 0xbd,
  0x97, 0x5e, 0xf7, 0x3d, 0x07, 0xbe, 0xaa, 0x3e, 0xf0, 0xd4, 0x64, 0xbe,
  0x06, 0x91, 0x75, 0xbd, 0x09, 0xe5, 0x4a, 0xbe, 0x82, 0xdf, 0x32, 0xbe,
  0xc8, 0x0a, 0xfe, 0x3e, 0xa0, 0x48, 0x8e, 0xbe, 0xd6, 0x6a, 0x6c, 0x3d,
  0x7e, 0xe5, 0x27, 0x3e, 0x34, 0xb8, 0x97, 0x3e, 0xf7, 0xeb, 0x81, 0xbe,
  0xaa, 0x79, 0x55, 0x3d, 0x25, 0xb3, 0x0e, 0xbd, 0xee, 0x46, 0x76, 0x3d,
  0x69, 0xb8, 0xff, 0x3d, 0x0b, 0xa7, 0xbb, 0xbe, 0xdb, 0xcd, 0x13, 0x3e,
  0x32, 0x00, 0xb4, 0xbe, 0x10, 0x51, 0x2e, 0x3e, 0xf1, 0x23, 0x60, 0x3e,
  0x3f, 0xdd, 0x23, 0xbe, 0x1c, 0x32, 0xea, 0xbd, 0x0a, 0x9e, 0xcd, 0xbd,
  0xd6, 0x4a, 0x34, 0x3c, 0xe9, 0x3c, 0xa3, 0xbe, 0xbf, 0x53, 0x43, 0xbe,
  0x29, 0xe3, 0x66, 0xbe, 0xc2, 0x00, 0xba, 0x3e, 0x5f, 0x1b, 0x0d, 0xbe,
  0x4c, 0xa1, 0x44, 0x3c, 0xa5, 0xae, 0x6a, 0x3e, 0xac, 0x4e, 0x74, 0xbe,
  0xc0, 0x53, 0x16, 0x3d, 0x59, 0x14, 0xb1, 0xbe, 0x97, 0xe1, 0x5c, 0xbe,
  0x4e, 0x0d, 0x8a, 0x3e, 0x12, 0x5f, 0x90, 0x3e, 0xb6, 0xbc, 0xd6, 0x3d,
  0x09, 0x8b, 0x46, 0xbe, 0x53, 0x12, 0x87, 0xbe, 0x88, 0xe6, 0x3d, 0x3d,
  0xb7, 0x04, 0x2b, 0xbe, 0x6a, 0x26, 0x93, 0xbd, 0xaa, 0x6c, 0x90, 0xbd,
  0xc6, 0xac, 0xab, 0xbd, 0xa2, 0xc5, 0xe3, 0x3e, 0xa3, 0xfc, 0x81, 0x3d,
  0x0f, 0xc6, 0x3a, 0x3e, 0xee, 0x93, 0xdd, 0x3c, 0xc4, 0xf5, 0xfd, 0xbd,
  0x57, 0x7a, 0x05, 0xbe, 0x20, 0x36, 0x81, 0xbe, 0x40, 0xa4, 0xb9, 0xbe,
  0xd8, 0x4c, 0x28, 0x3e, 0x35, 0x4b, 0xd7, 0x3e, 0x9e, 0x77, 0x97, 0x3e,
  0x00, 0xdf, 0x53, 0x3d, 0x6a, 0xc3, 0x89, 0x3e, 0x3c, 0x69, 0xf7, 0xbc,
  0x7b, 0xe6, 0xe9, 0xbe, 0x60, 0x3f, 0x7c, 0x3b, 0xf2, 0xae, 0x80, 0xbe,
  0x7d, 0x02, 0xc0, 0x3b, 0xe1, 0x65, 0x83, 0x3e, 0xea, 0xe0, 0xd3, 0xbd,
  0x89, 0xfe, 0x81, 0x3d, 0x49, 0x0f, 0x8f, 0xbd, 0xd4, 0x62, 0xf0, 0x3e,
  0xa3, 0x5e, 0x0e, 0xbf, 0x5b, 0xaf, 0x0c, 0xbc, 0xfd, 0x81, 0x79, 0xbd,
  0xa1, 0xaf, 0xf1, 0x3e, 0x48, 0xda, 0x1e, 0xbe, 0xe9, 0x8c, 0x3e, 0xbe,
  0x42, 0x20, 0xe3, 0xbd, 0x85, 0xad, 0x6e, 0xbe, 0xc3, 0x1b, 0x83, 0x3e,
  0x2c, 0xc9, 0xda, 0xbe, 0x4c, 0xeb, 0x74, 0xbc, 0x74, 0xe5, 0x77, 0xbc,
  0xd6, 0xb3, 0xef, 0x3e, 0xb2, 0x18, 0x6b, 0x3e, 0x84, 0xbc, 0xf4, 0x3d,
  0x1b, 0xe9, 0x20, 0xbe, 0xb8, 0x0c, 0x38, 0xbe, 0xba, 0x3f, 0xa3, 0x3d,
  0xa7, 0x11, 0x43, 0xbe, 0x8c, 0x78, 0x1f, 0x3e, 0xfb, 0x22, 0x5b, 0x3e,
  0xb0, 0x56, 0x3b, 0xbe, 0xda, 0x61, 0xf7, 0xbe, 0xfc, 0x7c, 0x1d, 0x3e,
  0xc8, 0x01, 0x59, 0xbd, 0x6a, 0x45, 0x0f, 0x3e, 0xa5, 0xc7, 0xcc, 0x3e,
  0xb1, 0xbb, 0x7d, 0xbd, 0x7c, 0x30, 0x58, 0xbe, 0xd6, 0xdd, 0x34, 0xbe,
  0x1a, 0x4a, 0x50, 0x3c, 0x2e, 0xc6, 0xe7, 0xbd, 0x17, 0x9e, 0x43, 0xbe,
  0xc5, 0x2d, 0xa3, 0xbd, 0x54, 0x5c, 0x3c, 0x3d, 0x9c, 0xe5, 0x3d, 0x3c,
  0xeb, 0x90, 0xe9, 0xbb, 0x32, 0xa3, 0x22, 0x3e, 0x51, 0x51, 0x03, 0x3e,
  0x3b, 0xee, 0x2c, 0xbe, 0x89, 0x51, 0x94, 0xbe, 0xaa, 0xd2, 0xff, 0xff,
  0x04, 0x00, 0x00, 0x00, 0x08, 0x00, 0x00, 0x00, 0x01, 0x00, 0x00, 0x00,
  0xc0, 0x00, 0x00, 0x00, 0xbe, 0xd2, 0xff, 0xff, 0x04, 0x00, 0x00, 0x00,
  0x00, 0x15, 0x00, 0x00, 0xd8, 0xdc, 0x4f, 0x3d, 0x88, 0x1d, 0xd1, 0x3d,
  0xac, 0xd2, 0xca, 0x3d, 0xcb, 0x66, 0xfe, 0x3d, 0xd7, 0xd5, 0x58, 0x3e,
  0x68, 0xe5, 0xfa, 0x3c, 0xae, 0x36, 0x3d, 0xbd, 0x19, 0x60, 0xa9, 0x3c,
  0xbb, 0x02, 0x1e, 0x3d, 0xe5, 0x0a, 0xb8, 0x3d, 0x10, 0xaf, 0x98, 0xbd,
  0x9a, 0xf4, 0x9a, 0xbd, 0x02, 0xdc, 0x3a, 0xbe, 0x52, 0x77, 0x4e, 0xbe,
  0xda, 0x08, 0x65, 0xbd, 0x6d, 0x92, 0x28, 0xbd, 0x8f, 0xfc, 0xfd, 0xbc,
  0x77, 0xaf, 0x1c, 0x3d, 0x01, 0xe0, 0x34, 0xbe, 0xa1, 0x89, 0xe0, 0xbd,
  0x6f, 0x00, 0x09, 0xbe, 0x5c, 0x51, 0x08, 0x3d, 0x91, 0x0f, 0xbe, 0xbd,
  0x0e, 0x2f, 0xd9, 0xbd, 0x5c, 0x11, 0x30, 0x3c, 0x85, 0x44, 0xea, 0x3d,
  0x0f, 0x17, 0xf1, 0xbd, 0xbf, 0x9b, 0x0f, 0xbd, 0x8f, 0x0e, 0xfb, 0x3d,
  0xf0, 0xa5, 0xc1, 0x3d, 0x23, 0x63, 0x3c, 0x3c, 0xbf, 0x36, 0x9d, 0xbd,
  0x4a, 0x54, 0xf8, 0xbb, 0x65, 0xa3, 0x00, 0xbe, 0xe3, 0x24, 0xc3, 0xbd,
  0xb6, 0x7f, 0x8f, 0xbd, 0x65, 0x3a, 0x52, 0x3d, 0x97, 0x87, 0x59, 0xbe,
  0xa4, 0x52, 0x27, 0x3e, 0x64, 0xf5, 0x14, 0x3e, 0x97, 0x62, 0xb0, 0x3d,
  0x12, 0x09, 0xef, 0xbd, 0x8d, 0xa6, 0xb5, 0x3d, 0x7a, 0x6e, 0x21, 0x3e,
  0xa2, 0x3a, 0x0e, 0xbe, 0xa2, 0x53, 0x26, 0xbe, 0x3b, 0x5b, 0x87, 0xbe,
  0x09, 0xcc, 0xe7, 0x3d, 0xb4, 0x3f, 0x88, 0xbd, 0x19, 0x7b, 0xa8, 0xbd,
  0x9b, 0xc4, 0x72, 0xbd, 0xa8, 0xf6, 0x78, 0xbd, 0xbd, 0x96, 0x5b, 0xbd,
  0xac, 0xb6, 0x05, 0xbe, 0x28, 0xe2, 0xe0, 0xbc, 0xc4, 0x68, 0xc0, 0x3d,
  0x40, 0x55, 0xf0, 0x3c, 0xcc, 0xb2, 0x01, 0x3d, 0x2e, 0xeb, 0x57, 0xbc,
  0x52, 0x63, 0x2f, 0x3e, 0x53, 0x3e, 0x53, 0xbd, 0xf2, 0x1d, 0x4f, 0xbd,
  0x8f, 0x95, 0x69, 0x3d, 0x1e, 0xec, 0x0b, 0xbc, 0x18, 0xd0, 0xee, 0xbc,
  0xcd, 0x10, 0x98, 0x3c, 0x8b, 0x72, 0x2f, 0x3d, 0x7c, 0x18, 0xc1, 0x3d,
  0x73, 0x61, 0x3d, 0x3e, 0x93, 0x9c, 0x06, 0xbe, 0xb3, 0x48, 0x8d, 0x3d,
  0x39, 0xc7, 0x66, 0x3d, 0x4e, 0x58, 0xfa, 0x3d, 0x61, 0x81, 0xba, 0xbd,
  0x89, 0x7a, 0x53, 0xbc, 0x41, 0x47, 0x05, 0x3e, 0x0b, 0x7f, 0x8e, 0xbd,
  0x48, 0x36, 0x3e, 0x3d, 0x44, 0x4d, 0x68, 0xbe, 0xe3, 0xe8, 0x01, 0x3e,
  0x7d, 0x68, 0x40, 0xbe, 0x60, 0xd5, 0xa1, 0xbb, 0xc8, 0xd7, 0xf0, 0x3d,
  0xb3, 0x55, 0x39, 0xbd, 0x50, 0xaf, 0xce, 0xbd, 0x50, 0x80, 0x91, 0x3d,
  0xd3, 0x1d, 0x0a, 0x3d, 0x5d, 0x07, 0xed, 0x3d, 0xc0, 0xac, 0xa7, 0x3d,
  0x65, 0x54, 0x84, 0xbd, 0xa5, 0x53, 0x35, 0x3d, 0x9f, 0x15, 0xba, 0x3c,
  0x0f, 0x38, 0x70, 0x3d, 0x20, 0x87, 0xb1, 0xbc, 0x98, 0x0c, 0xa3, 0x3c,
  0xfb, 0x40, 0x1b, 0xbe, 0xc7, 0xbe, 0x6e, 0xbd, 0x9e, 0xf1, 0x73, 0x3c,
  0x07, 0x54, 0xe5, 0xbc, 0x68, 0xa1, 0x26, 0x3e, 0xd6, 0x94, 0xd5, 0xbd,
  0xa0, 0xf9, 0xa5, 0xbd, 0x70, 0x49, 0x12, 0xbe, 0xad, 0x7a, 0x0b, 0x3e,
  0x09, 0xab, 0x07, 0x3e, 0xd1, 0xeb, 0xcc, 0xbd, 0xda, 0x2a, 0xb8, 0x3d,
  0x62, 0xf9, 0x68, 0xbd, 0xf1, 0xc6, 0xbb, 0xbc, 0x61, 0x82, 0xa8, 0x3d,
  0xb4, 0x88, 0x8d, 0x3b, 0xc0, 0xb8, 0x59, 0x3d, 0x94, 0x03, 0xf9, 0x3d,
  0xeb, 0xa9, 0x75, 0xbd, 0xd1, 0x93, 0x83, 0xbd, 0x2b, 0xcb, 0x1d, 0x3e,
  0x7a, 0x97, 0xe5, 0x3d, 0x0d, 0x6f, 0x1b, 0x3e, 0xfb, 0x22, 0x43, 0x3d,
  0xba, 0x8e, 0x9e, 0x3d, 0xd6, 0x6b, 0xc7, 0x3d, 0x10, 0xad, 0x2f, 0x3c,
  0x26, 0x7b, 0x89, 0x3d, 0xad, 0xe7, 0xc2, 0xbd, 0x63, 0x65, 0x61, 0x3d,
  0xe9, 0xda, 0xab, 0x3c, 0xdd, 0x73, 0xc1, 0x3d, 0xce, 0x0e, 0xf8, 0xbd,
  0x2f, 0x84, 0x04, 0x3e, 0x7d, 0x8f, 0x26, 0x3d, 0xb3, 0xc1, 0x0a, 0xbe,
  0xbd, 0x72, 0x38, 0x3e, 0x80, 0xee, 0x4c, 0x3d, 0x35, 0xb4, 0x8a, 0xbc,
  0x6f, 0x7b, 0x03, 0xbd, 0x73, 0x05, 0x86, 0x3d, 0x66, 0x6b, 0x90, 0x3d,
  0x05, 0x44, 0xdc, 0x3d, 0x16, 0xc7, 0xc5, 0x3d, 0x05, 0x44, 0x17, 0xbe,
  0x97, 0xe4, 0x36, 0xbe, 0x70, 0x02, 0x91, 0xbc, 0x74, 0x7b, 0x43, 0xbe,
  0xb3, 0xdc, 0x87, 0x3c, 0xab, 0xf1, 0x9d, 0xbc, 0x96, 0xec, 0xf9, 0x3d,
  0x0a, 0xc2, 0x24, 0xbe, 0x6b, 0x40, 0x2e, 0x3e, 0x3b, 0xc9, 0x0a, 0xbe,
  0x18, 0x1b, 0x73, 0x3d, 0x37, 0x65, 0x86, 0xbd, 0x94, 0x50, 0x5e, 0xbd,
  0x58, 0x1b, 0xfc, 0xbc, 0xbf, 0xeb, 0x81, 0x3c, 0x99, 0xf7, 0x1c, 0x3e,
  0xeb, 0x79, 0x66, 0xbd, 0x72, 0xd7, 0x73, 0xbd, 0x6e, 0x92, 0xa6, 0x3d,
  0xf0, 0x6f, 0x45, 0x3d, 0xb2, 0xe2, 0xc9, 0xbd, 0x5c, 0xf0, 0x07, 0xbd,
  0xad, 0xdb, 0x13, 0x3e, 0x05, 0xd4, 0x55, 0x3d, 0x15, 0xe4, 0x52, 0x3e,
  0x80, 0x83, 0xb5, 0x3d, 0x49, 0x0d, 0xdc, 0xbd, 0xa4, 0x8a, 0x31, 0xbe,
  0x2c, 0xa8, 0x20, 0x3d, 0x4b, 0x65, 0x91, 0xbb, 0x96, 0xf4, 0x16, 0xbe,
  0xb3, 0xd8, 0xf4, 0x3d, 0xdb, 0xde, 0x87, 0x3d, 0xd6, 0xbf, 0x98, 0xbd,
  0xb3, 0xa0, 0x46, 0x3e, 0xee, 0xa5, 0x19, 0xbe, 0xc1, 0x14, 0x61, 0x3e,
  0x0e, 0x31, 0x28, 0x3a, 0xaf, 0x33, 0x50, 0x3d, 0xf4, 0x95, 0x1f, 0xbe,
  0xcb, 0x27, 0xac, 0x3d, 0x6c, 0x7e, 0xa4, 0x3d, 0xa6, 0x7a, 0x05, 0x3e,
  0x77, 0x7d, 0xf7, 0x3d, 0xd3, 0xd8, 0x20, 0xbd, 0xd5, 0x9b, 0x1c, 0x3e,
  0xa4, 0xed, 0xaf, 0xbb, 0xfc, 0xfc, 0xe6, 0xbc, 0xc6, 0x8d, 0x14, 0xbe,
  0x77, 0xc8, 0x26, 0x3e, 0x88, 0xb8, 0x62, 0x3d, 0x02, 0x95, 0xcc, 0x3d,
  0xfc, 0xde, 0xa6, 0x3d, 0x1b, 0x6f, 0xf3, 0xbd, 0x28, 0x9a, 0x27, 0xbd,
  0x6a, 0x77, 0xf5, 0xbd, 0xd9, 0x6a, 0x7c, 0x3d, 0x2c, 0x4e, 0x11, 0x3e,
  0xb5, 0xd1, 0x7c, 0x3e, 0x6b, 0xd4, 0x1f, 0xbd, 0xd5, 0x05, 0xa8, 0x3d,
  0xa3, 0x9f, 0x01, 0xbe, 0xc0, 0x73, 0x2f, 0x3d, 0xf5, 0x6d, 0x86, 0x3d,
  0x38, 0xe0, 0x1a, 0xbd, 0x9a, 0xaf, 0xec, 0x3c, 0x50, 0x1d, 0x3e, 0x3d,
  0x09, 0xe5, 0xa5, 0x3c, 0xd9, 0x8c, 0x8f, 0x3d, 0xd1, 0xf3, 0x19, 0x3e,
  0xbb, 0xa3, 0x2c, 0xbd, 0x1a, 0x80, 0xbf, 0x3d, 0x90, 0x31, 0xde, 0x3d,
  0xa7, 0x2b, 0x8a, 0xbd, 0xa7, 0xe2, 0xae, 0x3d, 0xcd, 0x8a, 0x22, 0xbe,
  0x1a, 0x97, 0x55, 0xbd, 0x7e, 0xd0, 0xa1, 0x3d, 0xd8, 0xb6, 0x2b, 0xbd,
  0xef, 0x4c, 0x0a, 0xbe, 0x7c, 0x30, 0x11, 0x3e, 0x6d, 0x88, 0xfc, 0x3c,
  0xf5, 0x6b, 0x14, 0x3c, 0x7f, 0x85, 0x19, 0x3d, 0x13, 0x0d, 0x64, 0x3c,
  0x90, 0xb0, 0xd5, 0x3d, 0x2b, 0xd0, 0x10, 0x3e, 0x62, 0xe3, 0xee, 0xbd,
  0x03, 0x2a, 0xd1, 0xbd, 0x52, 0x26, 0x63, 0x3c, 0xa7, 0x60, 0xc2, 0xbb,
  0x54, 0x4d, 0xe9, 0xbd, 0xd9, 0x35, 0x1c, 0x3e, 0x93, 0xd0, 0xad, 0xb8,
  0xf8, 0x56, 0x25, 0xbd, 0x15, 0xd1, 0x5a, 0xbc, 0xc1, 0xbc, 0x1b, 0x3d,
  0x0e, 0x06, 0xf0, 0xbd, 0xa7, 0xe1, 0xea, 0xbd, 0x8b, 0xc2, 0xed, 0x3d,
  0x3f, 0x90, 0xe4, 0xbd, 0x39, 0xff, 0xac, 0x3c, 0xe1, 0x7d, 0x22, 0xbe,
  0x8c, 0x68, 0x15, 0xbe, 0x23, 0xe7, 0xf9, 0x3d, 0x85, 0x9b, 0xa3, 0x3d,
  0x48, 0x3c, 0xe6, 0xbd, 0x15, 0x51, 0x00, 0x3e, 0xd0, 0x40, 0x82, 0xbc,
  0xa7, 0xb3, 0xd3, 0x3d, 0x90, 0x11, 0x04, 0xbd, 0xd1, 0x39, 0xf3, 0xbd,
  0xa6, 0x25, 0xbe, 0xbd, 0xd8, 0xfe, 0x94, 0xbd, 0x95, 0xf9, 0x18, 0x3e,
  0xfb, 0x7c, 0x21, 0xbe, 0x19, 0xa2, 0xb2, 0xbd, 0xa5, 0xd5, 0xd2, 0xbd,
  0x0e, 0x0b, 0x20, 0x3e, 0x22, 0x2f, 0xa2, 0x3d, 0x74, 0x4c, 0x2e, 0xbd,
  0xcd, 0x58, 0x19, 0x3e, 0x0e, 0x76, 0xd0, 0x3d, 0xdd, 0x44, 0xe8, 0x3d,
  0xb5, 0xd9, 0x38, 0xbe, 0x9d, 0x33, 0xa0, 0x3d, 0xf0, 0xac, 0xe6, 0x3b,
  0x96, 0x49, 0x02, 0xbe, 0x12, 0x7b, 0xf9, 0xbc, 0x82, 0x7c, 0x0b, 0xbe,
  0x2c, 0x9b, 0x5c, 0xbc, 0x17, 0x06, 0x05, 0xbe, 0xf0, 0x17, 0x3e, 0xbd,
  0x45, 0x89, 0x9e, 0x3d, 0xeb, 0xf0, 0x3a, 0xbe, 0x9f, 0x99, 0xb0, 0x3d,
  0x3e, 0x35, 0xa8, 0xbc, 0x05, 0x12, 0x28, 0x3e, 0xc3, 0xdd, 0xac, 0xbc,
  0x8d, 0x36, 0x35, 0xbe, 0x33, 0x65, 0xde, 0x3d, 0x43, 0xd1, 0x46, 0x3d,
  0xf5, 0xf2, 0x33, 0x3d, 0x83, 0xed, 0x38, 0x3e, 0x19, 0x5c, 0x96, 0x3b,
  0x9d, 0x00, 0xc9, 0x3d, 0xf4, 0xca, 0x55, 0x3d, 0x64, 0x33, 0x3f, 0x3d,
  0xcd, 0x41, 0xe5, 0x3d, 0x7b, 0x44, 0x33, 0x3c, 0xf5, 0x8c, 0x33, 0x3e,
  0x93, 0xeb, 0x47, 0x3d, 0x14, 0xf5, 0xed, 0x3d, 0xdf, 0x70, 0xad, 0xbd,
  0x01, 0xc3, 0x62, 0xbd, 0xcf, 0x2f, 0x02, 0x3d, 0xcd, 0x93, 0x9a, 0x3d,
  0xb6, 0x14, 0xf1, 0x3d, 0x20, 0x72, 0x82, 0x3b, 0xc6, 0x7b, 0x36, 0x3d,
  0x01, 0x66, 0x63, 0xbd, 0xc7, 0x0f, 0xb3, 0xbd, 0xfc, 0x3b, 0x65, 0xbd,
  0xdf, 0xae, 0x16, 0x3e, 0x23, 0x55, 0xf9, 0x3d, 0x33, 0x7a, 0x20, 0x3e,
  0xc5, 0xc3, 0x21, 0xbb, 0x4e, 0xf7, 0x34, 0xbc, 0x5f, 0x81, 0xc5, 0xbd,
  0x6a, 0xb2, 0x61, 0xbd, 0x40, 0x0e, 0x20, 0x3e, 0x33, 0xb4, 0x09, 0xbe,
  0x7e, 0xfc, 0x8f, 0x3d, 0x8b, 0xb2, 0x70, 0xbd, 0x6e, 0x39, 0xaa, 0xbd,
  0x0e, 0x1c, 0x09, 0x3e, 0x50, 0xec, 0x20, 0xbd, 0xd6, 0xed, 0xa0, 0x3c,
  0x8c, 0xfe, 0xef, 0x3d, 0x51, 0x62, 0xab, 0xbd, 0x4e, 0x78, 0x36, 0x3e,
  0xb0, 0x31, 0xcc, 0x3d, 0xec, 0x36, 0x30, 0x3e, 0x6b, 0xb5, 0xef, 0x3c,
  0x10, 0xb7, 0x93, 0x3d, 0x6a, 0x7e, 0x06, 0xbd, 0x79, 0x5f, 0x62, 0x3e,
  0xfb, 0xcf, 0x00, 0xbd, 0xf1, 0x3a, 0x16, 0xbe, 0x0c, 0xef, 0x5e, 0x3d,
  0xce, 0x59, 0x7d, 0xbd, 0x32, 0x08, 0x06, 0xbe, 0xc2, 0xed, 0x07, 0xbc,
  0x3b, 0x7e, 0x1c, 0x3d, 0x46, 0x10, 0x0f, 0xbe, 0x37, 0x9a, 0x14, 0xbd,
  0x98, 0x94, 0x32, 0x3d, 0xde, 0x5e, 0x8b, 0xbc, 0xf6, 0xf1, 0x05, 0xbe,
  0x5b, 0xde, 0xff, 0xbd, 0xea, 0x0a, 0x06, 0x3e, 0xe4, 0xb9, 0xb9, 0x3d,
  0xfc, 0x71, 0x42, 0xbe, 0x1d, 0x6b, 0xed, 0xbd, 0xed, 0xd8, 0xda, 0xbd,
  0xe4, 0x0c, 0x78, 0x3d, 0x7d, 0x3f, 0xdf, 0xbd, 0xec, 0x65, 0xe8, 0x3d,
  0xf3, 0xea, 0x02, 0xbe, 0x98, 0xde, 0x4a, 0x3e, 0xa6, 0xec, 0x7a, 0x3d,
  0x2e, 0x15, 0x0e, 0xbe, 0xf8, 0xcc, 0x95, 0xbd, 0x54, 0x3c, 0xcd, 0xbd,
  0xcd, 0x36, 0xf6, 0x3d, 0x84, 0x7a, 0x63, 0x3d, 0x89, 0x24, 0xd9, 0xbb,
  0x11, 0x50, 0xf3, 0xbc, 0x66, 0xed, 0x10, 0x3e, 0x01, 0x08, 0x0b, 0xbd,
  0x4d, 0xe5, 0x5d, 0x3d, 0x17, 0xde, 0x09, 0xbd, 0xf2, 0x19, 0x90, 0xbd,
  0x1d, 0x06, 0x0b, 0xbe, 0x0e, 0xee, 0x9c, 0x3a, 0x15, 0x9f, 0x16, 0x3e,
  0x9f, 0x4a, 0x3f, 0x3c, 0xb2, 0x1c, 0x32, 0x3e, 0x33, 0x32, 0xd9, 0xbc,
  0xf2, 0xf1, 0xb9, 0x3d, 0x39, 0xdc, 0xe2, 0xbd, 0xd2, 0x6f, 0x85, 0x3c,
  0x48, 0x62, 0x24, 0x3d, 0x80, 0x4d, 0xe2, 0xbd, 0xfa, 0x5b, 0x5d, 0xbc,
  0x22, 0x20, 0xf8, 0x3d, 0xbf, 0x9f, 0xaf, 0xbd, 0x9d, 0x27, 0xcd, 0x3d,
  0x1f, 0x7b, 0xe0, 0x3b, 0x15, 0x4f, 0x64, 0xbd, 0x2d, 0x19, 0x1e, 0x3c,
  0xa6, 0x83, 0x7a, 0x3d, 0x3c, 0x50, 0x12, 0xbd, 0xea, 0x21, 0x97, 0xbc,
  0xd1, 0xe8, 0x8c, 0xbc, 0xff, 0x9d, 0x84, 0x3e, 0x75, 0x7f, 0x5e, 0xbd,
  0xd4, 0xe5, 0xcc, 0xbd, 0xf3, 0x33, 0xb2, 0xbd, 0xd4, 0x44, 0x1b, 0xbe,
  0x65, 0x84, 0x6f, 0xbd, 0x1a, 0x56, 0x9e, 0x3d, 0xec, 0x54, 0x7f, 0xbd,
  0xd7, 0x96, 0xf5, 0x3d, 0x7f, 0x82, 0xbe, 0x3d, 0xda, 0x74, 0xad, 0xbb,
  0x52, 0x95, 0x9f, 0x3c, 0x10, 0xef, 0x79, 0x3d, 0x9b, 0xa4, 0x19, 0xbe,
  0xe5, 0x92, 0xb4, 0x3d, 0x36, 0xfb, 0x34, 0x3d, 0xcc, 0xde, 0xe8, 0x3c,
  0x52, 0xd3, 0x3d, 0x3e, 0x09, 0x3e, 0x4f, 0xbd, 0xbb, 0xd9, 0x32, 0x3e,
  0xf0, 0x03, 0x0f, 0x3e, 0x8d, 0xf3, 0x72, 0x3e, 0x42, 0x3c, 0x0d, 0x3c,
  0x5d, 0xa5, 0xc5, 0xbd, 0x4a, 0x59, 0x0f, 0xbe, 0x12, 0x28, 0xb7, 0xbd,
  0x81, 0x13, 0x15, 0xbe, 0xa4, 0xe3, 0xa4, 0x3d, 0x91, 0x3d, 0xc1, 0x3d,
  0x5f, 0x05, 0x2c, 0xbe, 0x85, 0xb2, 0x85, 0x3e, 0x12, 0x44, 0xac, 0x3c,
  0xe3, 0xca, 0x2c, 0x3e, 0x62, 0x0b, 0x01, 0x3e, 0xf3, 0x26, 0xca, 0xbd,
  0x12, 0x0e, 0xe2, 0x3d, 0xd5, 0x00, 0xb0, 0x3d, 0xac, 0x81, 0xb9, 0xbd,
  0x7e, 0xcf, 0x38, 0x3d, 0x48, 0x2e, 0x16, 0x3e, 0x77, 0x54, 0x5b, 0x3e,
  0x40, 0xf3, 0x0a, 0xbc, 0x46, 0x99, 0xdb, 0xbd, 0x9d, 0xca, 0x2b, 0xbd,
  0xea, 0x18, 0xdb, 0x3d, 0xee, 0xe9, 0x16, 0xbe, 0x03, 0x72, 0x42, 0x3e,
  0x08, 0x9b, 0xaa, 0xbd, 0x09, 0xce, 0x24, 0x3e, 0x89, 0xc1, 0xb3, 0x3d,
  0xcf, 0x52, 0x6a, 0x3d, 0xc8, 0x8e, 0x53, 0xbd, 0xf4, 0xb6, 0x73, 0xbd,
  0x77, 0x0d, 0x5d, 0xbd, 0x2e, 0xf8, 0x45, 0x3e, 0xbf, 0x2a, 0xad, 0xbc,
  0x1d, 0x41, 0x20, 0x3e, 0x62, 0x62, 0x58, 0xbd, 0xf7, 0x0a, 0x23, 0xbe,
  0x8f, 0x46, 0x04, 0x3e, 0xdb, 0xeb, 0x29, 0x3e, 0xb5, 0xeb, 0x1a, 0xbe,
  0xf0, 0xe4, 0xb5, 0xbc, 0xe9, 0xfd, 0x1a, 0xbe, 0xe5, 0x84, 0x15, 0xba,
  0x50, 0xa4, 0x33, 0x3e, 0x3d, 0xfa, 0x08, 0x3e, 0xa9, 0xe6, 0x28, 0x3e,
  0x92, 0xa2, 0xc4, 0xbd, 0xbd, 0x12, 0x80, 0x3c, 0xb3, 0xd7, 0x98, 0x3d,
  0xa4, 0x06, 0x17, 0x3d, 0xec, 0x52, 0x5e, 0x3e, 0x1e, 0x1f, 0x1f, 0x3e,
  0xeb, 0x20, 0x50, 0x3d, 0x96, 0x2c, 0x30, 0x3e, 0xcb, 0x55, 0xe9, 0x3d,
  0x50, 0x6c, 0x1f, 0x3e, 0xd3, 0x7d, 0xc8, 0x3c, 0x2b, 0x58, 0x55, 0xbd,
  0x22, 0xd7, 0x41, 0x3e, 0xb6, 0x91, 0x5a, 0x3e, 0xdb, 0xdf, 0x19, 0xbd,
  0xef, 0x06, 0x70, 0x3d, 0xc4, 0x92, 0x5f, 0xbc, 0x12, 0x74, 0x6e, 0x3e,
  0x38, 0x9b, 0xb5, 0xbd, 0x1d, 0xee, 0x29, 0xbe, 0x07, 0xd8, 0xb6, 0xbc,
  0x1b, 0x90, 0x14, 0x3d, 0x5b, 0x1e, 0x8d, 0x3c, 0x17, 0x6a, 0x12, 0xbd,
  0xc4, 0xf8, 0xbc, 0x3d, 0xbd, 0x9d, 0xd9, 0xbd, 0x14, 0x87, 0xa8, 0x3c,
  0x54, 0x5c, 0xb4, 0xbd, 0x26, 0x8d, 0xd6, 0x3c, 0x9b, 0x4b, 0x8f, 0x3d,
  0xc3, 0xf9, 0x0c, 0x3e, 0x82, 0xbe, 0x09, 0x3e, 0xd5, 0x0a, 0x37, 0xbd,
  0xff, 0x1e, 0x0b, 0xbe, 0xa1, 0x47, 0x1f, 0xbd, 0x15, 0x8a, 0x73, 0xbd,
  0x51, 0xe2, 0x68, 0x3e, 0x56, 0x24, 0x31, 0x3d, 0x5f, 0xdd, 0x87, 0x3d,
  0xb0, 0x2f, 0xa3, 0x3d, 0x1a, 0x9c, 0x1f, 0x3d, 0x44, 0x1d, 0x72, 0x3d,
  0x11, 0xf3, 0x5f, 0x3d, 0xfb, 0x36, 0xe4, 0xbd, 0xe0, 0xce, 0x61, 0x3e,
  0xd2, 0xf0, 0x52, 0x3e, 0xec, 0x20, 0xd2, 0xbd, 0xc7, 0x2e, 0x45, 0x3b,
  0x29, 0x08, 0x23, 0x3e, 0xa7, 0xa5, 0x9f, 0xbd, 0x5e, 0x15, 0xf6, 0x3d,
  0xca, 0x4a, 0x85, 0x3d, 0x66, 0x69, 0xc3, 0xbd, 0x6a, 0xc3, 0x1c, 0x3e,
  0x2c, 0x06, 0xba, 0xbd, 0x94, 0xf7, 0xa6, 0xbd, 0xa5, 0xec, 0xb3, 0x3d,
  0xbc, 0xc9, 0x02, 0x3e, 0xbf, 0x2a, 0x41, 0x3d, 0xe0, 0x8c, 0x19, 0x3e,
  0xb9, 0x3c, 0x66, 0x3c, 0x28, 0xeb, 0x16, 0x3d, 0x2e, 0x31, 0x23, 0x3e,
  0x2d, 0xaf, 0xfd, 0xbd, 0xc4, 0xac, 0x26, 0xbe, 0x50, 0x05, 0xab, 0xbd,
  0xec, 0x95, 0x1b, 0x3e, 0x85, 0x9c, 0x86, 0xbc, 0x7c, 0x1d, 0x82, 0xbc,
  0xa1, 0x77, 0xe6, 0xbc, 0x70, 0xa5, 0x9e, 0xbd, 0x48, 0x8d, 0xf1, 0x3d,
  0x55, 0x2e, 0xb0, 0x3d, 0xe7, 0x54, 0x63, 0xbc, 0xc7, 0x10, 0xb6, 0x3d,
  0xea, 0xe5, 0x9b, 0x3d, 0x62, 0x1b, 0x80, 0x3e, 0x8c, 0x3f, 0x8a, 0xbd,
  0xad, 0x9f, 0xf6, 0x3c, 0x9a, 0xd7, 0xf0, 0x3d, 0x23, 0xe7, 0x19, 0x3e,
  0x96, 0xa4, 0xd0, 0x3d, 0xb7, 0x7e, 0xa9, 0xbc, 0x97, 0x6d, 0x85, 0xbd,
  0x74, 0x6e, 0x3c, 0x3e, 0x71, 0xf4, 0x11, 0x3e, 0x7a, 0xa8, 0xf7, 0x3b,
  0xd0, 0x27, 0x5e, 0x3e, 0x48, 0x1b, 0x83, 0x3e, 0x68, 0xd2, 0x7c, 0x3c,
  0x08, 0xee, 0x58, 0x3e, 0xd5, 0xa1, 0xe9, 0xbd, 0x4c, 0x38, 0x4c, 0x3c,
  0x8a, 0x6a, 0x23, 0xbd, 0x5a, 0x78, 0x36, 0x3e, 0xf3, 0xaa, 0x0e, 0xbd,
  0x3d, 0x17, 0x87, 0xbd, 0x05, 0x4e, 0xb3, 0x3d, 0x48, 0xad, 0x4f, 0x3e,
  0x8e, 0xd1, 0x93, 0xbb, 0x25, 0x69, 0x6c, 0x3d, 0x7a, 0x31, 0x26, 0x3e,
  0xba, 0x37, 0xc8, 0xbd, 0x2f, 0xbd, 0x0b, 0x3e, 0x94, 0xa0, 0x93, 0xbd,
  0x39, 0x3f, 0xaf, 0x3c, 0xf6, 0x02, 0x36, 0x3e, 0xdd, 0x08, 0x9b, 0xbd,
  0xd0, 0xce, 0x0a, 0x3e, 0x7e, 0x3e, 0x77, 0x3c, 0xb3, 0x20, 0x3e, 0x3e,
  0xb1, 0x76, 0x80, 0x3d, 0x61, 0xdd, 0xab, 0x3d, 0x70, 0xbb, 0x8a, 0xbd,
  0x98, 0xb8, 0x00, 0x3e, 0xe7, 0x89, 0x86, 0x3d, 0x6e, 0x1b, 0xf2, 0x3d,
  0xa6, 0x5a, 0xc6, 0x3d, 0xee, 0xfc, 0xe4, 0xbd, 0x7e, 0x0b, 0xff, 0x3c,
  0x7f, 0x49, 0x3d, 0x3d, 0xc7, 0x46, 0xef, 0x3d, 0xf0, 0x98, 0x5a, 0xbc,
  0xcc, 0x5d, 0x99, 0xbc, 0x53, 0x60, 0x1e, 0x3c, 0x3a, 0xce, 0x3c, 0x3d,
  0xbd, 0x13, 0xd5, 0x3d, 0x0f, 0xb2, 0x9b, 0xbc, 0x43, 0x11, 0x61, 0xbb,
  0xf6, 0x58, 0x19, 0x3d, 0xa7, 0x61, 0x12, 0xbe, 0x98, 0x2f, 0x4e, 0x3b,
  0xed, 0x78, 0xf0, 0x3d, 0x11, 0x9a, 0xae, 0x3d, 0x54, 0xf3, 0xf5, 0x3b,
  0xcd, 0x16, 0x0c, 0xbe, 0x54, 0x7b, 0x9f, 0x3d, 0xfc, 0x76, 0x4f, 0x3d,
  0x79, 0x8e, 0xe2, 0xbd, 0x50, 0xde, 0x34, 0xbe, 0x78, 0xe3, 0x08, 0x3e,
  0x53, 0x6e, 0xdf, 0xbc, 0x1a, 0xbb, 0xa6, 0x3c, 0xe0, 0x28, 0xa6, 0xbd,
  0xf2, 0xe4, 0x25, 0x3d, 0x59, 0xc6, 0x59, 0xbc, 0x23, 0xd2, 0x6a, 0x3d,
  0x46, 0x1e, 0x03, 0xbe, 0xc4, 0xf3, 0x09, 0xbe, 0xb3, 0x6b, 0x6b, 0x3d,
  0x98, 0x65, 0xf5, 0x3c, 0x40, 0x93, 0x32, 0x3d, 0x76, 0x9c, 0xa0, 0x39,
  0x27, 0x19, 0x62, 0x3c, 0xb9, 0x1f, 0x47, 0x3c, 0xf4, 0xc2, 0x11, 0xbc,
  0x8f, 0xca, 0x6c, 0xbb, 0x45, 0x37, 0xb1, 0xbd, 0xe4, 0xbd, 0x29, 0xbe,
  0xf2, 0xe1, 0x99, 0x3d, 0x5a, 0x10, 0x2d, 0x3d, 0x4b, 0x46, 0x2d, 0xbd,
  0xd1, 0x10, 0x0d, 0x3e, 0x1a, 0xcd, 0x3b, 0xbd, 0x7f, 0x5b, 0x46, 0xbe,
  0xa3, 0x63, 0x57, 0xbd, 0x11, 0x5e, 0x8c, 0x3c, 0x9b, 0xe9, 0x53, 0x3d,
  0xd9, 0x67, 0x3e, 0xbd, 0x59, 0xeb, 0x71, 0x3d, 0xf7, 0xf6, 0xb6, 0x3c,
  0x12, 0x9a, 0xbc, 0x3d, 0x32, 0xe5, 0xdb, 0xbd, 0xf4, 0xb6, 0x3f, 0x3c,
  0xfe, 0x98, 0x08, 0xbe, 0x8b, 0xcb, 0xec, 0x3d, 0x4c, 0xb3, 0x0e, 0xbe,
  0xf2, 0x02, 0xaa, 0x3d, 0x7f, 0xe0, 0x62, 0xbd, 0xa6, 0x19, 0x66, 0x3d,
  0x04, 0x4e, 0x64, 0x3d, 0x11, 0x89, 0x6a, 0x3d, 0x03, 0x1f, 0x24, 0xbc,
  0x70, 0xec, 0x5c, 0x3d, 0x48, 0xb7, 0xff, 0x3c, 0x26, 0xfc, 0xf9, 0x3c,
  0x70, 0x02, 0x40, 0xbd, 0x0d, 0x38, 0xc9, 0x3b, 0x50, 0x0d, 0x26, 0xbd,
  0x12, 0x58, 0xde, 0xbc, 0x0b, 0xdf, 0x6f, 0xba, 0xd6, 0x28, 0xd9, 0xbd,
  0xd6, 0xfe, 0x1b, 0x3d, 0xf1, 0x8b, 0x23, 0x3c, 0x7e, 0xdd, 0xc0, 0x3d,
  0x14, 0xf6, 0x8c, 0xbd, 0xe7, 0xd1, 0x79, 0xbc, 0x2c, 0xbf, 0x73, 0x3c,
  0x63, 0x3a, 0x26, 0xbd, 0x7b, 0x2f, 0x2b, 0x3e, 0x04, 0xa3, 0xb6, 0x3d,
  0x2a, 0xc3, 0x42, 0xbd, 0x4c, 0xfe, 0x8c, 0x3d, 0x9e, 0x11, 0x4b, 0xbc,
  0xea, 0xd0, 0x40, 0xbd, 0x11, 0x54, 0xd3, 0xbd, 0x3a, 0xe2, 0x94, 0x3d,
  0xdb, 0xef, 0x89, 0x3d, 0x93, 0x82, 0xb7, 0xbb, 0x45, 0xd7, 0xa9, 0xbd,
  0x37, 0x7f, 0x19, 0x3d, 0x3a, 0xe8, 0xe7, 0x3d, 0x9b, 0xcc, 0x1a, 0x3d,
  0xc8, 0xca, 0x1e, 0xbe, 0x37, 0x4c, 0xf3, 0x3c, 0x19, 0x32, 0x0f, 0xbe,
  0x29, 0x49, 0x89, 0xbd, 0x82, 0xcd, 0x00, 0x3c, 0xa2, 0x20, 0x40, 0x3b,
  0x8d, 0x87, 0xde, 0xbd, 0xbe, 0x0f, 0x8b, 0x3d, 0xa0, 0xa4, 0xf4, 0x3b,
  0x8c, 0xd3, 0xb0, 0x3d, 0x57, 0x9d, 0xab, 0x3d, 0xfc, 0xad, 0xc9, 0xbd,
  0xe7, 0x44, 0xce, 0x3d, 0xa3, 0xc5, 0xff, 0xbd, 0x01, 0xcd, 0xe7, 0x3d,
  0x73, 0x05, 0x0e, 0x3e, 0x6d, 0x5d, 0xab, 0xbd, 0xe0, 0x34, 0xd2, 0xbc,
  0x7d, 0x83, 0x17, 0xbe, 0x39, 0x40, 0xce, 0x3c, 0x9a, 0xa4, 0x96, 0xbd,
  0xdf, 0x1e, 0x05, 0x3e, 0x64, 0x87, 0xe2, 0x3d, 0x16, 0x29, 0xa4, 0xbc,
  0xe4, 0x5f, 0x05, 0x3e, 0x33, 0x60, 0x4b, 0xbd, 0x69, 0x09, 0x85, 0x3d,
  0x5c, 0x15, 0x75, 0x3d, 0xd4, 0x17, 0x01, 0x3c, 0xc7, 0x49, 0x99, 0xbc,
  0x60, 0x8c, 0x4d, 0xbc, 0x70, 0x55, 0x87, 0x3d, 0x64, 0xca, 0x1c, 0x3e,
  0x4c, 0x76, 0x0b, 0x3d, 0x40, 0xe5, 0xb1, 0x3d, 0x5b, 0xf5, 0x98, 0xbc,
  0xa2, 0x6e, 0x17, 0xbd, 0x43, 0x35, 0x96, 0x3d, 0xee, 0xd9, 0x26, 0x3e,
  0xb1, 0x2b, 0xa1, 0x3d, 0x74, 0xd5, 0xbd, 0xbc, 0x11, 0xf3, 0x00, 0x3e,
  0xd1, 0xc3, 0x0e, 0x3e, 0x5f, 0x6e, 0xcc, 0x3d, 0x10, 0xec, 0xed, 0xbd,
  0xc3, 0x8d, 0x66, 0xbd, 0xa6, 0xd1, 0x89, 0xbd, 0xd6, 0xce, 0xd2, 0xbd,
  0xeb, 0xed, 0x89, 0x3d, 0x25, 0x9e, 0x0f, 0x3d, 0x1a, 0x4f, 0xcb, 0x3d,
  0x3c, 0x57, 0x5e, 0xbd, 0x0a, 0xf9, 0xb8, 0xbd, 0xfd, 0xec, 0xa2, 0xbd,
  0x53, 0xf5, 0x86, 0xbd, 0x8b, 0x1a, 0x93, 0x3d, 0x95, 0x71, 0x1d, 0xbe,
  0x13, 0xe8, 0xd7, 0x3d, 0xdc, 0x53, 0x47, 0x3c, 0x23, 0x13, 0x4a, 0xbc,
  0xe7, 0xbd, 0x63, 0xbb, 0x1d, 0x8b, 0xce, 0xbd, 0x9a, 0x34, 0x02, 0x3a,
  0xf4, 0x3b, 0x2a, 0xbd, 0xc7, 0x5b, 0xbf, 0xbd, 0x0a, 0xf9, 0xed, 0xbc,
  0xa0, 0x64, 0x43, 0xbd, 0xa9, 0x7a, 0x8f, 0xbd, 0x85, 0xc0, 0x30, 0x3c,
  0x3e, 0x1e, 0x8f, 0x3d, 0x58, 0x76, 0x89, 0xbd, 0xc3, 0x31, 0xdc, 0xbd,
  0x6f, 0xea, 0x91, 0x3d, 0xd9, 0x80, 0xeb, 0xbd, 0x0f, 0x0d, 0x15, 0xbe,
  0x7d, 0x38, 0x90, 0xbd, 0xac, 0x02, 0x96, 0xbc, 0xe3, 0x5c, 0xa9, 0x3d,
  0x90, 0x5b, 0x93, 0x3c, 0x48, 0x01, 0x68, 0x3d, 0x81, 0x98, 0x19, 0xbb,
  0x96, 0x61, 0x82, 0x3d, 0x46, 0xd3, 0x8f, 0xbd, 0xd7, 0x0b, 0x06, 0xbd,
  0x08, 0xb6, 0xf0, 0x3d, 0x89, 0xba, 0x4d, 0xbd, 0x16, 0x56, 0x61, 0x3d,
  0xda, 0xec, 0x49, 0xbb, 0x5d, 0x3d, 0x10, 0x3e, 0x76, 0x45, 0xde, 0xbb,
  0xc1, 0x49, 0xff, 0xbd, 0x9d, 0x48, 0x9d, 0x3a, 0x35, 0x13, 0xda, 0x3c,
  0x6c, 0x58, 0x7e, 0x3d, 0x3a, 0x2d, 0xc2, 0xbd, 0x82, 0x4d, 0x27, 0x3d,
  0x15, 0x61, 0x37, 0xbd, 0x98, 0x21, 0x83, 0xbd, 0x8e, 0x00, 0x69, 0xbc,
  0x0f, 0xb6, 0xd5, 0x3d, 0x07, 0xd1, 0x05, 0xbd, 0x4f, 0x04, 0x0c, 0xbe,
  0x38, 0x4d, 0x74, 0x3c, 0x91, 0xf0, 0x58, 0x3d, 0x88, 0x08, 0xfd, 0xbd,
  0xf8, 0x71, 0x98, 0x3c, 0xcd, 0xb1, 0xa1, 0x3c, 0x30, 0x5b, 0x2a, 0xbc,
  0xe2, 0x7e, 0x9a, 0xbd, 0x0f, 0xa4, 0xa0, 0xbb, 0x48, 0x59, 0xb7, 0x3c,
  0x28, 0x7a, 0xab, 0x3d, 0x81, 0xc7, 0x92, 0xbc, 0xca, 0xc5, 0x82, 0x3d,
  0x6d, 0xa3, 0x18, 0x3d, 0x55, 0x77, 0xc7, 0x3d, 0x62, 0xc2, 0x2a, 0xbe,
  0xb1, 0x30, 0x6f, 0x3d, 0xf0, 0x74, 0x65, 0xbd, 0x04, 0x7b, 0xc1, 0xbd,
  0xae, 0x39, 0x3a, 0xbe, 0xab, 0x0d, 0x70, 0x3d, 0xae, 0x82, 0xa3, 0x3d,
  0x38, 0xd3, 0xdc, 0x3d, 0x28, 0xee, 0x4f, 0x3c, 0x3c, 0x10, 0xd4, 0x3c,
  0xf8, 0xf3, 0x4f, 0x3d, 0xa9, 0x76, 0x8c, 0xbd, 0xd8, 0x69, 0x6f, 0xbc,
  0xee, 0x63, 0x02, 0x3e, 0x2d, 0xa3, 0xd5, 0x3d, 0x14, 0x6b, 0xb3, 0x3d,
  0x3b, 0x9c, 0x39, 0xbd, 0x85, 0x9b, 0x45, 0x3d, 0x6d, 0x05, 0x03, 0xbe,
  0x6d, 0x94, 0x14, 0xbd, 0x8e, 0xef, 0x14, 0x3d, 0x8e, 0xe2, 0x8f, 0x3d,
  0x18, 0x6a, 0xb8, 0xbd, 0x31, 0xe6, 0x29, 0x3d, 0x1a, 0xda, 0xff, 0x3d,
  0x42, 0x32, 0x20, 0xbd, 0xa9, 0xca, 0xb9, 0xbd, 0x5e, 0x31, 0x1b, 0xbe,
  0xb7, 0xd2, 0x7c, 0xbb, 0xbc, 0xb6, 0xcf, 0xbc, 0x0a, 0xaf, 0x59, 0xbd,
  0x7d, 0xe8, 0xd0, 0xbc, 0x43, 0x40, 0xe1, 0x3d, 0xc4, 0x17, 0x0a, 0x3e,
  0x1c, 0x3f, 0xdc, 0x39, 0xf2, 0x26, 0x1d, 0x3e, 0x99, 0xf6, 0x84, 0x3d,
  0x1a, 0x56, 0x5f, 0x3b, 0xa3, 0xd7, 0x69, 0xbd, 0x55, 0x14, 0x0b, 0x3d,
  0x29, 0x53, 0xc6, 0x3d, 0xb8, 0xc2, 0x81, 0xbd, 0x65, 0xea, 0xd5, 0xbc,
  0xe7, 0x58, 0x83, 0x3d, 0x2b, 0x88, 0x3a, 0xbd, 0x2f, 0x6a, 0xc7, 0xbd,
  0x6f, 0x91, 0x1d, 0xbe, 0x26, 0x8a, 0xda, 0xbc, 0x69, 0xba, 0x6f, 0xbd,
  0x09, 0x08, 0xff, 0x3d, 0x0a, 0x52, 0x23, 0x3d, 0x0d, 0x21, 0x73, 0x3d,
  0x94, 0x4a, 0x4c, 0x3d, 0x6f, 0x61, 0x14, 0xbe, 0x61, 0x13, 0xe1, 0xbb,
  0x95, 0x9d, 0x48, 0x3c, 0x9f, 0xfd, 0xc2, 0xbd, 0xb3, 0x1e, 0x47, 0xbd,
  0x37, 0xb8, 0xda, 0xbd, 0x5b, 0x56, 0x9c, 0x3d, 0xa6, 0xe3, 0x6e, 0x3d,
  0x10, 0x3a, 0x93, 0xbd, 0x6c, 0x1f, 0x4c, 0x3d, 0xee, 0x62, 0xfd, 0xbc,
  0xd9, 0x57, 0x62, 0xbc, 0xb3, 0xa3, 0x04, 0xbe, 0xa7, 0xb7, 0x05, 0x3d,
  0xf2, 0x85, 0xca, 0xbc, 0x2d, 0x70, 0x8a, 0xbc, 0x6a, 0x4f, 0x2c, 0xbe,
  0x5d, 0x42, 0x02, 0xbe, 0x9e, 0xb2, 0x17, 0xbe, 0x8f, 0x92, 0x3f, 0x3c,
  0x8a, 0x72, 0x9d, 0x3d, 0x81, 0x7b, 0x53, 0xbd, 0xbe, 0x67, 0x90, 0x3d,
  0x95, 0x9f, 0x88, 0x3d, 0xb7, 0x44, 0x94, 0xbd, 0x7f, 0x24, 0xae, 0x3d,
  0x65, 0x79, 0xb6, 0xbd, 0x92, 0x12, 0xa4, 0x3d, 0x33, 0xe2, 0xb9, 0xbd,
  0x5b, 0x33, 0x07, 0x3e, 0x5e, 0x5e, 0xaa, 0xbc, 0x9e, 0xf7, 0x20, 0x3c,
  0x68, 0xff, 0x1e, 0x3e, 0xe9, 0x8d, 0xbd, 0x3c, 0x63, 0xce, 0xd0, 0xbd,
  0x3a, 0x05, 0x87, 0xbc, 0x9b, 0x1a, 0xf4, 0x3d, 0xb2, 0x45, 0xf0, 0x3d,
  0x5f, 0x74, 0x76, 0x3c, 0x79, 0xe9, 0x56, 0xbd, 0x9d, 0x9a, 0x11, 0xbc,
  0xb2, 0x6d, 0xd9, 0x3d, 0xd9, 0xc3, 0x94, 0xbc, 0x45, 0xc8, 0xa3, 0x3d,
  0x0b, 0x19, 0x3d, 0xbd, 0x69, 0x56, 0x2e, 0x3e, 0xdb, 0x30, 0x1f, 0xbe,
  0x0f, 0x7e, 0xba, 0x3d, 0x21, 0x54, 0x5b, 0x3d, 0x48, 0x9a, 0xfa, 0x3d,
  0xe7, 0x66, 0x2e, 0xbd, 0xfa, 0x05, 0xf7, 0xbb, 0xcf, 0x7b, 0x10, 0x3d,
  0xc0, 0x97, 0x88, 0x3d, 0x76, 0xd5, 0xc4, 0xbc, 0xed, 0xc5, 0x11, 0x3c,
  0x7b, 0x2b, 0x5f, 0xbd, 0xfe, 0x01, 0xdb, 0xbd, 0xf6, 0xbe, 0x86, 0xbd,
  0xd2, 0x24, 0x5c, 0x3c, 0x2b, 0xad, 0xda, 0xbd, 0x09, 0x21, 0x47, 0xbe,
  0x1b, 0xe5, 0x19, 0xbd, 0x81, 0xfc, 0x88, 0x3d, 0x34, 0x90, 0xb9, 0xbc,
  0x1c, 0xce, 0xb5, 0x3d, 0x2b, 0x6d, 0x21, 0xbd, 0x65, 0xfc, 0x35, 0x3d,
  0xa4, 0xce, 0x1f, 0x3c, 0xcf, 0xa8, 0xdd, 0x3d, 0x3a, 0xd4, 0x0a, 0x3d,
  0xa8, 0xe4, 0xfd, 0xbd, 0xf6, 0x3f, 0xdf, 0x3d, 0xeb, 0xb7, 0xdb, 0xbd,
  0x8c, 0xb6, 0x65, 0xbc, 0x7d, 0xcc, 0xa7, 0x3d, 0xd2, 0xf7, 0x04, 0x3d,
  0xdf, 0xa6, 0xd1, 0xbd, 0xa7, 0x4b, 0xb6, 0x3c, 0x40, 0x42, 0xce, 0x3d,
  0xd7, 0x92, 0x67, 0x3d, 0x91, 0xb9, 0xd5, 0xbd, 0x14, 0x2e, 0x9a, 0x3d,
  0x4c, 0x82, 0xfb, 0xbb, 0x3e, 0xb6, 0x26, 0xbc, 0x58, 0x48, 0x96, 0x3d,
  0xff, 0x39, 0x77, 0x3c, 0x2a, 0xd7, 0x4f, 0x3d, 0x72, 0xba, 0x2b, 0xbc,
  0x76, 0xd2, 0xfb, 0x3c, 0x37, 0x71, 0xc0, 0xbc, 0x69, 0xd8, 0x1f, 0xbb,
  0x00, 0x5c, 0x96, 0x3c, 0x55, 0x28, 0xef, 0x3d, 0x89, 0x52, 0x7b, 0xbd,
  0xcd, 0x4d, 0xbe, 0xbc, 0x5f, 0x04, 0xdb, 0xbd, 0x0f, 0x6d, 0x98, 0xbd,
  0x98, 0x64, 0xdf, 0x3d, 0x32, 0xd1, 0xd7, 0x3c, 0x7b, 0xd3, 0x85, 0xbd,
  0xe3, 0xb3, 0x7a, 0xbd, 0xff, 0x81, 0x5a, 0xbd, 0x17, 0xf5, 0xd2, 0x3d,
  0x0c, 0xcc, 0xb5, 0xbd, 0x99, 0x91, 0xce, 0x3d, 0xf8, 0x4c, 0xb4, 0xbd,
  0x9b, 0xbe, 0xad, 0xbd, 0x02, 0x53, 0x52, 0xbd, 0x4e, 0x54, 0x6f, 0xbd,
  0x68, 0x61, 0xd4, 0x3d, 0xe3, 0x50, 0xd9, 0xbd, 0xb9, 0xb7, 0x02, 0x3c,
  0xf4, 0x10, 0xeb, 0x3c, 0xef, 0x66, 0x30, 0x3b, 0x91, 0x21, 0xa2, 0xbd,
  0xec, 0xf0, 0x69, 0xbd, 0x80, 0xa8, 0x37, 0xbd, 0x14, 0xf7, 0x99, 0xbd,
  0x04, 0xbb, 0x50, 0xbd, 0x8e, 0x13, 0xc6, 0x3d, 0x26, 0xef, 0xa9, 0x3d,
  0x7d, 0x12, 0x30, 0x3e, 0x6f, 0x82, 0x46, 0x3c, 0x4a, 0x8c, 0x25, 0x3b,
  0x19, 0x2b, 0x2c, 0x3c, 0xa8, 0x6f, 0xbe, 0x3c, 0x8c, 0x3f, 0x95, 0xbd,
  0x7f, 0x5b, 0xdb, 0xbd, 0x02, 0x79, 0xf2, 0x3c, 0x16, 0xcd, 0x51, 0xbd,
  0x48, 0x64, 0x95, 0x3c, 0xcf, 0x68, 0xaa, 0x3b, 0x5c, 0x88, 0x3a, 0x3d,
  0x50, 0xb1, 0x14, 0x3d, 0x85, 0xb3, 0x9f, 0x3d, 0x29, 0xec, 0x41, 0x3d,
  0xbe, 0x5e, 0x80, 0x3d, 0x82, 0x23, 0x48, 0xbd, 0xa6, 0xc5, 0x43, 0xbd,
  0x14, 0x4d, 0x1d, 0xbc, 0x18, 0x2e, 0x81, 0x3d, 0xfc, 0xe6, 0x8a, 0xbd,
  0x06, 0xe7, 0x3e, 0xbc, 0x8c, 0xc0, 0x69, 0xbb, 0xbd, 0x0b, 0x1b, 0xbd,
  0xa7, 0x43, 0x54, 0x3d, 0xca, 0xec, 0x2a, 0xbc, 0x5c, 0x91, 0x0a, 0xbe,
  0x36, 0x0c, 0x86, 0x3d, 0x90, 0xe7, 0x86, 0x3c, 0xde, 0x54, 0x70, 0x3d,
  0xab, 0xfa, 0x9b, 0x3d, 0xb1, 0x1c, 0x0a, 0xbd, 0x9c, 0xe2, 0xe4, 0x3c,
  0xa6, 0x9e, 0x91, 0x3c, 0xfc, 0xcc, 0xf5, 0x3d, 0x12, 0xee, 0x7a, 0xbc,
  0x50, 0x5b, 0x6f, 0xbd, 0x65, 0x95, 0x89, 0x3d, 0x6b, 0x8a, 0x96, 0x3b,
  0x58, 0xb4, 0x98, 0xbd, 0xea, 0xc2, 0xf7, 0x3d, 0x99, 0xd0, 0xcc, 0x3c,
  0xd9, 0xa5, 0xf0, 0xbd, 0xcb, 0xaa, 0x16, 0x3c, 0xa2, 0x57, 0x92, 0x3d,
  0x14, 0x22, 0xa6, 0x3b, 0x40, 0x8e, 0xf7, 0xbd, 0xbf, 0xbc, 0x7a, 0x3d,
  0x34, 0x65, 0x81, 0x3c, 0xbf, 0xa8, 0x20, 0xbd, 0x1a, 0xab, 0xc6, 0x3c,
  0xbe, 0x41, 0x8d, 0x3d, 0xb5, 0xf0, 0x08, 0x3e, 0xbb, 0x6f, 0x7f, 0xbd,
  0x5a, 0x08, 0x2d, 0x3d, 0xcb, 0x50, 0x41, 0xbd, 0x22, 0x4e, 0xd1, 0xbd,
  0x16, 0x39, 0x48, 0xbd, 0x3f, 0xd8, 0xa5, 0x3d, 0xe5, 0x3f, 0xb5, 0xbd,
  0xfe, 0x00, 0x34, 0x3d, 0x64, 0x7c, 0x29, 0x3d, 0xd0, 0x2c, 0xba, 0x3d,
  0xbb, 0xcf, 0x53, 0x3d, 0xcc, 0xa1, 0x39, 0xbb, 0x4f, 0x56, 0x00, 0xbb,
  0xa6, 0xb6, 0x97, 0xbd, 0x1c, 0xa3, 0xdd, 0x3b, 0x6a, 0xeb, 0x92, 0x3c,
  0xda, 0x95, 0xad, 0x3d, 0x07, 0x0c, 0x89, 0xbd, 0x08, 0x30, 0xdc, 0x3c,
  0x57, 0x98, 0xb9, 0xbd, 0x69, 0x5f, 0xeb, 0xbb, 0x52, 0x61, 0xa0, 0x3c,
  0x60, 0xa0, 0x34, 0xbe, 0xd4, 0x5d, 0x20, 0xbe, 0x57, 0x37, 0x79, 0xbd,
  0x4a, 0x8f, 0xd1, 0x3d, 0x56, 0x98, 0x31, 0x3d, 0x12, 0x8f, 0x1c, 0x3d,
  0x61, 0x3c, 0x46, 0xbd, 0xf5, 0xdb, 0x5e, 0xbc, 0x3d, 0xe8, 0xe6, 0xbd,
  0x50, 0x28, 0xf8, 0x3c, 0xa5, 0x75, 0x4f, 0xbc, 0x9a, 0x8d, 0xd3, 0xbd,
  0x10, 0x79, 0x0f, 0xba, 0x8e, 0xd4, 0x01, 0x3e, 0x06, 0xcb, 0x6c, 0x3a,
  0x29, 0x1e, 0xf4, 0x3d, 0x8b, 0x51, 0x6b, 0xbd, 0x74, 0x05, 0x8e, 0xbd,
  0x58, 0xa4, 0x40, 0xbd, 0x8e, 0xc8, 0x26, 0xbe, 0x27, 0x28, 0x63, 0x3d,
  0x3d, 0x34, 0x99, 0x3d, 0xb5, 0xe1, 0x67, 0xbd, 0xe3, 0xb0, 0xfb, 0xbc,
  0xdd, 0x54, 0xdb, 0x3d, 0x0d, 0x97, 0x98, 0xbd, 0x5c, 0xd6, 0xd6, 0xbd,
  0xa2, 0xaf, 0x03, 0x3e, 0x7c, 0x9f, 0xe2, 0xbd, 0xde, 0x60, 0xb7, 0xbd,
  0x69, 0xf3, 0x1e, 0x3d, 0x46, 0xcf, 0x6b, 0xbd, 0x05, 0x96, 0xb8, 0x3d,
  0x8a, 0x1c, 0x1a, 0x3d, 0x5f, 0x4a, 0x04, 0xbd, 0xe9, 0x89, 0x40, 0xbc,
  0xe0, 0xfa, 0xb6, 0xbc, 0xa6, 0xb0, 0x63, 0xbd, 0x1d, 0xab, 0x87, 0x3d,
  0xce, 0x62, 0xc7, 0xbc, 0x32, 0x76, 0x34, 0xbd, 0x71, 0x11, 0x9b, 0xbd,
  0xe1, 0xc0, 0xe2, 0x3a, 0x89, 0x89, 0x86, 0x3d, 0xc6, 0x58, 0x82, 0xbd,
  0xb8, 0xe0, 0xbb, 0xbc, 0x69, 0xbf, 0x9f, 0xbd, 0x7c, 0x7e, 0x5a, 0xbd,
  0x04, 0x8a, 0x07, 0x3e, 0xd2, 0xda, 0xab, 0xbd, 0x1b, 0x53, 0xaf, 0xbd,
  0x12, 0x7b, 0x7f, 0xbd, 0x30, 0x0c, 0x7f, 0x3d, 0xc5, 0x7f, 0x71, 0xbb,
  0x40, 0xea, 0x9d, 0xbd, 0xfe, 0x27, 0x0d, 0x3e, 0x9f, 0x23, 0xab, 0xbd,
  0x02, 0x65, 0x42, 0x3d, 0xb6, 0x61, 0x9f, 0x3d, 0x9b, 0xe5, 0x28, 0xbd,
  0xe2, 0xd9, 0x5b, 0x3d, 0xd5, 0xce, 0xd4, 0x3d, 0x63, 0x58, 0x09, 0xbd,
  0x87, 0xd1, 0x59, 0xbc, 0x29, 0x7e, 0x9a, 0xbc, 0x7e, 0x85, 0x53, 0xbd,
  0xfe, 0x14, 0x15, 0x3e, 0xe1, 0xd1, 0x88, 0x3d, 0xa4, 0x63, 0x2f, 0x3d,
  0x0f, 0x0c, 0x47, 0x3d, 0xcf, 0x91, 0x75, 0xbc, 0xa9, 0x1f, 0x4c, 0xbd,
  0x07, 0x5d, 0x0e, 0xbd, 0x77, 0x14, 0x08, 0x3d, 0xe7, 0x3c, 0x26, 0xbd,
  0x38, 0x07, 0xc1, 0xbb, 0xe3, 0x1a, 0xcc, 0x3d, 0x03, 0x8d, 0x08, 0xbe,
  0xed, 0xe7, 0x2d, 0x3e, 0x35, 0x72, 0x0a, 0x3d, 0xfd, 0xba, 0x86, 0x3d,
  0xc2, 0x16, 0x8e, 0x3d, 0x16, 0xb5, 0x30, 0xbd, 0x8b, 0x5f, 0x15, 0x3d,
  0x58, 0x39, 0x03, 0x3d, 0x26, 0x8d, 0x0f, 0x3c, 0x0f, 0xdc, 0x14, 0x3d,
  0x99, 0xd6, 0xd0, 0xbd, 0xc8, 0xd7, 0x54, 0xbd, 0xd6, 0xc0, 0x24, 0x3c,
  0x2e, 0xff, 0x04, 0xbb, 0x32, 0xf1, 0x96, 0x3d, 0xe2, 0x2e, 0x66, 0x3d,
  0xab, 0x31, 0x4b, 0xbc, 0xd5, 0x71, 0x79, 0xbd, 0x00, 0x46, 0x07, 0x3e,
  0x2b, 0xff, 0x32, 0x3d, 0xc8, 0x22, 0xbd, 0x3d, 0x23, 0x99, 0xea, 0xbd,
  0xa5, 0x40, 0x92, 0xbd, 0x53, 0xd0, 0xb5, 0xbd, 0xe6, 0x67, 0xb5, 0xbd,
  0xed, 0xea, 0xa8, 0x3d, 0x1a, 0x2d, 0x80, 0x3d, 0x9b, 0x61, 0x89, 0x3d,
  0xb0, 0xed, 0x8c, 0xbd, 0x77, 0x48, 0xb8, 0x3d, 0x05, 0xca, 0xae, 0x3d,
  0x4e, 0x57, 0x18, 0xbd, 0x1d, 0x78, 0x51, 0x3d, 0xa6, 0x26, 0xbf, 0xbc,
  0x18, 0x37, 0x7c, 0xbd, 0x8d, 0x64, 0x4b, 0xbd, 0x3c, 0x62, 0xa9, 0x3c,
  0x8d, 0x9f, 0xc0, 0x3d, 0xcf, 0x75, 0x0b, 0x3d, 0xb8, 0x36, 0x07, 0xbe,
  0xbc, 0xf6, 0x99, 0xbd, 0x7a, 0xab, 0x8e, 0x3d, 0xb4, 0xad, 0x55, 0xbd,
  0x6e, 0x2b, 0x49, 0x3d, 0xb1, 0x22, 0x7b, 0x3d, 0x15, 0x8a, 0x8b, 0x3c,
  0xbe, 0x11, 0xb7, 0xbc, 0x73, 0x08, 0xe0, 0xbc, 0x41, 0xed, 0x11, 0xbe,
  0xe3, 0x74, 0x9e, 0xbd, 0xb9, 0x37, 0x09, 0xbe, 0xe5, 0x6a, 0xc7, 0xbd,
  0x31, 0x12, 0x92, 0x3d, 0x62, 0x15, 0x0a, 0x3e, 0xd3, 0x88, 0x12, 0xbe,
  0x48, 0x10, 0x0f, 0x3e, 0x19, 0x82, 0xfe, 0xbb, 0xd5, 0xbf, 0x5d, 0xbc,
  0x0d, 0x87, 0x93, 0x3d, 0xd1, 0x51, 0x03, 0xbd, 0x3c, 0xeb, 0xc4, 0xbd,
  0x5b, 0xff, 0x8c, 0x3d, 0x9a, 0xed, 0x08, 0x3d, 0xc1, 0x51, 0xf9, 0xbc,
  0xc2, 0x7d, 0x4a, 0xbd, 0xcc, 0x68, 0x9c, 0x3b, 0xb0, 0xe9, 0x0b, 0x3d,
  0xb7, 0xe4, 0xbc, 0x3d, 0xfb, 0xae, 0x5f, 0x3d, 0xef, 0xfe, 0x9c, 0x3d,
  0xc4, 0x6a, 0x19, 0x3d, 0xc8, 0xad, 0x65, 0xbd, 0x47, 0xa8, 0xc9, 0xbd,
  0x6d, 0x77, 0xd4, 0x3d, 0xfa, 0x79, 0xf4, 0xbd, 0x75, 0x41, 0x13, 0x3d,
  0x82, 0xef, 0x40, 0x3d, 0xa7, 0xa8, 0x98, 0xbd, 0xff, 0xd6, 0x41, 0xbd,
  0xc1, 0x2c, 0x32, 0xbd, 0x1c, 0xb1, 0xfb, 0x3d, 0x57, 0xad, 0x33, 0x3d,
  0x98, 0x14, 0xc6, 0x3d, 0x79, 0x51, 0x42, 0x3e, 0xc9, 0xa9, 0x72, 0xbd,
  0x8d, 0x2e, 0x4c, 0x3d, 0xda, 0x7f, 0xa9, 0x3d, 0x9c, 0x50, 0xd1, 0xbd,
  0x14, 0x67, 0xa2, 0x3c, 0xfc, 0x6e, 0xe7, 0x3c, 0xff, 0xd1, 0x2f, 0xbe,
  0xda, 0xa8, 0xe5, 0x3d, 0x40, 0xc1, 0x57, 0x3d, 0x56, 0x1f, 0x4a, 0xbd,
  0x55, 0xb2, 0x0b, 0x3c, 0xc0, 0xf6, 0x32, 0xbd, 0x3c, 0x08, 0x16, 0xbe,
  0x77, 0x94, 0x98, 0xbd, 0x7e, 0x85, 0xe4, 0x3c, 0x66, 0x92, 0x12, 0xbe,
  0x01, 0x41, 0x09, 0xbd, 0x3a, 0x83, 0x4f, 0x3d, 0x79, 0x8e, 0x2a, 0xbd,
  0x95, 0x5a, 0x7f, 0xbd, 0x36, 0x45, 0x19, 0x3e, 0xbc, 0x92, 0x35, 0xbe,
  0x0d, 0xb0, 0x18, 0xbd, 0x01, 0xab, 0xc0, 0x3d, 0x03, 0xcd, 0x02, 0x3e,
  0xef, 0xa0, 0xda, 0x3c, 0xd9, 0x51, 0x80, 0x3d, 0xdb, 0x79, 0x19, 0x3e,
  0x3d, 0x46, 0x9b, 0x3d, 0x2c, 0xd8, 0xef, 0x3d, 0xa2, 0x20, 0x9b, 0x3d,
  0x58, 0xe2, 0x95, 0x3d, 0x6e, 0xaa, 0xcb, 0xbd, 0x7c, 0x08, 0x32, 0xbd,
  0x1c, 0x7e, 0x30, 0x3d, 0x16, 0x06, 0xbb, 0x3d, 0x64, 0xe4, 0x10, 0xbd,
  0xbd, 0x6e, 0x4b, 0x3d, 0x86, 0x38, 0xc5, 0xbc, 0x8f, 0xf9, 0xc1, 0xbd,
  0x14, 0x12, 0x22, 0x3d, 0xf7, 0xc7, 0x7c, 0xbc, 0x25, 0x7d, 0xe5, 0x3c,
  0x5e, 0x4f, 0xdd, 0x3d, 0x55, 0x5b, 0xac, 0x3d, 0x79, 0x71, 0x49, 0x3d,
  0x40, 0xab, 0xea, 0xbd, 0xbd, 0xaa, 0x74, 0x3c, 0x9d, 0x0f, 0x7b, 0x3d,
  0x46, 0xfd, 0x03, 0x3e, 0xed, 0x42, 0x30, 0xbc, 0xdf, 0x5e, 0xf8, 0x3d,
  0x1a, 0x61, 0x12, 0xbe, 0x72, 0x7b, 0xd0, 0xbc, 0xdc, 0x38, 0x8e, 0x3d,
  0x69, 0x1f, 0x90, 0x3d, 0xfd, 0xd3, 0x35, 0xbe, 0xfa, 0x49, 0x9f, 0x3c,
  0xf4, 0xc4, 0x20, 0x3c, 0x2e, 0x56, 0x13, 0xbe, 0xc2, 0x5b, 0xe0, 0x3d,
  0x46, 0xab, 0x40, 0xbd, 0xa0, 0x01, 0xa7, 0xbc, 0xa1, 0x99, 0x95, 0xbd,
  0xab, 0xc6, 0xcd, 0x3d, 0xb1, 0xb1, 0xba, 0xbd, 0x55, 0x7f, 0x0b, 0xbc,
  0x8d, 0x3c, 0x80, 0x3b, 0xf8, 0x2d, 0xa8, 0xbd, 0xd7, 0x39, 0xc2, 0xbb,
  0x31, 0xf1, 0x39, 0xbb, 0xd2, 0x5f, 0xd3, 0xbc, 0x83, 0x2a, 0xd8, 0x3c,
  0xb0, 0xc0, 0x99, 0x3d, 0xb2, 0x96, 0xc0, 0x3c, 0xa8, 0x21, 0xc7, 0xbd,
  0x7f, 0x47, 0x35, 0xbd, 0x4b, 0xa7, 0x42, 0xbd, 0xbc, 0xc7, 0xa3, 0x3b,
  0x4c, 0xdd, 0xab, 0x3d, 0x4f, 0x64, 0x1e, 0xbe, 0xa7, 0xb1, 0x20, 0xbe,
  0x25, 0x18, 0xa4, 0xbd, 0xbd, 0xd2, 0xb4, 0xbd, 0x78, 0x5f, 0x9b, 0x3d,
  0xbe, 0xe8, 0x1d, 0x3d, 0xf4, 0xfb, 0x2f, 0x3d, 0x11, 0x9d, 0xbe, 0xbd,
  0xfc, 0xb8, 0x39, 0xbe, 0x01, 0x9b, 0x3d, 0xbd, 0x0e, 0xd4, 0xbe, 0xbd,
  0xaf, 0x72, 0xf0, 0xbb, 0xbe, 0x63, 0xa9, 0xbd, 0xdf, 0xe8, 0x90, 0xbd,
  0xfe, 0x8c, 0x2f, 0xbc, 0x60, 0x60, 0xad, 0xbd, 0xc8, 0xc8, 0x49, 0x3c,
  0x15, 0xa4, 0x03, 0xbe, 0x84, 0xd2, 0x32, 0x3d, 0x97, 0xbe, 0x85, 0xbd,
  0xe5, 0x3c, 0x9c, 0x3d, 0xc4, 0xca, 0xbe, 0xbd, 0xdd, 0x3f, 0x6b, 0x3d,
  0x12, 0xca, 0xe9, 0x3d, 0x52, 0x33, 0x1f, 0x3d, 0xf0, 0xd4, 0x9e, 0xbd,
  0x9e, 0x5d, 0x1a, 0xbd, 0x95, 0xf3, 0xb3, 0x3d, 0x8d, 0x25, 0x23, 0x3b,
  0xfa, 0xc3, 0x9f, 0x3d, 0x2f, 0xe5, 0xf5, 0x3d, 0x18, 0x16, 0x2d, 0xbe,
  0xdb, 0xc5, 0xa7, 0x3d, 0xbc, 0x20, 0x99, 0xbd, 0x8d, 0xac, 0x4c, 0x3e,
  0xb7, 0x58, 0xd1, 0x3c, 0x4f, 0x74, 0xac, 0xba, 0x13, 0x5d, 0x82, 0xbd,
  0xd8, 0xfa, 0xcd, 0x3b, 0x44, 0x1e, 0x9a, 0xbc, 0xd8, 0xea, 0xc5, 0x3d,
  0xf2, 0x41, 0x88, 0x3c, 0x7c, 0xd9, 0x95, 0x3d, 0xfd, 0xf1, 0x9a, 0x3d,
  0x06, 0x7c, 0xcb, 0xbd, 0x21, 0x88, 0x36, 0x3b, 0x90, 0x3f, 0xc2, 0xbc,
  0x5d, 0xc4, 0x4f, 0xbd, 0xa8, 0xba, 0x83, 0xbc, 0x70, 0x68, 0x00, 0x3e,
  0xe7, 0xb1, 0x7c, 0x3d, 0x92, 0x8c, 0x44, 0xbd, 0xfa, 0xb5, 0x7e, 0x3d,
  0xc1, 0x76, 0x19, 0x3d, 0x42, 0xbf, 0x8d, 0x3d, 0xb2, 0x5f, 0x5e, 0xbd,
  0x1e, 0xec, 0x05, 0xbc, 0x9a, 0xda, 0x8b, 0x3c, 0x31, 0xab, 0x9c, 0xbd,
  0xb5, 0xb0, 0x4a, 0x3d, 0x14, 0xb1, 0x04, 0x3e, 0x95, 0xb2, 0xf6, 0xbb,
  0x8d, 0x6b, 0xfb, 0xbd, 0x72, 0xad, 0x10, 0x3e, 0x63, 0x0a, 0xb2, 0xbc,
  0x48, 0x37, 0xd2, 0xbd, 0x59, 0x73, 0xe1, 0xbd, 0xc8, 0x1b, 0xa2, 0x3d,
  0xb9, 0x5a, 0xce, 0x3b, 0x4b, 0x9b, 0xf9, 0x3d, 0xa7, 0x1c, 0x8c, 0x3a,
  0x79, 0x17, 0xbe, 0xbd, 0xca, 0xe7, 0xff, 0xff, 0x04, 0x00, 0x00, 0x00,
  0x00, 0x18, 0x00, 0x00, 0x3b, 0x80, 0x3a, 0x3e, 0x22, 0xb0, 0x85, 0xbc,
  0x1f, 0xf7, 0x3a, 0xbe, 0x8f, 0xa6, 0xc3, 0x3d, 0x42, 0x42, 0x59, 0x3e,
  0xd1, 0x6a, 0x90, 0xbd, 0x5f, 0x8d, 0xda, 0xbb, 0x54, 0x39, 0x40, 0xbd,
  0x6a, 0x78, 0x58, 0x3e, 0x6b, 0xbc, 0x46, 0xbe, 0x75, 0x10, 0xb6, 0xbd,
  0x01, 0x1c, 0xaf, 0xbd, 0xa1, 0x70, 0xd1, 0x3d, 0x4b, 0xdc, 0x59, 0x3e,
  0x96, 0xd7, 0x91, 0xbd, 0x05, 0x02, 0x9c, 0x3c, 0xb4, 0x0c, 0x0c, 0xbe,
  0x3e, 0xe1, 0xff, 0x3d, 0xbc, 0x73, 0x03, 0xbe, 0x08, 0x19, 0x3f, 0xbd,
  0xe1, 0xef, 0x07, 0x3e, 0x0b, 0x9c, 0x36, 0xbe, 0x27, 0xf4, 0x9e, 0x3e,
  0xf0, 0xa3, 0x1b, 0xbe, 0x7a, 0xf9, 0x84, 0x3d, 0x63, 0x2f, 0xb1, 0xbd,
  0x19, 0x9e, 0xe6, 0x3a, 0x36, 0x03, 0xbb, 0x3c, 0xba, 0xca, 0xd2, 0x3d,
  0x1d, 0x7d, 0x85, 0x3c, 0xa9, 0xae, 0x05, 0xbe, 0x0e, 0x20, 0x28, 0x3e,
  0x47, 0x56, 0x5e, 0xbd, 0xce, 0x7c, 0x26, 0x3d, 0xe6, 0xb1, 0x7e, 0x3c,
  0xcf, 0x7d, 0x0e, 0x3c, 0x19, 0xcd, 0xbc, 0x3c, 0x9d, 0xe6, 0x57, 0xbe,
  0x4b, 0x96, 0xd8, 0x3d, 0x4d, 0x45, 0x12, 0xbe, 0x7e, 0xd7, 0x52, 0x3d,
  0x58, 0xe8, 0x33, 0xbe, 0x49, 0x9e, 0x06, 0xbe, 0xaf, 0xe2, 0x1c, 0xbc,
  0x6b, 0x51, 0x3e, 0xbe, 0x94, 0x09, 0x4d, 0x3e, 0x73, 0x02, 0x05, 0x3e,
  0xd9, 0x31, 0x9b, 0x3d, 0xaa, 0xde, 0x1f, 0x3e, 0x4a, 0x12, 0x32, 0xbe,
  0x20, 0xc9, 0x51, 0x3c, 0x86, 0x82, 0x44, 0x3d, 0x96, 0x16, 0xcc, 0x3d,
  0x0a, 0x37, 0x12, 0xbe, 0x13, 0xcb, 0xfe, 0x3d, 0x18, 0xb8, 0x14, 0x3d,
  0x2b, 0x93, 0xae, 0xbc, 0xb3, 0xa2, 0xf6, 0xbc, 0x8a, 0x3d, 0xe9, 0x3b,
  0x8f, 0x00, 0x0e, 0x3e, 0xeb, 0x9c, 0xb5, 0xbd, 0xb9, 0x91, 0x56, 0x3e,
  0xd1, 0xdb, 0xff, 0x3d, 0x58, 0x49, 0x2b, 0x3e, 0x88, 0xe5, 0x37, 0xbd,
  0x59, 0x26, 0x9a, 0x3c, 0x46, 0x22, 0xce, 0xbd, 0x04, 0xeb, 0x00, 0x3c,
  0x11, 0x75, 0x67, 0xbc, 0x4e, 0x02, 0x33, 0x3e, 0xc6, 0x17, 0x33, 0xbe,
  0x9c, 0xfd, 0x96, 0x3c, 0xf2, 0xf3, 0x01, 0x3e, 0x48, 0x29, 0x9b, 0x3c,
  0x60, 0x35, 0x18, 0x3c, 0xb6, 0xe8, 0x27, 0x3e, 0xdb, 0x24, 0xff, 0x3d,
  0xb4, 0x72, 0x81, 0x3b, 0x89, 0x32, 0xd8, 0x3d, 0x65, 0x54, 0xfb, 0x3d,
  0x56, 0x3e, 0x85, 0x3d, 0x82, 0xd5, 0x74, 0xbd, 0xe3, 0xdd, 0xbe, 0x3c,
  0xa8, 0xae, 0x25, 0x3e, 0x40, 0x4d, 0xca, 0xbd, 0x11, 0xec, 0x28, 0xbe,
  0x55, 0xf6, 0x3d, 0x3b, 0xce, 0xd6, 0xe4, 0x3c, 0x7b, 0xa9, 0xaa, 0x3d,
  0xae, 0x94, 0x13, 0x3d, 0x4c, 0x19, 0x03, 0xbe, 0x5a, 0xe0, 0x53, 0xbe,
  0x79, 0x0f, 0xb8, 0xbc, 0x4b, 0xcc, 0x94, 0x3e, 0x5e, 0x62, 0xd1, 0x3d,
  0xd6, 0x02, 0x34, 0xbe, 0x16, 0xd8, 0x04, 0x3e, 0x2a, 0x48, 0x07, 0xbe,
  0x72, 0x46, 0x2d, 0x3e, 0x35, 0xbe, 0xf3, 0x3d, 0xc5, 0x2e, 0x72, 0xbd,
  0x03, 0xb6, 0x53, 0x3e, 0x84, 0x15, 0x61, 0xbd, 0xbf, 0xf8, 0x7b, 0x3d,
  0xbb, 0x53, 0x23, 0xbe, 0x7e, 0x99, 0xd5, 0xbc, 0x30, 0x0e, 0xb1, 0x3d,
  0xa6, 0xc9, 0x11, 0xbe, 0x44, 0x07, 0x9d, 0xbc, 0x38, 0x85, 0x90, 0x3e,
  0x46, 0x77, 0x41, 0x3e, 0x19, 0x57, 0xf2, 0x3d, 0x95, 0xad, 0x14, 0xbe,
  0x5a, 0xdd, 0x12, 0x3e, 0x27, 0x6a, 0x28, 0xbe, 0x56, 0x23, 0x76, 0x3c,
  0xa3, 0xed, 0x4f, 0xbe, 0x81, 0xf2, 0x8f, 0x3b, 0x30, 0xef, 0xbf, 0xbd,
  0x72, 0x38, 0xb6, 0x3d, 0x3f, 0xa9, 0x8d, 0xb7, 0x3c, 0xde, 0xde, 0x3d,
  0x7d, 0xaa, 0x39, 0x3e, 0x27, 0x3a, 0x0f, 0x3d, 0xf0, 0x0e, 0x58, 0x3d,
  0x84, 0xd8, 0xc4, 0xbd, 0xb1, 0x9f, 0x3b, 0xbe, 0xc2, 0xc8, 0x94, 0x3d,
  0xc5, 0x9b, 0xee, 0x3d, 0x6b, 0x71, 0x1a, 0x3e, 0xf2, 0xdf, 0x18, 0x3e,
  0xb1, 0x97, 0x30, 0xbe, 0xdf, 0xf7, 0x86, 0x3d, 0x25, 0xdf, 0x07, 0x3e,
  0x88, 0xca, 0x06, 0x3e, 0x66, 0xe7, 0x5b, 0x3e, 0x36, 0xe1, 0xd7, 0xbd,
  0xe6, 0x6b, 0x9c, 0xbd, 0x45, 0xc7, 0x43, 0x3d, 0x9a, 0x0f, 0x9a, 0x3d,
  0x07, 0xbe, 0x77, 0x3d, 0x75, 0xf9, 0x8c, 0x3e, 0xbd, 0xaf, 0x2f, 0xbe,
  0x04, 0x05, 0x24, 0x3e, 0x2c, 0x60, 0x95, 0x3c, 0xd5, 0x05, 0x27, 0x3e,
  0xe3, 0x8b, 0x41, 0x3e, 0x0d, 0xe5, 0x97, 0x3d, 0xfc, 0xd9, 0xed, 0x3d,
  0xf1, 0x7f, 0xa2, 0xbd, 0x6e, 0xe9, 0x55, 0x3e, 0x51, 0x2a, 0xe3, 0xbc,
  0x92, 0xa5, 0x09, 0xbe, 0xe0, 0xfa, 0xf2, 0xbd, 0xb8, 0x05, 0x1e, 0x3e,
  0xc3, 0x98, 0x8d, 0x3d, 0x47, 0x07, 0xba, 0x3d, 0x2b, 0x5d, 0x4c, 0x3d,
  0x63, 0x5d, 0x8d, 0x3e, 0x6a, 0x11, 0xfd, 0xbd, 0xa9, 0x0d, 0x70, 0x3e,
  0x99, 0x24, 0xeb, 0xbd, 0xdf, 0x1f, 0x5c, 0xbc, 0x82, 0xc1, 0x69, 0xbd,
  0xa2, 0x04, 0xde, 0xbd, 0x49, 0x0d, 0xe1, 0xbd, 0xb7, 0x51, 0x1d, 0xba,
  0x07, 0xad, 0x4f, 0xbd, 0x4e, 0xde, 0x24, 0x3e, 0x51, 0x3a, 0xfa, 0x3d,
  0xb3, 0xa4, 0x57, 0x3d, 0x3d, 0xb4, 0x95, 0xbd, 0x68, 0x3d, 0x90, 0xbd,
  0x79, 0x4a, 0x9d, 0xbd, 0x9f, 0x70, 0x6a, 0x3d, 0x4e, 0x0b, 0x1c, 0xbe,
  0x8f, 0x74, 0x1f, 0x3e, 0x16, 0x27, 0xc9, 0xbd, 0x15, 0xed, 0xf2, 0xbd,
  0xed, 0x2b, 0xcf, 0xbd, 0x44, 0x0b, 0x10, 0xbd, 0x3e, 0xea, 0xe0, 0x3d,
  0x3c, 0x52, 0xbe, 0xbd, 0x84, 0x19, 0xea, 0x3d, 0xd1, 0xaa, 0x6b, 0x3d,
  0x83, 0x6a, 0x96, 0xbc, 0xae, 0x2a, 0xc7, 0x3b, 0xf5, 0x65, 0x85, 0xbd,
  0x07, 0xdd, 0x11, 0x3d, 0xdb, 0xea, 0x66, 0xbd, 0x78, 0x04, 0xf7, 0x3d,
  0xdf, 0x19, 0x50, 0x3e, 0x1c, 0xca, 0x10, 0xbd, 0xea, 0xd3, 0xec, 0x3d,
  0x7f, 0xed, 0xe1, 0x3b, 0xe0, 0xe9, 0x97, 0xbd, 0xaa, 0x99, 0xdf, 0xbd,
  0x83, 0xcd, 0x7a, 0xbd, 0x78, 0x80, 0x8e, 0xbc, 0x93, 0x8b, 0x13, 0x3d,
  0xce, 0xd6, 0x61, 0xbe, 0xbe, 0x18, 0x09, 0xbe, 0x41, 0xfb, 0xe1, 0x3d,
  0x30, 0xae, 0xee, 0x3c, 0xa4, 0x10, 0x83, 0xbc, 0x82, 0x00, 0x37, 0x3e,
  0x88, 0x4d, 0x1a, 0xbd, 0x96, 0x35, 0xf5, 0xbc, 0xaf, 0x9a, 0xa1, 0xbd,
  0x85, 0xe1, 0x23, 0x3d, 0x50, 0x05, 0x4c, 0x3e, 0x12, 0xaf, 0xcf, 0x3d,
  0xc5, 0x57, 0x13, 0x3e, 0x80, 0x07, 0xf8, 0xbd, 0x66, 0x9e, 0x78, 0xbe,
  0x55, 0x14, 0xb7, 0x3c, 0xd3, 0x9b, 0x94, 0xbd, 0x87, 0x2f, 0x47, 0xbe,
  0xf8, 0xeb, 0xe2, 0x3d, 0x2c, 0xe5, 0x82, 0xbd, 0x72, 0x02, 0x0c, 0x3e,
  0xb6, 0xea, 0x43, 0xbe, 0x8b, 0x99, 0x52, 0x3e, 0x4d, 0x5f, 0x11, 0x3c,
  0xde, 0x1d, 0x9f, 0xbc, 0xb3, 0x2d, 0xc2, 0xbd, 0xb9, 0x1c, 0xd8, 0x3d,
  0x2a, 0x4f, 0x4e, 0x3e, 0x85, 0xbe, 0xc9, 0x3d, 0xdc, 0xec, 0x0e, 0x3c,
  0x1f, 0x31, 0x77, 0xbd, 0x26, 0xe9, 0xd3, 0xba, 0x43, 0x9b, 0x06, 0xbe,
  0xed, 0x73, 0x40, 0xbe, 0x77, 0x16, 0x7f, 0xbd, 0xef, 0x73, 0x33, 0xbe,
  0x05, 0x1f, 0xa3, 0xbc, 0x47, 0x50, 0x82, 0x3d, 0xd0, 0xdd, 0xa1, 0x3c,
  0x81, 0xfb, 0x0c, 0xbc, 0x9c, 0x61, 0x87, 0xbe, 0x87, 0x52, 0x01, 0xbe,
  0xa8, 0x49, 0x94, 0x3d, 0x75, 0xf1, 0x47, 0xbe, 0x98, 0x95, 0xf7, 0xbc,
  0xa9, 0x5b, 0xe3, 0xbd, 0x19, 0xd7, 0x39, 0x3e, 0x20, 0x1a, 0xff, 0x3c,
  0x81, 0xf5, 0x65, 0x3d, 0xb4, 0x7d, 0x45, 0x3e, 0x45, 0x10, 0x06, 0x3e,
  0x31, 0x11, 0x41, 0xbd, 0x57, 0x2d, 0x89, 0xbd, 0x56, 0x01, 0x03, 0x3e,
  0xeb, 0x1c, 0x79, 0xbe, 0x8f, 0x0e, 0x96, 0x3d, 0xdd, 0xcf, 0x93, 0x3d,
  0xa5, 0x67, 0x00, 0xbe, 0x53, 0x54, 0x25, 0x3e, 0x20, 0x9c, 0x28, 0x3b,
  0xe5, 0x44, 0x18, 0xbc, 0x0f, 0x98, 0xd1, 0xbd, 0x32, 0xe1, 0x19, 0xbe,
  0x66, 0x12, 0x9e, 0x3d, 0x3a, 0xab, 0x29, 0xbe, 0xde, 0xc2, 0x45, 0x3d,
  0x16, 0xb0, 0x0e, 0xbe, 0xc2, 0x18, 0x81, 0x3d, 0x04, 0xf2, 0x04, 0xbd,
  0xa9, 0x2d, 0xba, 0xbb, 0x1b, 0x7f, 0x1c, 0xbe, 0xf7, 0x10, 0xce, 0xbc,
  0xcf, 0xf6, 0x8d, 0xbe, 0x72, 0x9f, 0x3d, 0x3d, 0x64, 0xe2, 0x05, 0xbe,
  0xa1, 0xe8, 0x50, 0x3d, 0x74, 0xfc, 0xfe, 0xbd, 0x17, 0xdd, 0x5e, 0xbd,
  0x58, 0x57, 0x87, 0xbd, 0xc8, 0x55, 0xcc, 0xbc, 0xa0, 0x63, 0x9d, 0xbb,
  0x2d, 0x57, 0x12, 0x3e, 0x13, 0x09, 0xe6, 0x3d, 0xa2, 0xd0, 0x34, 0xbd,
  0xc3, 0x12, 0xf9, 0xbd, 0xd7, 0x6d, 0x45, 0xbe, 0xe1, 0xdd, 0x5d, 0xbd,
  0xce, 0xd4, 0x50, 0x3d, 0xda, 0x6b, 0x13, 0x3c, 0x15, 0x4d, 0xae, 0xbb,
  0x02, 0xd4, 0x6b, 0x3d, 0xc6, 0xe0, 0xad, 0x38, 0x23, 0x03, 0x81, 0x3d,
  0x93, 0xa0, 0x09, 0x3e, 0x6d, 0x58, 0x55, 0x3e, 0x36, 0x7e, 0xb4, 0xbd,
  0x8b, 0x33, 0x85, 0xbd, 0xb2, 0xc1, 0x87, 0xbd, 0x4f, 0x10, 0x41, 0x3c,
  0xfb, 0x84, 0xde, 0x3c, 0xfd, 0xb2, 0x23, 0xbe, 0x0c, 0x3e, 0x82, 0x3e,
  0x52, 0x08, 0x08, 0xbe, 0x56, 0x49, 0xcb, 0xbb, 0x75, 0xf7, 0x1d, 0xbe,
  0x1a, 0x6c, 0xc4, 0x3c, 0x96, 0xc0, 0x21, 0xbe, 0x34, 0xdb, 0xd3, 0xbd,
  0x71, 0x31, 0x23, 0x3d, 0x22, 0x02, 0xb6, 0x3e, 0x0e, 0x47, 0xd7, 0x3d,
  0xf8, 0x52, 0x31, 0xbd, 0x1e, 0xee, 0x9f, 0xbc, 0x1a, 0xdb, 0x0d, 0x3e,
  0x0f, 0xb2, 0x39, 0x3e, 0x85, 0x75, 0x48, 0x3e, 0xdf, 0xe4, 0x47, 0x3e,
  0x79, 0x43, 0x6e, 0x3e, 0x69, 0x8f, 0x67, 0xbe, 0x80, 0xa0, 0x5a, 0xbc,
  0x2b, 0x64, 0x04, 0x3e, 0x8d, 0xe2, 0x27, 0xbe, 0x60, 0x1c, 0xb9, 0xbc,
  0xd5, 0x1a, 0xe0, 0x3d, 0x62, 0x8d, 0x6d, 0xbd, 0xa5, 0xa1, 0x91, 0x3e,
  0x8b, 0xec, 0x16, 0x3e, 0xb5, 0xb3, 0x8e, 0xbc, 0x36, 0x4e, 0x0d, 0x3e,
  0x8c, 0x78, 0x87, 0x3c, 0x25, 0x4d, 0x98, 0xbd, 0xb0, 0x79, 0x4d, 0xbe,
  0xe1, 0x7a, 0xf1, 0x3c, 0x5b, 0xb5, 0x83, 0x3e, 0x2e, 0xd1, 0x3f, 0xbe,
  0x17, 0xb5, 0x01, 0xbe, 0xf4, 0xef, 0x84, 0x3d, 0x66, 0x7b, 0x24, 0x3e,
  0x6f, 0x91, 0xb2, 0x3d, 0xcc, 0xfc, 0x86, 0xbd, 0xd3, 0xac, 0x49, 0x3e,
  0x07, 0x26, 0xdd, 0x3d, 0x0c, 0x25, 0x40, 0x3e, 0xbf, 0xd0, 0xcc, 0xbd,
  0xa8, 0xbf, 0x12, 0x3e, 0x09, 0x71, 0x00, 0xbe, 0xb6, 0x5e, 0x77, 0xbd,
  0x68, 0xbe, 0x49, 0x3e, 0x32, 0x3f, 0x96, 0xbc, 0x35, 0x85, 0xad, 0xbd,
  0xb3, 0x87, 0x79, 0x3e, 0x40, 0x72, 0x95, 0x3c, 0xd7, 0x58, 0xde, 0x3d,
  0x8a, 0x2d, 0x13, 0x3e, 0x6d, 0x12, 0xf2, 0x3c, 0x05, 0x03, 0x95, 0xbc,
  0x30, 0xe3, 0x26, 0xbc, 0x24, 0xe3, 0x0b, 0xbe, 0xb3, 0xee, 0xb2, 0xbd,
  0x68, 0x95, 0x38, 0x3d, 0x9a, 0x72, 0x96, 0xbd, 0x00, 0x05, 0xd7, 0x3d,
  0x24, 0xfa, 0x51, 0x3e, 0x85, 0x56, 0x56, 0xbd, 0x44, 0x4c, 0x80, 0xbd,
  0xeb, 0x1d, 0x52, 0xbb, 0x97, 0x42, 0xae, 0xbd, 0x63, 0xb8, 0x9f, 0xbc,
  0x23, 0x82, 0xa1, 0x3c, 0xd9, 0x1d, 0x1b, 0xbe, 0x01, 0xed, 0x42, 0x3d,
  0xfa, 0x59, 0x0f, 0xbe, 0x25, 0x5c, 0xef, 0xbd, 0xf0, 0x5a, 0xb0, 0x3d,
  0x75, 0x53, 0x42, 0xbe, 0x4d, 0xbe, 0x9e, 0xbd, 0x93, 0x16, 0x3b, 0x3e,
  0xbc, 0x96, 0xbc, 0xbd, 0x5a, 0x9d, 0x1e, 0x3d, 0x6d, 0xbf, 0x27, 0x3e,
  0xc5, 0x6f, 0x8f, 0xbc, 0xd5, 0x9a, 0x11, 0x3c, 0x01, 0x29, 0x9c, 0xbd,
  0x3e, 0x9a, 0x07, 0xbe, 0x86, 0x4b, 0x53, 0x3d, 0xb4, 0xe2, 0x01, 0x3e,
  0xd6, 0x96, 0x79, 0xbd, 0x05, 0xc4, 0x9d, 0x3d, 0x15, 0xf2, 0x7c, 0x3e,
  0x83, 0x68, 0xa6, 0x3d, 0x3d, 0x9a, 0xb4, 0x3d, 0xdf, 0x48, 0xf7, 0x3d,
  0xce, 0x89, 0x1a, 0xbe, 0xa6, 0x13, 0x13, 0xbe, 0x22, 0x6d, 0x38, 0xbe,
  0x18, 0x46, 0xe8, 0xbd, 0x25, 0x9c, 0x12, 0xbd, 0x12, 0xd8, 0x9d, 0x3d,
  0x71, 0x17, 0xf2, 0x3c, 0x53, 0x8a, 0x04, 0x3e, 0xa1, 0x6a, 0xac, 0x3d,
  0xc4, 0x60, 0xef, 0x3c, 0x03, 0x16, 0x77, 0xbc, 0xb1, 0x6f, 0x61, 0x3d,
  0x07, 0x7d, 0x19, 0x3e, 0xa5, 0xee, 0xfa, 0x3c, 0x27, 0xec, 0xea, 0x3d,
  0x12, 0x00, 0x0e, 0xbc, 0x72, 0x60, 0x60, 0xbe, 0x84, 0x58, 0xc7, 0x3d,
  0xf8, 0x90, 0xd8, 0xbd, 0x9d, 0xb0, 0x47, 0xbd, 0x26, 0x87, 0x34, 0xbe,
  0x22, 0xba, 0x28, 0xbe, 0xfa, 0x6d, 0xad, 0x3d, 0xd3, 0x88, 0x10, 0xbe,
  0x5e, 0x4f, 0xf4, 0xbd, 0x29, 0x6c, 0xbb, 0xbd, 0x12, 0xb0, 0xb5, 0xbc,
  0xe9, 0x8a, 0xa8, 0xbd, 0xc8, 0x77, 0x6e, 0x3e, 0x83, 0x05, 0xfb, 0x3d,
  0xf8, 0x51, 0x3a, 0x3e, 0xf8, 0xef, 0x63, 0x3e, 0x47, 0x0c, 0xdd, 0xbd,
  0x1f, 0x7d, 0x2d, 0x3c, 0x55, 0x71, 0x0c, 0x3e, 0x97, 0xa6, 0x10, 0x3c,
  0x4b, 0x72, 0xba, 0xbd, 0xaf, 0x39, 0x35, 0xbe, 0x2e, 0x73, 0x43, 0x3e,
  0x58, 0x39, 0x0d, 0x3e, 0xe1, 0x79, 0x39, 0x3e, 0x60, 0x73, 0x05, 0x3e,
  0x8d, 0xd5, 0x48, 0x3e, 0x1d, 0x05, 0x3b, 0xbe, 0x1e, 0xf1, 0x2f, 0x3b,
  0x37, 0x51, 0x0f, 0x3e, 0xe0, 0xb2, 0xbd, 0xbd, 0xf9, 0x1f, 0x61, 0x3e,
  0x37, 0x3f, 0x8c, 0x3d, 0xfa, 0x73, 0xc8, 0xbd, 0xcc, 0xc8, 0xe2, 0x3c,
  0x22, 0x81, 0xcb, 0x3d, 0x67, 0xf3, 0x70, 0xbc, 0xa9, 0xe1, 0x0a, 0x3e,
  0x98, 0x7d, 0x38, 0xbd, 0x9f, 0xb5, 0x43, 0x3e, 0x6c, 0x02, 0x78, 0x3e,
  0x9b, 0xd8, 0x29, 0x3e, 0x1e, 0xf2, 0xb4, 0xbd, 0x84, 0x2e, 0x33, 0x3e,
  0xbd, 0x1a, 0x89, 0xbd, 0x50, 0x5e, 0x6f, 0x3d, 0x17, 0x64, 0x3b, 0xbc,
  0x95, 0x56, 0x97, 0xbd, 0xda, 0xde, 0xd7, 0xbd, 0x29, 0x6f, 0xa2, 0x3d,
  0xd5, 0xbc, 0xf5, 0xbd, 0xf9, 0x57, 0xea, 0xbd, 0x4b, 0x46, 0x18, 0xbe,
  0xaf, 0x82, 0x1b, 0x3e, 0xc6, 0xd9, 0x23, 0xbe, 0x36, 0xbf, 0xc1, 0x3d,
  0xd8, 0x6d, 0xd8, 0xbd, 0x66, 0x0d, 0x3c, 0xbe, 0x16, 0x7d, 0xc0, 0x3c,
  0x7d, 0x00, 0x9f, 0xbc, 0x60, 0x1a, 0x24, 0x3e, 0x23, 0xd5, 0x14, 0x3e,
  0x9a, 0x42, 0x97, 0xbc, 0xc6, 0x3b, 0x7a, 0x3e, 0x0b, 0xcb, 0x12, 0x3a,
  0x94, 0x9d, 0x3b, 0x3d, 0xe0, 0xe9, 0x22, 0x3e, 0xcf, 0x20, 0x17, 0xbe,
  0x17, 0xea, 0xf8, 0x3a, 0xf1, 0xdd, 0x0d, 0x3d, 0x66, 0xfa, 0x5a, 0x3d,
  0x5e, 0xfc, 0x1c, 0xbd, 0x01, 0x26, 0xf8, 0xbd, 0xa6, 0xed, 0x03, 0x3e,
  0xd7, 0x44, 0x46, 0xbe, 0xa5, 0xb1, 0xca, 0x3d, 0x50, 0x94, 0xab, 0x3d,
  0x38, 0x8c, 0xac, 0xbd, 0xad, 0xf9, 0x03, 0x3e, 0xce, 0x84, 0xe3, 0xbd,
  0x7c, 0x3e, 0x47, 0xbd, 0x0b, 0x50, 0x21, 0xbe, 0x62, 0xce, 0xed, 0x3d,
  0x4a, 0xbb, 0x35, 0xbe, 0xd9, 0xe7, 0x5e, 0xbe, 0xf4, 0xc1, 0x26, 0xbc,
  0x91, 0x8e, 0x49, 0x3e, 0x6f, 0xe6, 0x09, 0x3e, 0x3a, 0xe0, 0x2a, 0x3e,
  0x2d, 0xdc, 0x4d, 0xbe, 0xb0, 0x2b, 0x4a, 0xbd, 0xb3, 0xc0, 0x79, 0x3d,
  0xa1, 0x36, 0x9c, 0x3d, 0xe8, 0x66, 0x3b, 0xbe, 0x4a, 0x6f, 0x82, 0x3d,
  0x27, 0x21, 0x0d, 0x3e, 0xa8, 0x34, 0x66, 0xbd, 0x95, 0x58, 0x8d, 0x3d,
  0x5b, 0x84, 0x33, 0x3d, 0xd9, 0x7f, 0x9f, 0xbd, 0x4a, 0x14, 0x0d, 0x3e,
  0xe8, 0x91, 0x3e, 0xbe, 0x3a, 0xc4, 0x3a, 0xbe, 0xd0, 0xcb, 0x1a, 0xbe,
  0x2c, 0x19, 0x0c, 0xbe, 0x19, 0xa7, 0x15, 0x3e, 0x23, 0xe8, 0xe7, 0xbd,
  0x36, 0xf4, 0x32, 0x3e, 0xc7, 0x69, 0xe3, 0x3d, 0x9e, 0x6a, 0x58, 0x3d,
  0xaf, 0x9c, 0xda, 0x3d, 0x02, 0x59, 0xc1, 0xbd, 0x55, 0x51, 0x30, 0x3e,
  0x55, 0x52, 0xd7, 0xbd, 0xff, 0xbe, 0xf9, 0x3d, 0x9d, 0x3d, 0xbf, 0x3d,
  0x2f, 0x44, 0xf7, 0x3d, 0x25, 0x6d, 0xea, 0x3c, 0x10, 0x98, 0x2a, 0xbe,
  0x08, 0xc2, 0x2e, 0xbe, 0x4a, 0xfd, 0xe2, 0x3c, 0x6b, 0x61, 0x06, 0x3e,
  0xcf, 0xd4, 0x11, 0x3e, 0x0a, 0xa8, 0x5f, 0xbd, 0xe5, 0x1a, 0x97, 0x3d,
  0x13, 0x34, 0xa7, 0xbd, 0x68, 0x2b, 0xfb, 0xbd, 0x26, 0x49, 0x59, 0x3e,
  0x77, 0x3b, 0xe1, 0xbb, 0x81, 0x25, 0xa6, 0xbd, 0x68, 0xd3, 0x79, 0xbd,
  0x0b, 0x68, 0x28, 0xbd, 0x57, 0xa3, 0x21, 0x3d, 0x9e, 0x49, 0x27, 0xbd,
  0x9f, 0xa5, 0x96, 0xbb, 0x1e, 0x72, 0x22, 0xbe, 0xcb, 0xa6, 0x8b, 0x3d,
  0x1a, 0x92, 0x25, 0x3e, 0xb3, 0x05, 0x00, 0xbe, 0xf4, 0xb2, 0xff, 0xbd,
  0x33, 0x3b, 0x8b, 0x3d, 0x54, 0x1b, 0x6a, 0x3e, 0x27, 0x70, 0x97, 0xbc,
  0x7d, 0x98, 0x86, 0x3e, 0xe4, 0x8e, 0x09, 0x3e, 0x13, 0x35, 0xa7, 0x3d,
  0x74, 0xac, 0x22, 0x3e, 0x12, 0x55, 0xac, 0x3d, 0x4b, 0x57, 0xbd, 0x3d,
  0xec, 0xb8, 0x1d, 0x3e, 0x9e, 0x2b, 0xb9, 0x3d, 0x83, 0x17, 0xf5, 0x3d,
  0x51, 0x35, 0x35, 0x3e, 0xa0, 0x77, 0x3b, 0xbe, 0xef, 0x62, 0x79, 0x3d,
  0x4d, 0x03, 0xcd, 0x3d, 0xac, 0xa1, 0x8b, 0xbd, 0xb3, 0x2a, 0x14, 0x3e,
  0xba, 0x62, 0xd8, 0x3d, 0x3d, 0x27, 0x0d, 0xbd, 0x68, 0x66, 0x36, 0x3e,
  0x64, 0x44, 0x8c, 0x3d, 0x3c, 0x5d, 0x34, 0x3e, 0xa2, 0x19, 0x91, 0xbd,
  0x01, 0x61, 0x30, 0x3e, 0x07, 0xd7, 0x8f, 0x3e, 0x88, 0xe9, 0xd0, 0xbd,
  0xae, 0x7f, 0x26, 0x3d, 0x3a, 0xf6, 0x83, 0x3d, 0xa4, 0x7b, 0x43, 0x3d,
  0xfc, 0x96, 0x38, 0x3e, 0xb3, 0x1f, 0xb4, 0x3d, 0xc9, 0x46, 0x1d, 0xbe,
  0x80, 0xc7, 0x0d, 0x3e, 0xc5, 0x1f, 0x5d, 0x3e, 0xf2, 0x80, 0xb7, 0xbd,
  0xc8, 0x34, 0x8b, 0x3d, 0x15, 0x58, 0xef, 0x3c, 0xca, 0x51, 0x46, 0x3e,
  0xa1, 0x15, 0x70, 0x3d, 0x06, 0x00, 0x3a, 0x3d, 0xed, 0x82, 0x07, 0x3e,
  0x33, 0xa9, 0x48, 0xbe, 0x75, 0x2b, 0xf6, 0x3d, 0x74, 0x3e, 0xcb, 0x3d,
  0xd3, 0x4d, 0x0e, 0xbe, 0x98, 0xa2, 0x3d, 0xbe, 0xc5, 0xb9, 0x82, 0xbd,
  0x08, 0x94, 0x38, 0xbe, 0x11, 0x4b, 0x85, 0x3e, 0xfd, 0x19, 0x1b, 0xbb,
  0x21, 0x85, 0x1a, 0x3d, 0xb2, 0x7d, 0x92, 0x3d, 0xa6, 0x32, 0xed, 0x3d,
  0x09, 0xe8, 0x01, 0xbe, 0xe6, 0x4c, 0x38, 0xbd, 0x48, 0xfb, 0xc0, 0x3d,
  0x6e, 0x8a, 0x04, 0xbe, 0x6b, 0xc2, 0xf9, 0xbd, 0x43, 0xca, 0x26, 0xbe,
  0x4c, 0x36, 0x56, 0xbe, 0x1f, 0x71, 0x83, 0xbd, 0xdf, 0x18, 0xaf, 0xbd,
  0x39, 0xdb, 0x9b, 0x3d, 0x63, 0xf9, 0xa2, 0xbd, 0x8f, 0x60, 0x13, 0x3d,
  0x29, 0x6a, 0x35, 0xbe, 0xab, 0xd0, 0x8f, 0x3e, 0xce, 0xf5, 0xcc, 0x3d,
  0xf9, 0x85, 0x10, 0x3e, 0x39, 0x67, 0x3e, 0x3e, 0x73, 0x3f, 0x0e, 0x3e,
  0x66, 0x68, 0x40, 0x3e, 0xb6, 0x35, 0x8e, 0x3c, 0x58, 0x5b, 0x4e, 0xbe,
  0x3c, 0xa7, 0x02, 0x3e, 0x40, 0xe1, 0x23, 0xbe, 0x46, 0x08, 0xb3, 0x3c,
  0x63, 0x41, 0x39, 0x3d, 0x0a, 0x99, 0x24, 0xbc, 0x92, 0xdc, 0x6a, 0xbd,
  0x82, 0x21, 0x1a, 0xbe, 0x43, 0xe2, 0x76, 0xbe, 0xb8, 0x05, 0x4d, 0x3d,
  0x4c, 0x74, 0x4e, 0x3e, 0x0d, 0xac, 0x7e, 0xbc, 0x89, 0x5d, 0x2c, 0x3e,
  0x9e, 0x1c, 0x16, 0xbe, 0xb9, 0xe9, 0xbf, 0xbc, 0x50, 0xfd, 0xcf, 0xbd,
  0x96, 0x6c, 0xc9, 0x3c, 0x34, 0x6e, 0x46, 0x3e, 0xe1, 0x64, 0x32, 0x3e,
  0xaf, 0x24, 0x9e, 0x3d, 0xc6, 0x98, 0xc3, 0xbd, 0x8f, 0x9c, 0xf9, 0x3d,
  0x40, 0x84, 0xcd, 0xbc, 0xd7, 0xd3, 0xa9, 0xbd, 0x67, 0x0b, 0xbd, 0xbd,
  0x8a, 0x28, 0x51, 0xbe, 0x3c, 0xaa, 0x75, 0x3e, 0x9b, 0xe5, 0x02, 0xbd,
  0xdf, 0x64, 0x11, 0xbe, 0x5f, 0x56, 0xf4, 0x3d, 0x85, 0x64, 0x9f, 0xbd,
  0x4d, 0xa2, 0xd3, 0xbd, 0x78, 0x6e, 0xf2, 0x3d, 0xb1, 0x06, 0x57, 0x3e,
  0x1b, 0x8a, 0x60, 0xbd, 0x50, 0xcf, 0x09, 0xbe, 0xc4, 0x8c, 0x63, 0x3e,
  0xdc, 0xfb, 0x11, 0xbe, 0xf5, 0x4b, 0x86, 0x3d, 0x82, 0x27, 0x16, 0x3e,
  0x4d, 0xbf, 0xa7, 0xbd, 0xee, 0x51, 0xca, 0xbd, 0xa2, 0x18, 0x4e, 0x3e,
  0x83, 0x1a, 0x1c, 0xbe, 0xa4, 0x5a, 0xda, 0xb9, 0x00, 0x54, 0xf2, 0x3d,
  0x01, 0x81, 0x32, 0x3e, 0x9f, 0x0f, 0x24, 0x3c, 0x35, 0xcc, 0x1d, 0x3d,
  0xdd, 0xc0, 0xa4, 0xbd, 0x95, 0x33, 0x4e, 0xbe, 0x71, 0x42, 0xa0, 0xbd,
  0x6f, 0x4b, 0xf6, 0xbd, 0x5b, 0x9b, 0x5c, 0xbd, 0xc2, 0x70, 0x02, 0x3d,
  0xee, 0x09, 0x0d, 0x3e, 0x90, 0x33, 0x48, 0x3a, 0x3d, 0x12, 0x4c, 0xbc,
  0xe4, 0x2e, 0xc5, 0xbd, 0x68, 0xa9, 0x3f, 0x3e, 0x23, 0xb3, 0x97, 0xbd,
  0x7f, 0x30, 0xf0, 0x3d, 0x67, 0x9f, 0x5f, 0x3e, 0xa7, 0x0b, 0x0d, 0x3e,
  0xb9, 0xa7, 0x18, 0x3e, 0x66, 0x67, 0x18, 0x3d, 0x84, 0x2a, 0x16, 0xbe,
  0xf7, 0x40, 0x13, 0x3e, 0x85, 0x5a, 0xea, 0x3d, 0x8d, 0xc2, 0xcf, 0xbd,
  0xf5, 0x06, 0x95, 0x3a, 0xbe, 0x84, 0x8e, 0xbc, 0x5f, 0xee, 0x59, 0x3e,
  0x37, 0xb2, 0xa8, 0x3d, 0xfd, 0x83, 0xa1, 0x3d, 0x56, 0xf9, 0x8b, 0x3b,
  0xa0, 0x6d, 0x0a, 0x3e, 0x64, 0xc7, 0xf9, 0xbd, 0x03, 0x80, 0x83, 0xbc,
  0xae, 0x80, 0x55, 0x3d, 0x6f, 0x11, 0x88, 0x3d, 0x3c, 0x93, 0x5b, 0x3d,
  0xbc, 0x04, 0x18, 0xbe, 0x06, 0x51, 0xe8, 0xbc, 0xc1, 0x8b, 0x11, 0xbd,
  0x0c, 0xcc, 0x14, 0x3b, 0xce, 0x54, 0x22, 0x3e, 0xca, 0x19, 0x10, 0xbe,
  0x80, 0x10, 0x88, 0xbd, 0x3b, 0x6e, 0x8d, 0xbe, 0xf3, 0x6d, 0xfc, 0xbd,
  0x8c, 0x14, 0x0d, 0x3e, 0x01, 0x4d, 0x14, 0xbe, 0xeb, 0xbc, 0xeb, 0xbd,
  0xd9, 0x82, 0x4a, 0x3e, 0x5c, 0x4b, 0xd6, 0x3d, 0xca, 0xbc, 0x0f, 0xbe,
  0x6e, 0x95, 0xf8, 0xbc, 0x54, 0x8b, 0x2c, 0xbe, 0x41, 0x3c, 0x38, 0xbd,
  0x88, 0x0e, 0x02, 0xbe, 0x36, 0x35, 0x12, 0x3e, 0x3b, 0xfd, 0x99, 0xbd,
  0x50, 0xb3, 0xa1, 0xbd, 0x8c, 0x7d, 0x83, 0x3d, 0xf3, 0x40, 0x16, 0xbd,
  0x49, 0x51, 0xb3, 0x3c, 0xd4, 0x15, 0x55, 0x3e, 0x72, 0x4f, 0xce, 0xbd,
  0x6d, 0xa7, 0x11, 0x3e, 0x6a, 0x7b, 0xeb, 0xbc, 0xf4, 0x3e, 0x29, 0x3d,
  0x8e, 0x1f, 0x6c, 0x3e, 0x88, 0xb2, 0x0e, 0x3e, 0x94, 0xd9, 0xcf, 0x3d,
  0x11, 0x2b, 0xfd, 0x3b, 0xfb, 0x3e, 0x48, 0x3e, 0xd2, 0xdd, 0xe4, 0xbd,
  0x7f, 0x53, 0x83, 0x3d, 0x2f, 0x76, 0xaa, 0xbd, 0x6d, 0x73, 0x01, 0xbe,
  0xed, 0xbe, 0x48, 0xbd, 0x9b, 0xfa, 0x98, 0x3d, 0x15, 0x86, 0x9e, 0xbc,
  0x41, 0xb3, 0x04, 0x3c, 0x16, 0x23, 0x10, 0xbe, 0x7c, 0xb7, 0x12, 0xbe,
  0x30, 0x39, 0x19, 0xbd, 0xeb, 0x82, 0x86, 0xbd, 0x2b, 0x18, 0x2a, 0x3e,
  0x5a, 0x57, 0xb3, 0xbd, 0x0a, 0x9f, 0x11, 0x3e, 0x2c, 0x28, 0x23, 0x3e,
  0x2c, 0x09, 0xc6, 0xbd, 0x30, 0x53, 0x9d, 0xbd, 0x4c, 0x4c, 0x9b, 0xbe,
  0x49, 0x6c, 0x53, 0xbe, 0xe8, 0x65, 0x6b, 0x3d, 0x61, 0x3e, 0x35, 0x3e,
  0x38, 0xb5, 0xac, 0x3d, 0x31, 0xdc, 0x40, 0x3e, 0x80, 0x6b, 0x21, 0xbe,
  0x1e, 0x21, 0x63, 0xbe, 0x70, 0x56, 0x57, 0x3d, 0x64, 0xee, 0x09, 0x3c,
  0xab, 0x09, 0x14, 0xbe, 0x72, 0xcf, 0x80, 0x3c, 0xd1, 0x08, 0x23, 0xbe,
  0xff, 0x83, 0x79, 0xbd, 0x86, 0x35, 0x36, 0x3e, 0x35, 0x4f, 0x53, 0x3e,
  0x2a, 0x71, 0x80, 0x3e, 0x86, 0x3a, 0x4d, 0x3e, 0x26, 0xde, 0x23, 0x3e,
  0xe6, 0x46, 0x8f, 0xbc, 0x2c, 0xf9, 0x60, 0x3e, 0x70, 0xef, 0x85, 0xbb,
  0x5c, 0x83, 0x51, 0x3c, 0xf4, 0x5c, 0x29, 0x3e, 0x05, 0xa1, 0xbb, 0x3c,
  0xb2, 0x75, 0x2e, 0x3e, 0x78, 0xf1, 0x13, 0xbe, 0x1e, 0x4c, 0x1d, 0xbe,
  0xd3, 0x87, 0x4d, 0xbb, 0x6a, 0x98, 0x2a, 0xbe, 0x2b, 0x11, 0xe9, 0xbd,
  0x08, 0xc0, 0x53, 0x3e, 0xfa, 0xdd, 0x33, 0x3e, 0xdd, 0x8c, 0x29, 0x3e,
  0xb2, 0x02, 0xe6, 0xbd, 0xfc, 0xf1, 0x58, 0xbe, 0x87, 0x71, 0x44, 0x3e,
  0x08, 0xc2, 0xd2, 0x3d, 0xbd, 0xf6, 0xde, 0xbd, 0x08, 0x01, 0x46, 0xbe,
  0xb9, 0x76, 0x9a, 0xbd, 0xb6, 0x1d, 0x8d, 0xbd, 0x3b, 0x03, 0x36, 0x3e,
  0x02, 0xda, 0xb1, 0xbd, 0x2c, 0xf0, 0x2f, 0xbe, 0x95, 0x8c, 0x03, 0x3d,
  0x3b, 0x66, 0x44, 0x3d, 0x52, 0xd2, 0x36, 0x3c, 0xeb, 0xa8, 0x6a, 0x3e,
  0x25, 0xf1, 0xc0, 0x3d, 0x53, 0x0d, 0x80, 0x3c, 0x1c, 0x7d, 0xd9, 0xbd,
  0xcf, 0x98, 0x8f, 0xbd, 0x96, 0xc1, 0x87, 0xbd, 0x72, 0xc6, 0x9e, 0x3d,
  0xe2, 0xe7, 0x80, 0xbd, 0x0d, 0x99, 0x52, 0x3e, 0xa1, 0x01, 0xac, 0xbb,
  0x9a, 0x03, 0x2f, 0x3e, 0xf7, 0x48, 0x13, 0x3c, 0x78, 0x5d, 0x2e, 0x3e,
  0x1b, 0xd4, 0x16, 0xbe, 0xe0, 0x57, 0x26, 0x3e, 0x2d, 0x94, 0x2f, 0xbe,
  0x2e, 0x39, 0xeb, 0xbd, 0xcb, 0x01, 0x87, 0xbc, 0xdb, 0x7f, 0x14, 0x3e,
  0x4f, 0x68, 0xef, 0xbd, 0x4e, 0xd7, 0x02, 0xbe, 0x07, 0x4f, 0x31, 0xbd,
  0x6c, 0x66, 0xa3, 0xbd, 0x1d, 0x3c, 0xab, 0xbc, 0xfa, 0xf5, 0x6c, 0x3c,
  0x7d, 0xea, 0xfd, 0x3c, 0x5c, 0x59, 0xb8, 0xbd, 0xe7, 0xf2, 0x0e, 0x3e,
  0x63, 0xfc, 0x12, 0xbe, 0x1d, 0xb6, 0x21, 0xbd, 0x1c, 0x50, 0x8c, 0x3d,
  0x60, 0xfd, 0xc3, 0xbd, 0xc6, 0x67, 0xfb, 0xbc, 0x16, 0x51, 0x13, 0x3d,
  0x35, 0xac, 0x89, 0x3e, 0x47, 0xc9, 0x59, 0xbd, 0x7e, 0x1d, 0x11, 0xbe,
  0x27, 0x22, 0xe0, 0xbd, 0x3c, 0x5c, 0x34, 0xbe, 0x84, 0x90, 0x1a, 0x3e,
  0x22, 0x20, 0x2e, 0x3e, 0x3a, 0x53, 0x19, 0xbe, 0x53, 0x28, 0x26, 0x3d,
  0x50, 0x06, 0x70, 0x3e, 0x4d, 0xe5, 0x39, 0xbd, 0x59, 0x55, 0xc4, 0x3d,
  0x35, 0x44, 0x00, 0xbe, 0x4f, 0x03, 0xc8, 0xbd, 0x70, 0xd1, 0x3f, 0x3e,
  0x14, 0x21, 0x87, 0x3d, 0x0a, 0xa9, 0x9a, 0x3e, 0x6b, 0xe9, 0x56, 0x3e,
  0x99, 0x66, 0xa1, 0xbd, 0xec, 0xb5, 0x07, 0x3e, 0x36, 0x74, 0x19, 0x3e,
  0x10, 0x7e, 0x9a, 0x3b, 0xdc, 0xc1, 0xdc, 0xbb, 0x4f, 0x35, 0x1a, 0x3e,
  0x0d, 0xeb, 0x1e, 0x3e, 0x96, 0xfc, 0xb4, 0xbd, 0x0a, 0x6d, 0xca, 0x3c,
  0xe0, 0x80, 0x86, 0xbd, 0x33, 0xa2, 0xcb, 0xbd, 0x35, 0xf8, 0xcf, 0x3d,
  0xbc, 0xac, 0xc0, 0xbd, 0x04, 0x23, 0x2a, 0x3e, 0x60, 0x0c, 0x74, 0xbd,
  0x48, 0x42, 0x74, 0x3b, 0x2a, 0xe8, 0xe2, 0x3a, 0xdf, 0x34, 0xef, 0x3c,
  0xa2, 0x6d, 0x37, 0xbd, 0xf9, 0xc4, 0xf1, 0x3c, 0xa9, 0x3b, 0x34, 0xbe,
  0x33, 0x06, 0x10, 0x3e, 0x17, 0x10, 0xde, 0x3d, 0x68, 0xdb, 0x0f, 0xbe,
  0xd7, 0xcd, 0x44, 0xbe, 0x18, 0x2d, 0xa7, 0xbd, 0xa5, 0x45, 0x72, 0x3c,
  0x92, 0x8a, 0x27, 0xbe, 0x4b, 0x44, 0xa3, 0x3e, 0x56, 0x45, 0xa0, 0xbd,
  0x84, 0xab, 0x20, 0x3e, 0x55, 0x26, 0x25, 0x3d, 0x2f, 0xd8, 0x14, 0x3e,
  0x84, 0xe9, 0xcb, 0xbd, 0x42, 0xcf, 0xec, 0x3d, 0xb4, 0xf5, 0xbc, 0xbc,
  0x6f, 0x87, 0x1c, 0x3e, 0x6d, 0x84, 0x06, 0xbe, 0xd2, 0x2b, 0x47, 0x3e,
  0x81, 0xf3, 0x47, 0xbe, 0x86, 0x25, 0xee, 0x3d, 0x16, 0x9c, 0x4f, 0x3e,
  0xee, 0x9c, 0x98, 0x3d, 0x9d, 0x88, 0x90, 0x3c, 0x15, 0xf9, 0x1b, 0x3e,
  0xdc, 0xba, 0x21, 0x3e, 0x68, 0x67, 0x3b, 0x3e, 0x60, 0x78, 0xed, 0x3c,
  0x1b, 0x77, 0x79, 0xbd, 0x47, 0x23, 0x20, 0x3e, 0x3f, 0x3d, 0x74, 0x3d,
  0xc1, 0xf6, 0x3e, 0x3d, 0xe9, 0xf8, 0x0b, 0xbe, 0x20, 0x11, 0x0c, 0x3e,
  0x2b, 0x5c, 0x08, 0xbe, 0xb7, 0x38, 0x78, 0x3e, 0xfc, 0x10, 0xf1, 0x3d,
  0xe7, 0x29, 0x20, 0xbd, 0xcb, 0x12, 0x2d, 0xbe, 0x85, 0x9c, 0x7e, 0x3e,
  0x58, 0xb9, 0x0d, 0xbe, 0x61, 0xbc, 0x62, 0xbe, 0x81, 0x86, 0xab, 0x3d,
  0xe2, 0x9b, 0x80, 0x3d, 0x7a, 0x9a, 0xd8, 0xbd, 0xdb, 0x63, 0xb4, 0xbc,
  0x55, 0x13, 0xa8, 0xbd, 0xaf, 0xf8, 0x0b, 0xbe, 0xdf, 0xe7, 0x91, 0x3e,
  0x4f, 0xa1, 0x84, 0x3e, 0xed, 0x7a, 0xd0, 0x3d, 0x70, 0xb1, 0xe3, 0x3d,
  0x2c, 0xa3, 0xd3, 0x3b, 0x44, 0x13, 0x0b, 0xbe, 0xed, 0x91, 0x5f, 0x3d,
  0x6a, 0xcb, 0x5e, 0x3d, 0x7e, 0x91, 0xf5, 0xbd, 0xc3, 0xca, 0xfd, 0x3d,
  0x12, 0x72, 0x1c, 0x3e, 0xcf, 0xd8, 0x94, 0x3d, 0x70, 0x93, 0xcc, 0x3d,
  0xa2, 0xad, 0x2c, 0xbd, 0xf6, 0x65, 0xec, 0x3d, 0x77, 0x75, 0xbc, 0xbd,
  0x25, 0xe3, 0xa0, 0xbd, 0xd8, 0xea, 0x4d, 0x3e, 0x72, 0x44, 0x08, 0x3c,
  0xe2, 0x5b, 0x2d, 0xbe, 0x86, 0x1d, 0xa7, 0x3d, 0x29, 0x39, 0x9c, 0x3b,
  0xbd, 0xad, 0x5d, 0xbd, 0xd6, 0x20, 0xc4, 0x3c, 0x7e, 0x26, 0x25, 0xbe,
  0x60, 0xa7, 0x0f, 0x3e, 0xa4, 0xc4, 0x3a, 0x3e, 0x23, 0x4b, 0x31, 0x3e,
  0x82, 0xe7, 0xf4, 0xbd, 0x06, 0x01, 0xdf, 0x3d, 0xaf, 0xaa, 0xe4, 0x3d,
  0xb7, 0xa8, 0x28, 0x3d, 0x9e, 0x35, 0x8a, 0x3e, 0xcc, 0x08, 0x1b, 0xbd,
  0x36, 0x99, 0x14, 0x3d, 0x5d, 0xb3, 0x7e, 0x3d, 0x60, 0x23, 0x10, 0x3d,
  0x89, 0x9c, 0x2d, 0xbe, 0xda, 0x34, 0xe8, 0x3d, 0xbd, 0x3f, 0x2f, 0x3e,
  0xa7, 0xb7, 0xe3, 0x3c, 0x01, 0x2d, 0x05, 0x3e, 0xaf, 0x9d, 0x17, 0x3e,
  0xd3, 0x5a, 0x8c, 0x3c, 0x5a, 0xb9, 0xa3, 0x3d, 0x74, 0x17, 0x00, 0xbc,
  0x40, 0xee, 0x35, 0xbc, 0x96, 0xd3, 0x4a, 0xbc, 0x65, 0x1f, 0xd6, 0xbd,
  0x98, 0x17, 0xd2, 0x3d, 0x0b, 0x66, 0x49, 0x3e, 0x33, 0x71, 0x61, 0x3d,
  0xc6, 0x88, 0x22, 0x3b, 0xa1, 0x38, 0x4a, 0x3e, 0x6e, 0x77, 0x3f, 0x3e,
  0x8a, 0x6b, 0x01, 0x3e, 0x79, 0x54, 0x93, 0x3d, 0x55, 0xa2, 0x65, 0xbd,
  0x28, 0x6c, 0x9b, 0x3e, 0xcc, 0x58, 0xa0, 0xbd, 0x36, 0x7f, 0x53, 0x3d,
  0xd8, 0x57, 0xe6, 0x3d, 0xbd, 0xe1, 0x43, 0xbe, 0x31, 0xc7, 0x00, 0x3e,
  0x2b, 0xde, 0x61, 0x3e, 0xf6, 0xb5, 0x33, 0x3e, 0x91, 0x9a, 0xe1, 0xbc,
  0x02, 0xfe, 0x02, 0xbe, 0x7d, 0x26, 0x04, 0x3d, 0x81, 0xe5, 0x52, 0x3e,
  0x1d, 0xee, 0x17, 0xbd, 0x6a, 0xf8, 0xe6, 0xbd, 0x8e, 0x90, 0x79, 0x3e,
  0xf3, 0xaa, 0x06, 0x3e, 0xbc, 0xd9, 0xe4, 0x3d, 0x59, 0x13, 0x94, 0x3c,
  0x86, 0x8b, 0x03, 0xbd, 0x47, 0xbe, 0x26, 0x3e, 0x7c, 0x00, 0xaa, 0x3c,
  0x51, 0x06, 0x02, 0x3c, 0x8f, 0xcb, 0xb3, 0xbd, 0xa9, 0xa7, 0x89, 0xbc,
  0x9b, 0x52, 0xd7, 0x3d, 0x10, 0x7e, 0x6d, 0x3e, 0x06, 0xc5, 0xbc, 0x3d,
  0x09, 0xb6, 0x1b, 0x3e, 0x97, 0x99, 0xbd, 0x3c, 0xe4, 0x08, 0x08, 0xbe,
  0x1e, 0xdb, 0xe8, 0xbc, 0x42, 0x93, 0xa1, 0xbc, 0x91, 0xaa, 0x04, 0x3e,
  0x07, 0xc7, 0x32, 0x3e, 0xd8, 0x02, 0x48, 0xbe, 0xe4, 0xaf, 0xc8, 0xbd,
  0x84, 0x94, 0xdd, 0xbd, 0x51, 0xa1, 0x53, 0x3e, 0x3b, 0x8f, 0xca, 0xbc,
  0xec, 0x73, 0x6c, 0x3d, 0xb1, 0x55, 0xf9, 0xbc, 0x49, 0x57, 0x13, 0x3e,
  0x56, 0x36, 0x8e, 0xbd, 0xd6, 0xe9, 0xa5, 0x3c, 0xa6, 0xeb, 0x54, 0xbb,
  0xc1, 0xff, 0x3c, 0xbe, 0x10, 0x3a, 0x96, 0x3d, 0x06, 0xc5, 0xc4, 0x3c,
  0x59, 0x2d, 0xca, 0x3d, 0x46, 0x8b, 0x99, 0x3d, 0x70, 0xa5, 0x63, 0xbe,
  0x80, 0x85, 0x48, 0xbd, 0xa4, 0x66, 0xe2, 0x3d, 0x38, 0x00, 0x93, 0xbd,
  0x54, 0x57, 0x67, 0xbb, 0x64, 0x11, 0x8e, 0x3d, 0xf1, 0x0d, 0x37, 0xbd,
  0xf1, 0x7d, 0x54, 0x3e, 0x8c, 0x53, 0xf7, 0x3d, 0xb4, 0x09, 0x2d, 0xbd,
  0x20, 0x68, 0x09, 0xbe, 0xb0, 0x0a, 0x48, 0x3c, 0xad, 0x9e, 0x1e, 0x3e,
  0xa8, 0x7c, 0x05, 0xbd, 0x27, 0x49, 0xdb, 0xbd, 0xbd, 0x95, 0xea, 0xbd,
  0x01, 0xf4, 0xe1, 0x3d, 0x83, 0xe8, 0x82, 0xbd, 0x37, 0x36, 0x95, 0xbd,
  0xef, 0xd7, 0x29, 0xbe, 0xe3, 0x11, 0xd3, 0xbc, 0x77, 0xec, 0x35, 0x3e,
  0x2b, 0xfe, 0x0e, 0xbe, 0x7e, 0x02, 0x50, 0xbd, 0x6b, 0x88, 0xf4, 0x3c,
  0xa2, 0xe7, 0xea, 0xbd, 0x6d, 0xa2, 0xf2, 0xbd, 0x14, 0x66, 0x33, 0x3e,
  0xab, 0x17, 0xd8, 0x3d, 0x0a, 0xda, 0x44, 0x3e, 0xe0, 0x3a, 0xf4, 0x3d,
  0x40, 0xb0, 0x4e, 0x3d, 0x70, 0x1c, 0x08, 0xbe, 0x37, 0x0a, 0x5b, 0x3d,
  0x9b, 0x54, 0xdc, 0x3d, 0xea, 0x9d, 0x56, 0xbc, 0x19, 0x5b, 0xa8, 0xbd,
  0xb3, 0x19, 0x57, 0xbe, 0xf5, 0x97, 0x93, 0x3c, 0xfc, 0x24, 0x4e, 0x3e,
  0x39, 0x0d, 0x67, 0x3d, 0xc8, 0x23, 0x17, 0xbd, 0x20, 0xbd, 0x0b, 0xbe,
  0x1b, 0xe0, 0x01, 0xba, 0xb9, 0x50, 0x80, 0x3e, 0x40, 0x0a, 0xd1, 0x3d,
  0xf6, 0x41, 0xda, 0x3d, 0xf9, 0x31, 0x69, 0xbd, 0xc8, 0x8c, 0xe2, 0x3d,
  0x8f, 0x1e, 0x9e, 0x3d, 0xb8, 0x67, 0x59, 0xbc, 0xee, 0x40, 0xff, 0xbc,
  0xb5, 0x79, 0x24, 0x3c, 0xf6, 0xad, 0x20, 0x3e, 0x80, 0x9a, 0xba, 0x3d,
  0x09, 0x18, 0x47, 0xbe, 0xcb, 0xff, 0x3c, 0xbe, 0xbd, 0x6f, 0x1b, 0xbe,
  0x1b, 0xb4, 0xed, 0x3d, 0x93, 0xb6, 0xcf, 0xbc, 0x2b, 0x79, 0xb0, 0x3d,
  0xef, 0xfa, 0x05, 0xbc, 0x5e, 0xfb, 0x7f, 0x3d, 0xb1, 0xbd, 0x50, 0x3e,
  0x42, 0x4c, 0x07, 0xbd, 0x39, 0xaa, 0x12, 0x3d, 0x72, 0x20, 0x05, 0xbd,
  0xaf, 0xf1, 0x47, 0xbd, 0x90, 0xe0, 0x00, 0x3e, 0xd2, 0xa2, 0x5a, 0xbe,
  0xc9, 0xb0, 0xb3, 0xbc, 0xa9, 0x8d, 0x60, 0x3d, 0xc9, 0xa2, 0xc3, 0x3d,
  0x83, 0x99, 0xc7, 0xbb, 0xd1, 0xd8, 0x28, 0xbe, 0xdf, 0x5a, 0x87, 0x3d,
  0x1e, 0xc5, 0x88, 0xbd, 0x62, 0x02, 0x10, 0xbe, 0x84, 0xb2, 0x23, 0xbe,
  0xe8, 0x1f, 0x5b, 0xbd, 0x23, 0x90, 0xb0, 0x3d, 0xc2, 0xa9, 0x33, 0xbd,
  0x94, 0x51, 0xe6, 0x3d, 0x64, 0x66, 0x1b, 0x3e, 0x9a, 0xdf, 0x27, 0xbe,
  0x98, 0xb5, 0x1d, 0xbd, 0x6f, 0xa0, 0x29, 0xbe, 0x3f, 0xe1, 0x2b, 0xbe,
  0x13, 0x1e, 0xc8, 0xbd, 0x09, 0x4a, 0xdf, 0x3d, 0x6a, 0x1d, 0x0a, 0xbe,
  0xf6, 0x11, 0x28, 0xbe, 0x90, 0x6b, 0x40, 0xbe, 0xb2, 0x22, 0x57, 0x3d,
  0x10, 0xd7, 0xc8, 0xbd, 0xf8, 0xb0, 0xc3, 0xbc, 0xb9, 0x40, 0x9e, 0xbb,
  0xff, 0xca, 0x3b, 0x3c, 0xb4, 0x87, 0xf7, 0x3c, 0xad, 0xac, 0x63, 0xbe,
  0x69, 0x04, 0x29, 0x3d, 0x72, 0x80, 0x21, 0xbd, 0x1c, 0x0c, 0xfc, 0xbd,
  0x74, 0xfb, 0x38, 0x3e, 0x83, 0x19, 0xc7, 0xbd, 0x63, 0x09, 0xc7, 0x3c,
  0x59, 0x7e, 0x43, 0xbe, 0x6e, 0xe8, 0x21, 0xbe, 0x08, 0x42, 0x74, 0x3d,
  0x7a, 0x0d, 0xf0, 0x3d, 0x60, 0x51, 0xa7, 0xbd, 0xfc, 0x44, 0x24, 0xbe,
  0xfa, 0xe6, 0xe6, 0xbd, 0xf9, 0xb0, 0x3c, 0xbc, 0xc8, 0x2b, 0xa1, 0x3d,
  0xb4, 0x9b, 0x7e, 0xbd, 0x60, 0x69, 0x55, 0xbe, 0x79, 0xfb, 0x04, 0xbd,
  0x8d, 0x6e, 0x13, 0xbe, 0x86, 0x3d, 0x31, 0xbe, 0x92, 0xec, 0x02, 0xbd,
  0xca, 0xcb, 0x84, 0x3d, 0x3a, 0x73, 0x96, 0xbd, 0xb7, 0xfb, 0x6e, 0x3d,
  0xdd, 0x56, 0x69, 0xbd, 0x6e, 0x63, 0x0d, 0xbc, 0x58, 0xa8, 0x96, 0xbe,
  0x2b, 0xb7, 0x19, 0x3e, 0x7b, 0x2f, 0x95, 0x3d, 0xfe, 0xe8, 0x31, 0x3d,
  0x68, 0xcc, 0x0d, 0x3e, 0xb4, 0x20, 0x98, 0x3d, 0xf8, 0xad, 0xdf, 0x3b,
  0x3d, 0x41, 0xcf, 0x3d, 0xe4, 0x02, 0xb3, 0x3b, 0x42, 0x7f, 0x4b, 0xbe,
  0xbc, 0x04, 0x46, 0xbd, 0x0a, 0xc9, 0xf7, 0xbd, 0x83, 0x34, 0x08, 0x3d,
  0x3f, 0x9c, 0x40, 0xbd, 0x5f, 0x3d, 0x3c, 0xbe, 0xae, 0x26, 0xca, 0xbc,
  0x4a, 0x7e, 0xd4, 0xbd, 0x05, 0x21, 0x66, 0x3b, 0x7d, 0xa4, 0x53, 0xbb,
  0x03, 0xc0, 0x3c, 0x3e, 0x46, 0xf7, 0x53, 0xbd, 0xce, 0xe3, 0x46, 0xbe,
  0xd1, 0x27, 0xc3, 0xbd, 0x7a, 0x8f, 0xf8, 0xbd, 0xb7, 0x77, 0x11, 0xbe,
  0x42, 0x9a, 0xa3, 0x3d, 0x27, 0x0c, 0x8c, 0xbd, 0x8c, 0x7d, 0x40, 0x3e,
  0x06, 0xb3, 0xc1, 0xbd, 0x7e, 0x78, 0xd6, 0x3c, 0x48, 0x74, 0x6f, 0xbd,
  0x18, 0xb0, 0x14, 0xbd, 0x04, 0x7d, 0x6e, 0x3d, 0xfe, 0xb9, 0xa4, 0x3d,
  0xe7, 0x1d, 0x54, 0x3e, 0x0c, 0xcc, 0x16, 0xbe, 0x39, 0xc5, 0x0d, 0x3e,
  0x7c, 0x8f, 0x3c, 0xbe, 0x86, 0xd9, 0x4a, 0x3e, 0x02, 0x3c, 0x68, 0xbd,
  0x64, 0xf9, 0x2f, 0xbe, 0xbf, 0x3d, 0x34, 0x3e, 0xb3, 0xcd, 0x34, 0xbd,
  0x21, 0x90, 0xb0, 0x3b, 0x3e, 0xf8, 0xe9, 0x3d, 0x4e, 0xd1, 0xa1, 0xbb,
  0x28, 0xb5, 0xf7, 0xbd, 0xc8, 0xda, 0x45, 0x3c, 0x7d, 0x28, 0x99, 0x3d,
  0x17, 0xc7, 0x01, 0xbd, 0x4a, 0x92, 0x30, 0xbd, 0x7f, 0x3e, 0x07, 0xbd,
  0xf1, 0x35, 0x1f, 0xbd, 0x69, 0x79, 0xe9, 0xbc, 0x55, 0xd5, 0x01, 0xbe,
  0x94, 0xe4, 0x81, 0xbd, 0x75, 0x1b, 0xca, 0x3d, 0x68, 0xa7, 0x0c, 0xbe,
  0xca, 0x30, 0x1f, 0xbe, 0x6e, 0xde, 0x57, 0xbe, 0xa7, 0x4e, 0x21, 0x3c,
  0x4b, 0x78, 0x0b, 0x3e, 0x80, 0x09, 0xe9, 0x3c, 0xa6, 0xec, 0x0a, 0x3e,
  0xca, 0x90, 0x51, 0x3e, 0xb1, 0xb0, 0x7a, 0x3d, 0xb6, 0x04, 0x18, 0x3e,
  0xa4, 0xa4, 0x40, 0x3d, 0x57, 0x41, 0x20, 0x3d, 0xd2, 0x4a, 0x7c, 0x3d,
  0xfe, 0xcf, 0xad, 0xbd, 0x5c, 0x24, 0x2c, 0x3e, 0xc3, 0xde, 0x5e, 0xbe,
  0x5f, 0xc9, 0x7a, 0x3e, 0x82, 0x62, 0x0c, 0x3e, 0x91, 0x8e, 0x2d, 0x3d,
  0x72, 0xe4, 0x0a, 0x3e, 0xa7, 0xce, 0x39, 0x3d, 0x22, 0x7b, 0x4d, 0x3e,
  0x8e, 0xd5, 0x62, 0x3e, 0x8a, 0xee, 0x6e, 0x3e, 0x13, 0x16, 0xbb, 0xbd,
  0x13, 0x81, 0x5e, 0x3d, 0x65, 0x2d, 0xbb, 0xbd, 0xe2, 0x00, 0x0a, 0xbe,
  0x9d, 0x0b, 0x19, 0xbe, 0xfc, 0xc2, 0x06, 0x3e, 0xc2, 0x03, 0x03, 0xbe,
  0x9e, 0x73, 0x11, 0x3e, 0x95, 0x49, 0x12, 0x3e, 0x8b, 0xcb, 0x29, 0xbe,
  0xde, 0x21, 0x0e, 0x3d, 0xbe, 0x7d, 0xbe, 0x3d, 0xdb, 0x99, 0xf6, 0xbd,
  0x2e, 0xdc, 0xc5, 0x3d, 0x91, 0x0f, 0x70, 0xbe, 0x92, 0x7e, 0x94, 0x3c,
  0x95, 0x4d, 0x00, 0xbe, 0xb2, 0xfc, 0x3e, 0xbe, 0xb5, 0x7b, 0xd3, 0x3d,
  0xd1, 0xf9, 0x09, 0x3e, 0xd0, 0xe1, 0x24, 0x3d, 0xc6, 0xa5, 0x53, 0xbe,
  0xa5, 0x6e, 0x3d, 0xbe, 0x99, 0xbb, 0xf2, 0x3d, 0x81, 0xad, 0x8e, 0x3c,
  0x40, 0xe3, 0x0c, 0x3e, 0xbc, 0xeb, 0xc2, 0xbc, 0x29, 0x08, 0xeb, 0x3d,
  0x91, 0xc9, 0x99, 0xbd, 0x25, 0x17, 0x74, 0xbe, 0x37, 0x74, 0xe6, 0x3c,
  0xee, 0x6e, 0x69, 0x3d, 0x08, 0x48, 0xee, 0xbd, 0xe2, 0xf6, 0x82, 0x3c,
  0x71, 0x78, 0x3c, 0xbe, 0x10, 0x89, 0x2f, 0xbe, 0xc2, 0xe1, 0x3d, 0x3e,
  0x68, 0x31, 0xca, 0x3c, 0x52, 0x2c, 0xbc, 0x3d, 0x84, 0x44, 0x28, 0x3e,
  0xf7, 0xb9, 0x0e, 0xbe, 0x2c, 0xfe, 0x22, 0xbd, 0x6c, 0x3f, 0xe9, 0xbd,
  0x2c, 0x16, 0xaf, 0xbd, 0xed, 0xe8, 0xc9, 0x3c, 0xc5, 0x36, 0xe6, 0xbc,
  0xbe, 0x6b, 0x4f, 0xbe, 0xb0, 0x20, 0x4b, 0xbc, 0xb5, 0x4d, 0x46, 0xbe,
  0xd7, 0x34, 0x82, 0xbe, 0xbe, 0xbe, 0xbc, 0xbd, 0xe1, 0x6c, 0x74, 0xbd,
  0x89, 0x5d, 0x37, 0x3e, 0xad, 0x1c, 0xb2, 0xbe, 0x67, 0x2d, 0xcc, 0x3d,
  0xb6, 0x94, 0xbc, 0xbd, 0xe0, 0x3f, 0xaf, 0xbd, 0xe7, 0x46, 0x06, 0x3e,
  0xd7, 0xda, 0x8a, 0xbd, 0xa3, 0x40, 0x90, 0xbd, 0x4e, 0x27, 0x29, 0x3d,
  0x29, 0xeb, 0x56, 0x3e, 0xed, 0xf0, 0x4d, 0xbd, 0x54, 0xc4, 0x8b, 0x3d,
  0x4b, 0xc8, 0x53, 0xbe, 0x45, 0x8f, 0xf6, 0xbd, 0xee, 0xe7, 0xfc, 0xbd,
  0xa9, 0xd2, 0x2f, 0x3d, 0x48, 0x52, 0x82, 0xbd, 0x93, 0x87, 0x45, 0x3e,
  0xd0, 0x24, 0x26, 0xbe, 0x84, 0xd7, 0x77, 0x3d, 0x8f, 0x6a, 0x65, 0x3d,
  0x34, 0x5a, 0xfe, 0x3d, 0x57, 0x45, 0xb4, 0xbc, 0x70, 0x8d, 0xff, 0xbd,
  0x98, 0x64, 0x2f, 0x3d, 0xdc, 0xdc, 0xab, 0x3d, 0xce, 0x9e, 0x30, 0x3e,
  0xb7, 0x9f, 0xb3, 0xbd, 0xb9, 0x81, 0xd1, 0x39, 0x9c, 0x37, 0xec, 0x3d,
  0xc6, 0xdc, 0x9e, 0x3d, 0xd6, 0xa7, 0x5c, 0x3e, 0xd8, 0x35, 0x42, 0x3c,
  0x2b, 0xa8, 0x82, 0x3c, 0xfb, 0xf8, 0x30, 0xbe, 0xea, 0x7d, 0x92, 0x3d,
  0xec, 0x2f, 0xd5, 0x3d, 0x63, 0x44, 0xfa, 0xbd, 0xd1, 0xa3, 0xa2, 0xbd,
  0xd4, 0x70, 0xbd, 0x3c, 0x7f, 0xed, 0xbc, 0xbd, 0x6a, 0xf5, 0x79, 0x3d,
  0x9a, 0x79, 0x2d, 0x3e, 0xf8, 0x17, 0x7d, 0x3e, 0x80, 0x73, 0x21, 0x3e,
  0x84, 0x9f, 0x59, 0x3e, 0xeb, 0x52, 0x0c, 0x3e, 0x44, 0x23, 0x4d, 0xbd,
  0x1f, 0x84, 0xbb, 0xbd, 0x02, 0x86, 0x45, 0x3e, 0x05, 0xe9, 0xd0, 0x3b,
  0xa0, 0xad, 0x35, 0xbd, 0x75, 0x46, 0xeb, 0xbd, 0xf1, 0xf8, 0xba, 0x3c,
  0xf8, 0x96, 0xaa, 0xbd, 0x88, 0x3a, 0x84, 0xbd, 0xa4, 0xe0, 0xa9, 0x3d,
  0xb8, 0xe5, 0xe6, 0xbd, 0xf6, 0x59, 0x22, 0x3e, 0xaa, 0xdb, 0x4c, 0xbe,
  0x5f, 0x83, 0x3a, 0x3e, 0x43, 0xa3, 0x82, 0xbd, 0x28, 0x10, 0xae, 0xbd,
  0xa8, 0x70, 0xa2, 0xbc, 0x8c, 0x7e, 0xa7, 0x3d, 0x4e, 0xd8, 0xe8, 0x3d,
  0xcc, 0xd5, 0x3d, 0x3e, 0x5e, 0x2e, 0x63, 0x3e, 0xea, 0x9b, 0x01, 0xbe,
  0xc0, 0x34, 0x60, 0x3c, 0xa6, 0x70, 0x3c, 0xbe, 0x3d, 0x5d, 0xa6, 0x3d,
  0x04, 0x92, 0x42, 0x3d, 0x93, 0x93, 0x09, 0xbe, 0x10, 0xd0, 0xae, 0xbd,
  0x05, 0x6f, 0x54, 0xbe, 0x78, 0x09, 0x16, 0xbc, 0x21, 0x89, 0x08, 0xbe,
  0x10, 0x1e, 0x06, 0xbe, 0x8a, 0xea, 0x43, 0xbd, 0x64, 0x44, 0x13, 0xbe,
  0x6d, 0x2b, 0x59, 0xbd, 0x61, 0x42, 0x00, 0xbe, 0xb0, 0xdc, 0x64, 0x3d,
  0x95, 0x7d, 0x63, 0x3d, 0x47, 0xb3, 0x21, 0x3e, 0xd3, 0x2d, 0xbd, 0xbc,
  0xf5, 0x33, 0xf8, 0xbd, 0xd3, 0x33, 0x20, 0x3e, 0x33, 0x3e, 0x0f, 0xbe,
  0x07, 0x72, 0x90, 0x3e, 0x9a, 0x46, 0x6d, 0xbe, 0xe7, 0xb5, 0xd5, 0x3d,
  0x35, 0x6b, 0xa4, 0xbd, 0xff, 0x48, 0xeb, 0x3d, 0x83, 0x27, 0xcb, 0xbc,
  0x71, 0x57, 0x46, 0x3c, 0x0a, 0xdf, 0x61, 0x3e, 0x50, 0xaa, 0x0b, 0xbd,
  0x23, 0x02, 0x73, 0x3d, 0x28, 0x45, 0x63, 0xbe, 0xf6, 0x72, 0x01, 0x3e,
  0xbc, 0x9e, 0xff, 0xbd, 0xae, 0x19, 0xac, 0x3d, 0x35, 0xca, 0x16, 0xbe,
  0x10, 0xf2, 0xbc, 0xbd, 0x91, 0x01, 0x16, 0xbc, 0xa8, 0xdb, 0xb6, 0xbc,
  0x00, 0xf7, 0x32, 0xbe, 0xb6, 0xec, 0xa1, 0x3c, 0xe4, 0x58, 0x15, 0xbb,
  0x5d, 0x34, 0xb2, 0x3d, 0x3a, 0xf1, 0x80, 0x3d, 0x79, 0x5d, 0x4c, 0x3d,
  0x6a, 0xd3, 0x9b, 0xbd, 0x4b, 0xc0, 0x55, 0x3c, 0x3d, 0x16, 0x5b, 0x3d,
  0xf8, 0x88, 0xa7, 0x3c, 0x4b, 0xbc, 0x7a, 0xbd, 0x32, 0xdf, 0x88, 0xbd,
  0xd7, 0xfc, 0xf0, 0x3c, 0x04, 0xef, 0x1a, 0xbe, 0x4c, 0xe2, 0xc8, 0xbd,
  0x22, 0x0b, 0x0a, 0x3d, 0x09, 0xc6, 0x9f, 0x3c, 0xb7, 0x73, 0x47, 0xbc,
  0x2e, 0xf2, 0x8b, 0xbd, 0xa3, 0x02, 0x4a, 0xbe, 0x94, 0x0f, 0x0a, 0xbe,
  0xe0, 0x9e, 0xda, 0x3d, 0x16, 0x6d, 0x40, 0xbd, 0xfe, 0x3f, 0x2c, 0x3e,
  0x24, 0xe1, 0x03, 0xbe, 0x85, 0xc9, 0xd8, 0x3d, 0x4e, 0x47, 0x20, 0x3d,
  0x3c, 0xbd, 0x78, 0x3d, 0x1a, 0x7a, 0x89, 0x3d, 0x9c, 0xea, 0xb5, 0xbd,
  0xfd, 0x83, 0x24, 0x3e, 0xb3, 0x0b, 0x93, 0x3d, 0x99, 0x11, 0xdc, 0x3d,
  0xc2, 0x72, 0x80, 0x3e, 0xcc, 0x7c, 0xa3, 0xbb, 0x61, 0xfa, 0x57, 0xbe,
  0x26, 0xdb, 0xa3, 0x3d, 0x19, 0x99, 0xdb, 0xbc, 0x9a, 0x99, 0x8a, 0xbd,
  0x77, 0x5c, 0x2f, 0x3e, 0xc9, 0xe5, 0x99, 0x3d, 0xd5, 0x8b, 0x4a, 0x3e,
  0x2b, 0x11, 0x42, 0x3e, 0x07, 0xdc, 0x19, 0xbe, 0xe8, 0x6b, 0xd9, 0xbc,
  0x37, 0x32, 0x29, 0xbe, 0xcc, 0xd9, 0xd3, 0x3c, 0x10, 0x9b, 0x3c, 0x3e,
  0x85, 0x42, 0x6e, 0x3e, 0x56, 0xdc, 0x4a, 0xbd, 0x7a, 0xcd, 0x26, 0xbe,
  0xf5, 0x40, 0x0d, 0xbe, 0xbb, 0xb7, 0x8f, 0x3c, 0x67, 0x2d, 0x81, 0x3e,
  0xf7, 0xa1, 0x0c, 0xbd, 0x35, 0x32, 0x06, 0x3e, 0x2f, 0x6a, 0x72, 0x3e,
  0x5e, 0xeb, 0x24, 0x3e, 0xcb, 0x7c, 0x5c, 0xbc, 0xc7, 0x3d, 0xc2, 0xbd,
  0x87, 0x70, 0x0d, 0xbd, 0x66, 0x05, 0xf3, 0x3c, 0xf8, 0x29, 0x62, 0xbe,
  0xf4, 0xe6, 0x12, 0xbd, 0x44, 0xc8, 0x61, 0x3e, 0x2e, 0x4b, 0xce, 0xba,
  0x73, 0x04, 0x27, 0x3d, 0xd4, 0x21, 0x0a, 0x3e, 0x1e, 0xe9, 0xc1, 0x3c,
  0x2f, 0x5c, 0x78, 0x3e, 0xf7, 0x9f, 0xec, 0x3d, 0x93, 0x81, 0x7e, 0x3d,
  0x4a, 0xb4, 0x1d, 0x3e, 0x42, 0x30, 0x0c, 0x3e, 0xb1, 0xd7, 0x28, 0xbd,
  0x6c, 0xdc, 0x42, 0xbe, 0xb2, 0xac, 0x31, 0x3d, 0xbf, 0x9f, 0xc3, 0xbc,
  0x54, 0x49, 0x7c, 0xbd, 0xd5, 0xae, 0x93, 0xbc, 0xc5, 0x04, 0xe3, 0x3c,
  0xbd, 0x7c, 0x08, 0xbe, 0xa0, 0xed, 0xb8, 0x3d, 0xa3, 0xbc, 0x1d, 0x3d,
  0xb7, 0xbf, 0x64, 0xbe, 0xf8, 0x93, 0x9c, 0xbb, 0x9e, 0x6a, 0x3b, 0x3e,
  0x5f, 0xa3, 0x53, 0xbe, 0x7b, 0x4a, 0x0d, 0xbe, 0xe4, 0x4f, 0xfa, 0x3d,
  0x1f, 0xf2, 0x99, 0x3d, 0x49, 0x57, 0x0b, 0xbe, 0xe8, 0x6c, 0x14, 0x3d,
  0xd3, 0x56, 0x9d, 0xbb, 0xd6, 0x00, 0x69, 0x3d, 0x46, 0xd7, 0x61, 0x3d,
  0xb1, 0x9f, 0x2c, 0xbe, 0x55, 0x2f, 0x0f, 0x3e, 0x1d, 0x67, 0x9f, 0xb8,
  0x60, 0x50, 0xa7, 0xbd, 0x77, 0x66, 0xc0, 0x3d, 0x13, 0xae, 0x1b, 0xbd,
  0xb4, 0xcd, 0xa7, 0x3c, 0x69, 0x14, 0x35, 0xbe, 0x14, 0xdc, 0x35, 0xbe,
  0x87, 0x2a, 0x11, 0x3e, 0xb9, 0x22, 0x06, 0xbd, 0x77, 0x24, 0xcd, 0x3d,
  0x5d, 0xde, 0xfa, 0x3d, 0x7a, 0x7c, 0x3f, 0x3d, 0x05, 0x85, 0x3a, 0xbe,
  0xf8, 0x43, 0x24, 0xbe, 0xcb, 0x9f, 0x92, 0xbb, 0xbb, 0xef, 0xf7, 0x3d,
  0x02, 0x4e, 0x13, 0x3e, 0xfc, 0x8a, 0xa8, 0x3d, 0x82, 0x29, 0x29, 0x3e,
  0x5b, 0x9c, 0x35, 0xbe, 0xc4, 0xf7, 0x2e, 0x3e, 0x9a, 0xe3, 0x9f, 0xbd,
  0xb3, 0x89, 0x72, 0xbd, 0x88, 0xcb, 0xf4, 0x3d, 0x10, 0x06, 0xd9, 0xbd,
  0x17, 0xa9, 0xad, 0xbd, 0xc9, 0x14, 0x2b, 0xbb, 0xee, 0x9c, 0x57, 0x3e,
  0xfe, 0x5e, 0x2e, 0xbd, 0x29, 0xfa, 0x88, 0xbd, 0x91, 0x4a, 0x44, 0xbd,
  0x45, 0xfd, 0x09, 0x3e, 0x6e, 0x00, 0xf0, 0x3d, 0x27, 0x41, 0x42, 0xbe,
  0x6d, 0x6a, 0x0d, 0x3e, 0xc5, 0x90, 0x19, 0xbe, 0x80, 0x56, 0x6f, 0x3d,
  0xf6, 0x12, 0xf2, 0x3c, 0xd6, 0xff, 0xff, 0xff, 0x04, 0x00, 0x00, 0x00,
  0x1c, 0x00, 0x00, 0x00, 0x26, 0x14, 0x92, 0xbb, 0x22, 0x40, 0x75, 0x3d,
  0x35, 0xb0, 0xed, 0x3e, 0x1b, 0xec, 0x9b, 0x3d, 0x0d, 0x22, 0x31, 0xbd,
  0xa1, 0x36, 0x87, 0x3d, 0x71, 0x4f, 0x43, 0xbd, 0x00, 0x00, 0x06, 0x00,
  0x08, 0x00, 0x04, 0x00, 0x06, 0x00, 0x00, 0x00, 0x04, 0x00, 0x00, 0x00,
  0x80, 0x00, 0x00, 0x00, 0x9d, 0x10, 0x66, 0x3e, 0xa5, 0xc7, 0xb6, 0x3e,
  0x3a, 0xf0, 0xeb, 0x3e, 0x78, 0x71, 0x21, 0x3e, 0x06, 0x8b, 0x75, 0xbe,
  0xc6, 0x53, 0xe8, 0xbd, 0xad, 0x9a, 0xc5, 0x3e, 0xd1, 0x0e, 0x47, 0x3d,
  0x49, 0x24, 0x95, 0x3e, 0x26, 0x4a, 0xc3, 0x3e, 0xde, 0x39, 0x49, 0xbe,
  0xe5, 0x91, 0xee, 0x3e, 0xba, 0x92, 0x9f, 0x3e, 0xb9, 0xb8, 0x1b, 0x3d,
  0x02, 0x75, 0x0a, 0x3e, 0x38, 0x76, 0x02, 0xbe, 0x9a, 0x22, 0xd6, 0x3e,
  0x48, 0x23, 0xd8, 0x3e, 0xd4, 0xd1, 0xd7, 0x3d, 0xdf, 0x40, 0xb1, 0x3e,
  0x33, 0x1e, 0xe5, 0x3e, 0xe1, 0x58, 0xdb, 0x3d, 0x65, 0x55, 0x57, 0x3e,
  0xde, 0x94, 0xfc, 0xbd, 0x28, 0x53, 0x46, 0x3e, 0x8f, 0x3f, 0xa3, 0x3e,
  0xd2, 0x32, 0x81, 0xbe, 0x93, 0xa1, 0xb3, 0x3e, 0x83, 0xc0, 0xb1, 0x3e,
  0xf2, 0x32, 0x80, 0xbe, 0xdd, 0x5f, 0xae, 0x3e, 0xc3, 0xd1, 0x4e, 0xbe,
  0x30, 0xf9, 0xff, 0xff, 0x34, 0xf9, 0xff, 0xff, 0x0f, 0x00, 0x00, 0x00,
  0x4d, 0x4c, 0x49, 0x52, 0x20, 0x43, 0x6f, 0x6e, 0x76, 0x65, 0x72, 0x74,
  0x65, 0x64, 0x2e, 0x00, 0x01, 0x00, 0x00, 0x00, 0x14, 0x00, 0x00, 0x00,
  0x00, 0x00, 0x0e, 0x00, 0x18, 0x00, 0x14, 0x00, 0x10, 0x00, 0x0c, 0x00,
  0x08, 0x00, 0x04, 0x00, 0x0e, 0x00, 0x00, 0x00, 0x14, 0x00, 0x00, 0x00,
  0x1c, 0x00, 0x00, 0x00, 0x3c, 0x01, 0x00, 0x00, 0x40, 0x01, 0x00, 0x00,
  0x44, 0x01, 0x00, 0x00, 0x04, 0x00, 0x00, 0x00, 0x6d, 0x61, 0x69, 0x6e,
  0x00, 0x00, 0x00, 0x00, 0x04, 0x00, 0x00, 0x00, 0xd4, 0x00, 0x00, 0x00,
  0x80, 0x00, 0x00, 0x00, 0x58, 0x00, 0x00, 0x00, 0x14, 0x00, 0x00, 0x00,
  0x00, 0x00, 0x0e, 0x00, 0x18, 0x00, 0x14, 0x00, 0x10, 0x00, 0x0c, 0x00,
  0x0b, 0x00, 0x04, 0x00, 0x0e, 0x00, 0x00, 0x00, 0x14, 0x00, 0x00, 0x00,
  0x00, 0x00, 0x00, 0x08, 0x10, 0x00, 0x00, 0x00, 0x14, 0x00, 0x00, 0x00,
  0x02, 0x00, 0x00, 0x00, 0xc4, 0xf9, 0xff, 0xff, 0x01, 0x00, 0x00, 0x00,
  0x0b, 0x00, 0x00, 0x00, 0x03, 0x00, 0x00, 0x00, 0x0a, 0x00, 0x00, 0x00,
  0x04, 0x00, 0x00, 0x00, 0x02, 0x00, 0x00, 0x00, 0x00, 0x00, 0x0a, 0x00,
  0x10, 0x00, 0x0c, 0x00, 0x08, 0x00, 0x04, 0x00, 0x0a, 0x00, 0x00, 0x00,
  0x0c, 0x00, 0x00, 0x00, 0x10, 0x00, 0x00, 0x00, 0x01, 0x00, 0x00, 0x00,
  0x01, 0x00, 0x00, 0x00, 0x0a, 0x00, 0x00, 0x00, 0x02, 0x00, 0x00, 0x00,
  0x09, 0x00, 0x00, 0x00, 0x05, 0x00, 0x00, 0x00, 0xbe, 0xff, 0xff, 0xff,
  0x10, 0x00, 0x00, 0x00, 0x00, 0x00, 0x00, 0x01, 0x1c, 0x00, 0x00, 0x00,
  0x20, 0x00, 0x00, 0x00, 0xb0, 0xff, 0xff, 0xff, 0x00, 0x00, 0x00, 0x01,
  0x01, 0x00, 0x00, 0x00, 0x01, 0x00, 0x00, 0x00, 0x00, 0x00, 0x00, 0x01,
  0x01, 0x00, 0x00, 0x00, 0x09, 0x00, 0x00, 0x00, 0x03, 0x00, 0x00, 0x00,
  0x08, 0x00, 0x00, 0x00, 0x03, 0x00, 0x00, 0x00, 0x01, 0x00, 0x00, 0x00,
  0x00, 0x00, 0x0e, 0x00, 0x14, 0x00, 0x00, 0x00, 0x10, 0x00, 0x0c, 0x00,
  0x0b, 0x00, 0x04, 0x00, 0x0e, 0x00, 0x00, 0x00, 0x1c, 0x00, 0x00, 0x00,
  0x00, 0x00, 0x00, 0x01, 0x28, 0x00, 0x00, 0x00, 0x2c, 0x00, 0x00, 0x00,
  0x0c, 0x00, 0x14, 0x00, 0x13, 0x00, 0x0c, 0x00, 0x08, 0x00, 0x07, 0x00,
  0x0c, 0x00, 0x00, 0x00, 0x00, 0x00, 0x00, 0x01, 0x01, 0x00, 0x00, 0x00,
  0x01, 0x00, 0x00, 0x00, 0x00, 0x00, 0x00, 0x01, 0x01, 0x00, 0x00, 0x00,
  0x08, 0x00, 0x00, 0x00, 0x03, 0x00, 0x00, 0x00, 0x00, 0x00, 0x00, 0x00,
  0x06, 0x00, 0x00, 0x00, 0x07, 0x00, 0x00, 0x00, 0x01, 0x00, 0x00, 0x00,
  0x0b, 0x00, 0x00, 0x00, 0x01, 0x00, 0x00, 0x00, 0x00, 0x00, 0x00, 0x00,
  0x0c, 0x00, 0x00, 0x00, 0x28, 0x05, 0x00, 0x00, 0x60, 0x04, 0x00, 0x00,
  0x14, 0x04, 0x00, 0x00, 0xb8, 0x03, 0x00, 0x00, 0x6c, 0x03, 0x00, 0x00,
  0x2c, 0x03, 0x00, 0x00, 0xb8, 0x02, 0x00, 0x00, 0x10, 0x02, 0x00, 0x00,
  0x5c, 0x01, 0x00, 0x00, 0xa0, 0x00, 0x00, 0x00, 0x50, 0x00, 0x00, 0x00,
  0x04, 0x00, 0x00, 0x00, 0x1e, 0xfb, 0xff, 0xff, 0x00, 0x00, 0x00, 0x01,
  0x10, 0x00, 0x00, 0x00, 0x10, 0x00, 0x00, 0x00, 0x0c, 0x00, 0x00, 0x00,
  0x28, 0x00, 0x00, 0x00, 0x08, 0xfb, 0xff, 0xff, 0x1b, 0x00, 0x00, 0x00,
  0x53, 0x74, 0x61, 0x74, 0x65, 0x66, 0x75, 0x6c, 0x50, 0x61, 0x72, 0x74,
  0x69, 0x74, 0x69, 0x6f, 0x6e, 0x65, 0x64, 0x43, 0x61, 0x6c, 0x6c, 0x5f,
  0x31, 0x3a, 0x30, 0x00, 0x02, 0x00, 0x00, 0x00, 0x01, 0x00, 0x00, 0x00,
  0x07, 0x00, 0x00, 0x00, 0x66, 0xfb, 0xff, 0xff, 0x00, 0x00, 0x00, 0x01,
  0x10, 0x00, 0x00, 0x00, 0x10, 0x00, 0x00, 0x00, 0x0b, 0x00, 0x00, 0x00,
  0x2c, 0x00, 0x00, 0x00, 0x50, 0xfb, 0xff, 0xff, 0x1e, 0x00, 0x00, 0x00,
  0x73, 0x65, 0x71, 0x75, 0x65, 0x6e, 0x74, 0x69, 0x61, 0x6c, 0x5f, 0x31,
  0x2f, 0x66, 0x6c, 0x61, 0x74, 0x74, 0x65, 0x6e, 0x5f, 0x31, 0x2f, 0x52,
  0x65, 0x73, 0x68, 0x61, 0x70, 0x65, 0x00, 0x00, 0x02, 0x00, 0x00, 0x00,
  0x01, 0x00, 0x00, 0x00, 0xc0, 0x00, 0x00, 0x00, 0xb2, 0xfb, 0xff, 0xff,
  0x00, 0x00, 0x00, 0x01, 0x10, 0x00, 0x00, 0x00, 0x10, 0x00, 0x00, 0x00,
  0x0a, 0x00, 0x00, 0x00, 0x90, 0x00, 0x00, 0x00, 0x9c, 0xfb, 0xff, 0xff,
  0x81, 0x00, 0x00, 0x00, 0x73, 0x65, 0x71, 0x75, 0x65, 0x6e, 0x74, 0x69,
  0x61, 0x6c, 0x5f, 0x31, 0x2f, 0x63, 0x6f, 0x6e, 0x76, 0x32, 0x64, 0x5f,
  0x31, 0x5f, 0x32, 0x2f, 0x52, 0x65, 0x6c, 0x75, 0x3b, 0x73, 0x65, 0x71,
  0x75, 0x65, 0x6e, 0x74, 0x69, 0x61, 0x6c, 0x5f, 0x31, 0x2f, 0x63, 0x6f,
  0x6e, 0x76, 0x32, 0x64, 0x5f, 0x31, 0x5f, 0x32, 0x2f, 0x42, 0x69, 0x61,
  0x73, 0x41, 0x64, 0x64, 0x3b, 0x73, 0x65, 0x71, 0x75, 0x65, 0x6e, 0x74,
  0x69, 0x61, 0x6c, 0x5f, 0x31, 0x2f, 0x63, 0x6f, 0x6e, 0x76, 0x32, 0x64,
  0x5f, 0x31, 0x5f, 0x32, 0x2f, 0x63, 0x6f, 0x6e, 0x76, 0x6f, 0x6c, 0x75,
  0x74, 0x69, 0x6f, 0x6e, 0x3b, 0x73, 0x65, 0x71, 0x75, 0x65, 0x6e, 0x74,
  0x69, 0x61, 0x6c, 0x5f, 0x31, 0x2f, 0x63, 0x6f, 0x6e, 0x76, 0x32, 0x64,
  0x5f, 0x31, 0x5f, 0x32, 0x2f, 0x53, 0x71, 0x75, 0x65, 0x65, 0x7a, 0x65,
  0x31, 0x00, 0x00, 0x00, 0x04, 0x00, 0x00, 0x00, 0x01, 0x00, 0x00, 0x00,
  0x06, 0x00, 0x00, 0x00, 0x01, 0x00, 0x00, 0x00, 0x20, 0x00, 0x00, 0x00,
  0x6a, 0xfc, 0xff, 0xff, 0x00, 0x00, 0x00, 0x01, 0x10, 0x00, 0x00, 0x00,
  0x10, 0x00, 0x00, 0x00, 0x09, 0x00, 0x00, 0x00, 0x88, 0x00, 0x00, 0x00,
  0x54, 0xfc, 0xff, 0xff, 0x79, 0x00, 0x00, 0x00, 0x73, 0x65, 0x71, 0x75,
  0x65, 0x6e, 0x74, 0x69, 0x61, 0x6c, 0x5f, 0x31, 0x2f, 0x63, 0x6f, 0x6e,
  0x76, 0x32, 0x64, 0x5f, 0x31, 0x2f, 0x52, 0x65, 0x6c, 0x75, 0x3b, 0x73,
  0x65, 0x71, 0x75, 0x65, 0x6e, 0x74, 0x69, 0x61, 0x6c, 0x5f, 0x31, 0x2f,
  0x63, 0x6f, 0x6e, 0x76, 0x32, 0x64, 0x5f, 0x31, 0x2f, 0x42, 0x69, 0x61,
  0x73, 0x41, 0x64, 0x64, 0x3b, 0x73, 0x65, 0x71, 0x75, 0x65, 0x6e, 0x74,
  0x69, 0x61, 0x6c, 0x5f, 0x31, 0x2f, 0x63, 0x6f, 0x6e, 0x76, 0x32, 0x64,
  0x5f, 0x31, 0x2f, 0x63, 0x6f, 0x6e, 0x76, 0x6f, 0x6c, 0x75, 0x74, 0x69,
  0x6f, 0x6e, 0x3b, 0x73, 0x65, 0x71, 0x75, 0x65, 0x6e, 0x74, 0x69, 0x61,
  0x6c, 0x5f, 0x31, 0x2f, 0x63, 0x6f, 0x6e, 0x76, 0x32, 0x64, 0x5f, 0x31,
  0x2f, 0x53, 0x71, 0x75, 0x65, 0x65, 0x7a, 0x65, 0x31, 0x00, 0x00, 0x00,
  0x04, 0x00, 0x00, 0x00, 0x01, 0x00, 0x00, 0x00, 0x08, 0x00, 0x00, 0x00,
  0x01, 0x00, 0x00, 0x00, 0x10, 0x00, 0x00, 0x00, 0x1a, 0xfd, 0xff, 0xff,
  0x00, 0x00, 0x00, 0x01, 0x10, 0x00, 0x00, 0x00, 0x10, 0x00, 0x00, 0x00,
  0x08, 0x00, 0x00, 0x00, 0x88, 0x00, 0x00, 0x00, 0x04, 0xfd, 0xff, 0xff,
  0x78, 0x00, 0x00, 0x00, 0x73, 0x65, 0x71, 0x75, 0x65, 0x6e, 0x74, 0x69,
  0x61, 0x6c, 0x5f, 0x31, 0x2f, 0x63, 0x6f, 0x6e, 0x76, 0x32, 0x64, 0x5f,
  0x31, 0x2f, 0x52, 0x65, 0x6c, 0x75, 0x3b, 0x73, 0x65, 0x71, 0x75, 0x65,
  0x6e, 0x74, 0x69, 0x61, 0x6c, 0x5f, 0x31, 0x2f, 0x63, 0x6f, 0x6e, 0x76,
  0x32, 0x64, 0x5f, 0x31, 0x2f, 0x42, 0x69, 0x61, 0x73, 0x41, 0x64, 0x64,
  0x3b, 0x73, 0x65, 0x71, 0x75, 0x65, 0x6e, 0x74, 0x69, 0x61, 0x6c, 0x5f,
  0x31, 0x2f, 0x63, 0x6f, 0x6e, 0x76, 0x32, 0x64, 0x5f, 0x31, 0x2f, 0x63,
  0x6f, 0x6e, 0x76, 0x6f, 0x6c, 0x75, 0x74, 0x69, 0x6f, 0x6e, 0x3b, 0x73,
  0x65, 0x71, 0x75, 0x65, 0x6e, 0x74, 0x69, 0x61, 0x6c, 0x5f, 0x31, 0x2f,
  0x63, 0x6f, 0x6e, 0x76, 0x32, 0x64, 0x5f, 0x31, 0x2f, 0x53, 0x71, 0x75,
  0x65, 0x65, 0x7a, 0x65, 0x00, 0x00, 0x00, 0x00, 0x01, 0x00, 0x00, 0x00,
  0x10, 0x00, 0x00, 0x00, 0xbe, 0xfd, 0xff, 0xff, 0x00, 0x00, 0x00, 0x01,
  0x10, 0x00, 0x00, 0x00, 0x10, 0x00, 0x00, 0x00, 0x07, 0x00, 0x00, 0x00,
  0x30, 0x00, 0x00, 0x00, 0xa8, 0xfd, 0xff, 0xff, 0x21, 0x00, 0x00, 0x00,
  0x73, 0x65, 0x71, 0x75, 0x65, 0x6e, 0x74, 0x69, 0x61, 0x6c, 0x5f, 0x31,
  0x2f, 0x63, 0x6f, 0x6e, 0x76, 0x32, 0x64, 0x5f, 0x31, 0x2f, 0x63, 0x6f,
  0x6e, 0x76, 0x6f, 0x6c, 0x75, 0x74, 0x69, 0x6f, 0x6e, 0x00, 0x00, 0x00,
  0x04, 0x00, 0x00, 0x00, 0x10, 0x00, 0x00, 0x00, 0x03, 0x00, 0x00, 0x00,
  0x01, 0x00, 0x00, 0x00, 0x09, 0x00, 0x00, 0x00, 0x00, 0x00, 0x16, 0x00,
  0x1c, 0x00, 0x18, 0x00, 0x17, 0x00, 0x10, 0x00, 0x0c, 0x00, 0x08, 0x00,
  0x00, 0x00, 0x00, 0x00, 0x00, 0x00, 0x07, 0x00, 0x16, 0x00, 0x00, 0x00,
  0x00, 0x00, 0x00, 0x01, 0x14, 0x00, 0x00, 0x00, 0x14, 0x00, 0x00, 0x00,
  0x06, 0x00, 0x00, 0x00, 0x00, 0x00, 0x00, 0x02, 0x1c, 0x00, 0x00, 0x00,
  0x1c, 0xfe, 0xff, 0xff, 0x0e, 0x00, 0x00, 0x00, 0x61, 0x72, 0x69, 0x74,
  0x68, 0x2e, 0x63, 0x6f, 0x6e, 0x73, 0x74, 0x61, 0x6e, 0x74, 0x00, 0x00,
  0x01, 0x00, 0x00, 0x00, 0x02, 0x00, 0x00, 0x00, 0x6a, 0xfe, 0xff, 0xff,
  0x00, 0x00, 0x00, 0x01, 0x10, 0x00, 0x00, 0x00, 0x10, 0x00, 0x00, 0x00,
  0x05, 0x00, 0x00, 0x00, 0x28, 0x00, 0x00, 0x00, 0x54, 0xfe, 0xff, 0xff,
  0x1b, 0x00, 0x00, 0x00, 0x73, 0x65, 0x71, 0x75, 0x65, 0x6e, 0x74, 0x69,
  0x61, 0x6c, 0x5f, 0x31, 0x2f, 0x64, 0x65, 0x6e, 0x73, 0x65, 0x5f, 0x31,
  0x2f, 0x4d, 0x61, 0x74, 0x4d, 0x75, 0x6c, 0x00, 0x02, 0x00, 0x00, 0x00,
  0x07, 0x00, 0x00, 0x00, 0xc0, 0x00, 0x00, 0x00, 0xb2, 0xfe, 0xff, 0xff,
  0x00, 0x00, 0x00, 0x01, 0x10, 0x00, 0x00, 0x00, 0x10, 0x00, 0x00, 0x00,
  0x04, 0x00, 0x00, 0x00, 0x30, 0x00, 0x00, 0x00, 0x9c, 0xfe, 0xff, 0xff,
  0x23, 0x00, 0x00, 0x00, 0x73, 0x65, 0x71, 0x75, 0x65, 0x6e, 0x74, 0x69,
  0x61, 0x6c, 0x5f, 0x31, 0x2f, 0x63, 0x6f, 0x6e, 0x76, 0x32, 0x64, 0x5f,
  0x31, 0x5f, 0x32, 0x2f, 0x63, 0x6f, 0x6e, 0x76, 0x6f, 0x6c, 0x75, 0x74,
  0x69, 0x6f, 0x6e, 0x00, 0x04, 0x00, 0x00, 0x00, 0x20, 0x00, 0x00, 0x00,
  0x03, 0x00, 0x00, 0x00, 0x01, 0x00, 0x00, 0x00, 0x10, 0x00, 0x00, 0x00,
  0x0a, 0xff, 0xff, 0xff, 0x00, 0x00, 0x00, 0x01, 0x10, 0x00, 0x00, 0x00,
  0x10, 0x00, 0x00, 0x00, 0x03, 0x00, 0x00, 0x00, 0x2c, 0x00, 0x00, 0x00,
  0xf4, 0xfe, 0xff, 0xff, 0x1c, 0x00, 0x00, 0x00, 0x73, 0x65, 0x71, 0x75,
  0x65, 0x6e, 0x74, 0x69, 0x61, 0x6c, 0x5f, 0x31, 0x2f, 0x64, 0x65, 0x6e,
  0x73, 0x65, 0x5f, 0x31, 0x2f, 0x42, 0x69, 0x61, 0x73, 0x41, 0x64, 0x64,
  0x00, 0x00, 0x00, 0x00, 0x01, 0x00, 0x00, 0x00, 0x07, 0x00, 0x00, 0x00,
  0x52, 0xff, 0xff, 0xff, 0x00, 0x00, 0x00, 0x01, 0x10, 0x00, 0x00, 0x00,
  0x10, 0x00, 0x00, 0x00, 0x02, 0x00, 0x00, 0x00, 0x90, 0x00, 0x00, 0x00,
  0x3c, 0xff, 0xff, 0xff, 0x80, 0x00, 0x00, 0x00, 0x73, 0x65, 0x71, 0x75,
  0x65, 0x6e, 0x74, 0x69, 0x61, 0x6c, 0x5f, 0x31, 0x2f, 0x63, 0x6f, 0x6e,
  0x76, 0x32, 0x64, 0x5f, 0x31, 0x5f, 0x32, 0x2f, 0x52, 0x65, 0x6c, 0x75,
  0x3b, 0x73, 0x65, 0x71, 0x75, 0x65, 0x6e, 0x74, 0x69, 0x61, 0x6c, 0x5f,
  0x31, 0x2f, 0x63, 0x6f, 0x6e, 0x76, 0x32, 0x64, 0x5f, 0x31, 0x5f, 0x32,
  0x2f, 0x42, 0x69, 0x61, 0x73, 0x41, 0x64, 0x64, 0x3b, 0x73, 0x65, 0x71,
  0x75, 0x65, 0x6e, 0x74, 0x69, 0x61, 0x6c, 0x5f, 0x31, 0x2f, 0x63, 0x6f,
  0x6e, 0x76, 0x32, 0x64, 0x5f, 0x31, 0x5f, 0x32, 0x2f, 0x63, 0x6f, 0x6e,
  0x76, 0x6f, 0x6c, 0x75, 0x74, 0x69, 0x6f, 0x6e, 0x3b, 0x73, 0x65, 0x71,
  0x75, 0x65, 0x6e, 0x74, 0x69, 0x61, 0x6c, 0x5f, 0x31, 0x2f, 0x63, 0x6f,
  0x6e, 0x76, 0x32, 0x64, 0x5f, 0x31, 0x5f, 0x32, 0x2f, 0x53, 0x71, 0x75,
  0x65, 0x65, 0x7a, 0x65, 0x00, 0x00, 0x00, 0x00, 0x01, 0x00, 0x00, 0x00,
  0x20, 0x00, 0x00, 0x00, 0x00, 0x00, 0x16, 0x00, 0x18, 0x00, 0x14, 0x00,
  0x00, 0x00, 0x10, 0x00, 0x0c, 0x00, 0x08, 0x00, 0x00, 0x00, 0x00, 0x00,
  0x00, 0x00, 0x07, 0x00, 0x16, 0x00, 0x00, 0x00, 0x00, 0x00, 0x00, 0x01,
  0x14, 0x00, 0x00, 0x00, 0x14, 0x00, 0x00, 0x00, 0x01, 0x00, 0x00, 0x00,
  0x34, 0x00, 0x00, 0x00, 0x04, 0x00, 0x04, 0x00, 0x04, 0x00, 0x00, 0x00,
  0x21, 0x00, 0x00, 0x00, 0x73, 0x65, 0x72, 0x76, 0x69, 0x6e, 0x67, 0x5f,
  0x64, 0x65, 0x66, 0x61, 0x75, 0x6c, 0x74, 0x5f, 0x6b, 0x65, 0x72, 0x61,
  0x73, 0x5f, 0x74, 0x65, 0x6e, 0x73, 0x6f, 0x72, 0x5f, 0x31, 0x30, 0x3a,
  0x30, 0x00, 0x00, 0x00, 0x04, 0x00, 0x00, 0x00, 0x01, 0x00, 0x00, 0x00,
  0x0a, 0x00, 0x00, 0x00, 0x01, 0x00, 0x00, 0x00, 0x09, 0x00, 0x00, 0x00,
  0x03, 0x00, 0x00, 0x00, 0x30, 0x00, 0x00, 0x00, 0x14, 0x00, 0x00, 0x00,
  0x04, 0x00, 0x00, 0x00, 0xe8, 0xff, 0xff, 0xff, 0x09, 0x00, 0x00, 0x00,
  0x00, 0x00, 0x00, 0x09, 0xf4, 0xff, 0xff, 0xff, 0x16, 0x00, 0x00, 0x00,
  0x00, 0x00, 0x00, 0x16, 0x0c, 0x00, 0x0c, 0x00, 0x0b, 0x00, 0x00, 0x00,
  0x00, 0x00, 0x04, 0x00, 0x0c, 0x00, 0x00, 0x00, 0x03, 0x00, 0x00, 0x00,
  0x00, 0x00, 0x00, 0x03
};
unsigned int tflite_models_conv_lr0_0001_bs32_float32_tflite_len = 15928;
