unsigned char tflite_models_conv_lstm_lr0_0001_bs32_float32_tflite[] = {
  0x1c, 0x00, 0x00, 0x00, 0x54, 0x46, 0x4c, 0x33, 0x14, 0x00, 0x20, 0x00,
  0x1c, 0x00, 0x18, 0x00, 0x14, 0x00, 0x10, 0x00, 0x0c, 0x00, 0x00, 0x00,
  0x08, 0x00, 0x04, 0x00, 0x14, 0x00, 0x00, 0x00, 0x1c, 0x00, 0x00, 0x00,
  0x8c, 0x00, 0x00, 0x00, 0xe4, 0x00, 0x00, 0x00, 0xa4, 0x13, 0x00, 0x00,
  0xb4, 0x13, 0x00, 0x00, 0x10, 0x63, 0x00, 0x00, 0x03, 0x00, 0x00, 0x00,
  0x01, 0x00, 0x00, 0x00, 0x04, 0x00, 0x00, 0x00, 0x7a, 0xd6, 0xff, 0xff,
  0x0c, 0x00, 0x00, 0x00, 0x1c, 0x00, 0x00, 0x00, 0x3c, 0x00, 0x00, 0x00,
  0x0f, 0x00, 0x00, 0x00, 0x73, 0x65, 0x72, 0x76, 0x69, 0x6e, 0x67, 0x5f,
  0x64, 0x65, 0x66, 0x61, 0x75, 0x6c, 0x74, 0x00, 0x01, 0x00, 0x00, 0x00,
  0x04, 0x00, 0x00, 0x00, 0x90, 0xff, 0xff, 0xff, 0x9e, 0x00, 0x00, 0x00,
  0x04, 0x00, 0x00, 0x00, 0x08, 0x00, 0x00, 0x00, 0x6f, 0x75, 0x74, 0x70,
  0x75, 0x74, 0x5f, 0x30, 0x00, 0x00, 0x00, 0x00, 0x01, 0x00, 0x00, 0x00,
  0x04, 0x00, 0x00, 0x00, 0x06, 0xd7, 0xff, 0xff, 0x04, 0x00, 0x00, 0x00,
  0x0f, 0x00, 0x00, 0x00, 0x6b, 0x65, 0x72, 0x61, 0x73, 0x5f, 0x74, 0x65,
  0x6e, 0x73, 0x6f, 0x72, 0x5f, 0x33, 0x31, 0x00, 0x02, 0x00, 0x00, 0x00,
  0x34, 0x00, 0x00, 0x00, 0x04, 0x00, 0x00, 0x00, 0xdc, 0xff, 0xff, 0xff,
  0xa1, 0x00, 0x00, 0x00, 0x04, 0x00, 0x00, 0x00, 0x13, 0x00, 0x00, 0x00,
  0x43, 0x4f, 0x4e, 0x56, 0x45, 0x52, 0x53, 0x49, 0x4f, 0x4e, 0x5f, 0x4d,
  0x45, 0x54, 0x41, 0x44, 0x41, 0x54, 0x41, 0x00, 0x08, 0x00, 0x0c, 0x00,
  0x08, 0x00, 0x04, 0x00, 0x08, 0x00, 0x00, 0x00, 0xa0, 0x00, 0x00, 0x00,
  0x04, 0x00, 0x00, 0x00, 0x13, 0x00, 0x00, 0x00, 0x6d, 0x69, 0x6e, 0x5f,
  0x72, 0x75, 0x6e, 0x74, 0x69, 0x6d, 0x65, 0x5f, 0x76, 0x65, 0x72, 0x73,
  0x69, 0x6f, 0x6e, 0x00, 0xa2, 0x00, 0x00, 0x00, 0xbc, 0x12, 0x00, 0x00,
  0xb4, 0x12, 0x00, 0x00, 0x88, 0x12, 0x00, 0x00, 0x74, 0x12, 0x00, 0x00,
  0x58, 0x12, 0x00, 0x00, 0xd8, 0x11, 0x00, 0x00, 0xc8, 0x10, 0x00, 0x00,
  0xb8, 0x0c, 0x00, 0x00, 0x68, 0x0c, 0x00, 0x00, 0x54, 0x0c, 0x00, 0x00,
  0x84, 0x05, 0x00, 0x00, 0x34, 0x05, 0x00, 0x00, 0x2c, 0x05, 0x00, 0x00,
  0x24, 0x05, 0x00, 0x00, 0x1c, 0x05, 0x00, 0x00, 0x14, 0x05, 0x00, 0x00,
  0x0c, 0x05, 0x00, 0x00, 0x04, 0x05, 0x00, 0x00, 0xfc, 0x04, 0x00, 0x00,
  0xf4, 0x04, 0x00, 0x00, 0xec, 0x04, 0x00, 0x00, 0xe4, 0x04, 0x00, 0x00,
  0xdc, 0x04, 0x00, 0x00, 0xd4, 0x04, 0x00, 0x00, 0xcc, 0x04, 0x00, 0x00,
  0xc4, 0x04, 0x00, 0x00, 0xbc, 0x04, 0x00, 0x00, 0xb4, 0x04, 0x00, 0x00,
  0xac, 0x04, 0x00, 0x00, 0xa4, 0x04, 0x00, 0x00, 0x9c, 0x04, 0x00, 0x00,
  0x94, 0x04, 0x00, 0x00, 0x8c, 0x04, 0x00, 0x00, 0x84, 0x04, 0x00, 0x00,
  0x7c, 0x04, 0x00, 0x00, 0x74, 0x04, 0x00, 0x00, 0x6c, 0x04, 0x00, 0x00,
  0x64, 0x04, 0x00, 0x00, 0x5c, 0x04, 0x00, 0x00, 0x54, 0x04, 0x00, 0x00,
  0x4c, 0x04, 0x00, 0x00, 0x44, 0x04, 0x00, 0x00, 0x3c, 0x04, 0x00, 0x00,
  0x34, 0x04, 0x00, 0x00, 0x2c, 0x04, 0x00, 0x00, 0x24, 0x04, 0x00, 0x00,
  0x1c, 0x04, 0x00, 0x00, 0x14, 0x04, 0x00, 0x00, 0x0c, 0x04, 0x00, 0x00,
  0x04, 0x04, 0x00, 0x00, 0xfc, 0x03, 0x00, 0x00, 0xf4, 0x03, 0x00, 0x00,
  0xec, 0x03, 0x00, 0x00, 0xe4, 0x03, 0x00, 0x00, 0xdc, 0x03, 0x00, 0x00,
  0xd4, 0x03, 0x00, 0x00, 0xcc, 0x03, 0x00, 0x00, 0xc4, 0x03, 0x00, 0x00,
  0xbc, 0x03, 0x00, 0x00, 0xb4, 0x03, 0x00, 0x00, 0xac, 0x03, 0x00, 0x00,
  0xa4, 0x03, 0x00, 0x00, 0x9c, 0x03, 0x00, 0x00, 0x94, 0x03, 0x00, 0x00,
  0x8c, 0x03, 0x00, 0x00, 0x84, 0x03, 0x00, 0x00, 0x7c, 0x03, 0x00, 0x00,
  0x74, 0x03, 0x00, 0x00, 0x6c, 0x03, 0x00, 0x00, 0x64, 0x03, 0x00, 0x00,
  0x5c, 0x03, 0x00, 0x00, 0x54, 0x03, 0x00, 0x00, 0x4c, 0x03, 0x00, 0x00,
  0x44, 0x03, 0x00, 0x00, 0x3c, 0x03, 0x00, 0x00, 0x34, 0x03, 0x00, 0x00,
  0x2c, 0x03, 0x00, 0x00, 0x24, 0x03, 0x00, 0x00, 0x1c, 0x03, 0x00, 0x00,
  0x14, 0x03, 0x00, 0x00, 0x0c, 0x03, 0x00, 0x00, 0x04, 0x03, 0x00, 0x00,
  0xfc, 0x02, 0x00, 0x00, 0xf4, 0x02, 0x00, 0x00, 0xec, 0x02, 0x00, 0x00,
  0xe4, 0x02, 0x00, 0x00, 0xdc, 0x02, 0x00, 0x00, 0xd4, 0x02, 0x00, 0x00,
  0xcc, 0x02, 0x00, 0x00, 0xc4, 0x02, 0x00, 0x00, 0xbc, 0x02, 0x00, 0x00,
  0xb4, 0x02, 0x00, 0x00, 0xac, 0x02, 0x00, 0x00, 0xa4, 0x02, 0x00, 0x00,
  0x9c, 0x02, 0x00, 0x00, 0x94, 0x02, 0x00, 0x00, 0x8c, 0x02, 0x00, 0x00,
  0x84, 0x02, 0x00, 0x00, 0x7c, 0x02, 0x00, 0x00, 0x74, 0x02, 0x00, 0x00,
  0x6c, 0x02, 0x00, 0x00, 0x64, 0x02, 0x00, 0x00, 0x5c, 0x02, 0x00, 0x00,
  0x54, 0x02, 0x00, 0x00, 0x4c, 0x02, 0x00, 0x00, 0x44, 0x02, 0x00, 0x00,
  0x3c, 0x02, 0x00, 0x00, 0x34, 0x02, 0x00, 0x00, 0x2c, 0x02, 0x00, 0x00,
  0x24, 0x02, 0x00, 0x00, 0x1c, 0x02, 0x00, 0x00, 0x14, 0x02, 0x00, 0x00,
  0x0c, 0x02, 0x00, 0x00, 0x04, 0x02, 0x00, 0x00, 0xfc, 0x01, 0x00, 0x00,
  0xf4, 0x01, 0x00, 0x00, 0xec, 0x01, 0x00, 0x00, 0xe4, 0x01, 0x00, 0x00,
  0xdc, 0x01, 0x00, 0x00, 0xd4, 0x01, 0x00, 0x00, 0xcc, 0x01, 0x00, 0x00,
  0xc4, 0x01, 0x00, 0x00, 0xbc, 0x01, 0x00, 0x00, 0xb4, 0x01, 0x00, 0x00,
  0xac, 0x01, 0x00, 0x00, 0xa4, 0x01, 0x00, 0x00, 0x9c, 0x01, 0x00, 0x00,
  0x94, 0x01, 0x00, 0x00, 0x8c, 0x01, 0x00, 0x00, 0x84, 0x01, 0x00, 0x00,
  0x7c, 0x01, 0x00, 0x00, 0x74, 0x01, 0x00, 0x00, 0x6c, 0x01, 0x00, 0x00,
  0x64, 0x01, 0x00, 0x00, 0x5c, 0x01, 0x00, 0x00, 0x54, 0x01, 0x00, 0x00,
  0x4c, 0x01, 0x00, 0x00, 0x44, 0x01, 0x00, 0x00, 0x3c, 0x01, 0x00, 0x00,
  0x34, 0x01, 0x00, 0x00, 0x2c, 0x01, 0x00, 0x00, 0x24, 0x01, 0x00, 0x00,
  0x1c, 0x01, 0x00, 0x00, 0x14, 0x01, 0x00, 0x00, 0x0c, 0x01, 0x00, 0x00,
  0x04, 0x01, 0x00, 0x00, 0xfc, 0x00, 0x00, 0x00, 0xf4, 0x00, 0x00, 0x00,
  0xec, 0x00, 0x00, 0x00, 0xe4, 0x00, 0x00, 0x00, 0xdc, 0x00, 0x00, 0x00,
  0xd4, 0x00, 0x00, 0x00, 0xcc, 0x00, 0x00, 0x00, 0xc4, 0x00, 0x00, 0x00,
  0xbc, 0x00, 0x00, 0x00, 0xb4, 0x00, 0x00, 0x00, 0xac, 0x00, 0x00, 0x00,
  0xa4, 0x00, 0x00, 0x00, 0x9c, 0x00, 0x00, 0x00, 0x94, 0x00, 0x00, 0x00,
  0x74, 0x00, 0x00, 0x00, 0x04, 0x00, 0x00, 0x00, 0x0a, 0xda, 0xff, 0xff,
  0x04, 0x00, 0x00, 0x00, 0x60, 0x00, 0x00, 0x00, 0x10, 0x00, 0x00, 0x00,
  0x00, 0x00, 0x00, 0x00, 0x08, 0x00, 0x0e, 0x00, 0x08, 0x00, 0x04, 0x00,
  0x08, 0x00, 0x00, 0x00, 0x10, 0x00, 0x00, 0x00, 0x24, 0x00, 0x00, 0x00,
  0x00, 0x00, 0x06, 0x00, 0x08, 0x00, 0x04, 0x00, 0x06, 0x00, 0x00, 0x00,
  0x04, 0x00, 0x00, 0x00, 0x00, 0x00, 0x00, 0x00, 0x0c, 0x00, 0x18, 0x00,
  0x14, 0x00, 0x10, 0x00, 0x0c, 0x00, 0x04, 0x00, 0x0c, 0x00, 0x00, 0x00,
  0xec, 0x07, 0x9e, 0x08, 0x22, 0xf6, 0xde, 0x80, 0x02, 0x00, 0x00, 0x00,
  0x02, 0x00, 0x00, 0x00, 0x04, 0x00, 0x00, 0x00, 0x06, 0x00, 0x00, 0x00,
  0x32, 0x2e, 0x32, 0x31, 0x2e, 0x30, 0x00, 0x00, 0x76, 0xda, 0xff, 0xff,
  0x04, 0x00, 0x00, 0x00, 0x10, 0x00, 0x00, 0x00, 0x31, 0x2e, 0x31, 0x34,
  0x2e, 0x30, 0x00, 0x00, 0x00, 0x00, 0x00, 0x00, 0x00, 0x00, 0x00, 0x00,
  0xb4, 0xa0, 0xff, 0xff, 0xb8, 0xa0, 0xff, 0xff, 0xbc, 0xa0, 0xff, 0xff,
  0xc0, 0xa0, 0xff, 0xff, 0xc4, 0xa0, 0xff, 0xff, 0xc8, 0xa0, 0xff, 0xff,
  0xcc, 0xa0, 0xff, 0xff, 0xd0, 0xa0, 0xff, 0xff, 0xd4, 0xa0, 0xff, 0xff,
  0xd8, 0xa0, 0xff, 0xff, 0xdc, 0xa0, 0xff, 0xff, 0xe0, 0xa0, 0xff, 0xff,
  0xe4, 0xa0, 0xff, 0xff, 0xe8, 0xa0, 0xff, 0xff, 0xec, 0xa0, 0xff, 0xff,
  0xf0, 0xa0, 0xff, 0xff, 0xf4, 0xa0, 0xff, 0xff, 0xf8, 0xa0, 0xff, 0xff,
  0xfc, 0xa0, 0xff, 0xff, 0x00, 0xa1, 0xff, 0xff, 0x04, 0xa1, 0xff, 0xff,
  0x08, 0xa1, 0xff, 0xff, 0x0c, 0xa1, 0xff, 0xff, 0x10, 0xa1, 0xff, 0xff,
  0x14, 0xa1, 0xff, 0xff, 0x18, 0xa1, 0xff, 0xff, 0x1c, 0xa1, 0xff, 0xff,
  0x20, 0xa1, 0xff, 0xff, 0x24, 0xa1, 0xff, 0xff, 0x28, 0xa1, 0xff, 0xff,
  0x2c, 0xa1, 0xff, 0xff, 0x30, 0xa1, 0xff, 0xff, 0x34, 0xa1, 0xff, 0xff,
  0x38, 0xa1, 0xff, 0xff, 0x3c, 0xa1, 0xff, 0xff, 0x40, 0xa1, 0xff, 0xff,
  0x44, 0xa1, 0xff, 0xff, 0x48, 0xa1, 0xff, 0xff, 0x4c, 0xa1, 0xff, 0xff,
  0x50, 0xa1, 0xff, 0xff, 0x54, 0xa1, 0xff, 0xff, 0x58, 0xa1, 0xff, 0xff,
  0x5c, 0xa1, 0xff, 0xff, 0x60, 0xa1, 0xff, 0xff, 0x64, 0xa1, 0xff, 0xff,
  0x68, 0xa1, 0xff, 0xff, 0x6c, 0xa1, 0xff, 0xff, 0x70, 0xa1, 0xff, 0xff,
  0x74, 0xa1, 0xff, 0xff, 0x78, 0xa1, 0xff, 0xff, 0x7c, 0xa1, 0xff, 0xff,
  0x80, 0xa1, 0xff, 0xff, 0x84, 0xa1, 0xff, 0xff, 0x88, 0xa1, 0xff, 0xff,
  0x8c, 0xa1, 0xff, 0xff, 0x90, 0xa1, 0xff, 0xff, 0x94, 0xa1, 0xff, 0xff,
  0x98, 0xa1, 0xff, 0xff, 0x9c, 0xa1, 0xff, 0xff, 0xa0, 0xa1, 0xff, 0xff,
  0xa4, 0xa1, 0xff, 0xff, 0xa8, 0xa1, 0xff, 0xff, 0xac, 0xa1, 0xff, 0xff,
  0xb0, 0xa1, 0xff, 0xff, 0xb4, 0xa1, 0xff, 0xff, 0xb8, 0xa1, 0xff, 0xff,
  0xbc, 0xa1, 0xff, 0xff, 0xc0, 0xa1, 0xff, 0xff, 0xc4, 0xa1, 0xff, 0xff,
  0xc8, 0xa1, 0xff, 0xff, 0xcc, 0xa1, 0xff, 0xff, 0xd0, 0xa1, 0xff, 0xff,
  0xd4, 0xa1, 0xff, 0xff, 0xd8, 0xa1, 0xff, 0xff, 0xdc, 0xa1, 0xff, 0xff,
  0xe0, 0xa1, 0xff, 0xff, 0xe4, 0xa1, 0xff, 0xff, 0xe8, 0xa1, 0xff, 0xff,
  0xec, 0xa1, 0xff, 0xff, 0xf0, 0xa1, 0xff, 0xff, 0xf4, 0xa1, 0xff, 0xff,
  0xf8, 0xa1, 0xff, 0xff, 0xfc, 0xa1, 0xff, 0xff, 0x00, 0xa2, 0xff, 0xff,
  0x04, 0xa2, 0xff, 0xff, 0x08, 0xa2, 0xff, 0xff, 0x0c, 0xa2, 0xff, 0xff,
  0x10, 0xa2, 0xff, 0xff, 0x14, 0xa2, 0xff, 0xff, 0x18, 0xa2, 0xff, 0xff,
  0x1c, 0xa2, 0xff, 0xff, 0x20, 0xa2, 0xff, 0xff, 0x24, 0xa2, 0xff, 0xff,
  0x28, 0xa2, 0xff, 0xff, 0x2c, 0xa2, 0xff, 0xff, 0x30, 0xa2, 0xff, 0xff,
  0x34, 0xa2, 0xff, 0xff, 0x38, 0xa2, 0xff, 0xff, 0x3c, 0xa2, 0xff, 0xff,
  0x40, 0xa2, 0xff, 0xff, 0x44, 0xa2, 0xff, 0xff, 0x48, 0xa2, 0xff, 0xff,
  0x4c, 0xa2, 0xff, 0xff, 0x50, 0xa2, 0xff, 0xff, 0x54, 0xa2, 0xff, 0xff,
  0x58, 0xa2, 0xff, 0xff, 0x5c, 0xa2, 0xff, 0xff, 0x60, 0xa2, 0xff, 0xff,
  0x64, 0xa2, 0xff, 0xff, 0x68, 0xa2, 0xff, 0xff, 0x6c, 0xa2, 0xff, 0xff,
  0x70, 0xa2, 0xff, 0xff, 0x74, 0xa2, 0xff, 0xff, 0x78, 0xa2, 0xff, 0xff,
  0x7c, 0xa2, 0xff, 0xff, 0x80, 0xa2, 0xff, 0xff, 0x84, 0xa2, 0xff, 0xff,
  0x88, 0xa2, 0xff, 0xff, 0x8c, 0xa2, 0xff, 0xff, 0x90, 0xa2, 0xff, 0xff,
  0x94, 0xa2, 0xff, 0xff, 0x98, 0xa2, 0xff, 0xff, 0x9c, 0xa2, 0xff, 0xff,
  0xa0, 0xa2, 0xff, 0xff, 0xa4, 0xa2, 0xff, 0xff, 0xa8, 0xa2, 0xff, 0xff,
  0xac, 0xa2, 0xff, 0xff, 0xb0, 0xa2, 0xff, 0xff, 0xb4, 0xa2, 0xff, 0xff,
  0xb8, 0xa2, 0xff, 0xff, 0xbc, 0xa2, 0xff, 0xff, 0xc0, 0xa2, 0xff, 0xff,
  0xc4, 0xa2, 0xff, 0xff, 0xc8, 0xa2, 0xff, 0xff, 0xcc, 0xa2, 0xff, 0xff,
  0xd0, 0xa2, 0xff, 0xff, 0xd4, 0xa2, 0xff, 0xff, 0xd8, 0xa2, 0xff, 0xff,
  0xdc, 0xa2, 0xff, 0xff, 0xe0, 0xa2, 0xff, 0xff, 0xe4, 0xa2, 0xff, 0xff,
  0xe8, 0xa2, 0xff, 0xff, 0xec, 0xa2, 0xff, 0xff, 0xf0, 0xa2, 0xff, 0xff,
  0xf4, 0xa2, 0xff, 0xff, 0xf8, 0xa2, 0xff, 0xff, 0xfc, 0xa2, 0xff, 0xff,
  0x00, 0xa3, 0xff, 0xff, 0xe2, 0xdc, 0xff, 0xff, 0x04, 0x00, 0x00, 0x00,
  0x40, 0x00, 0x00, 0x00, 0x67, 0x82, 0xfc, 0x3d, 0xf9, 0x75, 0x49, 0xbd,
  0x68, 0xef, 0xa7, 0xbc, 0x8c, 0x4b, 0x30, 0x3e, 0xc3, 0x16, 0x10, 0x3d,
  0x58, 0x16, 0x97, 0x3b, 0xc4, 0xe4, 0xe3, 0x3c, 0x1a, 0x5a, 0x08, 0xbe,
  0xe0, 0x7a, 0xb3, 0xbd, 0x8e, 0x6d, 0x63, 0x3b, 0x45, 0x7d, 0x6a, 0x3d,
  0x0c, 0x1a, 0x63, 0x3e, 0xed, 0x77, 0x64, 0x3e, 0xe4, 0xd4, 0xcf, 0x3d,
  0x44, 0x33, 0x1f, 0xbe, 0x26, 0x68, 0x4a, 0x3d, 0x2e, 0xdd, 0xff, 0xff,
  0x04, 0x00, 0x00, 0x00, 0xc0, 0x06, 0x00, 0x00, 0xea, 0x9a, 0x46, 0x3c,
  0x81, 0xff, 0x66, 0x3d, 0x82, 0x33, 0x32, 0x3e, 0x0a, 0xd1, 0x32, 0xbe,
  0x91, 0xa4, 0xb8, 0x3c, 0xc7, 0x91, 0x55, 0xbe, 0x8c, 0x6a, 0x6e, 0x3e,
  0x6d, 0xd1, 0x6e, 0x3e, 0x81, 0x9b, 0x80, 0x3e, 0x25, 0xfe, 0x8d, 0xbe,
  0x3b, 0x22, 0x36, 0xbe, 0x35, 0xa9, 0xcc, 0xbd, 0x2a, 0xdb, 0x43, 0x3d,
  0x65, 0x5b, 0x75, 0x3d, 0x21, 0x7a, 0x9a, 0x3c, 0x4a, 0x84, 0x76, 0xbe,
  0xda, 0x52, 0xb9, 0xbd, 0x48, 0xa6, 0x2c, 0xbe, 0x9a, 0xe5, 0x50, 0xbe,
  0xe0, 0x90, 0x0e, 0x3d, 0x84, 0xa7, 0x8a, 0x3e, 0xb1, 0xd8, 0xe6, 0xbd,
  0xa6, 0x56, 0x4e, 0x3e, 0x90, 0x4d, 0xb5, 0xbd, 0xe4, 0x4c, 0x6d, 0x3e,
  0x02, 0x31, 0x12, 0xbe, 0x75, 0x57, 0xfd, 0x3d, 0xad, 0x5e, 0x01, 0xbd,
  0xb0, 0x66, 0x72, 0xbd, 0xd2, 0xe1, 0x30, 0x3d, 0x65, 0x21, 0x90, 0xbd,
  0xd7, 0x5f, 0x7b, 0xbd, 0x4f, 0x7b, 0x31, 0xbe, 0xc8, 0xea, 0xf8, 0x3d,
  0xf0, 0x02, 0x40, 0xbe, 0x40, 0xbb, 0x25, 0x3d, 0xe6, 0xfc, 0x34, 0x3e,
  0x4a, 0xe6, 0xb6, 0xbd, 0x57, 0x96, 0xcb, 0xbd, 0xbf, 0xa8, 0xb9, 0xbd,
  0x64, 0xc1, 0x39, 0x3e, 0xe0, 0x56, 0x12, 0x3d, 0x4e, 0x80, 0x82, 0xbe,
  0xa2, 0x2a, 0x11, 0xbd, 0xde, 0xe9, 0xa8, 0x3a, 0x8f, 0x46, 0x9c, 0xbe,
  0xc5, 0x8c, 0x5f, 0x3e, 0x08, 0x93, 0x2f, 0xbe, 0x93, 0x64, 0xb0, 0x3d,
  0x25, 0xbe, 0x63, 0xbe, 0x93, 0x88, 0x19, 0x3e, 0x1f, 0x7d, 0xce, 0x3d,
  0x69, 0x54, 0x68, 0x3e, 0x4d, 0x5a, 0x05, 0x3e, 0x82, 0x55, 0x5c, 0xbe,
  0x50, 0x9a, 0x4e, 0x3e, 0x08, 0x30, 0x04, 0x3d, 0x76, 0xe2, 0xe4, 0x3d,
  0x5e, 0x3e, 0x00, 0x3e, 0xe4, 0xe7, 0x27, 0x3d, 0x0f, 0xfd, 0x3e, 0xbd,
  0x03, 0xc0, 0x1f, 0x3e, 0xc9, 0x44, 0x61, 0x3e, 0x87, 0x93, 0x0e, 0x3e,
  0xa0, 0x44, 0x3b, 0x3e, 0x90, 0x2b, 0x54, 0xbe, 0x48, 0xc4, 0x27, 0x3e,
  0xb4, 0x55, 0xe4, 0x3c, 0xa5, 0xf4, 0x71, 0xbe, 0x28, 0x93, 0xf3, 0xbd,
  0x06, 0x7d, 0x5e, 0xbe, 0x4f, 0x99, 0xee, 0x3c, 0xc3, 0x16, 0xfe, 0x3d,
  0x45, 0xb0, 0x13, 0xbd, 0x1a, 0x85, 0x7f, 0xbe, 0x42, 0x0e, 0xaf, 0xbe,
  0x55, 0x11, 0x82, 0xbe, 0x49, 0x4c, 0xa8, 0xbd, 0xaa, 0xe9, 0xb4, 0xbd,
  0x07, 0xb2, 0x74, 0x3d, 0x51, 0xc3, 0x21, 0xbe, 0x17, 0xcf, 0x71, 0xbe,
  0x21, 0x44, 0x9f, 0xbe, 0x6b, 0xe1, 0x36, 0xbe, 0x8c, 0x64, 0x2d, 0x3d,
  0xf2, 0x60, 0x4b, 0x3e, 0xcf, 0x1e, 0xf6, 0x3d, 0x13, 0x81, 0x05, 0xbd,
  0xf8, 0x2c, 0x70, 0x3d, 0x1c, 0xf6, 0x68, 0xbe, 0x47, 0x52, 0x02, 0x3c,
  0x79, 0x9c, 0x7d, 0xbe, 0x2a, 0xef, 0x7a, 0xbe, 0x0e, 0xdf, 0xe4, 0x3c,
  0xc2, 0xa9, 0x01, 0x3d, 0x53, 0x90, 0x39, 0xbe, 0x7c, 0xc1, 0x72, 0xbe,
  0x59, 0xd4, 0x2c, 0x3e, 0x2e, 0x37, 0x3b, 0x3e, 0xd3, 0x41, 0x2c, 0x3e,
  0xa3, 0x25, 0x05, 0xbc, 0xbb, 0x5c, 0xba, 0x3d, 0x8d, 0x2b, 0x62, 0xbe,
  0x69, 0x61, 0x07, 0x3e, 0xdc, 0x4f, 0xa0, 0x3d, 0xb5, 0x85, 0x8a, 0xbd,
  0x51, 0xd6, 0x24, 0x3e, 0x82, 0xfc, 0x71, 0xbe, 0xb9, 0xdf, 0x5e, 0x3e,
  0xd2, 0xe7, 0x0e, 0xbe, 0xdb, 0x13, 0x8c, 0xbd, 0xe4, 0xe8, 0x8c, 0xbe,
  0x6f, 0x6b, 0x61, 0x3e, 0xae, 0x32, 0x84, 0x3d, 0xd8, 0x25, 0xfa, 0x3d,
  0x84, 0xdd, 0x84, 0xbe, 0x06, 0xc3, 0x46, 0xbe, 0xf3, 0x31, 0x2d, 0x3e,
  0x10, 0x98, 0x1e, 0x3e, 0xa5, 0xa5, 0xe1, 0x3d, 0x4a, 0x59, 0x4b, 0xbe,
  0x82, 0x92, 0xe5, 0x3c, 0x20, 0xb7, 0x8b, 0xbc, 0xd6, 0x47, 0x29, 0x3e,
  0xb9, 0xc2, 0x1f, 0xbe, 0x0f, 0x47, 0xfd, 0xbc, 0xde, 0x7b, 0x2d, 0x3e,
  0xb7, 0xa4, 0x0a, 0x3e, 0x3c, 0x3d, 0x24, 0xbe, 0x79, 0x2e, 0x19, 0x3e,
  0xd6, 0x74, 0x30, 0xbe, 0x65, 0x24, 0x86, 0xbe, 0x9d, 0x46, 0x5a, 0xbe,
  0xb6, 0x40, 0x0c, 0x3d, 0xa5, 0x8b, 0x0e, 0xbe, 0xb4, 0x37, 0x88, 0x3d,
  0x1d, 0xde, 0x75, 0x3e, 0xc4, 0x97, 0x29, 0xbe, 0x40, 0x6c, 0x28, 0x3e,
  0x24, 0x5f, 0x0d, 0x3e, 0x66, 0x10, 0x9d, 0xbd, 0xa4, 0xb1, 0x75, 0x3e,
  0x60, 0xfb, 0x1d, 0x3c, 0x3a, 0x08, 0x7e, 0xbe, 0x81, 0xd0, 0x67, 0xbe,
  0x26, 0xb8, 0x5b, 0xbe, 0xe2, 0x69, 0x80, 0x3d, 0x7e, 0xad, 0x0e, 0x3e,
  0x71, 0xce, 0xdd, 0xbd, 0xbe, 0x87, 0x3a, 0x3e, 0x0e, 0x98, 0x90, 0x3a,
  0xe7, 0xbe, 0x21, 0xbc, 0x8f, 0x96, 0x80, 0xbe, 0xf0, 0xdb, 0x24, 0xbe,
  0x39, 0xd9, 0xdd, 0x3d, 0xb6, 0xe3, 0xd2, 0xbd, 0xa5, 0xc3, 0xa5, 0x3d,
  0xc7, 0xfb, 0x70, 0x3e, 0xde, 0x4f, 0x25, 0xbe, 0x28, 0x64, 0x76, 0xbe,
  0xc4, 0x74, 0xcb, 0xbc, 0x9f, 0xa5, 0x95, 0x3e, 0xe6, 0x41, 0x40, 0x3e,
  0x8e, 0x37, 0xdd, 0x3d, 0x1d, 0x52, 0x10, 0x3e, 0xaa, 0x7e, 0x40, 0x3e,
  0x07, 0x52, 0x87, 0xbd, 0x24, 0x17, 0x08, 0x3e, 0x02, 0x6e, 0x02, 0x3e,
  0x0f, 0x52, 0x8f, 0xbc, 0xa3, 0x46, 0x5b, 0x3e, 0xae, 0xe9, 0x03, 0xbe,
  0x0a, 0xca, 0xe7, 0xbd, 0x1d, 0xb4, 0x9e, 0xbe, 0x6e, 0xe8, 0x27, 0xbe,
  0x09, 0xac, 0x27, 0xbe, 0xb6, 0xac, 0x20, 0x3d, 0x38, 0x8c, 0x98, 0x3d,
  0x04, 0xd7, 0x15, 0x3e, 0x07, 0x00, 0xbf, 0x3d, 0x4d, 0x42, 0x28, 0x3e,
  0x5a, 0x2b, 0x88, 0x3d, 0x0b, 0xf9, 0xb0, 0x3c, 0x3a, 0x16, 0xcd, 0x3d,
  0xba, 0x62, 0x96, 0x3d, 0x8e, 0xcb, 0xe6, 0x3d, 0xb0, 0xda, 0xba, 0xbc,
  0xf4, 0x72, 0x11, 0xbd, 0xac, 0xb1, 0xfd, 0xbd, 0x3e, 0x40, 0xdd, 0xbd,
  0x7b, 0x35, 0x97, 0xbd, 0xe0, 0xf7, 0xbf, 0xbd, 0x6b, 0x2e, 0xb6, 0xbd,
  0xf5, 0x23, 0x66, 0xbd, 0x82, 0x52, 0x06, 0x3d, 0x3d, 0x2b, 0x78, 0x3d,
  0x3c, 0x9a, 0x65, 0xbe, 0x51, 0xaa, 0x55, 0x3e, 0x0f, 0x2c, 0x08, 0xbe,
  0x33, 0xde, 0x10, 0xbd, 0xef, 0xb6, 0x82, 0xbd, 0x23, 0x19, 0x6c, 0xbe,
  0x5c, 0x4f, 0x18, 0x3e, 0xeb, 0x2c, 0x5a, 0x3e, 0x0f, 0x5f, 0x2a, 0xbe,
  0xdd, 0xbb, 0x1a, 0x3e, 0xc7, 0x7a, 0xd3, 0xbc, 0xa7, 0x00, 0x33, 0xbe,
  0x9b, 0x15, 0x59, 0x3e, 0x15, 0x25, 0xa1, 0x3d, 0xcd, 0x96, 0xe2, 0xbd,
  0xd3, 0xe8, 0x1e, 0xbe, 0x11, 0x35, 0x8c, 0xbe, 0x14, 0x56, 0x67, 0x3d,
  0x2c, 0x3a, 0xbd, 0xbd, 0xb0, 0x91, 0x45, 0x3e, 0x50, 0xda, 0x64, 0x3d,
  0x79, 0xa5, 0xf3, 0xbd, 0x1f, 0x4a, 0x16, 0xbe, 0xad, 0xd6, 0xbc, 0x3d,
  0x7e, 0x99, 0x69, 0xbd, 0x24, 0xcb, 0x70, 0xbe, 0x62, 0x5b, 0x52, 0x3d,
  0xe4, 0x13, 0xca, 0x3d, 0xf2, 0xbc, 0x84, 0x3d, 0xa0, 0x37, 0x36, 0x3d,
  0x59, 0xad, 0x83, 0xbc, 0x0d, 0x2a, 0xf5, 0xbd, 0x12, 0x34, 0xdf, 0xbd,
  0x70, 0xf8, 0xca, 0x3d, 0x3f, 0x0e, 0x0b, 0x3d, 0x39, 0x1a, 0x58, 0xbe,
  0x70, 0x29, 0x73, 0xbe, 0xed, 0x8e, 0x59, 0xbe, 0x8b, 0x30, 0x7a, 0xbd,
  0xa2, 0x60, 0x1d, 0x3e, 0xbf, 0x34, 0x8a, 0x3e, 0x1c, 0x90, 0x36, 0xbe,
  0xe7, 0xac, 0x90, 0xbd, 0x17, 0x8e, 0x60, 0x3d, 0x43, 0x9c, 0xbf, 0x3d,
  0x53, 0x3c, 0x05, 0x3d, 0x5e, 0x90, 0x66, 0xbd, 0x3d, 0x1b, 0xf9, 0x3b,
  0x01, 0x5e, 0x12, 0xbe, 0xb5, 0xf4, 0x03, 0xbe, 0xb0, 0x25, 0x23, 0xbe,
  0x75, 0x36, 0x07, 0x3c, 0x04, 0x76, 0x15, 0xbe, 0x58, 0xe3, 0x0e, 0x3e,
  0x69, 0x2b, 0x2b, 0x3e, 0xfa, 0x1f, 0x8d, 0xbe, 0x5a, 0xb1, 0x56, 0xbe,
  0xac, 0x78, 0x27, 0x3e, 0xb8, 0x42, 0x7c, 0xbe, 0xd7, 0x56, 0x03, 0x3e,
  0xac, 0x71, 0x17, 0x3e, 0x72, 0xb0, 0x49, 0x3d, 0x42, 0x8f, 0xc0, 0xbd,
  0x8c, 0x8e, 0x2d, 0x3c, 0x5d, 0x58, 0x04, 0xbe, 0xdb, 0x21, 0x00, 0x3d,
  0x7b, 0xbd, 0x36, 0xbd, 0x4d, 0x5a, 0xe7, 0x3d, 0x5b, 0xb4, 0x68, 0xbc,
  0x95, 0x21, 0x0c, 0xbd, 0x98, 0x37, 0x84, 0xbe, 0x44, 0x29, 0xf9, 0xbd,
  0xab, 0xba, 0x89, 0xbe, 0x97, 0x42, 0x30, 0x3e, 0x0f, 0xee, 0x93, 0x3c,
  0xba, 0x3b, 0x96, 0x3e, 0x78, 0xe9, 0x4f, 0xbd, 0x67, 0x0d, 0x9f, 0xbc,
  0xd7, 0x18, 0x6c, 0xbd, 0xbb, 0x1d, 0xb5, 0x3d, 0xe3, 0x80, 0x30, 0xbd,
  0x29, 0x2f, 0x6f, 0x3e, 0xd3, 0xcf, 0xe4, 0x3c, 0xc9, 0xf8, 0x61, 0xbd,
  0xac, 0x01, 0x6d, 0xbe, 0x82, 0xac, 0xce, 0x3d, 0x1b, 0x1a, 0xe8, 0xbd,
  0x20, 0x52, 0x1f, 0x3e, 0xca, 0x91, 0x59, 0xbd, 0x54, 0x10, 0x4c, 0xbd,
  0x16, 0x7d, 0x08, 0xbe, 0x18, 0xf2, 0x7f, 0xbe, 0x6a, 0x41, 0x71, 0xbe,
  0x2b, 0xb3, 0xd3, 0x3d, 0x63, 0xff, 0x2b, 0xbe, 0x5a, 0x86, 0x68, 0x3e,
  0xfe, 0x83, 0x8a, 0x3e, 0x83, 0x2d, 0x2d, 0xbd, 0x92, 0x1d, 0x4b, 0x3e,
  0x7f, 0xfc, 0x5d, 0xbe, 0xbd, 0x86, 0x86, 0x3e, 0x1b, 0x69, 0xac, 0xbe,
  0x9d, 0x41, 0x2e, 0x3e, 0xe8, 0x8a, 0x71, 0xbd, 0x2b, 0x86, 0x9c, 0xbe,
  0x8e, 0xcd, 0xed, 0x3c, 0xe0, 0x90, 0xec, 0xbc, 0x93, 0xc5, 0x25, 0x3c,
  0x85, 0x67, 0x46, 0x3e, 0x4f, 0x21, 0x66, 0x3e, 0x51, 0x53, 0x0a, 0x3e,
  0x67, 0xc0, 0x96, 0xbe, 0xbf, 0xc5, 0xb3, 0x3e, 0x9f, 0x46, 0xf6, 0xbd,
  0xb3, 0x3f, 0x1d, 0x3e, 0x67, 0x55, 0x0b, 0x3d, 0xc0, 0xf7, 0xc5, 0xbd,
  0xaf, 0x9d, 0xc3, 0x3d, 0x61, 0x26, 0xb8, 0x3d, 0x9d, 0x7e, 0xc9, 0xbd,
  0xd6, 0x92, 0xfe, 0xbd, 0xf0, 0xf7, 0x0f, 0x3e, 0xfe, 0xcf, 0xbb, 0x3d,
  0x55, 0x9e, 0x69, 0xbd, 0x8e, 0xb3, 0x3d, 0x3e, 0xc4, 0xc7, 0x01, 0x3e,
  0x0b, 0x70, 0x76, 0xbe, 0x07, 0x6d, 0x36, 0x3c, 0xea, 0xd1, 0x79, 0x3e,
  0x2a, 0xaf, 0x03, 0xbe, 0xd0, 0x0f, 0x8c, 0x3e, 0x51, 0xdb, 0x00, 0xbe,
  0x31, 0xcf, 0x24, 0xbe, 0xd0, 0xdd, 0xbb, 0x3e, 0x97, 0xac, 0x51, 0x3e,
  0xd4, 0x75, 0x52, 0x3c, 0x35, 0x57, 0x93, 0xbe, 0xbd, 0xe8, 0x9b, 0x3e,
  0x3d, 0x87, 0xa9, 0x3d, 0x18, 0xcf, 0x01, 0x3e, 0xdf, 0x06, 0x47, 0xbe,
  0x9c, 0x07, 0x66, 0x3e, 0x47, 0x18, 0x90, 0x3e, 0xea, 0x64, 0xa7, 0xbd,
  0x62, 0x8f, 0x15, 0x3e, 0x73, 0x77, 0x47, 0xbe, 0x3f, 0x1c, 0xec, 0x3e,
  0x02, 0x06, 0x0f, 0xbe, 0x96, 0xa6, 0x4c, 0x3e, 0x4d, 0xd0, 0x07, 0xbe,
  0x14, 0x5f, 0x1c, 0x3e, 0xc7, 0x15, 0x4f, 0x3e, 0x86, 0xfc, 0x4f, 0xbe,
  0xc0, 0x78, 0x9e, 0xbd, 0x58, 0x1a, 0xf3, 0xbd, 0x9b, 0x1a, 0x4e, 0xbe,
  0x41, 0x05, 0x2f, 0x3e, 0x00, 0x19, 0xe3, 0xbc, 0x82, 0xd1, 0xba, 0x3d,
  0x10, 0x4f, 0x15, 0xbe, 0xe2, 0x4d, 0xc2, 0xbc, 0xa6, 0x14, 0xd0, 0x3c,
  0x64, 0xb0, 0xc7, 0x3d, 0xfa, 0xcf, 0xcb, 0x3d, 0xbe, 0x97, 0x41, 0x3a,
  0xf8, 0xfd, 0x8f, 0x3e, 0x47, 0x4f, 0x70, 0xbe, 0x43, 0x32, 0xf9, 0xbd,
  0x34, 0xc1, 0x62, 0xbe, 0x04, 0xc4, 0x16, 0x3d, 0x47, 0x0e, 0x02, 0xbe,
  0xc0, 0xc6, 0x99, 0xbd, 0x37, 0xc0, 0x73, 0xbe, 0xdc, 0x24, 0x05, 0x3e,
  0xaf, 0x68, 0x3c, 0xbd, 0x15, 0x66, 0xaa, 0xbe, 0xdb, 0xa0, 0xed, 0xbc,
  0x85, 0x83, 0xb1, 0x3d, 0x6e, 0x6a, 0x73, 0x3d, 0x6d, 0xc1, 0xcd, 0xbd,
  0x0c, 0x01, 0x12, 0xbe, 0x6c, 0xac, 0x6b, 0x3d, 0xe1, 0x8e, 0xd8, 0xbd,
  0x07, 0xf3, 0x84, 0xbd, 0xd9, 0x9f, 0x4c, 0x3e, 0xfd, 0x7a, 0xe8, 0xbc,
  0x2e, 0xeb, 0x77, 0x3e, 0xaa, 0xc5, 0x6d, 0x3d, 0x25, 0x59, 0x84, 0xbe,
  0x39, 0x5c, 0x7e, 0xbd, 0x2a, 0x1b, 0x24, 0x3e, 0x67, 0x45, 0xb0, 0x3c,
  0xdf, 0x92, 0x8c, 0x3d, 0xb9, 0xc0, 0x77, 0xbe, 0xdf, 0xd2, 0x38, 0xbe,
  0xf1, 0xcf, 0x72, 0xbe, 0xce, 0x0d, 0x01, 0xbe, 0xbb, 0x62, 0x04, 0x3e,
  0x92, 0x62, 0x5c, 0xbd, 0x45, 0x85, 0xfd, 0xbd, 0xfa, 0x6e, 0xa4, 0xbc,
  0x5d, 0x5d, 0x75, 0x3c, 0x74, 0x5b, 0xe8, 0xbd, 0x18, 0xed, 0xd2, 0xbd,
  0xcb, 0x91, 0x49, 0xbe, 0x14, 0xde, 0x3e, 0xbe, 0x38, 0x96, 0x9d, 0x3c,
  0x5c, 0xe9, 0x8b, 0x3d, 0x59, 0x7d, 0x79, 0x3d, 0xa5, 0x7a, 0x40, 0x3d,
  0xc2, 0x5e, 0x95, 0xbe, 0x94, 0xc0, 0xb1, 0xbd, 0x01, 0xa9, 0x16, 0xbd,
  0x1b, 0xaa, 0x15, 0x3d, 0x04, 0x40, 0x9d, 0xbd, 0x31, 0x81, 0x1a, 0x3e,
  0xfc, 0x63, 0x0f, 0xbe, 0x70, 0x17, 0x82, 0x3e, 0xa5, 0x80, 0x67, 0xbe,
  0xbf, 0xaa, 0xd2, 0xbd, 0x70, 0xdb, 0x8f, 0x3e, 0xe4, 0x1d, 0x88, 0x3d,
  0xc0, 0xdf, 0x87, 0x3d, 0x62, 0x23, 0x56, 0x3e, 0xcb, 0xc2, 0x17, 0x3e,
  0x29, 0x28, 0xbe, 0x3d, 0x67, 0x37, 0x10, 0xbd, 0x12, 0x41, 0x09, 0x3e,
  0xb5, 0xb8, 0x84, 0x3e, 0x67, 0x31, 0x35, 0x3e, 0x27, 0x99, 0x87, 0x3e,
  0x30, 0xc5, 0x14, 0x3d, 0xb5, 0x5f, 0x2d, 0xbc, 0x1d, 0x93, 0x5e, 0x3e,
  0x59, 0xa5, 0xea, 0xbd, 0x67, 0x37, 0x02, 0xbe, 0xfa, 0xe3, 0xff, 0xff,
  0x04, 0x00, 0x00, 0x00, 0x04, 0x00, 0x00, 0x00, 0x01, 0x00, 0x00, 0x00,
  0x0a, 0xe4, 0xff, 0xff, 0x04, 0x00, 0x00, 0x00, 0x40, 0x00, 0x00, 0x00,
  0x71, 0xd3, 0x25, 0xbe, 0xa4, 0xac, 0x97, 0x3e, 0xbd, 0x1b, 0xdf, 0x3d,
  0x3f, 0xfd, 0x83, 0x3d, 0x65, 0x7b, 0x73, 0x3f, 0x85, 0xe5, 0x9b, 0x3f,
  0xb6, 0x28, 0x9f, 0x3f, 0x20, 0x00, 0x8a, 0x3f, 0xbc, 0x98, 0x7e, 0x3d,
  0x5f, 0xc7, 0xf3, 0x3d, 0xf9, 0xd2, 0x99, 0x3d, 0x2c, 0xac, 0x30, 0x3e,
  0x18, 0x79, 0xa9, 0xbd, 0x3d, 0x5f, 0xad, 0x3e, 0x28, 0x8d, 0x5c, 0x3e,
  0xdf, 0xd6, 0x8d, 0x3e, 0x56, 0xe4, 0xff, 0xff, 0x04, 0x00, 0x00, 0x00,
  0x00, 0x04, 0x00, 0x00, 0xb1, 0x20, 0x96, 0x3e, 0xae, 0x91, 0x25, 0x3e,
  0x71, 0xf2, 0x2d, 0x3e, 0xf8, 0xb7, 0xb8, 0xbd, 0x26, 0x24, 0xaa, 0xbe,
  0xc4, 0xc4, 0x02, 0xbf, 0x53, 0x53, 0xf2, 0xbe, 0x70, 0x29, 0x1c, 0xbe,
  0xdd, 0x10, 0x8a, 0x3d, 0xb7, 0x2c, 0x4f, 0xbe, 0xef, 0x4b, 0xab, 0xbc,
  0xb4, 0x63, 0xa4, 0xbe, 0x23, 0x11, 0xa4, 0xbd, 0xb7, 0x0f, 0xb1, 0x3d,
  0xad, 0x0d, 0xcc, 0xbe, 0x67, 0x2b, 0xc7, 0xbe, 0x46, 0x30, 0x6e, 0xbc,
  0xdb, 0x72, 0x9b, 0x3b, 0x7d, 0x83, 0xe4, 0xbd, 0x0c, 0xca, 0x65, 0xbd,
  0xad, 0x1e, 0xcd, 0x3c, 0x84, 0x78, 0xe6, 0xbd, 0xb2, 0x5c, 0x78, 0xbe,
  0xa9, 0xa4, 0xba, 0x3e, 0xf4, 0x9b, 0x68, 0xbe, 0x0f, 0xc5, 0x81, 0x3e,
  0x02, 0x82, 0x46, 0xbe, 0x2f, 0x80, 0x1a, 0x3e, 0x0d, 0xc8, 0xc4, 0x3e,
  0xc7, 0x15, 0x5f, 0x3e, 0xbc, 0x3b, 0xa6, 0x3e, 0x6c, 0xe4, 0xba, 0x3e,
  0x61, 0xd0, 0xef, 0x3e, 0xf6, 0xdf, 0x88, 0x3d, 0x56, 0x08, 0xb3, 0x3e,
  0x5e, 0xc8, 0x76, 0x3e, 0xc5, 0xac, 0x4d, 0x3e, 0xa9, 0xcc, 0xee, 0xbd,
  0x04, 0x2b, 0x51, 0xbe, 0xf7, 0x33, 0xe0, 0xbd, 0xd1, 0xf6, 0x11, 0xbe,
  0x38, 0x63, 0xdd, 0x3d, 0x8b, 0xbb, 0xae, 0x3e, 0xf4, 0xc9, 0xfe, 0x3e,
  0x25, 0x69, 0x06, 0x3d, 0x73, 0x83, 0x4a, 0xbd, 0x25, 0xc3, 0x42, 0xbd,
  0x64, 0xc1, 0x28, 0x3e, 0x99, 0xaf, 0x6d, 0xbe, 0x6e, 0x1b, 0x95, 0xbe,
  0xd1, 0xc7, 0xdb, 0x3e, 0xf0, 0xf7, 0xc2, 0xbc, 0x66, 0xc5, 0x53, 0xbe,
  0xac, 0x13, 0x9f, 0x3e, 0x1b, 0x2f, 0x01, 0x3f, 0x31, 0xe0, 0x98, 0xbd,
  0x46, 0x94, 0x98, 0xbe, 0xa5, 0xa6, 0xb9, 0x3d, 0x2e, 0xc7, 0x73, 0x3e,
  0xd8, 0x75, 0xdf, 0x3e, 0x98, 0x00, 0xaf, 0x3e, 0xe7, 0x17, 0x7a, 0x3e,
  0xd1, 0x34, 0xf5, 0x3d, 0x68, 0xf8, 0x05, 0xbe, 0x8b, 0xce, 0x2c, 0xbe,
  0x5a, 0x75, 0xbd, 0xbc, 0xae, 0x29, 0xda, 0x3d, 0xd8, 0xfc, 0xc2, 0x3e,
  0x53, 0x82, 0xaf, 0x3e, 0x08, 0xf7, 0xa8, 0xbe, 0xd4, 0xdf, 0x8a, 0xbe,
  0x54, 0xa4, 0x9f, 0xbe, 0x3c, 0x2c, 0xb2, 0xbd, 0xf4, 0xf4, 0x63, 0x3e,
  0x3f, 0xa6, 0x9f, 0x3e, 0x23, 0x94, 0x13, 0xbd, 0x2d, 0x76, 0xa2, 0xbe,
  0x59, 0x92, 0x8f, 0xbe, 0xd9, 0x4e, 0x01, 0x3e, 0x5c, 0x13, 0x9e, 0x3c,
  0x67, 0xdd, 0x6f, 0x3e, 0xeb, 0x1c, 0x11, 0x3d, 0x31, 0x0b, 0xee, 0x3e,
  0xec, 0x30, 0xbf, 0x3e, 0xf1, 0x9f, 0x83, 0x3e, 0x91, 0x70, 0x3d, 0xbe,
  0xae, 0x58, 0x83, 0xbe, 0x59, 0xdd, 0x58, 0x3d, 0xae, 0x24, 0x1b, 0xbe,
  0xc0, 0xdc, 0x5c, 0x3c, 0xb8, 0xec, 0xd6, 0xbd, 0x93, 0x8d, 0x29, 0xbe,
  0xbe, 0x2c, 0x69, 0x3d, 0x41, 0xa9, 0xab, 0x3e, 0xbc, 0x97, 0x08, 0x3f,
  0x63, 0x56, 0x07, 0x3f, 0xc9, 0xbf, 0x5c, 0xbe, 0x3e, 0xbf, 0xdf, 0xbc,
  0xcb, 0x5a, 0xa8, 0x3e, 0x94, 0x38, 0xb3, 0x3e, 0x6f, 0x10, 0x5b, 0x3e,
  0xd9, 0xe2, 0xae, 0x3e, 0x8f, 0xe7, 0x64, 0xbe, 0x25, 0xe5, 0x5d, 0x3e,
  0x8e, 0x46, 0x10, 0x3e, 0xb6, 0x5a, 0x65, 0xbd, 0xfa, 0x1a, 0xb8, 0x3e,
  0x74, 0x4b, 0x15, 0x3f, 0xe6, 0xaa, 0xe7, 0x3d, 0xc1, 0x84, 0x7f, 0xbe,
  0x75, 0x03, 0x6c, 0xbe, 0x06, 0x38, 0x69, 0xbe, 0x6f, 0xca, 0x8a, 0xbe,
  0x82, 0x97, 0x94, 0xba, 0xc0, 0xa2, 0xb3, 0x3d, 0x2f, 0xc5, 0x01, 0x3e,
  0x18, 0xa6, 0x01, 0x3d, 0x76, 0x62, 0xc8, 0x3e, 0x17, 0x9b, 0xd2, 0x3e,
  0x8f, 0xcf, 0xab, 0xbe, 0x66, 0xe8, 0x9d, 0xbe, 0x97, 0xdd, 0xd7, 0x3e,
  0xd9, 0x33, 0xc2, 0x3e, 0xb3, 0x78, 0xc1, 0x3e, 0x88, 0xdd, 0x69, 0x3e,
  0x1a, 0xfc, 0x69, 0x3d, 0x32, 0x29, 0x58, 0xbe, 0x28, 0x42, 0xf1, 0x3e,
  0x08, 0x24, 0xa5, 0xbe, 0x1e, 0x27, 0x9a, 0x3e, 0xa5, 0x20, 0x85, 0x3c,
  0x43, 0x2e, 0x4e, 0x3e, 0xb2, 0x67, 0x0a, 0xbe, 0xf2, 0x00, 0x4a, 0x3e,
  0x74, 0xf5, 0x90, 0xbe, 0x95, 0x7a, 0x92, 0x3e, 0x6a, 0xeb, 0xb4, 0xbe,
  0xb4, 0xf1, 0x9f, 0xbe, 0xd1, 0x01, 0xd3, 0xbe, 0xae, 0xaa, 0x56, 0x3e,
  0x1f, 0x2d, 0xa0, 0xbe, 0x76, 0x89, 0xb8, 0xbe, 0x4a, 0xe2, 0x51, 0x3b,
  0xc6, 0xd8, 0xa5, 0xbe, 0x0f, 0x57, 0xc6, 0x3e, 0xbd, 0xc2, 0xb9, 0xbd,
  0x6e, 0x17, 0xf7, 0x3c, 0x86, 0x8d, 0xde, 0x3e, 0xe9, 0x61, 0x9a, 0x3e,
  0x87, 0xc2, 0x82, 0xbb, 0x62, 0xc1, 0x2d, 0x3b, 0x17, 0x51, 0xca, 0x3e,
  0x52, 0xd2, 0xa3, 0x3e, 0x90, 0xba, 0xff, 0x3e, 0xc7, 0x2c, 0xee, 0x3e,
  0x59, 0xfd, 0x70, 0xbc, 0xa9, 0x8a, 0xf0, 0x3e, 0xd3, 0xda, 0x14, 0xbe,
  0x9b, 0xc4, 0x22, 0xbe, 0x33, 0xee, 0xfd, 0xbd, 0x9f, 0x17, 0xb7, 0x3e,
  0x4e, 0xe4, 0x3e, 0xbe, 0x39, 0x03, 0x1f, 0xbe, 0xea, 0xd0, 0xa0, 0x3d,
  0x0d, 0x9c, 0x1b, 0xbe, 0x7a, 0x47, 0xb1, 0x3d, 0x61, 0x5e, 0xc1, 0x3e,
  0x98, 0xef, 0xd6, 0x3d, 0xa6, 0xf3, 0xb2, 0xbe, 0xe2, 0xb6, 0x1f, 0x3c,
  0xfb, 0xde, 0x81, 0xbe, 0x29, 0x45, 0x15, 0x3e, 0xdc, 0x3e, 0xd9, 0x3d,
  0x03, 0x03, 0xd6, 0x3e, 0x4e, 0x31, 0xa1, 0x3e, 0xc0, 0xe0, 0xc2, 0x3e,
  0x86, 0xb2, 0x57, 0x3d, 0xb0, 0xc5, 0xff, 0x3e, 0xe0, 0x73, 0x9a, 0x3e,
  0x41, 0x84, 0x2f, 0x3e, 0xff, 0xe0, 0x89, 0xbe, 0x10, 0xcf, 0xfd, 0x3e,
  0x47, 0xf0, 0xbf, 0x3e, 0xaf, 0x09, 0x5c, 0xbe, 0x05, 0xbd, 0x57, 0xbe,
  0xd0, 0x13, 0x96, 0xbe, 0xc6, 0xaf, 0x24, 0xbe, 0x6f, 0x62, 0x54, 0xbd,
  0x48, 0x34, 0x45, 0x3e, 0xda, 0xaa, 0x26, 0xbd, 0x8f, 0x7f, 0xfe, 0xbd,
  0x70, 0x31, 0xcc, 0x3e, 0x08, 0x0d, 0x3e, 0x3d, 0x0f, 0x08, 0x66, 0xbe,
  0x69, 0x7b, 0x89, 0x3e, 0xd3, 0x57, 0x7d, 0x3e, 0xba, 0xd0, 0x85, 0x3e,
  0xa3, 0x2c, 0x8e, 0xbc, 0xf5, 0xb5, 0x90, 0x3d, 0xc6, 0x77, 0x59, 0x3e,
  0x9d, 0xd9, 0xe1, 0xbd, 0x14, 0x46, 0x38, 0xbe, 0x1c, 0x21, 0xb0, 0xbe,
  0xe3, 0x4e, 0xa0, 0x3c, 0x4f, 0xf2, 0xa2, 0xbd, 0x7a, 0x6a, 0x8a, 0x3d,
  0xbc, 0x3c, 0x28, 0xbe, 0xb4, 0x8c, 0x68, 0x3e, 0xa0, 0xa4, 0xce, 0x3e,
  0x6e, 0x30, 0x01, 0xbe, 0x18, 0x8d, 0x01, 0x3f, 0x69, 0x51, 0x50, 0x3e,
  0x4e, 0x3d, 0xc6, 0x3c, 0x89, 0xf1, 0x7d, 0xbe, 0x22, 0x37, 0x31, 0xbe,
  0x82, 0x0f, 0x74, 0x3c, 0x7b, 0xb5, 0x12, 0x3f, 0xdd, 0x96, 0x55, 0xbe,
  0xa2, 0x86, 0xef, 0x3e, 0x49, 0x96, 0xdc, 0xbd, 0x42, 0x42, 0xfc, 0x3d,
  0xab, 0xa4, 0xc7, 0x3e, 0x7a, 0x1a, 0xdf, 0x3d, 0x14, 0x91, 0x71, 0x3c,
  0x26, 0x49, 0xb0, 0x3e, 0xec, 0x1b, 0x7c, 0x3b, 0x9c, 0xa3, 0x0c, 0xbe,
  0xe2, 0xcc, 0x67, 0x3e, 0x97, 0x1d, 0x23, 0x3e, 0x8e, 0x2b, 0x40, 0x3d,
  0xd6, 0x22, 0x0b, 0xbe, 0x3d, 0x37, 0xf3, 0x3d, 0xd8, 0xd3, 0x91, 0x3e,
  0x7e, 0x1e, 0x04, 0xbe, 0x13, 0x22, 0xa0, 0xbc, 0x73, 0x59, 0x00, 0x3f,
  0x65, 0x8f, 0xc9, 0x3e, 0x2c, 0x17, 0xe5, 0x3e, 0x63, 0x9c, 0x3d, 0xbe,
  0xa9, 0x01, 0xf4, 0xbd, 0xf9, 0x69, 0x15, 0x3e, 0x38, 0x34, 0x49, 0xbe,
  0x4d, 0x2c, 0x7a, 0xbe, 0x02, 0x5d, 0xdc, 0x3e, 0x74, 0x69, 0xe1, 0x3e,
  0xab, 0xf2, 0x3f, 0xbe, 0x59, 0x03, 0xc0, 0x3e, 0x50, 0xd8, 0xe3, 0xbd,
  0xbc, 0x3a, 0xe2, 0xbc, 0x2f, 0xe6, 0xf2, 0x3e, 0x8d, 0x04, 0xdd, 0x3e,
  0x0b, 0x66, 0x83, 0x3d, 0x7c, 0x98, 0x30, 0x3e, 0xcd, 0x19, 0x0d, 0x3f,
  0xe7, 0xd3, 0x95, 0xbe, 0xdf, 0x2c, 0xab, 0x3a, 0x62, 0xe8, 0xff, 0xff,
  0x04, 0x00, 0x00, 0x00, 0x00, 0x01, 0x00, 0x00, 0xc0, 0x56, 0xca, 0x3e,
  0xd4, 0x1c, 0xbc, 0xbd, 0x17, 0x66, 0x44, 0xbe, 0x8b, 0x18, 0x5d, 0x3e,
  0xb0, 0xef, 0x17, 0xbf, 0xa1, 0xb6, 0x1b, 0x3e, 0xc5, 0xe7, 0x56, 0x3c,
  0x64, 0xe3, 0xda, 0x3e, 0xc0, 0x45, 0x5c, 0x3e, 0xe5, 0x27, 0x58, 0x3e,
  0x2d, 0x39, 0x8d, 0xbd, 0x4f, 0x51, 0x98, 0x3d, 0x99, 0x45, 0xb5, 0xbe,
  0xf6, 0x85, 0x03, 0xbf, 0x98, 0x3e, 0x6a, 0x3e, 0x13, 0x2c, 0xad, 0xbb,
  0x88, 0xa6, 0x8c, 0x3e, 0xa6, 0x28, 0x79, 0xbe, 0x0e, 0x48, 0xad, 0xbd,
  0x44, 0xa7, 0xc2, 0xbb, 0xb2, 0xe5, 0xca, 0x3d, 0x71, 0x3a, 0x6e, 0x3e,
  0x43, 0x0a, 0x8a, 0x3e, 0xb8, 0x6e, 0x80, 0xbe, 0x8a, 0x1d, 0x3e, 0x3e,
  0x0b, 0x0c, 0xa3, 0xbe, 0x1f, 0x82, 0xbf, 0x3e, 0xd5, 0xc1, 0x1a, 0x3e,
  0x00, 0x35, 0xe5, 0xbd, 0xce, 0x19, 0xb7, 0xbd, 0xf8, 0x06, 0x57, 0xbe,
  0x94, 0x7b, 0xc2, 0x3e, 0x49, 0xf3, 0xa3, 0xbd, 0x57, 0x9d, 0x34, 0xbd,
  0x88, 0xfb, 0xd1, 0x3e, 0xa1, 0x72, 0x2c, 0xbe, 0xfc, 0x66, 0xdb, 0xbd,
  0x20, 0xae, 0x13, 0xbe, 0xcb, 0xbb, 0x57, 0x3e, 0x0b, 0x6d, 0x53, 0x3e,
  0xc8, 0xe1, 0xd2, 0xbe, 0x32, 0x2b, 0x08, 0x3e, 0x5a, 0xea, 0x72, 0x3e,
  0xda, 0xdb, 0xfd, 0xbd, 0xe8, 0x16, 0x6c, 0xbe, 0xda, 0x07, 0xeb, 0x3e,
  0xf7, 0x79, 0x83, 0x3e, 0xf9, 0x46, 0x90, 0xbe, 0xed, 0xd8, 0xd3, 0x3e,
  0x2a, 0xa7, 0x54, 0xbd, 0x16, 0xeb, 0xd2, 0x3e, 0x2c, 0x9c, 0xaf, 0x3b,
  0x9c, 0x18, 0x09, 0x3c, 0x6a, 0x7f, 0xc0, 0x3d, 0x4a, 0x2f, 0x19, 0x3f,
  0xae, 0x58, 0x0a, 0x3f, 0xe0, 0xc8, 0xf8, 0x3d, 0xab, 0xd4, 0x58, 0x3d,
  0x80, 0x3d, 0x15, 0xbe, 0x44, 0x67, 0xec, 0x3d, 0x69, 0x6b, 0x3c, 0x3d,
  0x71, 0x2c, 0xf6, 0x3d, 0xc6, 0x32, 0x3b, 0x3d, 0xab, 0x19, 0x55, 0xbe,
  0x6e, 0xe9, 0xff, 0xff, 0x04, 0x00, 0x00, 0x00, 0x70, 0x00, 0x00, 0x00,
  0x91, 0x28, 0x43, 0x3f, 0xec, 0xfd, 0xa9, 0x3e, 0x1e, 0xb3, 0x3d, 0x3f,
  0xbb, 0xa1, 0x42, 0x3f, 0x22, 0x17, 0x3e, 0x3f, 0xfb, 0x84, 0xce, 0xbe,
  0xe2, 0x47, 0xde, 0xbe, 0x14, 0x22, 0xbc, 0xbe, 0x8b, 0xf1, 0x73, 0x3e,
  0xe7, 0x48, 0xfc, 0x3f, 0x14, 0x38, 0x10, 0x40, 0xf7, 0x21, 0xe3, 0x3f,
  0xd3, 0xd7, 0x1f, 0x3e, 0x1d, 0x00, 0x15, 0xbe, 0x57, 0x9c, 0x92, 0x3d,
  0x63, 0x55, 0x36, 0x3e, 0xc9, 0x1b, 0xf8, 0xbe, 0x22, 0x3e, 0xf2, 0xbd,
  0xdf, 0x77, 0xaa, 0x3e, 0x12, 0x0a, 0xce, 0xbd, 0x2f, 0x78, 0xae, 0xbe,
  0xb2, 0xa6, 0x6c, 0xbe, 0x15, 0x01, 0x82, 0x3d, 0x9f, 0x7c, 0x33, 0x3e,
  0xd3, 0x47, 0xaa, 0xbe, 0x8f, 0xb2, 0x57, 0xbc, 0x92, 0x48, 0x06, 0x3e,
  0x3c, 0x5a, 0x23, 0xb9, 0xea, 0xe9, 0xff, 0xff, 0x04, 0x00, 0x00, 0x00,
  0x0c, 0x00, 0x00, 0x00, 0x08, 0x00, 0x00, 0x00, 0x01, 0x00, 0x00, 0x00,
  0x10, 0x00, 0x00, 0x00, 0x02, 0xea, 0xff, 0xff, 0x04, 0x00, 0x00, 0x00,
  0x04, 0x00, 0x00, 0x00, 0x10, 0x00, 0x00, 0x00, 0x12, 0xea, 0xff, 0xff,
  0x04, 0x00, 0x00, 0x00, 0x1c, 0x00, 0x00, 0x00, 0x9f, 0x7e, 0x50, 0x3d,
  0x69, 0x26, 0xd3, 0xbd, 0x11, 0x08, 0xd7, 0x3f, 0xca, 0x5d, 0x7b, 0xbd,
  0xaf, 0xac, 0x04, 0xbe, 0x8a, 0x64, 0x13, 0x3d, 0xc4, 0xa0, 0x21, 0xbe,
  0x5c, 0xb0, 0xff, 0xff, 0x60, 0xb0, 0xff, 0xff, 0x0f, 0x00, 0x00, 0x00,
  0x4d, 0x4c, 0x49, 0x52, 0x20, 0x43, 0x6f, 0x6e, 0x76, 0x65, 0x72, 0x74,
  0x65, 0x64, 0x2e, 0x00, 0x01, 0x00, 0x00, 0x00, 0x14, 0x00, 0x00, 0x00,
  0x00, 0x00, 0x0e, 0x00, 0x18, 0x00, 0x14, 0x00, 0x10, 0x00, 0x0c, 0x00,
  0x08, 0x00, 0x04, 0x00, 0x0e, 0x00, 0x00, 0x00, 0x14, 0x00, 0x00, 0x00,
  0x1c, 0x00, 0x00, 0x00, 0x4c, 0x16, 0x00, 0x00, 0x50, 0x16, 0x00, 0x00,
  0x54, 0x16, 0x00, 0x00, 0x04, 0x00, 0x00, 0x00, 0x6d, 0x61, 0x69, 0x6e,
  0x00, 0x00, 0x00, 0x00, 0x75, 0x00, 0x00, 0x00, 0xe4, 0x15, 0x00, 0x00,
  0xac, 0x15, 0x00, 0x00, 0x48, 0x15, 0x00, 0x00, 0x00, 0x15, 0x00, 0x00,
  0xac, 0x14, 0x00, 0x00, 0x88, 0x14, 0x00, 0x00, 0x64, 0x14, 0x00, 0x00,
  0x40, 0x14, 0x00, 0x00, 0x0c, 0x14, 0x00, 0x00, 0xe8, 0x13, 0x00, 0x00,
  0xb4, 0x13, 0x00, 0x00, 0x7c, 0x13, 0x00, 0x00, 0x54, 0x13, 0x00, 0x00,
  0x1c, 0x13, 0x00, 0x00, 0xe4, 0x12, 0x00, 0x00, 0xac, 0x12, 0x00, 0x00,
  0x74, 0x12, 0x00, 0x00, 0x40, 0x12, 0x00, 0x00, 0x0c, 0x12, 0x00, 0x00,
  0xc8, 0x11, 0x00, 0x00, 0xa4, 0x11, 0x00, 0x00, 0x80, 0x11, 0x00, 0x00,
  0x4c, 0x11, 0x00, 0x00, 0x28, 0x11, 0x00, 0x00, 0x04, 0x11, 0x00, 0x00,
  0xd0, 0x10, 0x00, 0x00, 0x9c, 0x10, 0x00, 0x00, 0x78, 0x10, 0x00, 0x00,
  0x44, 0x10, 0x00, 0x00, 0x0c, 0x10, 0x00, 0x00, 0xe4, 0x0f, 0x00, 0x00,
  0xac, 0x0f, 0x00, 0x00, 0x78, 0x0f, 0x00, 0x00, 0x44, 0x0f, 0x00, 0x00,
  0x00, 0x0f, 0x00, 0x00, 0xdc, 0x0e, 0x00, 0x00, 0xb8, 0x0e, 0x00, 0x00,
  0x84, 0x0e, 0x00, 0x00, 0x60, 0x0e, 0x00, 0x00, 0x3c, 0x0e, 0x00, 0x00,
  0x08, 0x0e, 0x00, 0x00, 0xd4, 0x0d, 0x00, 0x00, 0xb0, 0x0d, 0x00, 0x00,
  0x7c, 0x0d, 0x00, 0x00, 0x44, 0x0d, 0x00, 0x00, 0x1c, 0x0d, 0x00, 0x00,
  0xe4, 0x0c, 0x00, 0x00, 0xb0, 0x0c, 0x00, 0x00, 0x7c, 0x0c, 0x00, 0x00,
  0x38, 0x0c, 0x00, 0x00, 0x14, 0x0c, 0x00, 0x00, 0xf0, 0x0b, 0x00, 0x00,
  0xbc, 0x0b, 0x00, 0x00, 0x98, 0x0b, 0x00, 0x00, 0x74, 0x0b, 0x00, 0x00,
  0x40, 0x0b, 0x00, 0x00, 0x0c, 0x0b, 0x00, 0x00, 0xe8, 0x0a, 0x00, 0x00,
  0xb4, 0x0a, 0x00, 0x00, 0x7c, 0x0a, 0x00, 0x00, 0x54, 0x0a, 0x00, 0x00,
  0x1c, 0x0a, 0x00, 0x00, 0xe8, 0x09, 0x00, 0x00, 0xb4, 0x09, 0x00, 0x00,
  0x70, 0x09, 0x00, 0x00, 0x4c, 0x09, 0x00, 0x00, 0x28, 0x09, 0x00, 0x00,
  0xf4, 0x08, 0x00, 0x00, 0xd0, 0x08, 0x00, 0x00, 0xac, 0x08, 0x00, 0x00,
  0x78, 0x08, 0x00, 0x00, 0x44, 0x08, 0x00, 0x00, 0x20, 0x08, 0x00, 0x00,
  0xec, 0x07, 0x00, 0x00, 0xb4, 0x07, 0x00, 0x00, 0x8c, 0x07, 0x00, 0x00,
  0x58, 0x07, 0x00, 0x00, 0x24, 0x07, 0x00, 0x00, 0xe0, 0x06, 0x00, 0x00,
  0xbc, 0x06, 0x00, 0x00, 0x98, 0x06, 0x00, 0x00, 0x64, 0x06, 0x00, 0x00,
  0x40, 0x06, 0x00, 0x00, 0x1c, 0x06, 0x00, 0x00, 0xe8, 0x05, 0x00, 0x00,
  0xb4, 0x05, 0x00, 0x00, 0x90, 0x05, 0x00, 0x00, 0x5c, 0x05, 0x00, 0x00,
  0x24, 0x05, 0x00, 0x00, 0xfc, 0x04, 0x00, 0x00, 0xc8, 0x04, 0x00, 0x00,
  0x94, 0x04, 0x00, 0x00, 0x50, 0x04, 0x00, 0x00, 0x2c, 0x04, 0x00, 0x00,
  0x08, 0x04, 0x00, 0x00, 0xd4, 0x03, 0x00, 0x00, 0xb0, 0x03, 0x00, 0x00,
  0x8c, 0x03, 0x00, 0x00, 0x58, 0x03, 0x00, 0x00, 0x24, 0x03, 0x00, 0x00,
  0x00, 0x03, 0x00, 0x00, 0xcc, 0x02, 0x00, 0x00, 0x94, 0x02, 0x00, 0x00,
  0x6c, 0x02, 0x00, 0x00, 0x38, 0x02, 0x00, 0x00, 0x04, 0x02, 0x00, 0x00,
  0xc0, 0x01, 0x00, 0x00, 0x9c, 0x01, 0x00, 0x00, 0x78, 0x01, 0x00, 0x00,
  0x44, 0x01, 0x00, 0x00, 0x20, 0x01, 0x00, 0x00, 0xfc, 0x00, 0x00, 0x00,
  0xc8, 0x00, 0x00, 0x00, 0x94, 0x00, 0x00, 0x00, 0x70, 0x00, 0x00, 0x00,
  0x3c, 0x00, 0x00, 0x00, 0x04, 0x00, 0x00, 0x00, 0xd6, 0xec, 0xff, 0xff,
  0x14, 0x00, 0x00, 0x00, 0x00, 0x00, 0x00, 0x08, 0x10, 0x00, 0x00, 0x00,
  0x14, 0x00, 0x00, 0x00, 0x03, 0x00, 0x00, 0x00, 0xa4, 0xb2, 0xff, 0xff,
  0x01, 0x00, 0x00, 0x00, 0x9e, 0x00, 0x00, 0x00, 0x03, 0x00, 0x00, 0x00,
  0x9d, 0x00, 0x00, 0x00, 0x04, 0x00, 0x00, 0x00, 0x01, 0x00, 0x00, 0x00,
  0x0a, 0xed, 0xff, 0xff, 0x14, 0x00, 0x00, 0x00, 0x00, 0x00, 0x00, 0x15,
  0x10, 0x00, 0x00, 0x00, 0x14, 0x00, 0x00, 0x00, 0x07, 0x00, 0x00, 0x00,
  0xd8, 0xb2, 0xff, 0xff, 0x01, 0x00, 0x00, 0x00, 0x9d, 0x00, 0x00, 0x00,
  0x02, 0x00, 0x00, 0x00, 0x98, 0x00, 0x00, 0x00, 0x9c, 0x00, 0x00, 0x00,
  0x92, 0xec, 0xff, 0xff, 0x0c, 0x00, 0x00, 0x00, 0x10, 0x00, 0x00, 0x00,
  0x06, 0x00, 0x00, 0x00, 0x01, 0x00, 0x00, 0x00, 0x9c, 0x00, 0x00, 0x00,
  0x01, 0x00, 0x00, 0x00, 0x9b, 0x00, 0x00, 0x00, 0x5a, 0xed, 0xff, 0xff,
  0x14, 0x00, 0x00, 0x00, 0x00, 0x00, 0x00, 0x0b, 0x10, 0x00, 0x00, 0x00,
  0x14, 0x00, 0x00, 0x00, 0x08, 0x00, 0x00, 0x00, 0x28, 0xb3, 0xff, 0xff,
  0x01, 0x00, 0x00, 0x00, 0x9b, 0x00, 0x00, 0x00, 0x02, 0x00, 0x00, 0x00,
  0x97, 0x00, 0x00, 0x00, 0x9a, 0x00, 0x00, 0x00, 0x8a, 0xed, 0xff, 0xff,
  0x14, 0x00, 0x00, 0x00, 0x00, 0x00, 0x00, 0x15, 0x10, 0x00, 0x00, 0x00,
  0x14, 0x00, 0x00, 0x00, 0x07, 0x00, 0x00, 0x00, 0x58, 0xb3, 0xff, 0xff,
  0x01, 0x00, 0x00, 0x00, 0x9a, 0x00, 0x00, 0x00, 0x02, 0x00, 0x00, 0x00,
  0x95, 0x00, 0x00, 0x00, 0x99, 0x00, 0x00, 0x00, 0x12, 0xed, 0xff, 0xff,
  0x0c, 0x00, 0x00, 0x00, 0x10, 0x00, 0x00, 0x00, 0x06, 0x00, 0x00, 0x00,
  0x01, 0x00, 0x00, 0x00, 0x99, 0x00, 0x00, 0x00, 0x01, 0x00, 0x00, 0x00,
  0x93, 0x00, 0x00, 0x00, 0x32, 0xed, 0xff, 0xff, 0x0c, 0x00, 0x00, 0x00,
  0x10, 0x00, 0x00, 0x00, 0x05, 0x00, 0x00, 0x00, 0x01, 0x00, 0x00, 0x00,
  0x98, 0x00, 0x00, 0x00, 0x01, 0x00, 0x00, 0x00, 0x94, 0x00, 0x00, 0x00,
  0xfa, 0xed, 0xff, 0xff, 0x14, 0x00, 0x00, 0x00, 0x00, 0x00, 0x00, 0x15,
  0x10, 0x00, 0x00, 0x00, 0x14, 0x00, 0x00, 0x00, 0x07, 0x00, 0x00, 0x00,
  0xc8, 0xb3, 0xff, 0xff, 0x01, 0x00, 0x00, 0x00, 0x97, 0x00, 0x00, 0x00,
  0x02, 0x00, 0x00, 0x00, 0x96, 0x00, 0x00, 0x00, 0x8a, 0x00, 0x00, 0x00,
  0x82, 0xed, 0xff, 0xff, 0x0c, 0x00, 0x00, 0x00, 0x10, 0x00, 0x00, 0x00,
  0x05, 0x00, 0x00, 0x00, 0x01, 0x00, 0x00, 0x00, 0x96, 0x00, 0x00, 0x00,
  0x01, 0x00, 0x00, 0x00, 0x92, 0x00, 0x00, 0x00, 0xa2, 0xed, 0xff, 0xff,
  0x0c, 0x00, 0x00, 0x00, 0x10, 0x00, 0x00, 0x00, 0x05, 0x00, 0x00, 0x00,
  0x01, 0x00, 0x00, 0x00, 0x95, 0x00, 0x00, 0x00, 0x01, 0x00, 0x00, 0x00,
  0x91, 0x00, 0x00, 0x00, 0x6a, 0xee, 0xff, 0xff, 0x14, 0x00, 0x00, 0x00,
  0x00, 0x00, 0x00, 0x23, 0x14, 0x00, 0x00, 0x00, 0x24, 0x00, 0x00, 0x00,
  0x04, 0x00, 0x00, 0x00, 0x16, 0xee, 0xff, 0xff, 0x04, 0x00, 0x00, 0x00,
  0x04, 0x00, 0x00, 0x00, 0x91, 0x00, 0x00, 0x00, 0x92, 0x00, 0x00, 0x00,
  0x93, 0x00, 0x00, 0x00, 0x94, 0x00, 0x00, 0x00, 0x02, 0x00, 0x00, 0x00,
  0x08, 0x00, 0x00, 0x00, 0x90, 0x00, 0x00, 0x00, 0xaa, 0xee, 0xff, 0xff,
  0x14, 0x00, 0x00, 0x00, 0x00, 0x00, 0x00, 0x0b, 0x10, 0x00, 0x00, 0x00,
  0x14, 0x00, 0x00, 0x00, 0x08, 0x00, 0x00, 0x00, 0x78, 0xb4, 0xff, 0xff,
  0x01, 0x00, 0x00, 0x00, 0x90, 0x00, 0x00, 0x00, 0x02, 0x00, 0x00, 0x00,
  0x8f, 0x00, 0x00, 0x00, 0x07, 0x00, 0x00, 0x00, 0xda, 0xee, 0xff, 0xff,
  0x14, 0x00, 0x00, 0x00, 0x00, 0x00, 0x00, 0x0b, 0x10, 0x00, 0x00, 0x00,
  0x14, 0x00, 0x00, 0x00, 0x08, 0x00, 0x00, 0x00, 0xa8, 0xb4, 0xff, 0xff,
  0x01, 0x00, 0x00, 0x00, 0x8f, 0x00, 0x00, 0x00, 0x02, 0x00, 0x00, 0x00,
  0x24, 0x00, 0x00, 0x00, 0x8e, 0x00, 0x00, 0x00, 0x62, 0xee, 0xff, 0xff,
  0x0c, 0x00, 0x00, 0x00, 0x10, 0x00, 0x00, 0x00, 0x01, 0x00, 0x00, 0x00,
  0x01, 0x00, 0x00, 0x00, 0x8e, 0x00, 0x00, 0x00, 0x02, 0x00, 0x00, 0x00,
  0x8d, 0x00, 0x00, 0x00, 0x02, 0x00, 0x00, 0x00, 0x2e, 0xef, 0xff, 0xff,
  0x14, 0x00, 0x00, 0x00, 0x00, 0x00, 0x00, 0x08, 0x10, 0x00, 0x00, 0x00,
  0x14, 0x00, 0x00, 0x00, 0x03, 0x00, 0x00, 0x00, 0xfc, 0xb4, 0xff, 0xff,
  0x01, 0x00, 0x00, 0x00, 0x8d, 0x00, 0x00, 0x00, 0x03, 0x00, 0x00, 0x00,
  0x8c, 0x00, 0x00, 0x00, 0x05, 0x00, 0x00, 0x00, 0xff, 0xff, 0xff, 0xff,
  0x62, 0xef, 0xff, 0xff, 0x14, 0x00, 0x00, 0x00, 0x00, 0x00, 0x00, 0x15,
  0x10, 0x00, 0x00, 0x00, 0x14, 0x00, 0x00, 0x00, 0x07, 0x00, 0x00, 0x00,
  0x30, 0xb5, 0xff, 0xff, 0x01, 0x00, 0x00, 0x00, 0x8c, 0x00, 0x00, 0x00,
  0x02, 0x00, 0x00, 0x00, 0x87, 0x00, 0x00, 0x00, 0x8b, 0x00, 0x00, 0x00,
  0xea, 0xee, 0xff, 0xff, 0x0c, 0x00, 0x00, 0x00, 0x10, 0x00, 0x00, 0x00,
  0x06, 0x00, 0x00, 0x00, 0x01, 0x00, 0x00, 0x00, 0x8b, 0x00, 0x00, 0x00,
  0x01, 0x00, 0x00, 0x00, 0x8a, 0x00, 0x00, 0x00, 0xb2, 0xef, 0xff, 0xff,
  0x14, 0x00, 0x00, 0x00, 0x00, 0x00, 0x00, 0x0b, 0x10, 0x00, 0x00, 0x00,
  0x14, 0x00, 0x00, 0x00, 0x08, 0x00, 0x00, 0x00, 0x80, 0xb5, 0xff, 0xff,
  0x01, 0x00, 0x00, 0x00, 0x8a, 0x00, 0x00, 0x00, 0x02, 0x00, 0x00, 0x00,
  0x86, 0x00, 0x00, 0x00, 0x89, 0x00, 0x00, 0x00, 0xe2, 0xef, 0xff, 0xff,
  0x14, 0x00, 0x00, 0x00, 0x00, 0x00, 0x00, 0x15, 0x10, 0x00, 0x00, 0x00,
  0x14, 0x00, 0x00, 0x00, 0x07, 0x00, 0x00, 0x00, 0xb0, 0xb5, 0xff, 0xff,
  0x01, 0x00, 0x00, 0x00, 0x89, 0x00, 0x00, 0x00, 0x02, 0x00, 0x00, 0x00,
  0x84, 0x00, 0x00, 0x00, 0x88, 0x00, 0x00, 0x00, 0x6a, 0xef, 0xff, 0xff,
  0x0c, 0x00, 0x00, 0x00, 0x10, 0x00, 0x00, 0x00, 0x06, 0x00, 0x00, 0x00,
  0x01, 0x00, 0x00, 0x00, 0x88, 0x00, 0x00, 0x00, 0x01, 0x00, 0x00, 0x00,
  0x82, 0x00, 0x00, 0x00, 0x8a, 0xef, 0xff, 0xff, 0x0c, 0x00, 0x00, 0x00,
  0x10, 0x00, 0x00, 0x00, 0x05, 0x00, 0x00, 0x00, 0x01, 0x00, 0x00, 0x00,
  0x87, 0x00, 0x00, 0x00, 0x01, 0x00, 0x00, 0x00, 0x83, 0x00, 0x00, 0x00,
  0x52, 0xf0, 0xff, 0xff, 0x14, 0x00, 0x00, 0x00, 0x00, 0x00, 0x00, 0x15,
  0x10, 0x00, 0x00, 0x00, 0x14, 0x00, 0x00, 0x00, 0x07, 0x00, 0x00, 0x00,
  0x20, 0xb6, 0xff, 0xff, 0x01, 0x00, 0x00, 0x00, 0x86, 0x00, 0x00, 0x00,
  0x02, 0x00, 0x00, 0x00, 0x85, 0x00, 0x00, 0x00, 0x79, 0x00, 0x00, 0x00,
  0xda, 0xef, 0xff, 0xff, 0x0c, 0x00, 0x00, 0x00, 0x10, 0x00, 0x00, 0x00,
  0x05, 0x00, 0x00, 0x00, 0x01, 0x00, 0x00, 0x00, 0x85, 0x00, 0x00, 0x00,
  0x01, 0x00, 0x00, 0x00, 0x81, 0x00, 0x00, 0x00, 0xfa, 0xef, 0xff, 0xff,
  0x0c, 0x00, 0x00, 0x00, 0x10, 0x00, 0x00, 0x00, 0x05, 0x00, 0x00, 0x00,
  0x01, 0x00, 0x00, 0x00, 0x84, 0x00, 0x00, 0x00, 0x01, 0x00, 0x00, 0x00,
  0x80, 0x00, 0x00, 0x00, 0xc2, 0xf0, 0xff, 0xff, 0x14, 0x00, 0x00, 0x00,
  0x00, 0x00, 0x00, 0x23, 0x14, 0x00, 0x00, 0x00, 0x24, 0x00, 0x00, 0x00,
  0x04, 0x00, 0x00, 0x00, 0x6e, 0xf0, 0xff, 0xff, 0x04, 0x00, 0x00, 0x00,
  0x04, 0x00, 0x00, 0x00, 0x80, 0x00, 0x00, 0x00, 0x81, 0x00, 0x00, 0x00,
  0x82, 0x00, 0x00, 0x00, 0x83, 0x00, 0x00, 0x00, 0x02, 0x00, 0x00, 0x00,
  0x08, 0x00, 0x00, 0x00, 0x7f, 0x00, 0x00, 0x00, 0x02, 0xf1, 0xff, 0xff,
  0x14, 0x00, 0x00, 0x00, 0x00, 0x00, 0x00, 0x0b, 0x10, 0x00, 0x00, 0x00,
  0x14, 0x00, 0x00, 0x00, 0x08, 0x00, 0x00, 0x00, 0xd0, 0xb6, 0xff, 0xff,
  0x01, 0x00, 0x00, 0x00, 0x7f, 0x00, 0x00, 0x00, 0x02, 0x00, 0x00, 0x00,
  0x7e, 0x00, 0x00, 0x00, 0x07, 0x00, 0x00, 0x00, 0x32, 0xf1, 0xff, 0xff,
  0x14, 0x00, 0x00, 0x00, 0x00, 0x00, 0x00, 0x0b, 0x10, 0x00, 0x00, 0x00,
  0x14, 0x00, 0x00, 0x00, 0x08, 0x00, 0x00, 0x00, 0x00, 0xb7, 0xff, 0xff,
  0x01, 0x00, 0x00, 0x00, 0x7e, 0x00, 0x00, 0x00, 0x02, 0x00, 0x00, 0x00,
  0x23, 0x00, 0x00, 0x00, 0x7d, 0x00, 0x00, 0x00, 0xba, 0xf0, 0xff, 0xff,
  0x0c, 0x00, 0x00, 0x00, 0x10, 0x00, 0x00, 0x00, 0x01, 0x00, 0x00, 0x00,
  0x01, 0x00, 0x00, 0x00, 0x7d, 0x00, 0x00, 0x00, 0x02, 0x00, 0x00, 0x00,
  0x7c, 0x00, 0x00, 0x00, 0x02, 0x00, 0x00, 0x00, 0x86, 0xf1, 0xff, 0xff,
  0x14, 0x00, 0x00, 0x00, 0x00, 0x00, 0x00, 0x08, 0x10, 0x00, 0x00, 0x00,
  0x14, 0x00, 0x00, 0x00, 0x03, 0x00, 0x00, 0x00, 0x54, 0xb7, 0xff, 0xff,
  0x01, 0x00, 0x00, 0x00, 0x7c, 0x00, 0x00, 0x00, 0x03, 0x00, 0x00, 0x00,
  0x7b, 0x00, 0x00, 0x00, 0x05, 0x00, 0x00, 0x00, 0xff, 0xff, 0xff, 0xff,
  0xba, 0xf1, 0xff, 0xff, 0x14, 0x00, 0x00, 0x00, 0x00, 0x00, 0x00, 0x15,
  0x10, 0x00, 0x00, 0x00, 0x14, 0x00, 0x00, 0x00, 0x07, 0x00, 0x00, 0x00,
  0x88, 0xb7, 0xff, 0xff, 0x01, 0x00, 0x00, 0x00, 0x7b, 0x00, 0x00, 0x00,
  0x02, 0x00, 0x00, 0x00, 0x76, 0x00, 0x00, 0x00, 0x7a, 0x00, 0x00, 0x00,
  0x42, 0xf1, 0xff, 0xff, 0x0c, 0x00, 0x00, 0x00, 0x10, 0x00, 0x00, 0x00,
  0x06, 0x00, 0x00, 0x00, 0x01, 0x00, 0x00, 0x00, 0x7a, 0x00, 0x00, 0x00,
  0x01, 0x00, 0x00, 0x00, 0x79, 0x00, 0x00, 0x00, 0x0a, 0xf2, 0xff, 0xff,
  0x14, 0x00, 0x00, 0x00, 0x00, 0x00, 0x00, 0x0b, 0x10, 0x00, 0x00, 0x00,
  0x14, 0x00, 0x00, 0x00, 0x08, 0x00, 0x00, 0x00, 0xd8, 0xb7, 0xff, 0xff,
  0x01, 0x00, 0x00, 0x00, 0x79, 0x00, 0x00, 0x00, 0x02, 0x00, 0x00, 0x00,
  0x75, 0x00, 0x00, 0x00, 0x78, 0x00, 0x00, 0x00, 0x3a, 0xf2, 0xff, 0xff,
  0x14, 0x00, 0x00, 0x00, 0x00, 0x00, 0x00, 0x15, 0x10, 0x00, 0x00, 0x00,
  0x14, 0x00, 0x00, 0x00, 0x07, 0x00, 0x00, 0x00, 0x08, 0xb8, 0xff, 0xff,
  0x01, 0x00, 0x00, 0x00, 0x78, 0x00, 0x00, 0x00, 0x02, 0x00, 0x00, 0x00,
  0x73, 0x00, 0x00, 0x00, 0x77, 0x00, 0x00, 0x00, 0xc2, 0xf1, 0xff, 0xff,
  0x0c, 0x00, 0x00, 0x00, 0x10, 0x00, 0x00, 0x00, 0x06, 0x00, 0x00, 0x00,
  0x01, 0x00, 0x00, 0x00, 0x77, 0x00, 0x00, 0x00, 0x01, 0x00, 0x00, 0x00,
  0x71, 0x00, 0x00, 0x00, 0xe2, 0xf1, 0xff, 0xff, 0x0c, 0x00, 0x00, 0x00,
  0x10, 0x00, 0x00, 0x00, 0x05, 0x00, 0x00, 0x00, 0x01, 0x00, 0x00, 0x00,
  0x76, 0x00, 0x00, 0x00, 0x01, 0x00, 0x00, 0x00, 0x72, 0x00, 0x00, 0x00,
  0xaa, 0xf2, 0xff, 0xff, 0x14, 0x00, 0x00, 0x00, 0x00, 0x00, 0x00, 0x15,
  0x10, 0x00, 0x00, 0x00, 0x14, 0x00, 0x00, 0x00, 0x07, 0x00, 0x00, 0x00,
  0x78, 0xb8, 0xff, 0xff, 0x01, 0x00, 0x00, 0x00, 0x75, 0x00, 0x00, 0x00,
  0x02, 0x00, 0x00, 0x00, 0x74, 0x00, 0x00, 0x00, 0x68, 0x00, 0x00, 0x00,
  0x32, 0xf2, 0xff, 0xff, 0x0c, 0x00, 0x00, 0x00, 0x10, 0x00, 0x00, 0x00,
  0x05, 0x00, 0x00, 0x00, 0x01, 0x00, 0x00, 0x00, 0x74, 0x00, 0x00, 0x00,
  0x01, 0x00, 0x00, 0x00, 0x70, 0x00, 0x00, 0x00, 0x52, 0xf2, 0xff, 0xff,
  0x0c, 0x00, 0x00, 0x00, 0x10, 0x00, 0x00, 0x00, 0x05, 0x00, 0x00, 0x00,
  0x01, 0x00, 0x00, 0x00, 0x73, 0x00, 0x00, 0x00, 0x01, 0x00, 0x00, 0x00,
  0x6f, 0x00, 0x00, 0x00, 0x1a, 0xf3, 0xff, 0xff, 0x14, 0x00, 0x00, 0x00,
  0x00, 0x00, 0x00, 0x23, 0x14, 0x00, 0x00, 0x00, 0x24, 0x00, 0x00, 0x00,
  0x04, 0x00, 0x00, 0x00, 0xc6, 0xf2, 0xff, 0xff, 0x04, 0x00, 0x00, 0x00,
  0x04, 0x00, 0x00, 0x00, 0x6f, 0x00, 0x00, 0x00, 0x70, 0x00, 0x00, 0x00,
  0x71, 0x00, 0x00, 0x00, 0x72, 0x00, 0x00, 0x00, 0x02, 0x00, 0x00, 0x00,
  0x08, 0x00, 0x00, 0x00, 0x6e, 0x00, 0x00, 0x00, 0x5a, 0xf3, 0xff, 0xff,
  0x14, 0x00, 0x00, 0x00, 0x00, 0x00, 0x00, 0x0b, 0x10, 0x00, 0x00, 0x00,
  0x14, 0x00, 0x00, 0x00, 0x08, 0x00, 0x00, 0x00, 0x28, 0xb9, 0xff, 0xff,
  0x01, 0x00, 0x00, 0x00, 0x6e, 0x00, 0x00, 0x00, 0x02, 0x00, 0x00, 0x00,
  0x6d, 0x00, 0x00, 0x00, 0x07, 0x00, 0x00, 0x00, 0x8a, 0xf3, 0xff, 0xff,
  0x14, 0x00, 0x00, 0x00, 0x00, 0x00, 0x00, 0x0b, 0x10, 0x00, 0x00, 0x00,
  0x14, 0x00, 0x00, 0x00, 0x08, 0x00, 0x00, 0x00, 0x58, 0xb9, 0xff, 0xff,
  0x01, 0x00, 0x00, 0x00, 0x6d, 0x00, 0x00, 0x00, 0x02, 0x00, 0x00, 0x00,
  0x22, 0x00, 0x00, 0x00, 0x6c, 0x00, 0x00, 0x00, 0x12, 0xf3, 0xff, 0xff,
  0x0c, 0x00, 0x00, 0x00, 0x10, 0x00, 0x00, 0x00, 0x01, 0x00, 0x00, 0x00,
  0x01, 0x00, 0x00, 0x00, 0x6c, 0x00, 0x00, 0x00, 0x02, 0x00, 0x00, 0x00,
  0x6b, 0x00, 0x00, 0x00, 0x02, 0x00, 0x00, 0x00, 0xde, 0xf3, 0xff, 0xff,
  0x14, 0x00, 0x00, 0x00, 0x00, 0x00, 0x00, 0x08, 0x10, 0x00, 0x00, 0x00,
  0x14, 0x00, 0x00, 0x00, 0x03, 0x00, 0x00, 0x00, 0xac, 0xb9, 0xff, 0xff,
  0x01, 0x00, 0x00, 0x00, 0x6b, 0x00, 0x00, 0x00, 0x03, 0x00, 0x00, 0x00,
  0x6a, 0x00, 0x00, 0x00, 0x05, 0x00, 0x00, 0x00, 0xff, 0xff, 0xff, 0xff,
  0x12, 0xf4, 0xff, 0xff, 0x14, 0x00, 0x00, 0x00, 0x00, 0x00, 0x00, 0x15,
  0x10, 0x00, 0x00, 0x00, 0x14, 0x00, 0x00, 0x00, 0x07, 0x00, 0x00, 0x00,
  0xe0, 0xb9, 0xff, 0xff, 0x01, 0x00, 0x00, 0x00, 0x6a, 0x00, 0x00, 0x00,
  0x02, 0x00, 0x00, 0x00, 0x65, 0x00, 0x00, 0x00, 0x69, 0x00, 0x00, 0x00,
  0x9a, 0xf3, 0xff, 0xff, 0x0c, 0x00, 0x00, 0x00, 0x10, 0x00, 0x00, 0x00,
  0x06, 0x00, 0x00, 0x00, 0x01, 0x00, 0x00, 0x00, 0x69, 0x00, 0x00, 0x00,
  0x01, 0x00, 0x00, 0x00, 0x68, 0x00, 0x00, 0x00, 0x62, 0xf4, 0xff, 0xff,
  0x14, 0x00, 0x00, 0x00, 0x00, 0x00, 0x00, 0x0b, 0x10, 0x00, 0x00, 0x00,
  0x14, 0x00, 0x00, 0x00, 0x08, 0x00, 0x00, 0x00, 0x30, 0xba, 0xff, 0xff,
  0x01, 0x00, 0x00, 0x00, 0x68, 0x00, 0x00, 0x00, 0x02, 0x00, 0x00, 0x00,
  0x64, 0x00, 0x00, 0x00, 0x67, 0x00, 0x00, 0x00, 0x92, 0xf4, 0xff, 0xff,
  0x14, 0x00, 0x00, 0x00, 0x00, 0x00, 0x00, 0x15, 0x10, 0x00, 0x00, 0x00,
  0x14, 0x00, 0x00, 0x00, 0x07, 0x00, 0x00, 0x00, 0x60, 0xba, 0xff, 0xff,
  0x01, 0x00, 0x00, 0x00, 0x67, 0x00, 0x00, 0x00, 0x02, 0x00, 0x00, 0x00,
  0x62, 0x00, 0x00, 0x00, 0x66, 0x00, 0x00, 0x00, 0x1a, 0xf4, 0xff, 0xff,
  0x0c, 0x00, 0x00, 0x00, 0x10, 0x00, 0x00, 0x00, 0x06, 0x00, 0x00, 0x00,
  0x01, 0x00, 0x00, 0x00, 0x66, 0x00, 0x00, 0x00, 0x01, 0x00, 0x00, 0x00,
  0x60, 0x00, 0x00, 0x00, 0x3a, 0xf4, 0xff, 0xff, 0x0c, 0x00, 0x00, 0x00,
  0x10, 0x00, 0x00, 0x00, 0x05, 0x00, 0x00, 0x00, 0x01, 0x00, 0x00, 0x00,
  0x65, 0x00, 0x00, 0x00, 0x01, 0x00, 0x00, 0x00, 0x61, 0x00, 0x00, 0x00,
  0x02, 0xf5, 0xff, 0xff, 0x14, 0x00, 0x00, 0x00, 0x00, 0x00, 0x00, 0x15,
  0x10, 0x00, 0x00, 0x00, 0x14, 0x00, 0x00, 0x00, 0x07, 0x00, 0x00, 0x00,
  0xd0, 0xba, 0xff, 0xff, 0x01, 0x00, 0x00, 0x00, 0x64, 0x00, 0x00, 0x00,
  0x02, 0x00, 0x00, 0x00, 0x63, 0x00, 0x00, 0x00, 0x56, 0x00, 0x00, 0x00,
  0x8a, 0xf4, 0xff, 0xff, 0x0c, 0x00, 0x00, 0x00, 0x10, 0x00, 0x00, 0x00,
  0x05, 0x00, 0x00, 0x00, 0x01, 0x00, 0x00, 0x00, 0x63, 0x00, 0x00, 0x00,
  0x01, 0x00, 0x00, 0x00, 0x5f, 0x00, 0x00, 0x00, 0xaa, 0xf4, 0xff, 0xff,
  0x0c, 0x00, 0x00, 0x00, 0x10, 0x00, 0x00, 0x00, 0x05, 0x00, 0x00, 0x00,
  0x01, 0x00, 0x00, 0x00, 0x62, 0x00, 0x00, 0x00, 0x01, 0x00, 0x00, 0x00,
  0x5e, 0x00, 0x00, 0x00, 0x72, 0xf5, 0xff, 0xff, 0x14, 0x00, 0x00, 0x00,
  0x00, 0x00, 0x00, 0x23, 0x14, 0x00, 0x00, 0x00, 0x24, 0x00, 0x00, 0x00,
  0x04, 0x00, 0x00, 0x00, 0x1e, 0xf5, 0xff, 0xff, 0x04, 0x00, 0x00, 0x00,
  0x04, 0x00, 0x00, 0x00, 0x5e, 0x00, 0x00, 0x00, 0x5f, 0x00, 0x00, 0x00,
  0x60, 0x00, 0x00, 0x00, 0x61, 0x00, 0x00, 0x00, 0x02, 0x00, 0x00, 0x00,
  0x08, 0x00, 0x00, 0x00, 0x5d, 0x00, 0x00, 0x00, 0xb2, 0xf5, 0xff, 0xff,
  0x14, 0x00, 0x00, 0x00, 0x00, 0x00, 0x00, 0x0b, 0x10, 0x00, 0x00, 0x00,
  0x14, 0x00, 0x00, 0x00, 0x08, 0x00, 0x00, 0x00, 0x80, 0xbb, 0xff, 0xff,
  0x01, 0x00, 0x00, 0x00, 0x5d, 0x00, 0x00, 0x00, 0x02, 0x00, 0x00, 0x00,
  0x5c, 0x00, 0x00, 0x00, 0x07, 0x00, 0x00, 0x00, 0xe2, 0xf5, 0xff, 0xff,
  0x14, 0x00, 0x00, 0x00, 0x00, 0x00, 0x00, 0x0b, 0x10, 0x00, 0x00, 0x00,
  0x14, 0x00, 0x00, 0x00, 0x08, 0x00, 0x00, 0x00, 0xb0, 0xbb, 0xff, 0xff,
  0x01, 0x00, 0x00, 0x00, 0x5c, 0x00, 0x00, 0x00, 0x02, 0x00, 0x00, 0x00,
  0x5b, 0x00, 0x00, 0x00, 0x5a, 0x00, 0x00, 0x00, 0x12, 0xf6, 0xff, 0xff,
  0x14, 0x00, 0x00, 0x00, 0x00, 0x00, 0x00, 0x08, 0x10, 0x00, 0x00, 0x00,
  0x14, 0x00, 0x00, 0x00, 0x03, 0x00, 0x00, 0x00, 0xe0, 0xbb, 0xff, 0xff,
  0x01, 0x00, 0x00, 0x00, 0x5b, 0x00, 0x00, 0x00, 0x03, 0x00, 0x00, 0x00,
  0x11, 0x00, 0x00, 0x00, 0x06, 0x00, 0x00, 0x00, 0xff, 0xff, 0xff, 0xff,
  0x9e, 0xf5, 0xff, 0xff, 0x0c, 0x00, 0x00, 0x00, 0x10, 0x00, 0x00, 0x00,
  0x01, 0x00, 0x00, 0x00, 0x01, 0x00, 0x00, 0x00, 0x5a, 0x00, 0x00, 0x00,
  0x02, 0x00, 0x00, 0x00, 0x59, 0x00, 0x00, 0x00, 0x02, 0x00, 0x00, 0x00,
  0x6a, 0xf6, 0xff, 0xff, 0x14, 0x00, 0x00, 0x00, 0x00, 0x00, 0x00, 0x08,
  0x10, 0x00, 0x00, 0x00, 0x14, 0x00, 0x00, 0x00, 0x03, 0x00, 0x00, 0x00,
  0x38, 0xbc, 0xff, 0xff, 0x01, 0x00, 0x00, 0x00, 0x59, 0x00, 0x00, 0x00,
  0x03, 0x00, 0x00, 0x00, 0x58, 0x00, 0x00, 0x00, 0x05, 0x00, 0x00, 0x00,
  0xff, 0xff, 0xff, 0xff, 0x9e, 0xf6, 0xff, 0xff, 0x14, 0x00, 0x00, 0x00,
  0x00, 0x00, 0x00, 0x15, 0x10, 0x00, 0x00, 0x00, 0x14, 0x00, 0x00, 0x00,
  0x07, 0x00, 0x00, 0x00, 0x6c, 0xbc, 0xff, 0xff, 0x01, 0x00, 0x00, 0x00,
  0x58, 0x00, 0x00, 0x00, 0x02, 0x00, 0x00, 0x00, 0x53, 0x00, 0x00, 0x00,
  0x57, 0x00, 0x00, 0x00, 0x26, 0xf6, 0xff, 0xff, 0x0c, 0x00, 0x00, 0x00,
  0x10, 0x00, 0x00, 0x00, 0x06, 0x00, 0x00, 0x00, 0x01, 0x00, 0x00, 0x00,
  0x57, 0x00, 0x00, 0x00, 0x01, 0x00, 0x00, 0x00, 0x56, 0x00, 0x00, 0x00,
  0xee, 0xf6, 0xff, 0xff, 0x14, 0x00, 0x00, 0x00, 0x00, 0x00, 0x00, 0x0b,
  0x10, 0x00, 0x00, 0x00, 0x14, 0x00, 0x00, 0x00, 0x08, 0x00, 0x00, 0x00,
  0xbc, 0xbc, 0xff, 0xff, 0x01, 0x00, 0x00, 0x00, 0x56, 0x00, 0x00, 0x00,
  0x02, 0x00, 0x00, 0x00, 0x52, 0x00, 0x00, 0x00, 0x55, 0x00, 0x00, 0x00,
  0x1e, 0xf7, 0xff, 0xff, 0x14, 0x00, 0x00, 0x00, 0x00, 0x00, 0x00, 0x15,
  0x10, 0x00, 0x00, 0x00, 0x14, 0x00, 0x00, 0x00, 0x07, 0x00, 0x00, 0x00,
  0xec, 0xbc, 0xff, 0xff, 0x01, 0x00, 0x00, 0x00, 0x55, 0x00, 0x00, 0x00,
  0x02, 0x00, 0x00, 0x00, 0x50, 0x00, 0x00, 0x00, 0x54, 0x00, 0x00, 0x00,
  0xa6, 0xf6, 0xff, 0xff, 0x0c, 0x00, 0x00, 0x00, 0x10, 0x00, 0x00, 0x00,
  0x06, 0x00, 0x00, 0x00, 0x01, 0x00, 0x00, 0x00, 0x54, 0x00, 0x00, 0x00,
  0x01, 0x00, 0x00, 0x00, 0x4e, 0x00, 0x00, 0x00, 0xc6, 0xf6, 0xff, 0xff,
  0x0c, 0x00, 0x00, 0x00, 0x10, 0x00, 0x00, 0x00, 0x05, 0x00, 0x00, 0x00,
  0x01, 0x00, 0x00, 0x00, 0x53, 0x00, 0x00, 0x00, 0x01, 0x00, 0x00, 0x00,
  0x4f, 0x00, 0x00, 0x00, 0x8e, 0xf7, 0xff, 0xff, 0x14, 0x00, 0x00, 0x00,
  0x00, 0x00, 0x00, 0x15, 0x10, 0x00, 0x00, 0x00, 0x14, 0x00, 0x00, 0x00,
  0x07, 0x00, 0x00, 0x00, 0x5c, 0xbd, 0xff, 0xff, 0x01, 0x00, 0x00, 0x00,
  0x52, 0x00, 0x00, 0x00, 0x02, 0x00, 0x00, 0x00, 0x51, 0x00, 0x00, 0x00,
  0x44, 0x00, 0x00, 0x00, 0x16, 0xf7, 0xff, 0xff, 0x0c, 0x00, 0x00, 0x00,
  0x10, 0x00, 0x00, 0x00, 0x05, 0x00, 0x00, 0x00, 0x01, 0x00, 0x00, 0x00,
  0x51, 0x00, 0x00, 0x00, 0x01, 0x00, 0x00, 0x00, 0x4d, 0x00, 0x00, 0x00,
  0x36, 0xf7, 0xff, 0xff, 0x0c, 0x00, 0x00, 0x00, 0x10, 0x00, 0x00, 0x00,
  0x05, 0x00, 0x00, 0x00, 0x01, 0x00, 0x00, 0x00, 0x50, 0x00, 0x00, 0x00,
  0x01, 0x00, 0x00, 0x00, 0x4c, 0x00, 0x00, 0x00, 0xfe, 0xf7, 0xff, 0xff,
  0x14, 0x00, 0x00, 0x00, 0x00, 0x00, 0x00, 0x23, 0x14, 0x00, 0x00, 0x00,
  0x24, 0x00, 0x00, 0x00, 0x04, 0x00, 0x00, 0x00, 0xaa, 0xf7, 0xff, 0xff,
  0x04, 0x00, 0x00, 0x00, 0x04, 0x00, 0x00, 0x00, 0x4c, 0x00, 0x00, 0x00,
  0x4d, 0x00, 0x00, 0x00, 0x4e, 0x00, 0x00, 0x00, 0x4f, 0x00, 0x00, 0x00,
  0x02, 0x00, 0x00, 0x00, 0x08, 0x00, 0x00, 0x00, 0x4b, 0x00, 0x00, 0x00,
  0x3e, 0xf8, 0xff, 0xff, 0x14, 0x00, 0x00, 0x00, 0x00, 0x00, 0x00, 0x0b,
  0x10, 0x00, 0x00, 0x00, 0x14, 0x00, 0x00, 0x00, 0x08, 0x00, 0x00, 0x00,
  0x0c, 0xbe, 0xff, 0xff, 0x01, 0x00, 0x00, 0x00, 0x4b, 0x00, 0x00, 0x00,
  0x02, 0x00, 0x00, 0x00, 0x4a, 0x00, 0x00, 0x00, 0x07, 0x00, 0x00, 0x00,
  0x6e, 0xf8, 0xff, 0xff, 0x14, 0x00, 0x00, 0x00, 0x00, 0x00, 0x00, 0x0b,
  0x10, 0x00, 0x00, 0x00, 0x14, 0x00, 0x00, 0x00, 0x08, 0x00, 0x00, 0x00,
  0x3c, 0xbe, 0xff, 0xff, 0x01, 0x00, 0x00, 0x00, 0x4a, 0x00, 0x00, 0x00,
  0x02, 0x00, 0x00, 0x00, 0x49, 0x00, 0x00, 0x00, 0x48, 0x00, 0x00, 0x00,
  0x9e, 0xf8, 0xff, 0xff, 0x14, 0x00, 0x00, 0x00, 0x00, 0x00, 0x00, 0x08,
  0x10, 0x00, 0x00, 0x00, 0x14, 0x00, 0x00, 0x00, 0x03, 0x00, 0x00, 0x00,
  0x6c, 0xbe, 0xff, 0xff, 0x01, 0x00, 0x00, 0x00, 0x49, 0x00, 0x00, 0x00,
  0x03, 0x00, 0x00, 0x00, 0x10, 0x00, 0x00, 0x00, 0x06, 0x00, 0x00, 0x00,
  0xff, 0xff, 0xff, 0xff, 0x2a, 0xf8, 0xff, 0xff, 0x0c, 0x00, 0x00, 0x00,
  0x10, 0x00, 0x00, 0x00, 0x01, 0x00, 0x00, 0x00, 0x01, 0x00, 0x00, 0x00,
  0x48, 0x00, 0x00, 0x00, 0x02, 0x00, 0x00, 0x00, 0x47, 0x00, 0x00, 0x00,
  0x02, 0x00, 0x00, 0x00, 0xf6, 0xf8, 0xff, 0xff, 0x14, 0x00, 0x00, 0x00,
  0x00, 0x00, 0x00, 0x08, 0x10, 0x00, 0x00, 0x00, 0x14, 0x00, 0x00, 0x00,
  0x03, 0x00, 0x00, 0x00, 0xc4, 0xbe, 0xff, 0xff, 0x01, 0x00, 0x00, 0x00,
  0x47, 0x00, 0x00, 0x00, 0x03, 0x00, 0x00, 0x00, 0x46, 0x00, 0x00, 0x00,
  0x05, 0x00, 0x00, 0x00, 0xff, 0xff, 0xff, 0xff, 0x2a, 0xf9, 0xff, 0xff,
  0x14, 0x00, 0x00, 0x00, 0x00, 0x00, 0x00, 0x15, 0x10, 0x00, 0x00, 0x00,
  0x14, 0x00, 0x00, 0x00, 0x07, 0x00, 0x00, 0x00, 0xf8, 0xbe, 0xff, 0xff,
  0x01, 0x00, 0x00, 0x00, 0x46, 0x00, 0x00, 0x00, 0x02, 0x00, 0x00, 0x00,
  0x41, 0x00, 0x00, 0x00, 0x45, 0x00, 0x00, 0x00, 0xb2, 0xf8, 0xff, 0xff,
  0x0c, 0x00, 0x00, 0x00, 0x10, 0x00, 0x00, 0x00, 0x06, 0x00, 0x00, 0x00,
  0x01, 0x00, 0x00, 0x00, 0x45, 0x00, 0x00, 0x00, 0x01, 0x00, 0x00, 0x00,
  0x44, 0x00, 0x00, 0x00, 0x7a, 0xf9, 0xff, 0xff, 0x14, 0x00, 0x00, 0x00,
  0x00, 0x00, 0x00, 0x0b, 0x10, 0x00, 0x00, 0x00, 0x14, 0x00, 0x00, 0x00,
  0x08, 0x00, 0x00, 0x00, 0x48, 0xbf, 0xff, 0xff, 0x01, 0x00, 0x00, 0x00,
  0x44, 0x00, 0x00, 0x00, 0x02, 0x00, 0x00, 0x00, 0x40, 0x00, 0x00, 0x00,
  0x43, 0x00, 0x00, 0x00, 0xaa, 0xf9, 0xff, 0xff, 0x14, 0x00, 0x00, 0x00,
  0x00, 0x00, 0x00, 0x15, 0x10, 0x00, 0x00, 0x00, 0x14, 0x00, 0x00, 0x00,
  0x07, 0x00, 0x00, 0x00, 0x78, 0xbf, 0xff, 0xff, 0x01, 0x00, 0x00, 0x00,
  0x43, 0x00, 0x00, 0x00, 0x02, 0x00, 0x00, 0x00, 0x3e, 0x00, 0x00, 0x00,
  0x42, 0x00, 0x00, 0x00, 0x32, 0xf9, 0xff, 0xff, 0x0c, 0x00, 0x00, 0x00,
  0x10, 0x00, 0x00, 0x00, 0x06, 0x00, 0x00, 0x00, 0x01, 0x00, 0x00, 0x00,
  0x42, 0x00, 0x00, 0x00, 0x01, 0x00, 0x00, 0x00, 0x3c, 0x00, 0x00, 0x00,
  0x52, 0xf9, 0xff, 0xff, 0x0c, 0x00, 0x00, 0x00, 0x10, 0x00, 0x00, 0x00,
  0x05, 0x00, 0x00, 0x00, 0x01, 0x00, 0x00, 0x00, 0x41, 0x00, 0x00, 0x00,
  0x01, 0x00, 0x00, 0x00, 0x3d, 0x00, 0x00, 0x00, 0x1a, 0xfa, 0xff, 0xff,
  0x14, 0x00, 0x00, 0x00, 0x00, 0x00, 0x00, 0x15, 0x10, 0x00, 0x00, 0x00,
  0x14, 0x00, 0x00, 0x00, 0x07, 0x00, 0x00, 0x00, 0xe8, 0xbf, 0xff, 0xff,
  0x01, 0x00, 0x00, 0x00, 0x40, 0x00, 0x00, 0x00, 0x02, 0x00, 0x00, 0x00,
  0x3f, 0x00, 0x00, 0x00, 0x32, 0x00, 0x00, 0x00, 0xa2, 0xf9, 0xff, 0xff,
  0x0c, 0x00, 0x00, 0x00, 0x10, 0x00, 0x00, 0x00, 0x05, 0x00, 0x00, 0x00,
  0x01, 0x00, 0x00, 0x00, 0x3f, 0x00, 0x00, 0x00, 0x01, 0x00, 0x00, 0x00,
  0x3b, 0x00, 0x00, 0x00, 0xc2, 0xf9, 0xff, 0xff, 0x0c, 0x00, 0x00, 0x00,
  0x10, 0x00, 0x00, 0x00, 0x05, 0x00, 0x00, 0x00, 0x01, 0x00, 0x00, 0x00,
  0x3e, 0x00, 0x00, 0x00, 0x01, 0x00, 0x00, 0x00, 0x3a, 0x00, 0x00, 0x00,
  0x8a, 0xfa, 0xff, 0xff, 0x14, 0x00, 0x00, 0x00, 0x00, 0x00, 0x00, 0x23,
  0x14, 0x00, 0x00, 0x00, 0x24, 0x00, 0x00, 0x00, 0x04, 0x00, 0x00, 0x00,
  0x36, 0xfa, 0xff, 0xff, 0x04, 0x00, 0x00, 0x00, 0x04, 0x00, 0x00, 0x00,
  0x3a, 0x00, 0x00, 0x00, 0x3b, 0x00, 0x00, 0x00, 0x3c, 0x00, 0x00, 0x00,
  0x3d, 0x00, 0x00, 0x00, 0x02, 0x00, 0x00, 0x00, 0x08, 0x00, 0x00, 0x00,
  0x39, 0x00, 0x00, 0x00, 0xca, 0xfa, 0xff, 0xff, 0x14, 0x00, 0x00, 0x00,
  0x00, 0x00, 0x00, 0x0b, 0x10, 0x00, 0x00, 0x00, 0x14, 0x00, 0x00, 0x00,
  0x08, 0x00, 0x00, 0x00, 0x98, 0xc0, 0xff, 0xff, 0x01, 0x00, 0x00, 0x00,
  0x39, 0x00, 0x00, 0x00, 0x02, 0x00, 0x00, 0x00, 0x38, 0x00, 0x00, 0x00,
  0x07, 0x00, 0x00, 0x00, 0xfa, 0xfa, 0xff, 0xff, 0x14, 0x00, 0x00, 0x00,
  0x00, 0x00, 0x00, 0x0b, 0x10, 0x00, 0x00, 0x00, 0x14, 0x00, 0x00, 0x00,
  0x08, 0x00, 0x00, 0x00, 0xc8, 0xc0, 0xff, 0xff, 0x01, 0x00, 0x00, 0x00,
  0x38, 0x00, 0x00, 0x00, 0x02, 0x00, 0x00, 0x00, 0x37, 0x00, 0x00, 0x00,
  0x36, 0x00, 0x00, 0x00, 0x2a, 0xfb, 0xff, 0xff, 0x14, 0x00, 0x00, 0x00,
  0x00, 0x00, 0x00, 0x08, 0x10, 0x00, 0x00, 0x00, 0x14, 0x00, 0x00, 0x00,
  0x03, 0x00, 0x00, 0x00, 0xf8, 0xc0, 0xff, 0xff, 0x01, 0x00, 0x00, 0x00,
  0x37, 0x00, 0x00, 0x00, 0x03, 0x00, 0x00, 0x00, 0x0f, 0x00, 0x00, 0x00,
  0x06, 0x00, 0x00, 0x00, 0xff, 0xff, 0xff, 0xff, 0xb6, 0xfa, 0xff, 0xff,
  0x0c, 0x00, 0x00, 0x00, 0x10, 0x00, 0x00, 0x00, 0x01, 0x00, 0x00, 0x00,
  0x01, 0x00, 0x00, 0x00, 0x36, 0x00, 0x00, 0x00, 0x02, 0x00, 0x00, 0x00,
  0x35, 0x00, 0x00, 0x00, 0x02, 0x00, 0x00, 0x00, 0x82, 0xfb, 0xff, 0xff,
  0x14, 0x00, 0x00, 0x00, 0x00, 0x00, 0x00, 0x08, 0x10, 0x00, 0x00, 0x00,
  0x14, 0x00, 0x00, 0x00, 0x03, 0x00, 0x00, 0x00, 0x50, 0xc1, 0xff, 0xff,
  0x01, 0x00, 0x00, 0x00, 0x35, 0x00, 0x00, 0x00, 0x03, 0x00, 0x00, 0x00,
  0x34, 0x00, 0x00, 0x00, 0x05, 0x00, 0x00, 0x00, 0xff, 0xff, 0xff, 0xff,
  0xb6, 0xfb, 0xff, 0xff, 0x14, 0x00, 0x00, 0x00, 0x00, 0x00, 0x00, 0x15,
  0x10, 0x00, 0x00, 0x00, 0x14, 0x00, 0x00, 0x00, 0x07, 0x00, 0x00, 0x00,
  0x84, 0xc1, 0xff, 0xff, 0x01, 0x00, 0x00, 0x00, 0x34, 0x00, 0x00, 0x00,
  0x02, 0x00, 0x00, 0x00, 0x2f, 0x00, 0x00, 0x00, 0x33, 0x00, 0x00, 0x00,
  0x3e, 0xfb, 0xff, 0xff, 0x0c, 0x00, 0x00, 0x00, 0x10, 0x00, 0x00, 0x00,
  0x06, 0x00, 0x00, 0x00, 0x01, 0x00, 0x00, 0x00, 0x33, 0x00, 0x00, 0x00,
  0x01, 0x00, 0x00, 0x00, 0x32, 0x00, 0x00, 0x00, 0x06, 0xfc, 0xff, 0xff,
  0x14, 0x00, 0x00, 0x00, 0x00, 0x00, 0x00, 0x0b, 0x10, 0x00, 0x00, 0x00,
  0x14, 0x00, 0x00, 0x00, 0x08, 0x00, 0x00, 0x00, 0xd4, 0xc1, 0xff, 0xff,
  0x01, 0x00, 0x00, 0x00, 0x32, 0x00, 0x00, 0x00, 0x02, 0x00, 0x00, 0x00,
  0x2e, 0x00, 0x00, 0x00, 0x31, 0x00, 0x00, 0x00, 0x36, 0xfc, 0xff, 0xff,
  0x14, 0x00, 0x00, 0x00, 0x00, 0x00, 0x00, 0x15, 0x10, 0x00, 0x00, 0x00,
  0x14, 0x00, 0x00, 0x00, 0x07, 0x00, 0x00, 0x00, 0x04, 0xc2, 0xff, 0xff,
  0x01, 0x00, 0x00, 0x00, 0x31, 0x00, 0x00, 0x00, 0x02, 0x00, 0x00, 0x00,
  0x2c, 0x00, 0x00, 0x00, 0x30, 0x00, 0x00, 0x00, 0xbe, 0xfb, 0xff, 0xff,
  0x0c, 0x00, 0x00, 0x00, 0x10, 0x00, 0x00, 0x00, 0x06, 0x00, 0x00, 0x00,
  0x01, 0x00, 0x00, 0x00, 0x30, 0x00, 0x00, 0x00, 0x01, 0x00, 0x00, 0x00,
  0x2a, 0x00, 0x00, 0x00, 0xde, 0xfb, 0xff, 0xff, 0x0c, 0x00, 0x00, 0x00,
  0x10, 0x00, 0x00, 0x00, 0x05, 0x00, 0x00, 0x00, 0x01, 0x00, 0x00, 0x00,
  0x2f, 0x00, 0x00, 0x00, 0x01, 0x00, 0x00, 0x00, 0x2b, 0x00, 0x00, 0x00,
  0xa6, 0xfc, 0xff, 0xff, 0x14, 0x00, 0x00, 0x00, 0x00, 0x00, 0x00, 0x15,
  0x10, 0x00, 0x00, 0x00, 0x14, 0x00, 0x00, 0x00, 0x07, 0x00, 0x00, 0x00,
  0x74, 0xc2, 0xff, 0xff, 0x01, 0x00, 0x00, 0x00, 0x2e, 0x00, 0x00, 0x00,
  0x02, 0x00, 0x00, 0x00, 0x2d, 0x00, 0x00, 0x00, 0x1d, 0x00, 0x00, 0x00,
  0x2e, 0xfc, 0xff, 0xff, 0x0c, 0x00, 0x00, 0x00, 0x10, 0x00, 0x00, 0x00,
  0x05, 0x00, 0x00, 0x00, 0x01, 0x00, 0x00, 0x00, 0x2d, 0x00, 0x00, 0x00,
  0x01, 0x00, 0x00, 0x00, 0x29, 0x00, 0x00, 0x00, 0x4e, 0xfc, 0xff, 0xff,
  0x0c, 0x00, 0x00, 0x00, 0x10, 0x00, 0x00, 0x00, 0x05, 0x00, 0x00, 0x00,
  0x01, 0x00, 0x00, 0x00, 0x2c, 0x00, 0x00, 0x00, 0x01, 0x00, 0x00, 0x00,
  0x28, 0x00, 0x00, 0x00, 0x16, 0xfd, 0xff, 0xff, 0x14, 0x00, 0x00, 0x00,
  0x00, 0x00, 0x00, 0x23, 0x14, 0x00, 0x00, 0x00, 0x24, 0x00, 0x00, 0x00,
  0x04, 0x00, 0x00, 0x00, 0xc2, 0xfc, 0xff, 0xff, 0x04, 0x00, 0x00, 0x00,
  0x04, 0x00, 0x00, 0x00, 0x28, 0x00, 0x00, 0x00, 0x29, 0x00, 0x00, 0x00,
  0x2a, 0x00, 0x00, 0x00, 0x2b, 0x00, 0x00, 0x00, 0x02, 0x00, 0x00, 0x00,
  0x08, 0x00, 0x00, 0x00, 0x27, 0x00, 0x00, 0x00, 0x56, 0xfd, 0xff, 0xff,
  0x14, 0x00, 0x00, 0x00, 0x00, 0x00, 0x00, 0x0b, 0x10, 0x00, 0x00, 0x00,
  0x14, 0x00, 0x00, 0x00, 0x08, 0x00, 0x00, 0x00, 0x24, 0xc3, 0xff, 0xff,
  0x01, 0x00, 0x00, 0x00, 0x27, 0x00, 0x00, 0x00, 0x02, 0x00, 0x00, 0x00,
  0x26, 0x00, 0x00, 0x00, 0x07, 0x00, 0x00, 0x00, 0x86, 0xfd, 0xff, 0xff,
  0x14, 0x00, 0x00, 0x00, 0x00, 0x00, 0x00, 0x0b, 0x10, 0x00, 0x00, 0x00,
  0x14, 0x00, 0x00, 0x00, 0x08, 0x00, 0x00, 0x00, 0x54, 0xc3, 0xff, 0xff,
  0x01, 0x00, 0x00, 0x00, 0x26, 0x00, 0x00, 0x00, 0x02, 0x00, 0x00, 0x00,
  0x25, 0x00, 0x00, 0x00, 0x21, 0x00, 0x00, 0x00, 0xb6, 0xfd, 0xff, 0xff,
  0x14, 0x00, 0x00, 0x00, 0x00, 0x00, 0x00, 0x08, 0x10, 0x00, 0x00, 0x00,
  0x14, 0x00, 0x00, 0x00, 0x03, 0x00, 0x00, 0x00, 0x84, 0xc3, 0xff, 0xff,
  0x01, 0x00, 0x00, 0x00, 0x25, 0x00, 0x00, 0x00, 0x03, 0x00, 0x00, 0x00,
  0x0e, 0x00, 0x00, 0x00, 0x06, 0x00, 0x00, 0x00, 0xff, 0xff, 0xff, 0xff,
  0xea, 0xfd, 0xff, 0xff, 0x14, 0x00, 0x00, 0x00, 0x00, 0x00, 0x00, 0x08,
  0x10, 0x00, 0x00, 0x00, 0x14, 0x00, 0x00, 0x00, 0x03, 0x00, 0x00, 0x00,
  0xb8, 0xc3, 0xff, 0xff, 0x01, 0x00, 0x00, 0x00, 0x24, 0x00, 0x00, 0x00,
  0x03, 0x00, 0x00, 0x00, 0x14, 0x00, 0x00, 0x00, 0x06, 0x00, 0x00, 0x00,
  0xff, 0xff, 0xff, 0xff, 0x1e, 0xfe, 0xff, 0xff, 0x14, 0x00, 0x00, 0x00,
  0x00, 0x00, 0x00, 0x08, 0x10, 0x00, 0x00, 0x00, 0x14, 0x00, 0x00, 0x00,
  0x03, 0x00, 0x00, 0x00, 0xec, 0xc3, 0xff, 0xff, 0x01, 0x00, 0x00, 0x00,
  0x23, 0x00, 0x00, 0x00, 0x03, 0x00, 0x00, 0x00, 0x13, 0x00, 0x00, 0x00,
  0x06, 0x00, 0x00, 0x00, 0xff, 0xff, 0xff, 0xff, 0x52, 0xfe, 0xff, 0xff,
  0x14, 0x00, 0x00, 0x00, 0x00, 0x00, 0x00, 0x08, 0x10, 0x00, 0x00, 0x00,
  0x14, 0x00, 0x00, 0x00, 0x03, 0x00, 0x00, 0x00, 0x20, 0xc4, 0xff, 0xff,
  0x01, 0x00, 0x00, 0x00, 0x22, 0x00, 0x00, 0x00, 0x03, 0x00, 0x00, 0x00,
  0x12, 0x00, 0x00, 0x00, 0x06, 0x00, 0x00, 0x00, 0xff, 0xff, 0xff, 0xff,
  0xde, 0xfd, 0xff, 0xff, 0x0c, 0x00, 0x00, 0x00, 0x10, 0x00, 0x00, 0x00,
  0x01, 0x00, 0x00, 0x00, 0x01, 0x00, 0x00, 0x00, 0x21, 0x00, 0x00, 0x00,
  0x02, 0x00, 0x00, 0x00, 0x20, 0x00, 0x00, 0x00, 0x02, 0x00, 0x00, 0x00,
  0xaa, 0xfe, 0xff, 0xff, 0x14, 0x00, 0x00, 0x00, 0x00, 0x00, 0x00, 0x08,
  0x10, 0x00, 0x00, 0x00, 0x14, 0x00, 0x00, 0x00, 0x03, 0x00, 0x00, 0x00,
  0x78, 0xc4, 0xff, 0xff, 0x01, 0x00, 0x00, 0x00, 0x20, 0x00, 0x00, 0x00,
  0x03, 0x00, 0x00, 0x00, 0x1f, 0x00, 0x00, 0x00, 0x05, 0x00, 0x00, 0x00,
  0xff, 0xff, 0xff, 0xff, 0xde, 0xfe, 0xff, 0xff, 0x14, 0x00, 0x00, 0x00,
  0x00, 0x00, 0x00, 0x15, 0x10, 0x00, 0x00, 0x00, 0x14, 0x00, 0x00, 0x00,
  0x07, 0x00, 0x00, 0x00, 0xac, 0xc4, 0xff, 0xff, 0x01, 0x00, 0x00, 0x00,
  0x1f, 0x00, 0x00, 0x00, 0x02, 0x00, 0x00, 0x00, 0x1b, 0x00, 0x00, 0x00,
  0x1e, 0x00, 0x00, 0x00, 0x66, 0xfe, 0xff, 0xff, 0x0c, 0x00, 0x00, 0x00,
  0x10, 0x00, 0x00, 0x00, 0x06, 0x00, 0x00, 0x00, 0x01, 0x00, 0x00, 0x00,
  0x1e, 0x00, 0x00, 0x00, 0x01, 0x00, 0x00, 0x00, 0x1d, 0x00, 0x00, 0x00,
  0x2e, 0xff, 0xff, 0xff, 0x14, 0x00, 0x00, 0x00, 0x00, 0x00, 0x00, 0x15,
  0x10, 0x00, 0x00, 0x00, 0x14, 0x00, 0x00, 0x00, 0x07, 0x00, 0x00, 0x00,
  0xfc, 0xc4, 0xff, 0xff, 0x01, 0x00, 0x00, 0x00, 0x1d, 0x00, 0x00, 0x00,
  0x02, 0x00, 0x00, 0x00, 0x1a, 0x00, 0x00, 0x00, 0x1c, 0x00, 0x00, 0x00,
  0xb6, 0xfe, 0xff, 0xff, 0x0c, 0x00, 0x00, 0x00, 0x10, 0x00, 0x00, 0x00,
  0x06, 0x00, 0x00, 0x00, 0x01, 0x00, 0x00, 0x00, 0x1c, 0x00, 0x00, 0x00,
  0x01, 0x00, 0x00, 0x00, 0x18, 0x00, 0x00, 0x00, 0xd6, 0xfe, 0xff, 0xff,
  0x0c, 0x00, 0x00, 0x00, 0x10, 0x00, 0x00, 0x00, 0x05, 0x00, 0x00, 0x00,
  0x01, 0x00, 0x00, 0x00, 0x1b, 0x00, 0x00, 0x00, 0x01, 0x00, 0x00, 0x00,
  0x19, 0x00, 0x00, 0x00, 0xf6, 0xfe, 0xff, 0xff, 0x0c, 0x00, 0x00, 0x00,
  0x10, 0x00, 0x00, 0x00, 0x05, 0x00, 0x00, 0x00, 0x01, 0x00, 0x00, 0x00,
  0x1a, 0x00, 0x00, 0x00, 0x01, 0x00, 0x00, 0x00, 0x16, 0x00, 0x00, 0x00,
  0xbe, 0xff, 0xff, 0xff, 0x14, 0x00, 0x00, 0x00, 0x00, 0x00, 0x00, 0x23,
  0x14, 0x00, 0x00, 0x00, 0x24, 0x00, 0x00, 0x00, 0x04, 0x00, 0x00, 0x00,
  0x6a, 0xff, 0xff, 0xff, 0x04, 0x00, 0x00, 0x00, 0x04, 0x00, 0x00, 0x00,
  0x16, 0x00, 0x00, 0x00, 0x17, 0x00, 0x00, 0x00, 0x18, 0x00, 0x00, 0x00,
  0x19, 0x00, 0x00, 0x00, 0x02, 0x00, 0x00, 0x00, 0x08, 0x00, 0x00, 0x00,
  0x15, 0x00, 0x00, 0x00, 0x00, 0x00, 0x0e, 0x00, 0x18, 0x00, 0x14, 0x00,
  0x10, 0x00, 0x0c, 0x00, 0x0b, 0x00, 0x04, 0x00, 0x0e, 0x00, 0x00, 0x00,
  0x14, 0x00, 0x00, 0x00, 0x00, 0x00, 0x00, 0x08, 0x10, 0x00, 0x00, 0x00,
  0x14, 0x00, 0x00, 0x00, 0x03, 0x00, 0x00, 0x00, 0xdc, 0xc5, 0xff, 0xff,
  0x01, 0x00, 0x00, 0x00, 0x15, 0x00, 0x00, 0x00, 0x03, 0x00, 0x00, 0x00,
  0x0d, 0x00, 0x00, 0x00, 0x06, 0x00, 0x00, 0x00, 0x07, 0x00, 0x00, 0x00,
  0x00, 0x00, 0x0e, 0x00, 0x1a, 0x00, 0x14, 0x00, 0x10, 0x00, 0x0c, 0x00,
  0x0b, 0x00, 0x04, 0x00, 0x0e, 0x00, 0x00, 0x00, 0x1c, 0x00, 0x00, 0x00,
  0x00, 0x00, 0x00, 0x40, 0x1c, 0x00, 0x00, 0x00, 0x3c, 0x00, 0x00, 0x00,
  0x02, 0x00, 0x00, 0x00, 0x00, 0x00, 0x06, 0x00, 0x08, 0x00, 0x04, 0x00,
  0x06, 0x00, 0x00, 0x00, 0x08, 0x00, 0x00, 0x00, 0x08, 0x00, 0x00, 0x00,
  0x0d, 0x00, 0x00, 0x00, 0x0e, 0x00, 0x00, 0x00, 0x0f, 0x00, 0x00, 0x00,
  0x10, 0x00, 0x00, 0x00, 0x11, 0x00, 0x00, 0x00, 0x12, 0x00, 0x00, 0x00,
  0x13, 0x00, 0x00, 0x00, 0x14, 0x00, 0x00, 0x00, 0x01, 0x00, 0x00, 0x00,
  0x0c, 0x00, 0x00, 0x00, 0x00, 0x00, 0x0a, 0x00, 0x10, 0x00, 0x0c, 0x00,
  0x08, 0x00, 0x04, 0x00, 0x0a, 0x00, 0x00, 0x00, 0x0c, 0x00, 0x00, 0x00,
  0x10, 0x00, 0x00, 0x00, 0x01, 0x00, 0x00, 0x00, 0x01, 0x00, 0x00, 0x00,
  0x0c, 0x00, 0x00, 0x00, 0x02, 0x00, 0x00, 0x00, 0x0b, 0x00, 0x00, 0x00,
  0x03, 0x00, 0x00, 0x00, 0x00, 0x00, 0x0e, 0x00, 0x14, 0x00, 0x00, 0x00,
  0x10, 0x00, 0x0c, 0x00, 0x0b, 0x00, 0x04, 0x00, 0x0e, 0x00, 0x00, 0x00,
  0x1c, 0x00, 0x00, 0x00, 0x00, 0x00, 0x00, 0x01, 0x28, 0x00, 0x00, 0x00,
  0x2c, 0x00, 0x00, 0x00, 0x0c, 0x00, 0x14, 0x00, 0x13, 0x00, 0x0c, 0x00,
  0x08, 0x00, 0x07, 0x00, 0x0c, 0x00, 0x00, 0x00, 0x00, 0x00, 0x00, 0x01,
  0x01, 0x00, 0x00, 0x00, 0x01, 0x00, 0x00, 0x00, 0x00, 0x00, 0x00, 0x01,
  0x01, 0x00, 0x00, 0x00, 0x0b, 0x00, 0x00, 0x00, 0x03, 0x00, 0x00, 0x00,
  0x00, 0x00, 0x00, 0x00, 0x09, 0x00, 0x00, 0x00, 0x0a, 0x00, 0x00, 0x00,
  0x01, 0x00, 0x00, 0x00, 0x9e, 0x00, 0x00, 0x00, 0x01, 0x00, 0x00, 0x00,
  0x00, 0x00, 0x00, 0x00, 0x9f, 0x00, 0x00, 0x00, 0x84, 0x38, 0x00, 0x00,
  0x1c, 0x38, 0x00, 0x00, 0xdc, 0x37, 0x00, 0x00, 0x4c, 0x37, 0x00, 0x00,
  0xfc, 0x36, 0x00, 0x00, 0xbc, 0x36, 0x00, 0x00, 0x7c, 0x36, 0x00, 0x00,
  0x40, 0x36, 0x00, 0x00, 0x04, 0x36, 0x00, 0x00, 0xa4, 0x35, 0x00, 0x00,
  0xec, 0x34, 0x00, 0x00, 0x28, 0x34, 0x00, 0x00, 0xac, 0x33, 0x00, 0x00,
  0x5c, 0x33, 0x00, 0x00, 0x0c, 0x33, 0x00, 0x00, 0xbc, 0x32, 0x00, 0x00,
  0x6c, 0x32, 0x00, 0x00, 0x1c, 0x32, 0x00, 0x00, 0xcc, 0x31, 0x00, 0x00,
  0x7c, 0x31, 0x00, 0x00, 0x2c, 0x31, 0x00, 0x00, 0xa4, 0x30, 0x00, 0x00,
  0x4c, 0x30, 0x00, 0x00, 0xf0, 0x2f, 0x00, 0x00, 0x94, 0x2f, 0x00, 0x00,
  0x38, 0x2f, 0x00, 0x00, 0xdc, 0x2e, 0x00, 0x00, 0x80, 0x2e, 0x00, 0x00,
  0x28, 0x2e, 0x00, 0x00, 0xd0, 0x2d, 0x00, 0x00, 0x74, 0x2d, 0x00, 0x00,
  0x1c, 0x2d, 0x00, 0x00, 0xc0, 0x2c, 0x00, 0x00, 0x68, 0x2c, 0x00, 0x00,
  0x0c, 0x2c, 0x00, 0x00, 0xb0, 0x2b, 0x00, 0x00, 0x54, 0x2b, 0x00, 0x00,
  0xf8, 0x2a, 0x00, 0x00, 0x9c, 0x2a, 0x00, 0x00, 0x40, 0x2a, 0x00, 0x00,
  0xe8, 0x29, 0x00, 0x00, 0x8c, 0x29, 0x00, 0x00, 0x30, 0x29, 0x00, 0x00,
  0xd4, 0x28, 0x00, 0x00, 0x78, 0x28, 0x00, 0x00, 0x1c, 0x28, 0x00, 0x00,
  0xc4, 0x27, 0x00, 0x00, 0x68, 0x27, 0x00, 0x00, 0x10, 0x27, 0x00, 0x00,
  0xb8, 0x26, 0x00, 0x00, 0x60, 0x26, 0x00, 0x00, 0x04, 0x26, 0x00, 0x00,
  0xac, 0x25, 0x00, 0x00, 0x50, 0x25, 0x00, 0x00, 0xf8, 0x24, 0x00, 0x00,
  0x9c, 0x24, 0x00, 0x00, 0x40, 0x24, 0x00, 0x00, 0xe4, 0x23, 0x00, 0x00,
  0x8c, 0x23, 0x00, 0x00, 0x30, 0x23, 0x00, 0x00, 0xd4, 0x22, 0x00, 0x00,
  0x78, 0x22, 0x00, 0x00, 0x1c, 0x22, 0x00, 0x00, 0xc0, 0x21, 0x00, 0x00,
  0x68, 0x21, 0x00, 0x00, 0x0c, 0x21, 0x00, 0x00, 0xb4, 0x20, 0x00, 0x00,
  0x5c, 0x20, 0x00, 0x00, 0x04, 0x20, 0x00, 0x00, 0xa8, 0x1f, 0x00, 0x00,
  0x50, 0x1f, 0x00, 0x00, 0xf4, 0x1e, 0x00, 0x00, 0x9c, 0x1e, 0x00, 0x00,
  0x40, 0x1e, 0x00, 0x00, 0xe4, 0x1d, 0x00, 0x00, 0x88, 0x1d, 0x00, 0x00,
  0x30, 0x1d, 0x00, 0x00, 0xd4, 0x1c, 0x00, 0x00, 0x78, 0x1c, 0x00, 0x00,
  0x1c, 0x1c, 0x00, 0x00, 0xc0, 0x1b, 0x00, 0x00, 0x64, 0x1b, 0x00, 0x00,
  0x0c, 0x1b, 0x00, 0x00, 0xb0, 0x1a, 0x00, 0x00, 0x58, 0x1a, 0x00, 0x00,
  0x00, 0x1a, 0x00, 0x00, 0xa8, 0x19, 0x00, 0x00, 0x4c, 0x19, 0x00, 0x00,
  0xf4, 0x18, 0x00, 0x00, 0x98, 0x18, 0x00, 0x00, 0x40, 0x18, 0x00, 0x00,
  0xe4, 0x17, 0x00, 0x00, 0x88, 0x17, 0x00, 0x00, 0x2c, 0x17, 0x00, 0x00,
  0xd4, 0x16, 0x00, 0x00, 0x78, 0x16, 0x00, 0x00, 0x1c, 0x16, 0x00, 0x00,
  0xc0, 0x15, 0x00, 0x00, 0x64, 0x15, 0x00, 0x00, 0x08, 0x15, 0x00, 0x00,
  0xb0, 0x14, 0x00, 0x00, 0x54, 0x14, 0x00, 0x00, 0xfc, 0x13, 0x00, 0x00,
  0xa4, 0x13, 0x00, 0x00, 0x4c, 0x13, 0x00, 0x00, 0xf0, 0x12, 0x00, 0x00,
  0x98, 0x12, 0x00, 0x00, 0x3c, 0x12, 0x00, 0x00, 0xe4, 0x11, 0x00, 0x00,
  0x88, 0x11, 0x00, 0x00, 0x28, 0x11, 0x00, 0x00, 0xcc, 0x10, 0x00, 0x00,
  0x70, 0x10, 0x00, 0x00, 0x14, 0x10, 0x00, 0x00, 0xb8, 0x0f, 0x00, 0x00,
  0x5c, 0x0f, 0x00, 0x00, 0xfc, 0x0e, 0x00, 0x00, 0xa4, 0x0e, 0x00, 0x00,
  0x44, 0x0e, 0x00, 0x00, 0xec, 0x0d, 0x00, 0x00, 0x90, 0x0d, 0x00, 0x00,
  0x38, 0x0d, 0x00, 0x00, 0xdc, 0x0c, 0x00, 0x00, 0x80, 0x0c, 0x00, 0x00,
  0x24, 0x0c, 0x00, 0x00, 0xcc, 0x0b, 0x00, 0x00, 0x70, 0x0b, 0x00, 0x00,
  0x10, 0x0b, 0x00, 0x00, 0xb4, 0x0a, 0x00, 0x00, 0x58, 0x0a, 0x00, 0x00,
  0xfc, 0x09, 0x00, 0x00, 0xa0, 0x09, 0x00, 0x00, 0x44, 0x09, 0x00, 0x00,
  0xe4, 0x08, 0x00, 0x00, 0x8c, 0x08, 0x00, 0x00, 0x2c, 0x08, 0x00, 0x00,
  0xd4, 0x07, 0x00, 0x00, 0x78, 0x07, 0x00, 0x00, 0x20, 0x07, 0x00, 0x00,
  0xc4, 0x06, 0x00, 0x00, 0x68, 0x06, 0x00, 0x00, 0x0c, 0x06, 0x00, 0x00,
  0xb4, 0x05, 0x00, 0x00, 0x58, 0x05, 0x00, 0x00, 0xf8, 0x04, 0x00, 0x00,
  0x9c, 0x04, 0x00, 0x00, 0x40, 0x04, 0x00, 0x00, 0xe4, 0x03, 0x00, 0x00,
  0x88, 0x03, 0x00, 0x00, 0x2c, 0x03, 0x00, 0x00, 0xcc, 0x02, 0x00, 0x00,
  0x74, 0x02, 0x00, 0x00, 0x14, 0x02, 0x00, 0x00, 0xbc, 0x01, 0x00, 0x00,
  0x60, 0x01, 0x00, 0x00, 0x08, 0x01, 0x00, 0x00, 0xac, 0x00, 0x00, 0x00,
  0x50, 0x00, 0x00, 0x00, 0x04, 0x00, 0x00, 0x00, 0x0e, 0xca, 0xff, 0xff,
  0x00, 0x00, 0x00, 0x01, 0x10, 0x00, 0x00, 0x00, 0x10, 0x00, 0x00, 0x00,
  0x9f, 0x00, 0x00, 0x00, 0x28, 0x00, 0x00, 0x00, 0x90, 0xc9, 0xff, 0xff,
  0x1b, 0x00, 0x00, 0x00, 0x53, 0x74, 0x61, 0x74, 0x65, 0x66, 0x75, 0x6c,
  0x50, 0x61, 0x72, 0x74, 0x69, 0x74, 0x69, 0x6f, 0x6e, 0x65, 0x64, 0x43,
  0x61, 0x6c, 0x6c, 0x5f, 0x31, 0x3a, 0x30, 0x00, 0x02, 0x00, 0x00, 0x00,
  0x01, 0x00, 0x00, 0x00, 0x07, 0x00, 0x00, 0x00, 0x56, 0xca, 0xff, 0xff,
  0x00, 0x00, 0x00, 0x01, 0x10, 0x00, 0x00, 0x00, 0x10, 0x00, 0x00, 0x00,
  0x9e, 0x00, 0x00, 0x00, 0x38, 0x00, 0x00, 0x00, 0xd8, 0xc9, 0xff, 0xff,
  0x28, 0x00, 0x00, 0x00, 0x73, 0x65, 0x71, 0x75, 0x65, 0x6e, 0x74, 0x69,
  0x61, 0x6c, 0x5f, 0x31, 0x5f, 0x31, 0x2f, 0x6c, 0x73, 0x74, 0x6d, 0x5f,
  0x31, 0x2f, 0x6c, 0x73, 0x74, 0x6d, 0x5f, 0x63, 0x65, 0x6c, 0x6c, 0x5f,
  0x31, 0x35, 0x2f, 0x6d, 0x75, 0x6c, 0x5f, 0x32, 0x00, 0x00, 0x00, 0x00,
  0x02, 0x00, 0x00, 0x00, 0x01, 0x00, 0x00, 0x00, 0x04, 0x00, 0x00, 0x00,
  0xae, 0xca, 0xff, 0xff, 0x00, 0x00, 0x00, 0x01, 0x10, 0x00, 0x00, 0x00,
  0x10, 0x00, 0x00, 0x00, 0x9d, 0x00, 0x00, 0x00, 0x38, 0x00, 0x00, 0x00,
  0x30, 0xca, 0xff, 0xff, 0x29, 0x00, 0x00, 0x00, 0x73, 0x65, 0x71, 0x75,
  0x65, 0x6e, 0x74, 0x69, 0x61, 0x6c, 0x5f, 0x31, 0x5f, 0x31, 0x2f, 0x6c,
  0x73, 0x74, 0x6d, 0x5f, 0x31, 0x2f, 0x6c, 0x73, 0x74, 0x6d, 0x5f, 0x63,
  0x65, 0x6c, 0x6c, 0x5f, 0x31, 0x35, 0x2f, 0x54, 0x61, 0x6e, 0x68, 0x5f,
  0x31, 0x00, 0x00, 0x00, 0x02, 0x00, 0x00, 0x00, 0x01, 0x00, 0x00, 0x00,
  0x04, 0x00, 0x00, 0x00, 0x06, 0xcb, 0xff, 0xff, 0x00, 0x00, 0x00, 0x01,
  0x10, 0x00, 0x00, 0x00, 0x10, 0x00, 0x00, 0x00, 0x9c, 0x00, 0x00, 0x00,
  0x34, 0x00, 0x00, 0x00, 0x88, 0xca, 0xff, 0xff, 0x26, 0x00, 0x00, 0x00,
  0x73, 0x65, 0x71, 0x75, 0x65, 0x6e, 0x74, 0x69, 0x61, 0x6c, 0x5f, 0x31,
  0x5f, 0x31, 0x2f, 0x6c, 0x73, 0x74, 0x6d, 0x5f, 0x31, 0x2f, 0x6c, 0x73,
  0x74, 0x6d, 0x5f, 0x63, 0x65, 0x6c, 0x6c, 0x5f, 0x31, 0x35, 0x2f, 0x61,
  0x64, 0x64, 0x00, 0x00, 0x02, 0x00, 0x00, 0x00, 0x01, 0x00, 0x00, 0x00,
  0x04, 0x00, 0x00, 0x00, 0x5a, 0xcb, 0xff, 0xff, 0x00, 0x00, 0x00, 0x01,
  0x10, 0x00, 0x00, 0x00, 0x10, 0x00, 0x00, 0x00, 0x9b, 0x00, 0x00, 0x00,
  0x38, 0x00, 0x00, 0x00, 0xdc, 0xca, 0xff, 0xff, 0x28, 0x00, 0x00, 0x00,
  0x73, 0x65, 0x71, 0x75, 0x65, 0x6e, 0x74, 0x69, 0x61, 0x6c, 0x5f, 0x31,
  0x5f, 0x31, 0x2f, 0x6c, 0x73, 0x74, 0x6d, 0x5f, 0x31, 0x2f, 0x6c, 0x73,
  0x74, 0x6d, 0x5f, 0x63, 0x65, 0x6c, 0x6c, 0x5f, 0x31, 0x35, 0x2f, 0x6d,
  0x75, 0x6c, 0x5f, 0x31, 0x00, 0x00, 0x00, 0x00, 0x02, 0x00, 0x00, 0x00,
  0x01, 0x00, 0x00, 0x00, 0x04, 0x00, 0x00, 0x00, 0xb2, 0xcb, 0xff, 0xff,
  0x00, 0x00, 0x00, 0x01, 0x10, 0x00, 0x00, 0x00, 0x10, 0x00, 0x00, 0x00,
  0x9a, 0x00, 0x00, 0x00, 0x34, 0x00, 0x00, 0x00, 0x34, 0xcb, 0xff, 0xff,
  0x27, 0x00, 0x00, 0x00, 0x73, 0x65, 0x71, 0x75, 0x65, 0x6e, 0x74, 0x69,
  0x61, 0x6c, 0x5f, 0x31, 0x5f, 0x31, 0x2f, 0x6c, 0x73, 0x74, 0x6d, 0x5f,
  0x31, 0x2f, 0x6c, 0x73, 0x74, 0x6d, 0x5f, 0x63, 0x65, 0x6c, 0x6c, 0x5f,
  0x31, 0x35, 0x2f, 0x54, 0x61, 0x6e, 0x68, 0x00, 0x02, 0x00, 0x00, 0x00,
  0x01, 0x00, 0x00, 0x00, 0x04, 0x00, 0x00, 0x00, 0x06, 0xcc, 0xff, 0xff,
  0x00, 0x00, 0x00, 0x01, 0x10, 0x00, 0x00, 0x00, 0x10, 0x00, 0x00, 0x00,
  0x99, 0x00, 0x00, 0x00, 0x3c, 0x00, 0x00, 0x00, 0x88, 0xcb, 0xff, 0xff,
  0x2c, 0x00, 0x00, 0x00, 0x73, 0x65, 0x71, 0x75, 0x65, 0x6e, 0x74, 0x69,
  0x61, 0x6c, 0x5f, 0x31, 0x5f, 0x31, 0x2f, 0x6c, 0x73, 0x74, 0x6d, 0x5f,
  0x31, 0x2f, 0x6c, 0x73, 0x74, 0x6d, 0x5f, 0x63, 0x65, 0x6c, 0x6c, 0x5f,
  0x31, 0x35, 0x2f, 0x53, 0x69, 0x67, 0x6d, 0x6f, 0x69, 0x64, 0x5f, 0x32,
  0x00, 0x00, 0x00, 0x00, 0x02, 0x00, 0x00, 0x00, 0x01, 0x00, 0x00, 0x00,
  0x04, 0x00, 0x00, 0x00, 0x62, 0xcc, 0xff, 0xff, 0x00, 0x00, 0x00, 0x01,
  0x10, 0x00, 0x00, 0x00, 0x10, 0x00, 0x00, 0x00, 0x98, 0x00, 0x00, 0x00,
  0x34, 0x00, 0x00, 0x00, 0xe4, 0xcb, 0xff, 0xff, 0x26, 0x00, 0x00, 0x00,
  0x73, 0x65, 0x71, 0x75, 0x65, 0x6e, 0x74, 0x69, 0x61, 0x6c, 0x5f, 0x31,
  0x5f, 0x31, 0x2f, 0x6c, 0x73, 0x74, 0x6d, 0x5f, 0x31, 0x2f, 0x6c, 0x73,
  0x74, 0x6d, 0x5f, 0x63, 0x65, 0x6c, 0x6c, 0x5f, 0x31, 0x35, 0x2f, 0x6d,
  0x75, 0x6c, 0x00, 0x00, 0x02, 0x00, 0x00, 0x00, 0x01, 0x00, 0x00, 0x00,
  0x04, 0x00, 0x00, 0x00, 0xb6, 0xcc, 0xff, 0xff, 0x00, 0x00, 0x00, 0x01,
  0x10, 0x00, 0x00, 0x00, 0x10, 0x00, 0x00, 0x00, 0x97, 0x00, 0x00, 0x00,
  0x3c, 0x00, 0x00, 0x00, 0x38, 0xcc, 0xff, 0xff, 0x2c, 0x00, 0x00, 0x00,
  0x73, 0x65, 0x71, 0x75, 0x65, 0x6e, 0x74, 0x69, 0x61, 0x6c, 0x5f, 0x31,
  0x5f, 0x31, 0x2f, 0x6c, 0x73, 0x74, 0x6d, 0x5f, 0x31, 0x2f, 0x6c, 0x73,
  0x74, 0x6d, 0x5f, 0x63, 0x65, 0x6c, 0x6c, 0x5f, 0x31, 0x35, 0x2f, 0x53,
  0x69, 0x67, 0x6d, 0x6f, 0x69, 0x64, 0x5f, 0x31, 0x00, 0x00, 0x00, 0x00,
  0x02, 0x00, 0x00, 0x00, 0x01, 0x00, 0x00, 0x00, 0x04, 0x00, 0x00, 0x00,
  0x12, 0xcd, 0xff, 0xff, 0x00, 0x00, 0x00, 0x01, 0x10, 0x00, 0x00, 0x00,
  0x10, 0x00, 0x00, 0x00, 0x96, 0x00, 0x00, 0x00, 0x38, 0x00, 0x00, 0x00,
  0x94, 0xcc, 0xff, 0xff, 0x2a, 0x00, 0x00, 0x00, 0x73, 0x65, 0x71, 0x75,
  0x65, 0x6e, 0x74, 0x69, 0x61, 0x6c, 0x5f, 0x31, 0x5f, 0x31, 0x2f, 0x6c,
  0x73, 0x74, 0x6d, 0x5f, 0x31, 0x2f, 0x6c, 0x73, 0x74, 0x6d, 0x5f, 0x63,
  0x65, 0x6c, 0x6c, 0x5f, 0x31, 0x35, 0x2f, 0x53, 0x69, 0x67, 0x6d, 0x6f,
  0x69, 0x64, 0x00, 0x00, 0x02, 0x00, 0x00, 0x00, 0x01, 0x00, 0x00, 0x00,
  0x04, 0x00, 0x00, 0x00, 0x6a, 0xcd, 0xff, 0xff, 0x00, 0x00, 0x00, 0x01,
  0x10, 0x00, 0x00, 0x00, 0x10, 0x00, 0x00, 0x00, 0x95, 0x00, 0x00, 0x00,
  0x38, 0x00, 0x00, 0x00, 0xec, 0xcc, 0xff, 0xff, 0x29, 0x00, 0x00, 0x00,
  0x73, 0x65, 0x71, 0x75, 0x65, 0x6e, 0x74, 0x69, 0x61, 0x6c, 0x5f, 0x31,
  0x5f, 0x31, 0x2f, 0x6c, 0x73, 0x74, 0x6d, 0x5f, 0x31, 0x2f, 0x6c, 0x73,
  0x74, 0x6d, 0x5f, 0x63, 0x65, 0x6c, 0x6c, 0x5f, 0x31, 0x35, 0x2f, 0x73,
  0x70, 0x6c, 0x69, 0x74, 0x33, 0x00, 0x00, 0x00, 0x02, 0x00, 0x00, 0x00,
  0x01, 0x00, 0x00, 0x00, 0x04, 0x00, 0x00, 0x00, 0xc2, 0xcd, 0xff, 0xff,
  0x00, 0x00, 0x00, 0x01, 0x10, 0x00, 0x00, 0x00, 0x10, 0x00, 0x00, 0x00,
  0x94, 0x00, 0x00, 0x00, 0x38, 0x00, 0x00, 0x00, 0x44, 0xcd, 0xff, 0xff,
  0x29, 0x00, 0x00, 0x00, 0x73, 0x65, 0x71, 0x75, 0x65, 0x6e, 0x74, 0x69,
  0x61, 0x6c, 0x5f, 0x31, 0x5f, 0x31, 0x2f, 0x6c, 0x73, 0x74, 0x6d, 0x5f,
  0x31, 0x2f, 0x6c, 0x73, 0x74, 0x6d, 0x5f, 0x63, 0x65, 0x6c, 0x6c, 0x5f,
  0x31, 0x35, 0x2f, 0x73, 0x70, 0x6c, 0x69, 0x74, 0x32, 0x00, 0x00, 0x00,
  0x02, 0x00, 0x00, 0x00, 0x01, 0x00, 0x00, 0x00, 0x04, 0x00, 0x00, 0x00,
  0x1a, 0xce, 0xff, 0xff, 0x00, 0x00, 0x00, 0x01, 0x10, 0x00, 0x00, 0x00,
  0x10, 0x00, 0x00, 0x00, 0x93, 0x00, 0x00, 0x00, 0x38, 0x00, 0x00, 0x00,
  0x9c, 0xcd, 0xff, 0xff, 0x29, 0x00, 0x00, 0x00, 0x73, 0x65, 0x71, 0x75,
  0x65, 0x6e, 0x74, 0x69, 0x61, 0x6c, 0x5f, 0x31, 0x5f, 0x31, 0x2f, 0x6c,
  0x73, 0x74, 0x6d, 0x5f, 0x31, 0x2f, 0x6c, 0x73, 0x74, 0x6d, 0x5f, 0x63,
  0x65, 0x6c, 0x6c, 0x5f, 0x31, 0x35, 0x2f, 0x73, 0x70, 0x6c, 0x69, 0x74,
  0x31, 0x00, 0x00, 0x00, 0x02, 0x00, 0x00, 0x00, 0x01, 0x00, 0x00, 0x00,
  0x04, 0x00, 0x00, 0x00, 0x72, 0xce, 0xff, 0xff, 0x00, 0x00, 0x00, 0x01,
  0x10, 0x00, 0x00, 0x00, 0x10, 0x00, 0x00, 0x00, 0x92, 0x00, 0x00, 0x00,
  0x38, 0x00, 0x00, 0x00, 0xf4, 0xcd, 0xff, 0xff, 0x28, 0x00, 0x00, 0x00,
  0x73, 0x65, 0x71, 0x75, 0x65, 0x6e, 0x74, 0x69, 0x61, 0x6c, 0x5f, 0x31,
  0x5f, 0x31, 0x2f, 0x6c, 0x73, 0x74, 0x6d, 0x5f, 0x31, 0x2f, 0x6c, 0x73,
  0x74, 0x6d, 0x5f, 0x63, 0x65, 0x6c, 0x6c, 0x5f, 0x31, 0x35, 0x2f, 0x73,
  0x70, 0x6c, 0x69, 0x74, 0x00, 0x00, 0x00, 0x00, 0x02, 0x00, 0x00, 0x00,
  0x01, 0x00, 0x00, 0x00, 0x04, 0x00, 0x00, 0x00, 0xca, 0xce, 0xff, 0xff,
  0x00, 0x00, 0x00, 0x01, 0x10, 0x00, 0x00, 0x00, 0x10, 0x00, 0x00, 0x00,
  0x91, 0x00, 0x00, 0x00, 0x3c, 0x00, 0x00, 0x00, 0x4c, 0xce, 0xff, 0xff,
  0x2c, 0x00, 0x00, 0x00, 0x73, 0x65, 0x71, 0x75, 0x65, 0x6e, 0x74, 0x69,
  0x61, 0x6c, 0x5f, 0x31, 0x5f, 0x31, 0x2f, 0x6c, 0x73, 0x74, 0x6d, 0x5f,
  0x31, 0x2f, 0x6c, 0x73, 0x74, 0x6d, 0x5f, 0x63, 0x65, 0x6c, 0x6c, 0x5f,
  0x31, 0x35, 0x2f, 0x42, 0x69, 0x61, 0x73, 0x41, 0x64, 0x64, 0x5f, 0x31,
  0x00, 0x00, 0x00, 0x00, 0x02, 0x00, 0x00, 0x00, 0x01, 0x00, 0x00, 0x00,
  0x10, 0x00, 0x00, 0x00, 0x26, 0xcf, 0xff, 0xff, 0x00, 0x00, 0x00, 0x01,
  0x10, 0x00, 0x00, 0x00, 0x10, 0x00, 0x00, 0x00, 0x90, 0x00, 0x00, 0x00,
  0x38, 0x00, 0x00, 0x00, 0xa8, 0xce, 0xff, 0xff, 0x2a, 0x00, 0x00, 0x00,
  0x73, 0x65, 0x71, 0x75, 0x65, 0x6e, 0x74, 0x69, 0x61, 0x6c, 0x5f, 0x31,
  0x5f, 0x31, 0x2f, 0x6c, 0x73, 0x74, 0x6d, 0x5f, 0x31, 0x2f, 0x6c, 0x73,
  0x74, 0x6d, 0x5f, 0x63, 0x65, 0x6c, 0x6c, 0x5f, 0x31, 0x35, 0x2f, 0x42,
  0x69, 0x61, 0x73, 0x41, 0x64, 0x64, 0x00, 0x00, 0x02, 0x00, 0x00, 0x00,
  0x01, 0x00, 0x00, 0x00, 0x10, 0x00, 0x00, 0x00, 0x7e, 0xcf, 0xff, 0xff,
  0x00, 0x00, 0x00, 0x01, 0x10, 0x00, 0x00, 0x00, 0x10, 0x00, 0x00, 0x00,
  0x8f, 0x00, 0x00, 0x00, 0x38, 0x00, 0x00, 0x00, 0x00, 0xcf, 0xff, 0xff,
  0x2a, 0x00, 0x00, 0x00, 0x73, 0x65, 0x71, 0x75, 0x65, 0x6e, 0x74, 0x69,
  0x61, 0x6c, 0x5f, 0x31, 0x5f, 0x31, 0x2f, 0x6c, 0x73, 0x74, 0x6d, 0x5f,
  0x31, 0x2f, 0x6c, 0x73, 0x74, 0x6d, 0x5f, 0x63, 0x65, 0x6c, 0x6c, 0x5f,
  0x31, 0x35, 0x2f, 0x53, 0x71, 0x75, 0x65, 0x65, 0x7a, 0x65, 0x00, 0x00,
  0x01, 0x00, 0x00, 0x00, 0x10, 0x00, 0x00, 0x00, 0xd2, 0xcf, 0xff, 0xff,
  0x00, 0x00, 0x00, 0x01, 0x10, 0x00, 0x00, 0x00, 0x10, 0x00, 0x00, 0x00,
  0x8e, 0x00, 0x00, 0x00, 0x38, 0x00, 0x00, 0x00, 0x54, 0xcf, 0xff, 0xff,
  0x2b, 0x00, 0x00, 0x00, 0x73, 0x65, 0x71, 0x75, 0x65, 0x6e, 0x74, 0x69,
  0x61, 0x6c, 0x5f, 0x31, 0x5f, 0x31, 0x2f, 0x6c, 0x73, 0x74, 0x6d, 0x5f,
  0x31, 0x2f, 0x6c, 0x73, 0x74, 0x6d, 0x5f, 0x63, 0x65, 0x6c, 0x6c, 0x5f,
  0x31, 0x35, 0x2f, 0x4d, 0x61, 0x74, 0x4d, 0x75, 0x6c, 0x5f, 0x31, 0x00,
  0x02, 0x00, 0x00, 0x00, 0x01, 0x00, 0x00, 0x00, 0x10, 0x00, 0x00, 0x00,
  0x2a, 0xd0, 0xff, 0xff, 0x00, 0x00, 0x00, 0x01, 0x10, 0x00, 0x00, 0x00,
  0x10, 0x00, 0x00, 0x00, 0x8d, 0x00, 0x00, 0x00, 0x38, 0x00, 0x00, 0x00,
  0xac, 0xcf, 0xff, 0xff, 0x28, 0x00, 0x00, 0x00, 0x73, 0x65, 0x71, 0x75,
  0x65, 0x6e, 0x74, 0x69, 0x61, 0x6c, 0x5f, 0x31, 0x5f, 0x31, 0x2f, 0x6c,
  0x73, 0x74, 0x6d, 0x5f, 0x31, 0x2f, 0x6c, 0x73, 0x74, 0x6d, 0x5f, 0x63,
  0x65, 0x6c, 0x6c, 0x5f, 0x31, 0x33, 0x2f, 0x6d, 0x75, 0x6c, 0x5f, 0x32,
  0x00, 0x00, 0x00, 0x00, 0x02, 0x00, 0x00, 0x00, 0x01, 0x00, 0x00, 0x00,
  0x04, 0x00, 0x00, 0x00, 0x82, 0xd0, 0xff, 0xff, 0x00, 0x00, 0x00, 0x01,
  0x10, 0x00, 0x00, 0x00, 0x10, 0x00, 0x00, 0x00, 0x8c, 0x00, 0x00, 0x00,
  0x38, 0x00, 0x00, 0x00, 0x04, 0xd0, 0xff, 0xff, 0x29, 0x00, 0x00, 0x00,
  0x73, 0x65, 0x71, 0x75, 0x65, 0x6e, 0x74, 0x69, 0x61, 0x6c, 0x5f, 0x31,
  0x5f, 0x31, 0x2f, 0x6c, 0x73, 0x74, 0x6d, 0x5f, 0x31, 0x2f, 0x6c, 0x73,
  0x74, 0x6d, 0x5f, 0x63, 0x65, 0x6c, 0x6c, 0x5f, 0x31, 0x33, 0x2f, 0x54,
  0x61, 0x6e, 0x68, 0x5f, 0x31, 0x00, 0x00, 0x00, 0x02, 0x00, 0x00, 0x00,
  0x01, 0x00, 0x00, 0x00, 0x04, 0x00, 0x00, 0x00, 0xda, 0xd0, 0xff, 0xff,
  0x00, 0x00, 0x00, 0x01, 0x10, 0x00, 0x00, 0x00, 0x10, 0x00, 0x00, 0x00,
  0x8b, 0x00, 0x00, 0x00, 0x34, 0x00, 0x00, 0x00, 0x5c, 0xd0, 0xff, 0xff,
  0x26, 0x00, 0x00, 0x00, 0x73, 0x65, 0x71, 0x75, 0x65, 0x6e, 0x74, 0x69,
  0x61, 0x6c, 0x5f, 0x31, 0x5f, 0x31, 0x2f, 0x6c, 0x73, 0x74, 0x6d, 0x5f,
  0x31, 0x2f, 0x6c, 0x73, 0x74, 0x6d, 0x5f, 0x63, 0x65, 0x6c, 0x6c, 0x5f,
  0x31, 0x33, 0x2f, 0x61, 0x64, 0x64, 0x00, 0x00, 0x02, 0x00, 0x00, 0x00,
  0x01, 0x00, 0x00, 0x00, 0x04, 0x00, 0x00, 0x00, 0x2e, 0xd1, 0xff, 0xff,
  0x00, 0x00, 0x00, 0x01, 0x10, 0x00, 0x00, 0x00, 0x10, 0x00, 0x00, 0x00,
  0x8a, 0x00, 0x00, 0x00, 0x38, 0x00, 0x00, 0x00, 0xb0, 0xd0, 0xff, 0xff,
  0x28, 0x00, 0x00, 0x00, 0x73, 0x65, 0x71, 0x75, 0x65, 0x6e, 0x74, 0x69,
  0x61, 0x6c, 0x5f, 0x31, 0x5f, 0x31, 0x2f, 0x6c, 0x73, 0x74, 0x6d, 0x5f,
  0x31, 0x2f, 0x6c, 0x73, 0x74, 0x6d, 0x5f, 0x63, 0x65, 0x6c, 0x6c, 0x5f,
  0x31, 0x33, 0x2f, 0x6d, 0x75, 0x6c, 0x5f, 0x31, 0x00, 0x00, 0x00, 0x00,
  0x02, 0x00, 0x00, 0x00, 0x01, 0x00, 0x00, 0x00, 0x04, 0x00, 0x00, 0x00,
  0x86, 0xd1, 0xff, 0xff, 0x00, 0x00, 0x00, 0x01, 0x10, 0x00, 0x00, 0x00,
  0x10, 0x00, 0x00, 0x00, 0x89, 0x00, 0x00, 0x00, 0x34, 0x00, 0x00, 0x00,
  0x08, 0xd1, 0xff, 0xff, 0x27, 0x00, 0x00, 0x00, 0x73, 0x65, 0x71, 0x75,
  0x65, 0x6e, 0x74, 0x69, 0x61, 0x6c, 0x5f, 0x31, 0x5f, 0x31, 0x2f, 0x6c,
  0x73, 0x74, 0x6d, 0x5f, 0x31, 0x2f, 0x6c, 0x73, 0x74, 0x6d, 0x5f, 0x63,
  0x65, 0x6c, 0x6c, 0x5f, 0x31, 0x33, 0x2f, 0x54, 0x61, 0x6e, 0x68, 0x00,
  0x02, 0x00, 0x00, 0x00, 0x01, 0x00, 0x00, 0x00, 0x04, 0x00, 0x00, 0x00,
  0xda, 0xd1, 0xff, 0xff, 0x00, 0x00, 0x00, 0x01, 0x10, 0x00, 0x00, 0x00,
  0x10, 0x00, 0x00, 0x00, 0x88, 0x00, 0x00, 0x00, 0x3c, 0x00, 0x00, 0x00,
  0x5c, 0xd1, 0xff, 0xff, 0x2c, 0x00, 0x00, 0x00, 0x73, 0x65, 0x71, 0x75,
  0x65, 0x6e, 0x74, 0x69, 0x61, 0x6c, 0x5f, 0x31, 0x5f, 0x31, 0x2f, 0x6c,
  0x73, 0x74, 0x6d, 0x5f, 0x31, 0x2f, 0x6c, 0x73, 0x74, 0x6d, 0x5f, 0x63,
  0x65, 0x6c, 0x6c, 0x5f, 0x31, 0x33, 0x2f, 0x53, 0x69, 0x67, 0x6d, 0x6f,
  0x69, 0x64, 0x5f, 0x32, 0x00, 0x00, 0x00, 0x00, 0x02, 0x00, 0x00, 0x00,
  0x01, 0x00, 0x00, 0x00, 0x04, 0x00, 0x00, 0x00, 0x36, 0xd2, 0xff, 0xff,
  0x00, 0x00, 0x00, 0x01, 0x10, 0x00, 0x00, 0x00, 0x10, 0x00, 0x00, 0x00,
  0x87, 0x00, 0x00, 0x00, 0x34, 0x00, 0x00, 0x00, 0xb8, 0xd1, 0xff, 0xff,
  0x26, 0x00, 0x00, 0x00, 0x73, 0x65, 0x71, 0x75, 0x65, 0x6e, 0x74, 0x69,
  0x61, 0x6c, 0x5f, 0x31, 0x5f, 0x31, 0x2f, 0x6c, 0x73, 0x74, 0x6d, 0x5f,
  0x31, 0x2f, 0x6c, 0x73, 0x74, 0x6d, 0x5f, 0x63, 0x65, 0x6c, 0x6c, 0x5f,
  0x31, 0x33, 0x2f, 0x6d, 0x75, 0x6c, 0x00, 0x00, 0x02, 0x00, 0x00, 0x00,
  0x01, 0x00, 0x00, 0x00, 0x04, 0x00, 0x00, 0x00, 0x8a, 0xd2, 0xff, 0xff,
  0x00, 0x00, 0x00, 0x01, 0x10, 0x00, 0x00, 0x00, 0x10, 0x00, 0x00, 0x00,
  0x86, 0x00, 0x00, 0x00, 0x3c, 0x00, 0x00, 0x00, 0x0c, 0xd2, 0xff, 0xff,
  0x2c, 0x00, 0x00, 0x00, 0x73, 0x65, 0x71, 0x75, 0x65, 0x6e, 0x74, 0x69,
  0x61, 0x6c, 0x5f, 0x31, 0x5f, 0x31, 0x2f, 0x6c, 0x73, 0x74, 0x6d, 0x5f,
  0x31, 0x2f, 0x6c, 0x73, 0x74, 0x6d, 0x5f, 0x63, 0x65, 0x6c, 0x6c, 0x5f,
  0x31, 0x33, 0x2f, 0x53, 0x69, 0x67, 0x6d, 0x6f, 0x69, 0x64, 0x5f, 0x31,
  0x00, 0x00, 0x00, 0x00, 0x02, 0x00, 0x00, 0x00, 0x01, 0x00, 0x00, 0x00,
  0x04, 0x00, 0x00, 0x00, 0xe6, 0xd2, 0xff, 0xff, 0x00, 0x00, 0x00, 0x01,
  0x10, 0x00, 0x00, 0x00, 0x10, 0x00, 0x00, 0x00, 0x85, 0x00, 0x00, 0x00,
  0x38, 0x00, 0x00, 0x00, 0x68, 0xd2, 0xff, 0xff, 0x2a, 0x00, 0x00, 0x00,
  0x73, 0x65, 0x71, 0x75, 0x65, 0x6e, 0x74, 0x69, 0x61, 0x6c, 0x5f, 0x31,
  0x5f, 0x31, 0x2f, 0x6c, 0x73, 0x74, 0x6d, 0x5f, 0x31, 0x2f, 0x6c, 0x73,
  0x74, 0x6d, 0x5f, 0x63, 0x65, 0x6c, 0x6c, 0x5f, 0x31, 0x33, 0x2f, 0x53,
  0x69, 0x67, 0x6d, 0x6f, 0x69, 0x64, 0x00, 0x00, 0x02, 0x00, 0x00, 0x00,
  0x01, 0x00, 0x00, 0x00, 0x04, 0x00, 0x00, 0x00, 0x3e, 0xd3, 0xff, 0xff,
  0x00, 0x00, 0x00, 0x01, 0x10, 0x00, 0x00, 0x00, 0x10, 0x00, 0x00, 0x00,
  0x84, 0x00, 0x00, 0x00, 0x38, 0x00, 0x00, 0x00, 0xc0, 0xd2, 0xff, 0xff,
  0x29, 0x00, 0x00, 0x00, 0x73, 0x65, 0x71, 0x75, 0x65, 0x6e, 0x74, 0x69,
  0x61, 0x6c, 0x5f, 0x31, 0x5f, 0x31, 0x2f, 0x6c, 0x73, 0x74, 0x6d, 0x5f,
  0x31, 0x2f, 0x6c, 0x73, 0x74, 0x6d, 0x5f, 0x63, 0x65, 0x6c, 0x6c, 0x5f,
  0x31, 0x33, 0x2f, 0x73, 0x70, 0x6c, 0x69, 0x74, 0x33, 0x00, 0x00, 0x00,
  0x02, 0x00, 0x00, 0x00, 0x01, 0x00, 0x00, 0x00, 0x04, 0x00, 0x00, 0x00,
  0x96, 0xd3, 0xff, 0xff, 0x00, 0x00, 0x00, 0x01, 0x10, 0x00, 0x00, 0x00,
  0x10, 0x00, 0x00, 0x00, 0x83, 0x00, 0x00, 0x00, 0x38, 0x00, 0x00, 0x00,
  0x18, 0xd3, 0xff, 0xff, 0x29, 0x00, 0x00, 0x00, 0x73, 0x65, 0x71, 0x75,
  0x65, 0x6e, 0x74, 0x69, 0x61, 0x6c, 0x5f, 0x31, 0x5f, 0x31, 0x2f, 0x6c,
  0x73, 0x74, 0x6d, 0x5f, 0x31, 0x2f, 0x6c, 0x73, 0x74, 0x6d, 0x5f, 0x63,
  0x65, 0x6c, 0x6c, 0x5f, 0x31, 0x33, 0x2f, 0x73, 0x70, 0x6c, 0x69, 0x74,
  0x32, 0x00, 0x00, 0x00, 0x02, 0x00, 0x00, 0x00, 0x01, 0x00, 0x00, 0x00,
  0x04, 0x00, 0x00, 0x00, 0xee, 0xd3, 0xff, 0xff, 0x00, 0x00, 0x00, 0x01,
  0x10, 0x00, 0x00, 0x00, 0x10, 0x00, 0x00, 0x00, 0x82, 0x00, 0x00, 0x00,
  0x38, 0x00, 0x00, 0x00, 0x70, 0xd3, 0xff, 0xff, 0x29, 0x00, 0x00, 0x00,
  0x73, 0x65, 0x71, 0x75, 0x65, 0x6e, 0x74, 0x69, 0x61, 0x6c, 0x5f, 0x31,
  0x5f, 0x31, 0x2f, 0x6c, 0x73, 0x74, 0x6d, 0x5f, 0x31, 0x2f, 0x6c, 0x73,
  0x74, 0x6d, 0x5f, 0x63, 0x65, 0x6c, 0x6c, 0x5f, 0x31, 0x33, 0x2f, 0x73,
  0x70, 0x6c, 0x69, 0x74, 0x31, 0x00, 0x00, 0x00, 0x02, 0x00, 0x00, 0x00,
  0x01, 0x00, 0x00, 0x00, 0x04, 0x00, 0x00, 0x00, 0x46, 0xd4, 0xff, 0xff,
  0x00, 0x00, 0x00, 0x01, 0x10, 0x00, 0x00, 0x00, 0x10, 0x00, 0x00, 0x00,
  0x81, 0x00, 0x00, 0x00, 0x38, 0x00, 0x00, 0x00, 0xc8, 0xd3, 0xff, 0xff,
  0x28, 0x00, 0x00, 0x00, 0x73, 0x65, 0x71, 0x75, 0x65, 0x6e, 0x74, 0x69,
  0x61, 0x6c, 0x5f, 0x31, 0x5f, 0x31, 0x2f, 0x6c, 0x73, 0x74, 0x6d, 0x5f,
  0x31, 0x2f, 0x6c, 0x73, 0x74, 0x6d, 0x5f, 0x63, 0x65, 0x6c, 0x6c, 0x5f,
  0x31, 0x33, 0x2f, 0x73, 0x70, 0x6c, 0x69, 0x74, 0x00, 0x00, 0x00, 0x00,
  0x02, 0x00, 0x00, 0x00, 0x01, 0x00, 0x00, 0x00, 0x04, 0x00, 0x00, 0x00,
  0x9e, 0xd4, 0xff, 0xff, 0x00, 0x00, 0x00, 0x01, 0x10, 0x00, 0x00, 0x00,
  0x10, 0x00, 0x00, 0x00, 0x80, 0x00, 0x00, 0x00, 0x3c, 0x00, 0x00, 0x00,
  0x20, 0xd4, 0xff, 0xff, 0x2c, 0x00, 0x00, 0x00, 0x73, 0x65, 0x71, 0x75,
  0x65, 0x6e, 0x74, 0x69, 0x61, 0x6c, 0x5f, 0x31, 0x5f, 0x31, 0x2f, 0x6c,
  0x73, 0x74, 0x6d, 0x5f, 0x31, 0x2f, 0x6c, 0x73, 0x74, 0x6d, 0x5f, 0x63,
  0x65, 0x6c, 0x6c, 0x5f, 0x31, 0x33, 0x2f, 0x42, 0x69, 0x61, 0x73, 0x41,
  0x64, 0x64, 0x5f, 0x31, 0x00, 0x00, 0x00, 0x00, 0x02, 0x00, 0x00, 0x00,
  0x01, 0x00, 0x00, 0x00, 0x10, 0x00, 0x00, 0x00, 0xfa, 0xd4, 0xff, 0xff,
  0x00, 0x00, 0x00, 0x01, 0x10, 0x00, 0x00, 0x00, 0x10, 0x00, 0x00, 0x00,
  0x7f, 0x00, 0x00, 0x00, 0x38, 0x00, 0x00, 0x00, 0x7c, 0xd4, 0xff, 0xff,
  0x2a, 0x00, 0x00, 0x00, 0x73, 0x65, 0x71, 0x75, 0x65, 0x6e, 0x74, 0x69,
  0x61, 0x6c, 0x5f, 0x31, 0x5f, 0x31, 0x2f, 0x6c, 0x73, 0x74, 0x6d, 0x5f,
  0x31, 0x2f, 0x6c, 0x73, 0x74, 0x6d, 0x5f, 0x63, 0x65, 0x6c, 0x6c, 0x5f,
  0x31, 0x33, 0x2f, 0x42, 0x69, 0x61, 0x73, 0x41, 0x64, 0x64, 0x00, 0x00,
  0x02, 0x00, 0x00, 0x00, 0x01, 0x00, 0x00, 0x00, 0x10, 0x00, 0x00, 0x00,
  0x52, 0xd5, 0xff, 0xff, 0x00, 0x00, 0x00, 0x01, 0x10, 0x00, 0x00, 0x00,
  0x10, 0x00, 0x00, 0x00, 0x7e, 0x00, 0x00, 0x00, 0x38, 0x00, 0x00, 0x00,
  0xd4, 0xd4, 0xff, 0xff, 0x2a, 0x00, 0x00, 0x00, 0x73, 0x65, 0x71, 0x75,
  0x65, 0x6e, 0x74, 0x69, 0x61, 0x6c, 0x5f, 0x31, 0x5f, 0x31, 0x2f, 0x6c,
  0x73, 0x74, 0x6d, 0x5f, 0x31, 0x2f, 0x6c, 0x73, 0x74, 0x6d, 0x5f, 0x63,
  0x65, 0x6c, 0x6c, 0x5f, 0x31, 0x33, 0x2f, 0x53, 0x71, 0x75, 0x65, 0x65,
  0x7a, 0x65, 0x00, 0x00, 0x01, 0x00, 0x00, 0x00, 0x10, 0x00, 0x00, 0x00,
  0xa6, 0xd5, 0xff, 0xff, 0x00, 0x00, 0x00, 0x01, 0x10, 0x00, 0x00, 0x00,
  0x10, 0x00, 0x00, 0x00, 0x7d, 0x00, 0x00, 0x00, 0x38, 0x00, 0x00, 0x00,
  0x28, 0xd5, 0xff, 0xff, 0x2b, 0x00, 0x00, 0x00, 0x73, 0x65, 0x71, 0x75,
  0x65, 0x6e, 0x74, 0x69, 0x61, 0x6c, 0x5f, 0x31, 0x5f, 0x31, 0x2f, 0x6c,
  0x73, 0x74, 0x6d, 0x5f, 0x31, 0x2f, 0x6c, 0x73, 0x74, 0x6d, 0x5f, 0x63,
  0x65, 0x6c, 0x6c, 0x5f, 0x31, 0x33, 0x2f, 0x4d, 0x61, 0x74, 0x4d, 0x75,
  0x6c, 0x5f, 0x31, 0x00, 0x02, 0x00, 0x00, 0x00, 0x01, 0x00, 0x00, 0x00,
  0x10, 0x00, 0x00, 0x00, 0xfe, 0xd5, 0xff, 0xff, 0x00, 0x00, 0x00, 0x01,
  0x10, 0x00, 0x00, 0x00, 0x10, 0x00, 0x00, 0x00, 0x7c, 0x00, 0x00, 0x00,
  0x38, 0x00, 0x00, 0x00, 0x80, 0xd5, 0xff, 0xff, 0x28, 0x00, 0x00, 0x00,
  0x73, 0x65, 0x71, 0x75, 0x65, 0x6e, 0x74, 0x69, 0x61, 0x6c, 0x5f, 0x31,
  0x5f, 0x31, 0x2f, 0x6c, 0x73, 0x74, 0x6d, 0x5f, 0x31, 0x2f, 0x6c, 0x73,
  0x74, 0x6d, 0x5f, 0x63, 0x65, 0x6c, 0x6c, 0x5f, 0x31, 0x31, 0x2f, 0x6d,
  0x75, 0x6c, 0x5f, 0x32, 0x00, 0x00, 0x00, 0x00, 0x02, 0x00, 0x00, 0x00,
  0x01, 0x00, 0x00, 0x00, 0x04, 0x00, 0x00, 0x00, 0x56, 0xd6, 0xff, 0xff,
  0x00, 0x00, 0x00, 0x01, 0x10, 0x00, 0x00, 0x00, 0x10, 0x00, 0x00, 0x00,
  0x7b, 0x00, 0x00, 0x00, 0x38, 0x00, 0x00, 0x00, 0xd8, 0xd5, 0xff, 0xff,
  0x29, 0x00, 0x00, 0x00, 0x73, 0x65, 0x71, 0x75, 0x65, 0x6e, 0x74, 0x69,
  0x61, 0x6c, 0x5f, 0x31, 0x5f, 0x31, 0x2f, 0x6c, 0x73, 0x74, 0x6d, 0x5f,
  0x31, 0x2f, 0x6c, 0x73, 0x74, 0x6d, 0x5f, 0x63, 0x65, 0x6c, 0x6c, 0x5f,
  0x31, 0x31, 0x2f, 0x54, 0x61, 0x6e, 0x68, 0x5f, 0x31, 0x00, 0x00, 0x00,
  0x02, 0x00, 0x00, 0x00, 0x01, 0x00, 0x00, 0x00, 0x04, 0x00, 0x00, 0x00,
  0xae, 0xd6, 0xff, 0xff, 0x00, 0x00, 0x00, 0x01, 0x10, 0x00, 0x00, 0x00,
  0x10, 0x00, 0x00, 0x00, 0x7a, 0x00, 0x00, 0x00, 0x34, 0x00, 0x00, 0x00,
  0x30, 0xd6, 0xff, 0xff, 0x26, 0x00, 0x00, 0x00, 0x73, 0x65, 0x71, 0x75,
  0x65, 0x6e, 0x74, 0x69, 0x61, 0x6c, 0x5f, 0x31, 0x5f, 0x31, 0x2f, 0x6c,
  0x73, 0x74, 0x6d, 0x5f, 0x31, 0x2f, 0x6c, 0x73, 0x74, 0x6d, 0x5f, 0x63,
  0x65, 0x6c, 0x6c, 0x5f, 0x31, 0x31, 0x2f, 0x61, 0x64, 0x64, 0x00, 0x00,
  0x02, 0x00, 0x00, 0x00, 0x01, 0x00, 0x00, 0x00, 0x04, 0x00, 0x00, 0x00,
  0x02, 0xd7, 0xff, 0xff, 0x00, 0x00, 0x00, 0x01, 0x10, 0x00, 0x00, 0x00,
  0x10, 0x00, 0x00, 0x00, 0x79, 0x00, 0x00, 0x00, 0x38, 0x00, 0x00, 0x00,
  0x84, 0xd6, 0xff, 0xff, 0x28, 0x00, 0x00, 0x00, 0x73, 0x65, 0x71, 0x75,
  0x65, 0x6e, 0x74, 0x69, 0x61, 0x6c, 0x5f, 0x31, 0x5f, 0x31, 0x2f, 0x6c,
  0x73, 0x74, 0x6d, 0x5f, 0x31, 0x2f, 0x6c, 0x73, 0x74, 0x6d, 0x5f, 0x63,
  0x65, 0x6c, 0x6c, 0x5f, 0x31, 0x31, 0x2f, 0x6d, 0x75, 0x6c, 0x5f, 0x31,
  0x00, 0x00, 0x00, 0x00, 0x02, 0x00, 0x00, 0x00, 0x01, 0x00, 0x00, 0x00,
  0x04, 0x00, 0x00, 0x00, 0x5a, 0xd7, 0xff, 0xff, 0x00, 0x00, 0x00, 0x01,
  0x10, 0x00, 0x00, 0x00, 0x10, 0x00, 0x00, 0x00, 0x78, 0x00, 0x00, 0x00,
  0x34, 0x00, 0x00, 0x00, 0xdc, 0xd6, 0xff, 0xff, 0x27, 0x00, 0x00, 0x00,
  0x73, 0x65, 0x71, 0x75, 0x65, 0x6e, 0x74, 0x69, 0x61, 0x6c, 0x5f, 0x31,
  0x5f, 0x31, 0x2f, 0x6c, 0x73, 0x74, 0x6d, 0x5f, 0x31, 0x2f, 0x6c, 0x73,
  0x74, 0x6d, 0x5f, 0x63, 0x65, 0x6c, 0x6c, 0x5f, 0x31, 0x31, 0x2f, 0x54,
  0x61, 0x6e, 0x68, 0x00, 0x02, 0x00, 0x00, 0x00, 0x01, 0x00, 0x00, 0x00,
  0x04, 0x00, 0x00, 0x00, 0xae, 0xd7, 0xff, 0xff, 0x00, 0x00, 0x00, 0x01,
  0x10, 0x00, 0x00, 0x00, 0x10, 0x00, 0x00, 0x00, 0x77, 0x00, 0x00, 0x00,
  0x3c, 0x00, 0x00, 0x00, 0x30, 0xd7, 0xff, 0xff, 0x2c, 0x00, 0x00, 0x00,
  0x73, 0x65, 0x71, 0x75, 0x65, 0x6e, 0x74, 0x69, 0x61, 0x6c, 0x5f, 0x31,
  0x5f, 0x31, 0x2f, 0x6c, 0x73, 0x74, 0x6d, 0x5f, 0x31, 0x2f, 0x6c, 0x73,
  0x74, 0x6d, 0x5f, 0x63, 0x65, 0x6c, 0x6c, 0x5f, 0x31, 0x31, 0x2f, 0x53,
  0x69, 0x67, 0x6d, 0x6f, 0x69, 0x64, 0x5f, 0x32, 0x00, 0x00, 0x00, 0x00,
  0x02, 0x00, 0x00, 0x00, 0x01, 0x00, 0x00, 0x00, 0x04, 0x00, 0x00, 0x00,
  0x0a, 0xd8, 0xff, 0xff, 0x00, 0x00, 0x00, 0x01, 0x10, 0x00, 0x00, 0x00,
  0x10, 0x00, 0x00, 0x00, 0x76, 0x00, 0x00, 0x00, 0x34, 0x00, 0x00, 0x00,
  0x8c, 0xd7, 0xff, 0xff, 0x26, 0x00, 0x00, 0x00, 0x73, 0x65, 0x71, 0x75,
  0x65, 0x6e, 0x74, 0x69, 0x61, 0x6c, 0x5f, 0x31, 0x5f, 0x31, 0x2f, 0x6c,
  0x73, 0x74, 0x6d, 0x5f, 0x31, 0x2f, 0x6c, 0x73, 0x74, 0x6d, 0x5f, 0x63,
  0x65, 0x6c, 0x6c, 0x5f, 0x31, 0x31, 0x2f, 0x6d, 0x75, 0x6c, 0x00, 0x00,
  0x02, 0x00, 0x00, 0x00, 0x01, 0x00, 0x00, 0x00, 0x04, 0x00, 0x00, 0x00,
  0x5e, 0xd8, 0xff, 0xff, 0x00, 0x00, 0x00, 0x01, 0x10, 0x00, 0x00, 0x00,
  0x10, 0x00, 0x00, 0x00, 0x75, 0x00, 0x00, 0x00, 0x3c, 0x00, 0x00, 0x00,
  0xe0, 0xd7, 0xff, 0xff, 0x2c, 0x00, 0x00, 0x00, 0x73, 0x65, 0x71, 0x75,
  0x65, 0x6e, 0x74, 0x69, 0x61, 0x6c, 0x5f, 0x31, 0x5f, 0x31, 0x2f, 0x6c,
  0x73, 0x74, 0x6d, 0x5f, 0x31, 0x2f, 0x6c, 0x73, 0x74, 0x6d, 0x5f, 0x63,
  0x65, 0x6c, 0x6c, 0x5f, 0x31, 0x31, 0x2f, 0x53, 0x69, 0x67, 0x6d, 0x6f,
  0x69, 0x64, 0x5f, 0x31, 0x00, 0x00, 0x00, 0x00, 0x02, 0x00, 0x00, 0x00,
  0x01, 0x00, 0x00, 0x00, 0x04, 0x00, 0x00, 0x00, 0xba, 0xd8, 0xff, 0xff,
  0x00, 0x00, 0x00, 0x01, 0x10, 0x00, 0x00, 0x00, 0x10, 0x00, 0x00, 0x00,
  0x74, 0x00, 0x00, 0x00, 0x38, 0x00, 0x00, 0x00, 0x3c, 0xd8, 0xff, 0xff,
  0x2a, 0x00, 0x00, 0x00, 0x73, 0x65, 0x71, 0x75, 0x65, 0x6e, 0x74, 0x69,
  0x61, 0x6c, 0x5f, 0x31, 0x5f, 0x31, 0x2f, 0x6c, 0x73, 0x74, 0x6d, 0x5f,
  0x31, 0x2f, 0x6c, 0x73, 0x74, 0x6d, 0x5f, 0x63, 0x65, 0x6c, 0x6c, 0x5f,
  0x31, 0x31, 0x2f, 0x53, 0x69, 0x67, 0x6d, 0x6f, 0x69, 0x64, 0x00, 0x00,
  0x02, 0x00, 0x00, 0x00, 0x01, 0x00, 0x00, 0x00, 0x04, 0x00, 0x00, 0x00,
  0x12, 0xd9, 0xff, 0xff, 0x00, 0x00, 0x00, 0x01, 0x10, 0x00, 0x00, 0x00,
  0x10, 0x00, 0x00, 0x00, 0x73, 0x00, 0x00, 0x00, 0x38, 0x00, 0x00, 0x00,
  0x94, 0xd8, 0xff, 0xff, 0x29, 0x00, 0x00, 0x00, 0x73, 0x65, 0x71, 0x75,
  0x65, 0x6e, 0x74, 0x69, 0x61, 0x6c, 0x5f, 0x31, 0x5f, 0x31, 0x2f, 0x6c,
  0x73, 0x74, 0x6d, 0x5f, 0x31, 0x2f, 0x6c, 0x73, 0x74, 0x6d, 0x5f, 0x63,
  0x65, 0x6c, 0x6c, 0x5f, 0x31, 0x31, 0x2f, 0x73, 0x70, 0x6c, 0x69, 0x74,
  0x33, 0x00, 0x00, 0x00, 0x02, 0x00, 0x00, 0x00, 0x01, 0x00, 0x00, 0x00,
  0x04, 0x00, 0x00, 0x00, 0x6a, 0xd9, 0xff, 0xff, 0x00, 0x00, 0x00, 0x01,
  0x10, 0x00, 0x00, 0x00, 0x10, 0x00, 0x00, 0x00, 0x72, 0x00, 0x00, 0x00,
  0x38, 0x00, 0x00, 0x00, 0xec, 0xd8, 0xff, 0xff, 0x29, 0x00, 0x00, 0x00,
  0x73, 0x65, 0x71, 0x75, 0x65, 0x6e, 0x74, 0x69, 0x61, 0x6c, 0x5f, 0x31,
  0x5f, 0x31, 0x2f, 0x6c, 0x73, 0x74, 0x6d, 0x5f, 0x31, 0x2f, 0x6c, 0x73,
  0x74, 0x6d, 0x5f, 0x63, 0x65, 0x6c, 0x6c, 0x5f, 0x31, 0x31, 0x2f, 0x73,
  0x70, 0x6c, 0x69, 0x74, 0x32, 0x00, 0x00, 0x00, 0x02, 0x00, 0x00, 0x00,
  0x01, 0x00, 0x00, 0x00, 0x04, 0x00, 0x00, 0x00, 0xc2, 0xd9, 0xff, 0xff,
  0x00, 0x00, 0x00, 0x01, 0x10, 0x00, 0x00, 0x00, 0x10, 0x00, 0x00, 0x00,
  0x71, 0x00, 0x00, 0x00, 0x38, 0x00, 0x00, 0x00, 0x44, 0xd9, 0xff, 0xff,
  0x29, 0x00, 0x00, 0x00, 0x73, 0x65, 0x71, 0x75, 0x65, 0x6e, 0x74, 0x69,
  0x61, 0x6c, 0x5f, 0x31, 0x5f, 0x31, 0x2f, 0x6c, 0x73, 0x74, 0x6d, 0x5f,
  0x31, 0x2f, 0x6c, 0x73, 0x74, 0x6d, 0x5f, 0x63, 0x65, 0x6c, 0x6c, 0x5f,
  0x31, 0x31, 0x2f, 0x73, 0x70, 0x6c, 0x69, 0x74, 0x31, 0x00, 0x00, 0x00,
  0x02, 0x00, 0x00, 0x00, 0x01, 0x00, 0x00, 0x00, 0x04, 0x00, 0x00, 0x00,
  0x1a, 0xda, 0xff, 0xff, 0x00, 0x00, 0x00, 0x01, 0x10, 0x00, 0x00, 0x00,
  0x10, 0x00, 0x00, 0x00, 0x70, 0x00, 0x00, 0x00, 0x38, 0x00, 0x00, 0x00,
  0x9c, 0xd9, 0xff, 0xff, 0x28, 0x00, 0x00, 0x00, 0x73, 0x65, 0x71, 0x75,
  0x65, 0x6e, 0x74, 0x69, 0x61, 0x6c, 0x5f, 0x31, 0x5f, 0x31, 0x2f, 0x6c,
  0x73, 0x74, 0x6d, 0x5f, 0x31, 0x2f, 0x6c, 0x73, 0x74, 0x6d, 0x5f, 0x63,
  0x65, 0x6c, 0x6c, 0x5f, 0x31, 0x31, 0x2f, 0x73, 0x70, 0x6c, 0x69, 0x74,
  0x00, 0x00, 0x00, 0x00, 0x02, 0x00, 0x00, 0x00, 0x01, 0x00, 0x00, 0x00,
  0x04, 0x00, 0x00, 0x00, 0x72, 0xda, 0xff, 0xff, 0x00, 0x00, 0x00, 0x01,
  0x10, 0x00, 0x00, 0x00, 0x10, 0x00, 0x00, 0x00, 0x6f, 0x00, 0x00, 0x00,
  0x3c, 0x00, 0x00, 0x00, 0xf4, 0xd9, 0xff, 0xff, 0x2c, 0x00, 0x00, 0x00,
  0x73, 0x65, 0x71, 0x75, 0x65, 0x6e, 0x74, 0x69, 0x61, 0x6c, 0x5f, 0x31,
  0x5f, 0x31, 0x2f, 0x6c, 0x73, 0x74, 0x6d, 0x5f, 0x31, 0x2f, 0x6c, 0x73,
  0x74, 0x6d, 0x5f, 0x63, 0x65, 0x6c, 0x6c, 0x5f, 0x31, 0x31, 0x2f, 0x42,
  0x69, 0x61, 0x73, 0x41, 0x64, 0x64, 0x5f, 0x31, 0x00, 0x00, 0x00, 0x00,
  0x02, 0x00, 0x00, 0x00, 0x01, 0x00, 0x00, 0x00, 0x10, 0x00, 0x00, 0x00,
  0xce, 0xda, 0xff, 0xff, 0x00, 0x00, 0x00, 0x01, 0x10, 0x00, 0x00, 0x00,
  0x10, 0x00, 0x00, 0x00, 0x6e, 0x00, 0x00, 0x00, 0x38, 0x00, 0x00, 0x00,
  0x50, 0xda, 0xff, 0xff, 0x2a, 0x00, 0x00, 0x00, 0x73, 0x65, 0x71, 0x75,
  0x65, 0x6e, 0x74, 0x69, 0x61, 0x6c, 0x5f, 0x31, 0x5f, 0x31, 0x2f, 0x6c,
  0x73, 0x74, 0x6d, 0x5f, 0x31, 0x2f, 0x6c, 0x73, 0x74, 0x6d, 0x5f, 0x63,
  0x65, 0x6c, 0x6c, 0x5f, 0x31, 0x31, 0x2f, 0x42, 0x69, 0x61, 0x73, 0x41,
  0x64, 0x64, 0x00, 0x00, 0x02, 0x00, 0x00, 0x00, 0x01, 0x00, 0x00, 0x00,
  0x10, 0x00, 0x00, 0x00, 0x26, 0xdb, 0xff, 0xff, 0x00, 0x00, 0x00, 0x01,
  0x10, 0x00, 0x00, 0x00, 0x10, 0x00, 0x00, 0x00, 0x6d, 0x00, 0x00, 0x00,
  0x38, 0x00, 0x00, 0x00, 0xa8, 0xda, 0xff, 0xff, 0x2a, 0x00, 0x00, 0x00,
  0x73, 0x65, 0x71, 0x75, 0x65, 0x6e, 0x74, 0x69, 0x61, 0x6c, 0x5f, 0x31,
  0x5f, 0x31, 0x2f, 0x6c, 0x73, 0x74, 0x6d, 0x5f, 0x31, 0x2f, 0x6c, 0x73,
  0x74, 0x6d, 0x5f, 0x63, 0x65, 0x6c, 0x6c, 0x5f, 0x31, 0x31, 0x2f, 0x53,
  0x71, 0x75, 0x65, 0x65, 0x7a, 0x65, 0x00, 0x00, 0x01, 0x00, 0x00, 0x00,
  0x10, 0x00, 0x00, 0x00, 0x7a, 0xdb, 0xff, 0xff, 0x00, 0x00, 0x00, 0x01,
  0x10, 0x00, 0x00, 0x00, 0x10, 0x00, 0x00, 0x00, 0x6c, 0x00, 0x00, 0x00,
  0x38, 0x00, 0x00, 0x00, 0xfc, 0xda, 0xff, 0xff, 0x2b, 0x00, 0x00, 0x00,
  0x73, 0x65, 0x71, 0x75, 0x65, 0x6e, 0x74, 0x69, 0x61, 0x6c, 0x5f, 0x31,
  0x5f, 0x31, 0x2f, 0x6c, 0x73, 0x74, 0x6d, 0x5f, 0x31, 0x2f, 0x6c, 0x73,
  0x74, 0x6d, 0x5f, 0x63, 0x65, 0x6c, 0x6c, 0x5f, 0x31, 0x31, 0x2f, 0x4d,
  0x61, 0x74, 0x4d, 0x75, 0x6c, 0x5f, 0x31, 0x00, 0x02, 0x00, 0x00, 0x00,
  0x01, 0x00, 0x00, 0x00, 0x10, 0x00, 0x00, 0x00, 0xd2, 0xdb, 0xff, 0xff,
  0x00, 0x00, 0x00, 0x01, 0x10, 0x00, 0x00, 0x00, 0x10, 0x00, 0x00, 0x00,
  0x6b, 0x00, 0x00, 0x00, 0x34, 0x00, 0x00, 0x00, 0x54, 0xdb, 0xff, 0xff,
  0x27, 0x00, 0x00, 0x00, 0x73, 0x65, 0x71, 0x75, 0x65, 0x6e, 0x74, 0x69,
  0x61, 0x6c, 0x5f, 0x31, 0x5f, 0x31, 0x2f, 0x6c, 0x73, 0x74, 0x6d, 0x5f,
  0x31, 0x2f, 0x6c, 0x73, 0x74, 0x6d, 0x5f, 0x63, 0x65, 0x6c, 0x6c, 0x5f,
  0x39, 0x2f, 0x6d, 0x75, 0x6c, 0x5f, 0x32, 0x00, 0x02, 0x00, 0x00, 0x00,
  0x01, 0x00, 0x00, 0x00, 0x04, 0x00, 0x00, 0x00, 0x26, 0xdc, 0xff, 0xff,
  0x00, 0x00, 0x00, 0x01, 0x10, 0x00, 0x00, 0x00, 0x10, 0x00, 0x00, 0x00,
  0x6a, 0x00, 0x00, 0x00, 0x38, 0x00, 0x00, 0x00, 0xa8, 0xdb, 0xff, 0xff,
  0x28, 0x00, 0x00, 0x00, 0x73, 0x65, 0x71, 0x75, 0x65, 0x6e, 0x74, 0x69,
  0x61, 0x6c, 0x5f, 0x31, 0x5f, 0x31, 0x2f, 0x6c, 0x73, 0x74, 0x6d, 0x5f,
  0x31, 0x2f, 0x6c, 0x73, 0x74, 0x6d, 0x5f, 0x63, 0x65, 0x6c, 0x6c, 0x5f,
  0x39, 0x2f, 0x54, 0x61, 0x6e, 0x68, 0x5f, 0x31, 0x00, 0x00, 0x00, 0x00,
