unsigned char tflite_models_conv_lr0_0001_bs32_hybrid_tflite[] = {
  0x20, 0x00, 0x00, 0x00, 0x54, 0x46, 0x4c, 0x33, 0x00, 0x00, 0x00, 0x00,
  0x14, 0x00, 0x20, 0x00, 0x1c, 0x00, 0x18, 0x00, 0x14, 0x00, 0x10, 0x00,
  0x0c, 0x00, 0x00, 0x00, 0x08, 0x00, 0x04, 0x00, 0x14, 0x00, 0x00, 0x00,
  0x1c, 0x00, 0x00, 0x00, 0x8c, 0x00, 0x00, 0x00, 0xe4, 0x00, 0x00, 0x00,
  0x00, 0x15, 0x00, 0x00, 0x10, 0x15, 0x00, 0x00, 0x24, 0x1e, 0x00, 0x00,
  0x03, 0x00, 0x00, 0x00, 0x01, 0x00, 0x00, 0x00, 0x04, 0x00, 0x00, 0x00,
  0x5e, 0xea, 0xff, 0xff, 0x0c, 0x00, 0x00, 0x00, 0x1c, 0x00, 0x00, 0x00,
  0x3c, 0x00, 0x00, 0x00, 0x0f, 0x00, 0x00, 0x00, 0x73, 0x65, 0x72, 0x76,
  0x69, 0x6e, 0x67, 0x5f, 0x64, 0x65, 0x66, 0x61, 0x75, 0x6c, 0x74, 0x00,
  0x01, 0x00, 0x00, 0x00, 0x04, 0x00, 0x00, 0x00, 0x90, 0xff, 0xff, 0xff,
  0x0b, 0x00, 0x00, 0x00, 0x04, 0x00, 0x00, 0x00, 0x08, 0x00, 0x00, 0x00,
  0x6f, 0x75, 0x74, 0x70, 0x75, 0x74, 0x5f, 0x30, 0x00, 0x00, 0x00, 0x00,
  0x01, 0x00, 0x00, 0x00, 0x04, 0x00, 0x00, 0x00, 0xc2, 0xeb, 0xff, 0xff,
  0x04, 0x00, 0x00, 0x00, 0x0f, 0x00, 0x00, 0x00, 0x6b, 0x65, 0x72, 0x61,
  0x73, 0x5f, 0x74, 0x65, 0x6e, 0x73, 0x6f, 0x72, 0x5f, 0x31, 0x30, 0x00,
  0x02, 0x00, 0x00, 0x00, 0x34, 0x00, 0x00, 0x00, 0x04, 0x00, 0x00, 0x00,
  0xdc, 0xff, 0xff, 0xff, 0x0e, 0x00, 0x00, 0x00, 0x04, 0x00, 0x00, 0x00,
  0x13, 0x00, 0x00, 0x00, 0x43, 0x4f, 0x4e, 0x56, 0x45, 0x52, 0x53, 0x49,
  0x4f, 0x4e, 0x5f, 0x4d, 0x45, 0x54, 0x41, 0x44, 0x41, 0x54, 0x41, 0x00,
  0x08, 0x00, 0x0c, 0x00, 0x08, 0x00, 0x04, 0x00, 0x08, 0x00, 0x00, 0x00,
  0x0d, 0x00, 0x00, 0x00, 0x04, 0x00, 0x00, 0x00, 0x13, 0x00, 0x00, 0x00,
  0x6d, 0x69, 0x6e, 0x5f, 0x72, 0x75, 0x6e, 0x74, 0x69, 0x6d, 0x65, 0x5f,
  0x76, 0x65, 0x72, 0x73, 0x69, 0x6f, 0x6e, 0x00, 0x0f, 0x00, 0x00, 0x00,
  0x18, 0x14, 0x00, 0x00, 0x10, 0x14, 0x00, 0x00, 0xc0, 0x13, 0x00, 0x00,
  0xe8, 0x0c, 0x00, 0x00, 0xd0, 0x0c, 0x00, 0x00, 0x40, 0x0c, 0x00, 0x00,
  0x14, 0x0c, 0x00, 0x00, 0x04, 0x06, 0x00, 0x00, 0xb4, 0x00, 0x00, 0x00,
  0xac, 0x00, 0x00, 0x00, 0xa4, 0x00, 0x00, 0x00, 0x9c, 0x00, 0x00, 0x00,
  0x94, 0x00, 0x00, 0x00, 0x74, 0x00, 0x00, 0x00, 0x04, 0x00, 0x00, 0x00,
  0x7a, 0xec, 0xff, 0xff, 0x04, 0x00, 0x00, 0x00, 0x60, 0x00, 0x00, 0x00,
  0x0c, 0x00, 0x00, 0x00, 0x08, 0x00, 0x0e, 0x00, 0x08, 0x00, 0x04, 0x00,
  0x08, 0x00, 0x00, 0x00, 0x10, 0x00, 0x00, 0x00, 0x28, 0x00, 0x00, 0x00,
  0x00, 0x00, 0x06, 0x00, 0x08, 0x00, 0x04, 0x00, 0x06, 0x00, 0x00, 0x00,
  0x04, 0x00, 0x00, 0x00, 0x01, 0x00, 0x00, 0x00, 0xea, 0x03, 0x00, 0x00,
  0x0c, 0x00, 0x18, 0x00, 0x14, 0x00, 0x10, 0x00, 0x0c, 0x00, 0x04, 0x00,
  0x0c, 0x00, 0x00, 0x00, 0xd6, 0x80, 0xe2, 0x7b, 0x64, 0x56, 0xf6, 0x7f,
  0x02, 0x00, 0x00, 0x00, 0x02, 0x00, 0x00, 0x00, 0x04, 0x00, 0x00, 0x00,
  0x06, 0x00, 0x00, 0x00, 0x32, 0x2e, 0x32, 0x31, 0x2e, 0x30, 0x00, 0x00,
  0xe6, 0xec, 0xff, 0xff, 0x04, 0x00, 0x00, 0x00, 0x10, 0x00, 0x00, 0x00,
  0x32, 0x2e, 0x31, 0x37, 0x2e, 0x30, 0x00, 0x00, 0x00, 0x00, 0x00, 0x00,
  0x00, 0x00, 0x00, 0x00, 0xc0, 0xe3, 0xff, 0xff, 0xc4, 0xe3, 0xff, 0xff,
  0xc8, 0xe3, 0xff, 0xff, 0xcc, 0xe3, 0xff, 0xff, 0x12, 0xed, 0xff, 0xff,
  0x04, 0x00, 0x00, 0x00, 0x40, 0x05, 0x00, 0x00, 0x18, 0x31, 0x30, 0x3c,
  0x66, 0x0f, 0xea, 0x0a, 0x13, 0x2b, 0xdc, 0xdc, 0xa8, 0x9f, 0xe5, 0xec,
  0xf1, 0x12, 0xab, 0xcb, 0xc0, 0x10, 0xd3, 0xcd, 0x05, 0x37, 0xc7, 0xef,
  0x3b, 0x2d, 0x06, 0xdb, 0xfc, 0xc4, 0xd2, 0xde, 0x19, 0x9a, 0x4e, 0x46,
  0x29, 0xc8, 0x2b, 0x4c, 0xbd, 0xb2, 0x81, 0x36, 0xe0, 0xd8, 0xe4, 0xe3,
  0xe6, 0xc1, 0xf3, 0x2d, 0x0e, 0x0f, 0xfa, 0x52, 0xe7, 0xe8, 0x1b, 0xfc,
  0xf2, 0x09, 0x15, 0x2d, 0x59, 0xc1, 0x21, 0x1b, 0x3b, 0xd4, 0xfa, 0x3f,
  0xdf, 0x16, 0x93, 0x3d, 0xa6, 0xfe, 0x38, 0xea, 0xd0, 0x22, 0x10, 0x38,
  0x27, 0xe1, 0x15, 0x0b, 0x1c, 0xf6, 0x0a, 0xb7, 0xe4, 0x07, 0xf3, 0x4e,
  0xce, 0xd9, 0xbb, 0x41, 0x40, 0xd0, 0x2b, 0xe5, 0xf5, 0x28, 0x02, 0x1a,
  0x3a, 0xe3, 0xe1, 0x4a, 0x36, 0x49, 0x17, 0x25, 0x2f, 0x05, 0x20, 0xd2,
  0x1a, 0x0a, 0x2d, 0xc6, 0x3e, 0x14, 0xbf, 0x57, 0x18, 0xf8, 0xf1, 0x1f,
  0x22, 0x34, 0x2e, 0xb9, 0xaa, 0xf7, 0xa4, 0x08, 0xf7, 0x3b, 0xb3, 0x52,
  0xbf, 0x1d, 0xe0, 0xe6, 0xf1, 0x08, 0x4a, 0xe5, 0xe3, 0x27, 0x17, 0xd1,
  0xf0, 0x45, 0x19, 0x63, 0x2b, 0xcc, 0xad, 0x13, 0xfe, 0xb9, 0x39, 0x20,
  0xdc, 0x5d, 0xb8, 0x6a, 0x00, 0x18, 0xb5, 0x28, 0x27, 0x3f, 0x3a, 0xed,
  0x49, 0xfd, 0xf2, 0xba, 0x4e, 0x1b, 0x30, 0x27, 0xc3, 0xeb, 0xc2, 0x20,
  0x49, 0x7f, 0xec, 0x2a, 0xbf, 0x16, 0x22, 0xed, 0x0f, 0x18, 0x0a, 0x24,
  0x4d, 0xea, 0x30, 0x38, 0xdd, 0x2c, 0xae, 0xe5, 0x29, 0xea, 0xbb, 0x49,
  0x10, 0x05, 0x13, 0x07, 0x36, 0x49, 0xc4, 0xcb, 0x07, 0xfd, 0xc5, 0x4e,
  0x00, 0xeb, 0xf9, 0x14, 0xc4, 0xc5, 0x3c, 0xc7, 0x0b, 0xae, 0xb5, 0x3f,
  0x29, 0xc6, 0x40, 0xf8, 0x35, 0xef, 0xc3, 0xd0, 0xdb, 0x4d, 0xaf, 0xd3,
  0xcb, 0x50, 0x29, 0xea, 0x4d, 0x34, 0x3a, 0xa3, 0x28, 0x04, 0xbf, 0xf0,
  0xba, 0xf9, 0xbd, 0xe8, 0x28, 0xa2, 0x2c, 0xf5, 0x54, 0xf5, 0xa5, 0x38,
  0x19, 0x17, 0x5d, 0x02, 0x32, 0x1b, 0x18, 0x3a, 0x06, 0x5a, 0x19, 0x3c,
  0xd4, 0xe4, 0x10, 0x27, 0x3d, 0x02, 0x17, 0xe3, 0xd3, 0xe3, 0x4c, 0x3f,
  0x51, 0xff, 0xfa, 0xce, 0xe4, 0x50, 0xbb, 0x24, 0xe2, 0xd5, 0x45, 0xec,
  0x0a, 0x3c, 0xd5, 0x5c, 0x33, 0x59, 0x0f, 0x25, 0xef, 0x72, 0xf0, 0xb5,
  0x1c, 0xe0, 0xbd, 0xfc, 0x14, 0xb8, 0xed, 0x16, 0xf7, 0xbd, 0xc0, 0x43,
  0x2f, 0x9e, 0xc4, 0xc9, 0x1f, 0xc8, 0x3a, 0xbe, 0x66, 0x20, 0xb9, 0xda,
  0xcc, 0x3e, 0x1d, 0xfd, 0xf1, 0x49, 0xef, 0x1c, 0xef, 0xdc, 0xba, 0x01,
  0x4c, 0x06, 0x59, 0xf2, 0x2f, 0xc7, 0x08, 0x15, 0xc7, 0xf9, 0x3e, 0xd4,
  0x34, 0x04, 0xe3, 0x05, 0x1f, 0xee, 0xf7, 0xf7, 0x7e, 0xe6, 0xcf, 0xd6,
  0xb6, 0xe4, 0x26, 0xe2, 0x3a, 0x2d, 0xfd, 0x09, 0x1e, 0xb7, 0x2b, 0x15,
  0x0e, 0x5a, 0xe7, 0x55, 0x44, 0x73, 0x04, 0xd1, 0xbc, 0xd5, 0xb9, 0x27,
  0x2e, 0xae, 0x7f, 0x0a, 0x52, 0x3d, 0xd0, 0x36, 0x2a, 0xd4, 0x16, 0x47,
  0x68, 0xfc, 0xcc, 0xec, 0x34, 0xb8, 0x5c, 0xd7, 0x4e, 0x2b, 0x1c, 0xe7,
  0xe3, 0xe6, 0x5e, 0xf6, 0x4c, 0xe6, 0xb3, 0x3f, 0x51, 0xb6, 0xf5, 0xb6,
  0x00, 0x55, 0x41, 0x50, 0xd1, 0x08, 0x24, 0x12, 0x6a, 0x4c, 0x19, 0x54,
  0x37, 0x4c, 0x0c, 0xe7, 0x5c, 0x68, 0xee, 0x1d, 0xf9, 0x71, 0xd5, 0xaf,
  0xf5, 0x12, 0x08, 0xef, 0x2d, 0xcc, 0x0a, 0xd5, 0x0d, 0x22, 0x43, 0x41,
  0xea, 0xbe, 0xed, 0xe3, 0x6f, 0x15, 0x20, 0x27, 0x13, 0x1d, 0x1b, 0xca,
  0x6b, 0x64, 0xce, 0x01, 0x4d, 0xda, 0x3a, 0x20, 0xd2, 0x4a, 0xd4, 0xd8,
  0x2b, 0x3e, 0x17, 0x49, 0x07, 0x12, 0x4e, 0xc4, 0xb1, 0xd7, 0x4a, 0xf8,
  0xf8, 0xf2, 0xda, 0x39, 0x2a, 0xf9, 0x2b, 0x25, 0x7a, 0xdf, 0x0f, 0x39,
  0x49, 0x32, 0xf6, 0xe0, 0x59, 0x45, 0x04, 0x6a, 0x7d, 0x08, 0x67, 0xc9,
  0x06, 0xed, 0x57, 0xef, 0xe0, 0x2b, 0x63, 0xfe, 0x1c, 0x4f, 0xd0, 0x42,
  0xdd, 0x0a, 0x56, 0xdb, 0x42, 0x07, 0x5a, 0x1f, 0x29, 0xdf, 0x3d, 0x20,
  0x39, 0x2f, 0xca, 0x0f, 0x16, 0x39, 0xfa, 0xf7, 0x06, 0x1e, 0x44, 0xf4,
  0xfe, 0x19, 0xa2, 0x02, 0x4d, 0x38, 0x05, 0xa6, 0x33, 0x21, 0xb7, 0x8c,
  0x58, 0xee, 0x0d, 0xcb, 0x1b, 0xf7, 0x26, 0xac, 0xa8, 0x26, 0x14, 0x1d,
  0x00, 0x09, 0x08, 0xfa, 0xfe, 0xc7, 0x93, 0x31, 0x1c, 0xe4, 0x5a, 0xe2,
  0x81, 0xde, 0x0b, 0x22, 0xe2, 0x27, 0x0f, 0x3c, 0xba, 0x08, 0xa9, 0x4c,
  0xa5, 0x36, 0xdc, 0x25, 0x25, 0x26, 0xf9, 0x23, 0x14, 0x14, 0xe1, 0x04,
  0xe5, 0xee, 0xff, 0xba, 0x19, 0x07, 0x3e, 0xd3, 0xf6, 0x0a, 0xe5, 0x6e,
  0x3a, 0xe1, 0x2d, 0xf8, 0xe1, 0xbc, 0x30, 0x2c, 0xfc, 0xca, 0x19, 0x4a,
  0x19, 0x9a, 0x13, 0xa4, 0xd4, 0x05, 0x02, 0xb9, 0x2d, 0x05, 0x39, 0x37,
  0xbf, 0x42, 0xae, 0x4a, 0x5b, 0xc9, 0xef, 0x9f, 0x11, 0xd0, 0x55, 0x49,
  0xf3, 0x55, 0xdf, 0x2b, 0x27, 0x05, 0xf4, 0xf8, 0x2b, 0x64, 0x16, 0x39,
  0xf4, 0xe8, 0x30, 0x6b, 0x34, 0xf1, 0x53, 0x5b, 0x41, 0xb4, 0xdb, 0xd4,
  0xbd, 0x2c, 0x17, 0x41, 0xdc, 0xc5, 0xcc, 0xd5, 0x2f, 0x9b, 0x45, 0x08,
  0xf8, 0xfe, 0xbe, 0x00, 0xe5, 0xc3, 0xed, 0xe1, 0xd2, 0x07, 0x2e, 0xd4,
  0xba, 0x2f, 0xb5, 0xa1, 0xd2, 0xf4, 0x36, 0x0c, 0x25, 0xfe, 0x2a, 0xd2,
  0xeb, 0x4d, 0xdf, 0x24, 0xfe, 0x5c, 0xfc, 0xae, 0x01, 0x11, 0x29, 0xc2,
  0x1b, 0xe3, 0xd6, 0xf7, 0x44, 0xeb, 0xa6, 0x0a, 0x23, 0xaf, 0x0c, 0x0d,
  0xf9, 0xcf, 0xfd, 0x0f, 0x37, 0xf4, 0x2a, 0x18, 0x40, 0x93, 0x26, 0xdb,
  0xc2, 0x89, 0x26, 0x34, 0x46, 0x08, 0x11, 0x21, 0xd3, 0xf6, 0x53, 0x44,
  0x39, 0xe2, 0x20, 0xac, 0xe8, 0x18, 0x2e, 0xc5, 0x1b, 0x52, 0xe6, 0xc5,
  0x9d, 0xfd, 0xef, 0xdd, 0xef, 0x48, 0x58, 0x00, 0x64, 0x2a, 0x02, 0xdb,
  0x16, 0x3f, 0xd7, 0xef, 0x2a, 0xe2, 0xc0, 0x9c, 0xef, 0xda, 0x51, 0x1a,
  0x27, 0x21, 0xa1, 0xfc, 0x08, 0xc2, 0xe0, 0xba, 0x32, 0x26, 0xd1, 0x21,
  0xec, 0xf7, 0xab, 0x15, 0xf0, 0xf5, 0x92, 0xad, 0x9f, 0x08, 0x32, 0xde,
  0x2e, 0x2c, 0xd1, 0x38, 0xc6, 0x34, 0xc5, 0x56, 0xf2, 0x06, 0x65, 0x0f,
  0xbd, 0xf5, 0x4e, 0x4d, 0x0a, 0xde, 0xfa, 0x45, 0xf4, 0x34, 0xe2, 0x6f,
  0x9a, 0x3b, 0x23, 0x50, 0xe4, 0xfb, 0x17, 0x2c, 0xf0, 0x06, 0xdc, 0xba,
  0xd5, 0x09, 0xba, 0x81, 0xe7, 0x2c, 0xf1, 0x3a, 0xe6, 0x1d, 0x06, 0x47,
  0x16, 0xaf, 0x47, 0xba, 0xf7, 0x36, 0x15, 0xbd, 0x0f, 0x42, 0x25, 0xbc,
  0x31, 0xfb, 0xf9, 0x30, 0x0a, 0x21, 0xf9, 0x14, 0xf1, 0xfe, 0x0c, 0x4c,
  0xd8, 0xf1, 0xba, 0xcf, 0x47, 0x11, 0xd5, 0xd8, 0xdd, 0x43, 0xc6, 0x42,
  0xc7, 0xc9, 0xde, 0xda, 0x44, 0xbb, 0x05, 0x13, 0x02, 0xcc, 0xdb, 0xe3,
  0xcf, 0xdf, 0x3f, 0x36, 0x70, 0x08, 0x02, 0x07, 0x11, 0xcc, 0xb3, 0x15,
  0xdb, 0x0d, 0x04, 0x21, 0x1a, 0x38, 0x22, 0x2d, 0xdd, 0xde, 0xf9, 0x2d,
  0xcf, 0xf8, 0xfd, 0xe5, 0x25, 0xf8, 0x9f, 0x2f, 0x0c, 0x2a, 0x37, 0xe8,
  0x14, 0x0d, 0x56, 0xf5, 0xd6, 0x30, 0x03, 0xca, 0x57, 0x12, 0xab, 0x07,
  0x33, 0x04, 0xa9, 0x2c, 0x0b, 0xe4, 0x11, 0x32, 0x60, 0xd3, 0x1e, 0xde,
  0xb6, 0xdd, 0x3a, 0xc0, 0x20, 0x1e, 0x41, 0x25, 0xfe, 0xff, 0xcb, 0x05,
  0x0d, 0x3d, 0xd0, 0x13, 0xbf, 0xfb, 0x0e, 0x81, 0x8f, 0xd4, 0x4a, 0x1f,
  0x1c, 0xdd, 0xf6, 0xaf, 0x16, 0xf7, 0xb6, 0x00, 0x5b, 0x01, 0x56, 0xd7,
  0xce, 0xde, 0x8b, 0x28, 0x36, 0xd7, 0xea, 0x4d, 0xca, 0xb4, 0x5d, 0xb0,
  0xc0, 0x1c, 0xd7, 0x41, 0x1b, 0xe9, 0xf8, 0xf0, 0xd8, 0x30, 0xee, 0xe0,
  0xc9, 0x01, 0x2f, 0xd2, 0xef, 0xc8, 0xda, 0x5f, 0xc4, 0xc2, 0xd3, 0x2d,
  0xfd, 0xc8, 0x63, 0xc4, 0x22, 0x38, 0xe2, 0x27, 0x4b, 0xe8, 0xf6, 0xf2,
  0xdb, 0x69, 0x30, 0x1f, 0x23, 0xf5, 0xdc, 0xe7, 0x18, 0xe3, 0xfc, 0x48,
  0xa0, 0x7a, 0x18, 0x2f, 0x32, 0xe1, 0x1a, 0x17, 0x06, 0x1a, 0xb7, 0xdb,
  0x07, 0xff, 0x35, 0x28, 0xf7, 0xd4, 0x5f, 0x1f, 0x42, 0xae, 0xcd, 0xc0,
  0xc0, 0x3b, 0x2d, 0x30, 0xce, 0x41, 0x3d, 0xe5, 0x25, 0xef, 0xd4, 0xdc,
  0x0f, 0x44, 0x19, 0xa1, 0xca, 0x32, 0xda, 0x23, 0x27, 0x0b, 0xf2, 0xef,
  0xa5, 0xcf, 0xab, 0xc2, 0x2d, 0x56, 0xa5, 0x59, 0xfb, 0xf7, 0x2e, 0xec,
  0xc3, 0x2c, 0x15, 0xed, 0xe1, 0x03, 0x16, 0x3b, 0x23, 0x31, 0x18, 0xdc,
  0xc1, 0x42, 0xb4, 0x17, 0x1e, 0xd1, 0xe2, 0xe4, 0x4e, 0x1c, 0x3d, 0x79,
  0xda, 0x20, 0x35, 0xbf, 0x0d, 0x12, 0x93, 0x47, 0x21, 0xe1, 0x05, 0xe4,
  0xa3, 0xd1, 0x12, 0xa5, 0xeb, 0x20, 0xe6, 0xd8, 0x5f, 0x8f, 0xe8, 0x3c,
  0x51, 0x11, 0x28, 0x5f, 0x30, 0x4a, 0x30, 0x2f, 0xc1, 0xe4, 0x1b, 0x3a,
  0xea, 0x20, 0xf1, 0xc4, 0x19, 0xf6, 0x12, 0x45, 0x35, 0x1f, 0xb7, 0x09,
  0x27, 0x52, 0xf9, 0x4d, 0xa5, 0xf0, 0x2c, 0x2d, 0x8f, 0x0c, 0x06, 0xa5,
  0x46, 0xe2, 0xf3, 0xd2, 0x40, 0xc6, 0xfb, 0x02, 0xcc, 0xfc, 0xfe, 0xf0,
  0x11, 0x30, 0x0f, 0xc2, 0xe4, 0xe2, 0x03, 0x35, 0x9e, 0x9c, 0xcd, 0xc8,
  0x30, 0x18, 0x1b, 0xc5, 0x8d, 0xe3, 0xc5, 0xfb, 0xcb, 0xd3, 0xf9, 0xca,
  0x08, 0xae, 0x1c, 0xd7, 0x30, 0xc5, 0x24, 0x49, 0x19, 0xcf, 0xe8, 0x38,
  0x02, 0x32, 0x4c, 0x95, 0x34, 0xd0, 0x7f, 0x10, 0xff, 0xd8, 0x04, 0xf4,
  0x3d, 0x0b, 0x2e, 0x30, 0xc1, 0x02, 0xf1, 0xe0, 0xf6, 0x50, 0x27, 0xe2,
  0x28, 0x18, 0x2c, 0xde, 0xfb, 0x0b, 0xcf, 0x1f, 0x52, 0xfb, 0xb2, 0x5a,
  0xf2, 0xbf, 0xba, 0x32, 0x04, 0x4d, 0x01, 0xc5, 0x5e, 0xf2, 0xff, 0xff,
  0x04, 0x00, 0x00, 0x00, 0x00, 0x06, 0x00, 0x00, 0x4b, 0xf9, 0xb5, 0x27,
  0x57, 0xe3, 0xfd, 0xed, 0x56, 0xb1, 0xdc, 0xdd, 0x2a, 0x57, 0xe3, 0x08,
  0xc8, 0x33, 0xcb, 0xed, 0x36, 0xb7, 0x7f, 0xc2, 0x1b, 0xdd, 0x01, 0x09,
  0x2a, 0x07, 0xcb, 0x43, 0xea, 0x11, 0x06, 0x04, 0x09, 0xaa, 0x2b, 0xc6,
  0x15, 0xb8, 0xca, 0xfc, 0xb4, 0x52, 0x35, 0x1f, 0x44, 0xb4, 0x06, 0x15,
  0x2c, 0xc2, 0x36, 0x10, 0xf7, 0xf3, 0x03, 0x3d, 0xd9, 0x5c, 0x37, 0x49,
  0xec, 0x08, 0xd4, 0x03, 0xfa, 0x4c, 0xb4, 0x08, 0x37, 0x08, 0x04, 0x48,
  0x36, 0x02, 0x2e, 0x36, 0x1c, 0xe6, 0x0a, 0x47, 0xd5, 0xb8, 0x01, 0x0c,
  0x24, 0x10, 0xc8, 0xa6, 0xf6, 0x7f, 0x2d, 0xb3, 0x3a, 0xc5, 0x4c, 0x36,
  0xe5, 0x5d, 0xe7, 0x1c, 0xb8, 0xf4, 0x27, 0xc0, 0xf7, 0x7f, 0x55, 0x35,
  0xbf, 0x41, 0xb6, 0x07, 0xa5, 0x02, 0xd6, 0x28, 0x00, 0x31, 0x52, 0x10,
  0x18, 0xd5, 0xae, 0x21, 0x34, 0x44, 0x43, 0xb2, 0x1e, 0x3c, 0x3b, 0x61,
  0xd1, 0xde, 0x16, 0x22, 0x1b, 0x7c, 0xb3, 0x48, 0x08, 0x4b, 0x57, 0x22,
  0x35, 0xdc, 0x60, 0xf3, 0xc2, 0xc9, 0x47, 0x20, 0x2a, 0x17, 0x7f, 0xc7,
  0x6c, 0xcb, 0xfa, 0xe6, 0xce, 0xcd, 0x00, 0xe9, 0x4a, 0x38, 0x18, 0xde,
  0xe0, 0xdd, 0x1a, 0xba, 0x48, 0xd3, 0xc9, 0xd1, 0xf0, 0x33, 0xd5, 0x35,
  0x1a, 0xf8, 0x03, 0xe2, 0x10, 0xe6, 0x37, 0x5d, 0xee, 0x3c, 0x04, 0xd9,
  0xc7, 0xe0, 0xf7, 0x13, 0x8d, 0xba, 0x3a, 0x0f, 0xf8, 0x5d, 0xec, 0xf0,
  0xd7, 0x15, 0x68, 0x35, 0x4b, 0xc1, 0x81, 0x0c, 0xda, 0x9a, 0x3a, 0xdf,
  0x48, 0x9c, 0x6c, 0x05, 0xf6, 0xce, 0x37, 0x69, 0x34, 0x05, 0xe0, 0xff,
  0xbb, 0x9e, 0xdf, 0xa4, 0xf6, 0x21, 0x0a, 0xfb, 0x87, 0xc6, 0x21, 0xa7,
  0xf2, 0xcd, 0x53, 0x0e, 0x1a, 0x58, 0x3c, 0xea, 0xe1, 0x3b, 0x91, 0x22,
  0x21, 0xc7, 0x4a, 0x01, 0xfc, 0xd1, 0xbb, 0x23, 0xb4, 0x16, 0xc0, 0x1d,
  0xf1, 0xfd, 0xba, 0xf4, 0x81, 0x15, 0xc4, 0x17, 0xc7, 0xe7, 0xe2, 0xf5,
  0xfe, 0x41, 0x33, 0xec, 0xc8, 0xa8, 0xe7, 0x17, 0x03, 0xfe, 0x15, 0x00,
  0x17, 0x30, 0x4a, 0xe1, 0xe9, 0xe8, 0x04, 0x0a, 0xc7, 0x5b, 0xd1, 0xfe,
  0xc9, 0x09, 0xc8, 0xdb, 0x0e, 0x7f, 0x26, 0xf1, 0xf9, 0x31, 0x41, 0x46,
  0x46, 0x53, 0xaf, 0xfb, 0x2e, 0xc5, 0xf8, 0x27, 0xeb, 0x66, 0x35, 0xfa,
  0x31, 0x06, 0xe5, 0xb8, 0x0b, 0x5c, 0xbd, 0xd3, 0x22, 0x54, 0x2d, 0xde,
  0x67, 0x38, 0x62, 0xcc, 0x4b, 0xbf, 0xe1, 0x67, 0xf6, 0xd4, 0x7f, 0x0a,
  0x39, 0x4b, 0x0f, 0xf7, 0xfb, 0xb9, 0xd2, 0x17, 0xda, 0x37, 0x6b, 0xe5,
  0xdf, 0xfe, 0xd4, 0xf6, 0x0a, 0xb1, 0x19, 0xb7, 0xc3, 0x2d, 0x9d, 0xd8,
  0x5f, 0xd0, 0x14, 0x55, 0xf7, 0x05, 0xd8, 0xbb, 0x1b, 0x41, 0xe1, 0x28,
  0x7f, 0x2a, 0x2d, 0x3e, 0xb2, 0xb6, 0xa3, 0xc6, 0xee, 0x28, 0x0f, 0x43,
  0x2b, 0x0f, 0xf8, 0x1c, 0x4d, 0x10, 0x3b, 0xfc, 0x8f, 0x32, 0xca, 0xe7,
  0xa5, 0xab, 0x2c, 0xb7, 0xc3, 0xd1, 0xf5, 0xd6, 0x78, 0x3f, 0x5e, 0x72,
  0xc9, 0x05, 0x47, 0x05, 0xd1, 0xa5, 0x62, 0x47, 0x5e, 0x44, 0x66, 0xa1,
  0x01, 0x49, 0xd0, 0x72, 0x24, 0xcd, 0x0e, 0x34, 0xf8, 0x46, 0xe9, 0x63,
  0x7e, 0x56, 0xd2, 0x5b, 0xdd, 0x1e, 0xfa, 0xda, 0xc9, 0x29, 0xc2, 0xc5,
  0xb3, 0x4f, 0xad, 0x31, 0xc9, 0xa1, 0x0c, 0xf6, 0x53, 0x4c, 0xf6, 0x7f,
  0x00, 0x18, 0x53, 0xb3, 0x01, 0x12, 0x1c, 0xec, 0xb9, 0x4b, 0x8f, 0x3a,
  0x31, 0xcf, 0x4b, 0xbf, 0xe4, 0xa4, 0x44, 0x98, 0x81, 0xfa, 0x73, 0x4f,
  0x61, 0x8b, 0xe3, 0x24, 0x2d, 0x95, 0x25, 0x50, 0xdf, 0x28, 0x1a, 0xd3,
  0x50, 0x93, 0x96, 0xa8, 0xb0, 0x55, 0xbe, 0x66, 0x41, 0x1f, 0x3e, 0xc9,
  0x64, 0xc3, 0x47, 0x36, 0x46, 0x11, 0x9f, 0x9c, 0x0d, 0x3b, 0x40, 0xe7,
  0x21, 0xdb, 0xc9, 0x60, 0xfd, 0xdb, 0xe4, 0xed, 0x12, 0xee, 0xfe, 0xb8,
  0x1f, 0x49, 0xc7, 0xc8, 0x1f, 0x67, 0xf8, 0x77, 0x3d, 0x25, 0x48, 0x26,
  0x2a, 0x46, 0x29, 0x36, 0x50, 0xad, 0x1c, 0x2d, 0xe1, 0x41, 0x30, 0xf0,
  0x51, 0x1f, 0x50, 0xe0, 0x4e, 0x7f, 0xd2, 0x12, 0x1d, 0x16, 0x52, 0x28,
  0xbb, 0x3f, 0x62, 0xd7, 0x1f, 0x0d, 0x58, 0x1b, 0x15, 0x3c, 0xa7, 0x36,
  0x2d, 0xc1, 0xac, 0xe3, 0xaf, 0x76, 0xff, 0x11, 0x20, 0x34, 0xc7, 0xec,
  0x2b, 0xc5, 0xc9, 0xb6, 0xa1, 0xe3, 0xd9, 0x22, 0xdc, 0x10, 0xb0, 0x7f,
  0x2d, 0x40, 0x54, 0x3f, 0x55, 0x08, 0xa5, 0x3a, 0xac, 0x0c, 0x18, 0xfb,
  0xe2, 0xb1, 0x81, 0x1a, 0x6a, 0xf8, 0x59, 0xb3, 0xf4, 0xcb, 0x0d, 0x66,
  0x5c, 0x29, 0xce, 0x40, 0xf3, 0xd4, 0xcf, 0x94, 0x7e, 0xef, 0xb5, 0x3f,
  0xd7, 0xca, 0x3e, 0x6f, 0xe3, 0xb9, 0x75, 0xb5, 0x23, 0x4d, 0xd5, 0xcc,
  0x6a, 0xb0, 0x00, 0x3e, 0x5c, 0x05, 0x14, 0xd6, 0xa3, 0xdc, 0xc9, 0xe7,
  0x0f, 0x3f, 0x00, 0xfa, 0xd4, 0x56, 0xde, 0x36, 0x64, 0x3f, 0x45, 0x11,
  0xbd, 0x42, 0x35, 0xd1, 0x01, 0xf8, 0x62, 0x26, 0x24, 0x02, 0x3e, 0xc8,
  0xf9, 0x18, 0x1f, 0x19, 0xbc, 0xf3, 0xf0, 0x01, 0x49, 0xbf, 0xe1, 0x81,
  0xc7, 0x3f, 0xbd, 0xcb, 0x5b, 0x30, 0xbf, 0xf2, 0xb9, 0xed, 0xcb, 0x3c,
  0xe1, 0xdf, 0x1b, 0xf1, 0x09, 0x57, 0xd6, 0x3c, 0xf4, 0x11, 0x61, 0x3a,
  0x2a, 0x03, 0x52, 0xd1, 0x1b, 0xdd, 0xcb, 0xeb, 0x1f, 0xf8, 0x03, 0xc5,
  0xc4, 0xf0, 0xe4, 0x46, 0xdb, 0x3c, 0x43, 0xd8, 0xe0, 0x81, 0xaa, 0x18,
  0x4a, 0x23, 0x4f, 0xbe, 0xa3, 0x16, 0x04, 0xc3, 0x08, 0xaf, 0xe1, 0x5a,
  0x68, 0x7f, 0x65, 0x51, 0xf7, 0x6f, 0xfe, 0x06, 0x54, 0x0c, 0x56, 0xb7,
  0xb2, 0xfe, 0xac, 0xc6, 0x69, 0x59, 0x54, 0xc7, 0x95, 0x61, 0x34, 0xc9,
  0x9e, 0xda, 0xdd, 0x5a, 0xd4, 0xa9, 0x10, 0x18, 0x06, 0x74, 0x30, 0x08,
  0xca, 0xdd, 0xde, 0x27, 0xe0, 0x68, 0xfd, 0x57, 0x04, 0x48, 0xc2, 0x44,
  0xb8, 0xd0, 0xf9, 0x3d, 0xcf, 0xca, 0xee, 0xde, 0xf7, 0x06, 0x0d, 0xda,
  0x3b, 0xc4, 0xef, 0x1d, 0xd8, 0xf3, 0x0f, 0x71, 0xea, 0xc4, 0xd2, 0xb6,
  0x3f, 0x47, 0xc1, 0x11, 0x63, 0xed, 0x28, 0xcb, 0xd7, 0x4f, 0x1c, 0x7f,
  0x58, 0xdf, 0x38, 0x3f, 0x02, 0xfd, 0x3f, 0x41, 0xdd, 0x0a, 0xe6, 0xd8,
  0x28, 0xdb, 0x42, 0xe8, 0x01, 0x01, 0x0c, 0xee, 0x0c, 0xba, 0x38, 0x2b,
  0xc8, 0xb3, 0xdf, 0x06, 0xbf, 0x7f, 0xe1, 0x3e, 0x10, 0x3a, 0xd8, 0x2e,
  0xf7, 0x3d, 0xcc, 0x4d, 0xb2, 0x2e, 0x51, 0x1e, 0x07, 0x3d, 0x3f, 0x49,
  0x0c, 0xe8, 0x3e, 0x18, 0x13, 0xca, 0x36, 0xcb, 0x6c, 0x34, 0xef, 0xb5,
  0x6f, 0xc2, 0x9d, 0x25, 0x1c, 0xd1, 0xf6, 0xdb, 0xc3, 0x7f, 0x73, 0x2d,
  0x32, 0x03, 0xc3, 0x18, 0x18, 0xcb, 0x37, 0x44, 0x20, 0x2d, 0xed, 0x33,
  0xd7, 0xdd, 0x5a, 0x04, 0xb5, 0x24, 0x02, 0xe8, 0x0b, 0xb8, 0x3f, 0x51,
  0x4d, 0xcb, 0x31, 0x32, 0x12, 0x78, 0xef, 0x10, 0x1a, 0x0f, 0xb9, 0x2f,
  0x48, 0x0c, 0x36, 0x3e, 0x07, 0x21, 0xfd, 0xfb, 0xfb, 0xd4, 0x2b, 0x52,
  0x17, 0x01, 0x53, 0x4e, 0x35, 0x1e, 0xe9, 0x7f, 0xdf, 0x16, 0x2f, 0xb0,
  0x35, 0x5c, 0x49, 0xf4, 0xca, 0x0d, 0x56, 0xf0, 0xd1, 0x66, 0x37, 0x2f,
  0x08, 0xf3, 0x44, 0x09, 0x03, 0xdb, 0xf9, 0x2c, 0x7f, 0x32, 0x53, 0x0d,
  0xb7, 0xf0, 0xf5, 0x47, 0x60, 0x95, 0xca, 0xc5, 0x71, 0xf2, 0x20, 0xef,
  0x4f, 0xda, 0x0b, 0xfe, 0x9b, 0x28, 0x0d, 0x36, 0x29, 0x86, 0xe5, 0x3d,
  0xd9, 0xfe, 0x26, 0xe8, 0x72, 0x42, 0xe9, 0xb7, 0x07, 0x55, 0xee, 0xc5,
  0xc1, 0x3c, 0xdd, 0xd8, 0xa5, 0xf2, 0x61, 0xb4, 0xe6, 0x0f, 0xc6, 0xc4,
  0x59, 0x35, 0x61, 0x3c, 0x1a, 0xbd, 0x1b, 0x37, 0xf9, 0xd6, 0x96, 0x09,
  0x66, 0x1d, 0xed, 0xbb, 0x00, 0x7f, 0x34, 0x36, 0xe3, 0x38, 0x27, 0xf9,
  0xf0, 0x05, 0x50, 0x2e, 0x9d, 0xa2, 0xb3, 0x3b, 0xf3, 0x2c, 0xfc, 0x20,
  0x67, 0xef, 0x12, 0xf0, 0xe7, 0x40, 0x94, 0xf5, 0x1f, 0x37, 0xfd, 0xa2,
  0x26, 0xda, 0xb0, 0xa5, 0xe1, 0x31, 0xe7, 0x40, 0x57, 0xa2, 0xea, 0xa1,
  0xa0, 0xc8, 0x3e, 0xb3, 0xa2, 0x95, 0x1e, 0xc8, 0xf2, 0xfd, 0x07, 0x11,
  0x81, 0x18, 0xe9, 0xba, 0x67, 0xc8, 0x0e, 0x93, 0xa6, 0x22, 0x43, 0xd1,
  0xa4, 0xc0, 0xf9, 0x2d, 0xdc, 0x89, 0xed, 0xae, 0xb5, 0xf2, 0x1c, 0xe0,
  0x19, 0xe7, 0xfc, 0x81, 0x41, 0x1f, 0x13, 0x3c, 0x20, 0x03, 0x2c, 0x02,
  0xaa, 0xeb, 0xcc, 0x0e, 0xec, 0xb1, 0xf5, 0xd3, 0x02, 0xff, 0x50, 0xea,
  0xac, 0xd7, 0xcc, 0xc3, 0x22, 0xe2, 0x51, 0xd7, 0x0b, 0xe7, 0xf0, 0x19,
  0x23, 0x59, 0xc0, 0x3c, 0xb1, 0x55, 0xe8, 0xb6, 0x5b, 0xe9, 0x03, 0x3b,
  0xfd, 0xc1, 0x06, 0x27, 0xf0, 0xea, 0xef, 0xec, 0xf1, 0xbe, 0xdf, 0x33,
  0xb9, 0xaf, 0x93, 0x05, 0x47, 0x0f, 0x46, 0x6a, 0x20, 0x4d, 0x18, 0x14,
  0x20, 0xd4, 0x57, 0x8f, 0x7f, 0x47, 0x16, 0x46, 0x18, 0x68, 0x73, 0x79,
  0xd1, 0x1c, 0xd1, 0xba, 0xb2, 0x44, 0xbe, 0x4a, 0x34, 0xc3, 0x0d, 0x22,
  0xd4, 0x23, 0xaa, 0x07, 0xd2, 0xbc, 0x26, 0x31, 0x0f, 0xb5, 0xbc, 0x2b,
  0x06, 0x32, 0xf7, 0x2a, 0xe5, 0xa9, 0x0a, 0x15, 0xd6, 0x06, 0xbd, 0xc1,
  0x44, 0x09, 0x22, 0x3c, 0xcd, 0xf1, 0xd6, 0xe1, 0x09, 0xf6, 0xb6, 0xfb,
  0xb9, 0xa3, 0xde, 0xea, 0x41, 0x81, 0x24, 0xde, 0xd4, 0x43, 0xdd, 0xdc,
  0x15, 0x6c, 0xe6, 0x23, 0x96, 0xc2, 0xc1, 0x16, 0xdf, 0x63, 0xad, 0x1f,
  0x1d, 0x40, 0xf5, 0xc0, 0x16, 0x2b, 0x59, 0xd3, 0x00, 0x3b, 0x28, 0x6f,
  0x06, 0x08, 0xa7, 0x25, 0x35, 0xc1, 0xd7, 0x0c, 0xd1, 0x1f, 0x57, 0x7f,
  0x51, 0x6d, 0x46, 0xe6, 0xd1, 0x63, 0x03, 0xe9, 0xcc, 0x0a, 0xdb, 0xe3,
  0x25, 0xcd, 0x47, 0xa6, 0x52, 0xe3, 0xda, 0xf7, 0x25, 0x33, 0x53, 0x64,
  0xc7, 0x06, 0xad, 0x25, 0x15, 0xc4, 0xda, 0xa3, 0xfc, 0xc4, 0xc5, 0xea,
  0xbf, 0xe8, 0xc8, 0x19, 0x19, 0x47, 0xf6, 0xc9, 0x46, 0xc1, 0x7f, 0x98,
  0x2f, 0xdc, 0x34, 0xf5, 0x05, 0x63, 0xf1, 0x1b, 0x90, 0x40, 0xc1, 0x2b,
  0xb5, 0xd1, 0xfb, 0xf5, 0xa8, 0x0a, 0xff, 0x2c, 0x20, 0x19, 0xd9, 0x07,
  0x1b, 0x0a, 0xe1, 0xde, 0x0f, 0xb3, 0xce, 0x11, 0x0a, 0xfa, 0xdd, 0x9c,
  0xbc, 0x36, 0xe8, 0x55, 0xbf, 0x36, 0x14, 0x1f, 0x22, 0xd3, 0x51, 0x24,
  0x36, 0x7f, 0xfd, 0x95, 0x29, 0xf2, 0xde, 0x57, 0x26, 0x64, 0x5f, 0xb4,
  0xf3, 0xad, 0x0d, 0x5d, 0x75, 0xe7, 0xae, 0xbb, 0x09, 0x7f, 0xef, 0x42,
  0x77, 0x51, 0xf9, 0xd0, 0xef, 0x0f, 0x91, 0xee, 0x6f, 0xff, 0x15, 0x44,
  0x0c, 0x7a, 0x3a, 0x1f, 0x4e, 0x45, 0xeb, 0xa0, 0x16, 0xf4, 0xe1, 0xf7,
  0x0e, 0xbd, 0x2d, 0x13, 0x90, 0xfe, 0x5c, 0x98, 0xad, 0x4a, 0x2d, 0xae,
  0x16, 0xfd, 0x22, 0x21, 0x9a, 0x54, 0x00, 0xcf, 0x39, 0xe9, 0x0c, 0x95,
  0x95, 0x56, 0xec, 0x3c, 0x4a, 0x1c, 0x92, 0x9f, 0xfd, 0x49, 0x57, 0x32,
  0x64, 0x95, 0x67, 0xd1, 0xdc, 0x48, 0xc0, 0xcd, 0xfe, 0x7f, 0xe6, 0xd8,
  0xe3, 0x51, 0x47, 0x8e, 0x53, 0xa6, 0x23, 0x12, 0x6a, 0xf8, 0xff, 0xff,
  0x04, 0x00, 0x00, 0x00, 0x1c, 0x00, 0x00, 0x00, 0x26, 0x14, 0x92, 0xbb,
  0x22, 0x40, 0x75, 0x3d, 0x35, 0xb0, 0xed, 0x3e, 0x1b, 0xec, 0x9b, 0x3d,
  0x0d, 0x22, 0x31, 0xbd, 0xa1, 0x36, 0x87, 0x3d, 0x71, 0x4f, 0x43, 0xbd,
  0x92, 0xf8, 0xff, 0xff, 0x04, 0x00, 0x00, 0x00, 0x80, 0x00, 0x00, 0x00,
  0x9d, 0x10, 0x66, 0x3e, 0xa5, 0xc7, 0xb6, 0x3e, 0x3a, 0xf0, 0xeb, 0x3e,
  0x78, 0x71, 0x21, 0x3e, 0x06, 0x8b, 0x75, 0xbe, 0xc6, 0x53, 0xe8, 0xbd,
  0xad, 0x9a, 0xc5, 0x3e, 0xd1, 0x0e, 0x47, 0x3d, 0x49, 0x24, 0x95, 0x3e,
  0x26, 0x4a, 0xc3, 0x3e, 0xde, 0x39, 0x49, 0xbe, 0xe5, 0x91, 0xee, 0x3e,
  0xba, 0x92, 0x9f, 0x3e, 0xb9, 0xb8, 0x1b, 0x3d, 0x02, 0x75, 0x0a, 0x3e,
  0x38, 0x76, 0x02, 0xbe, 0x9a, 0x22, 0xd6, 0x3e, 0x48, 0x23, 0xd8, 0x3e,
  0xd4, 0xd1, 0xd7, 0x3d, 0xdf, 0x40, 0xb1, 0x3e, 0x33, 0x1e, 0xe5, 0x3e,
  0xe1, 0x58, 0xdb, 0x3d, 0x65, 0x55, 0x57, 0x3e, 0xde, 0x94, 0xfc, 0xbd,
  0x28, 0x53, 0x46, 0x3e, 0x8f, 0x3f, 0xa3, 0x3e, 0xd2, 0x32, 0x81, 0xbe,
  0x93, 0xa1, 0xb3, 0x3e, 0x83, 0xc0, 0xb1, 0x3e, 0xf2, 0x32, 0x80, 0xbe,
  0xdd, 0x5f, 0xae, 0x3e, 0xc3, 0xd1, 0x4e, 0xbe, 0x1e, 0xf9, 0xff, 0xff,
  0x04, 0x00, 0x00, 0x00, 0x08, 0x00, 0x00, 0x00, 0x01, 0x00, 0x00, 0x00,
  0xc0, 0x00, 0x00, 0x00, 0x32, 0xf9, 0xff, 0xff, 0x04, 0x00, 0x00, 0x00,
  0xc0, 0x06, 0x00, 0x00, 0xe1, 0x2f, 0x05, 0xbe, 0x81, 0x8e, 0x5f, 0xbd,
  0xd4, 0xc0, 0x2f, 0xbe, 0x3e, 0x9b, 0x2e, 0xbe, 0xd6, 0x63, 0x7a, 0xbd,
  0xa8, 0x2b, 0x83, 0xbd, 0x18, 0x77, 0x33, 0x3e, 0x72, 0xdd, 0xe9, 0x3e,
  0xde, 0x5e, 0x09, 0x3e, 0x7d, 0xb5, 0x88, 0xbd, 0x5e, 0xdc, 0x28, 0xbd,
  0xfa, 0xa0, 0x49, 0xbe, 0x77, 0x29, 0x1e, 0xbe, 0x90, 0x97, 0x01, 0xbd,
  0x75, 0xaf, 0x57, 0x3e, 0xa4, 0xa1, 0x10, 0x3f, 0x8f, 0x7d, 0x04, 0x3f,
  0xa1, 0xb8, 0x56, 0xbd, 0x98, 0x58, 0xd4, 0x3d, 0x0a, 0x8f, 0x1c, 0x3c,
  0x6d, 0x9e, 0x43, 0x3e, 0x0e, 0x73, 0x8b, 0xbe, 0xf5, 0x99, 0xba, 0xbd,
  0xad, 0xb5, 0xa0, 0x3e, 0xec, 0x2d, 0x15, 0x3f, 0x89, 0x67, 0x63, 0x3d,
  0x23, 0xfc, 0x87, 0x3e, 0x54, 0x9c, 0x07, 0xbe, 0x08, 0x34, 0x89, 0x3e,
  0x10, 0x54, 0x09, 0x3e, 0x46, 0x2f, 0x37, 0xbd, 0x1c, 0x22, 0x83, 0xbe,
  0x6d, 0xdb, 0x40, 0xbe, 0x31, 0xb5, 0xb7, 0x3c, 0xf1, 0xf3, 0xe8, 0x3e,
  0x62, 0xf4, 0x2a, 0xbe, 0xd1, 0xbb, 0x26, 0xbe, 0xab, 0x71, 0x80, 0x3d,
  0x38, 0xc3, 0x97, 0xbd, 0x5a, 0xb5, 0x93, 0xbd, 0x95, 0xa0, 0xeb, 0xbc,
  0x1d, 0x25, 0x8f, 0x3d, 0xe8, 0xf9, 0x6a, 0x3d, 0xe6, 0x80, 0x1c, 0xbc,
  0x44, 0x73, 0x82, 0x3d, 0x5c, 0xac, 0xc8, 0xbd, 0x52, 0x73, 0x60, 0xbd,
  0xe6, 0xb3, 0x1d, 0x3e, 0x27, 0x37, 0x82, 0xbb, 0x1b, 0x23, 0x7a, 0xbd,
  0x7c, 0xcb, 0x14, 0xbd, 0x84, 0x9b, 0x64, 0x3e, 0xc1, 0xa3, 0xed, 0x3e,
  0xa0, 0xf1, 0x39, 0xbe, 0x97, 0xba, 0x57, 0x3c, 0x49, 0x33, 0x18, 0xbe,
  0x36, 0x86, 0xe0, 0x3d, 0x2f, 0xbc, 0xef, 0xbc, 0x8f, 0xc8, 0x14, 0xbe,
  0x64, 0xa3, 0x79, 0xbb, 0xe2, 0x0b, 0xb4, 0x3d, 0x81, 0x20, 0x53, 0xbe,
  0xb2, 0xa6, 0xeb, 0x3d, 0x1c, 0x05, 0xb3, 0xbd, 0x36, 0xa7, 0x01, 0xbe,
  0xe4, 0xab, 0x73, 0xbe, 0x9d, 0x74, 0x89, 0x3d, 0xf1, 0x7f, 0xb9, 0xbe,
  0x24, 0xcd, 0x1c, 0x3d, 0xcd, 0x5d, 0x80, 0x3e, 0x3d, 0x92, 0x9f, 0xbd,
  0x4e, 0x07, 0x25, 0x3e, 0xfc, 0x9c, 0x69, 0x3e, 0xc3, 0x44, 0xd2, 0x3d,
  0xf6, 0xbd, 0x20, 0x3e, 0x45, 0x8c, 0x23, 0x3c, 0x7d, 0xb8, 0x80, 0x3c,
  0xf3, 0x42, 0xe3, 0xbd, 0x4e, 0x79, 0xae, 0x3c, 0x0b, 0x97, 0x86, 0x3e,
  0xf7, 0x73, 0x90, 0x3e, 0xa3, 0x31, 0x74, 0xbe, 0x99, 0xce, 0x08, 0xbe,
  0x42, 0xbf, 0xa0, 0xbd, 0xec, 0xbb, 0xb8, 0x3d, 0x6f, 0x31, 0x4e, 0x3e,
  0x54, 0x17, 0x7d, 0x3e, 0x4b, 0xd9, 0x08, 0x3e, 0x2b, 0x5d, 0xaa, 0xbe,
  0xc4, 0xae, 0x32, 0xbe, 0x73, 0x2a, 0x5f, 0xbe, 0xcb, 0x69, 0x2f, 0x3e,
  0xe8, 0x65, 0x56, 0x3e, 0x4f, 0xcc, 0x78, 0x3e, 0xc2, 0xa9, 0x58, 0x3e,
  0x92, 0xe1, 0x88, 0x3e, 0x2d, 0x55, 0xa3, 0x3e, 0xec, 0x64, 0x49, 0x3e,
  0x5e, 0xa8, 0xc7, 0xbd, 0xde, 0xc8, 0xb5, 0xbd, 0x57, 0x91, 0x28, 0x3e,
  0x7d, 0x2e, 0x6e, 0x3e, 0x10, 0xa2, 0x91, 0x3e, 0xf5, 0x49, 0x8f, 0xbd,
  0x16, 0x8f, 0x85, 0xbd, 0x2c, 0xcf, 0x82, 0x3e, 0xf2, 0x88, 0xaa, 0xbe,
  0xfe, 0xe1, 0xba, 0xbd, 0x98, 0x8f, 0x99, 0xbc, 0xf9, 0x4b, 0x0d, 0xbe,
  0x65, 0x2a, 0xa2, 0x3c, 0x5f, 0x52, 0x04, 0x3f, 0x18, 0xcf, 0xcd, 0xbd,
  0x9d, 0x46, 0x55, 0xbe, 0x66, 0x34, 0xb6, 0xbe, 0xba, 0xe1, 0xdb, 0x3d,
  0xc1, 0xb2, 0x01, 0xbf, 0xfa, 0x5f, 0xcc, 0x3d, 0x43, 0xc3, 0x0c, 0xbe,
  0x95, 0x78, 0x2c, 0xbd, 0xd0, 0x5a, 0xc0, 0x3e, 0xbb, 0xf2, 0x8c, 0xbe,
  0x21, 0x83, 0xcf, 0x3d, 0xde, 0x9e, 0xff, 0xbc, 0xf2, 0xde, 0x8d, 0x3e,
  0x6b, 0xca, 0xb1, 0xbd, 0x30, 0xae, 0x4c, 0xbe, 0x28, 0x19, 0x4e, 0x3e,
  0x94, 0xfd, 0x41, 0xbd, 0x0f, 0x96, 0x76, 0x3e, 0x1a, 0xd9, 0x48, 0xbe,
  0x6a, 0x65, 0x57, 0x3e, 0xed, 0xd2, 0xa8, 0xbd, 0x28, 0x18, 0x4d, 0xbe,
  0x6f, 0x97, 0xf7, 0xbd, 0xac, 0xc5, 0xbe, 0x3c, 0xd5, 0x2e, 0x05, 0xbe,
  0x6d, 0x7d, 0x43, 0xbd, 0xbb, 0xd4, 0x18, 0xbe, 0x4a, 0x1e, 0x02, 0x3f,
  0x77, 0x13, 0x0f, 0xbe, 0xe9, 0xce, 0x7c, 0x3e, 0xc7, 0x10, 0x8a, 0xbd,
  0xe8, 0x63, 0x9a, 0x3e, 0xfd, 0xdc, 0xde, 0x3d, 0xb4, 0xda, 0x87, 0x3e,
  0x0f, 0xe2, 0x0a, 0xbe, 0xe1, 0xb8, 0x6c, 0xbe, 0x29, 0x29, 0xc6, 0x3e,
  0x91, 0x5a, 0x93, 0xbe, 0x84, 0xf9, 0x82, 0x3e, 0x66, 0xd7, 0xbf, 0xbe,
  0x08, 0xe4, 0x39, 0x3d, 0x0a, 0x89, 0x30, 0xbe, 0x2f, 0x3a, 0x0e, 0xbe,
  0x1e, 0x35, 0x3d, 0x3e, 0x37, 0xfd, 0x31, 0x3e, 0x47, 0xba, 0x5e, 0x3e,
  0xb0, 0x40, 0x1a, 0x3d, 0x01, 0xe1, 0xb2, 0x3e, 0x09, 0x19, 0x93, 0xbe,
  0x03, 0x58, 0x21, 0x3e, 0x23, 0x31, 0xac, 0x3d, 0x10, 0x45, 0x28, 0x3e,
  0x85, 0xfb, 0x82, 0x3e, 0x7c, 0xe4, 0x67, 0x3d, 0xd9, 0x2a, 0x5f, 0x3e,
  0x6d, 0x3a, 0x3c, 0x3e, 0xd6, 0xef, 0xae, 0xbe, 0x03, 0x6b, 0xad, 0xbd,
  0x63, 0x0a, 0xf8, 0xbe, 0x12, 0xfe, 0x8d, 0xbd, 0x18, 0xf0, 0x83, 0xbb,
  0xce, 0xef, 0x00, 0xbe, 0xde, 0xda, 0xa6, 0x3e, 0xdd, 0x1f, 0x70, 0xbe,
  0x92, 0x00, 0xa1, 0xbd, 0xc0, 0x9f, 0x93, 0xbd, 0xe0, 0x03, 0xaa, 0xbe,
  0x15, 0x86, 0xb4, 0xbe, 0x97, 0x42, 0x57, 0x3d, 0x91, 0xe1, 0x1c, 0xbd,
  0x53, 0x0b, 0x25, 0xbe, 0x4b, 0x69, 0x93, 0x3e, 0xd0, 0x72, 0x29, 0xbd,
  0x79, 0x75, 0xb4, 0x3e, 0xac, 0xc2, 0x68, 0x3e, 0x3b, 0xe0, 0x30, 0x3e,
  0xd4, 0x87, 0x04, 0xbf, 0x49, 0x6b, 0x4f, 0x3e, 0xb4, 0x38, 0x83, 0x3e,
  0x1a, 0x3e, 0x13, 0x3e, 0xbe, 0x29, 0xa4, 0xbd, 0x16, 0xb5, 0x19, 0x3e,
  0x7f, 0x6c, 0x39, 0x3e, 0x0f, 0xc1, 0x0c, 0x3f, 0xd9, 0xab, 0x2f, 0xbe,
  0x59, 0x88, 0x98, 0x3d, 0x5e, 0x7a, 0x78, 0xbe, 0x9a, 0x2e, 0x50, 0xbd,
  0xeb, 0x8e, 0x80, 0x3d, 0xc6, 0xbe, 0xae, 0xbe, 0xb1, 0x1b, 0x49, 0x3c,
  0x60, 0x03, 0xc9, 0x3e, 0x69, 0xaf, 0x90, 0x3e, 0x9e, 0x21, 0x14, 0xbe,
  0x95, 0x8c, 0x30, 0xbe, 0xb6, 0xbe, 0xee, 0x3c, 0xbc, 0xd3, 0x39, 0xbe,
  0x64, 0x18, 0x40, 0xbe, 0xc1, 0x44, 0x49, 0x3e, 0x03, 0xea, 0x05, 0x3e,
  0x90, 0x27, 0x6b, 0x3e, 0x40, 0xb9, 0x0f, 0x3f, 0xe2, 0xca, 0xcb, 0xbd,
  0xf2, 0x30, 0xed, 0x3c, 0xca, 0x07, 0x66, 0xbe, 0xfa, 0xa7, 0x7b, 0xbe,
  0xa5, 0xe8, 0x64, 0xbb, 0xe5, 0xa1, 0x7f, 0xbe, 0x88, 0xff, 0x9d, 0xbe,
  0x5b, 0x42, 0x23, 0x3e, 0x64, 0xd6, 0x63, 0xbe, 0x6b, 0x86, 0x00, 0x3f,
  0x87, 0xba, 0x48, 0x3e, 0x21, 0x0f, 0x50, 0x3b, 0xd9, 0x9f, 0x30, 0x3d,
  0x9e, 0xf4, 0xa7, 0x3d, 0x55, 0x8f, 0x66, 0xbe, 0x56, 0xc7, 0x43, 0xbe,
  0xb5, 0x8f, 0xe4, 0x3d, 0xc5, 0x36, 0xf1, 0x3c, 0x2a, 0xfe, 0x94, 0x3d,
  0x43, 0x63, 0x79, 0x3e, 0xc5, 0xb0, 0x63, 0x3e, 0xc0, 0x1b, 0x86, 0x3e,
  0x3e, 0xe1, 0x41, 0x3e, 0x14, 0xc2, 0x7c, 0x3d, 0x27, 0xb8, 0x4c, 0xbe,
  0x47, 0xcd, 0xbd, 0xbd, 0x3a, 0xd5, 0x88, 0xbd, 0x4f, 0xfd, 0x05, 0x3f,
  0xd7, 0xf7, 0xbe, 0x3e, 0x55, 0x55, 0xbf, 0x3d, 0x93, 0xbc, 0x81, 0x3d,
  0x21, 0x48, 0xc2, 0xbd, 0xe4, 0x83, 0x1a, 0x3e, 0x38, 0xeb, 0xc6, 0x3d,
  0xf4, 0x5b, 0xf4, 0x3d, 0x1a, 0xe3, 0x86, 0xbd, 0x39, 0xdd, 0xf1, 0xbe,
  0x0e, 0x16, 0xea, 0x3c, 0x03, 0xc8, 0x8e, 0xbe, 0x65, 0xb9, 0x77, 0x3e,
  0xbe, 0xab, 0x98, 0x3c, 0x30, 0x1d, 0x5d, 0x3e, 0xb9, 0x12, 0xda, 0x3d,
  0x3a, 0x3a, 0xa4, 0xbe, 0xfd, 0x92, 0xb7, 0xbd, 0x62, 0xc0, 0x01, 0xbf,
  0x08, 0xa9, 0x2e, 0x3e, 0xe6, 0x8e, 0x17, 0x3e, 0x32, 0x85, 0x32, 0xbe,
  0xdc, 0xec, 0x6c, 0x3e, 0xc8, 0x8c, 0x73, 0x3e, 0x78, 0xf5, 0x0f, 0x3f,
  0xaa, 0x07, 0x9f, 0x3b, 0x1a, 0xe3, 0x5e, 0x3d, 0x2b, 0x4d, 0xc8, 0xbe,
  0x9a, 0x2d, 0xf5, 0xbd, 0x6f, 0x6b, 0x83, 0x3e, 0x39, 0xc5, 0x90, 0xbe,
  0x92, 0xec, 0x1a, 0x3e, 0x32, 0x07, 0x51, 0xbe, 0xc7, 0xe1, 0x6a, 0xbe,
  0x02, 0x9a, 0x85, 0xbd, 0x0b, 0xba, 0xad, 0x3e, 0xb9, 0x02, 0xa3, 0xbd,
  0x52, 0x8f, 0x96, 0x3e, 0x88, 0x4a, 0x6c, 0xbe, 0xae, 0x85, 0x18, 0x3e,
  0x3a, 0xfe, 0x42, 0xbc, 0x0f, 0x20, 0x25, 0x3e, 0xef, 0x15, 0x78, 0xbe,
  0x8d, 0xcb, 0x7c, 0xbe, 0x9e, 0xfd, 0xfb, 0x3d, 0x20, 0x51, 0x66, 0x3d,
  0x25, 0xd5, 0x3e, 0xbe, 0x8d, 0x67, 0x65, 0x3e, 0x03, 0x44, 0xf7, 0x3d,
  0x15, 0x16, 0xd5, 0xbd, 0x89, 0x87, 0x4b, 0x3e, 0x9f, 0x09, 0x79, 0x3d,
  0xfc, 0xeb, 0x97, 0xbd, 0xe8, 0xd7, 0xf2, 0xbd, 0x4d, 0x54, 0xac, 0x3b,
  0xca, 0x82, 0x57, 0x3e, 0x58, 0x10, 0x04, 0xbe, 0x74, 0x33, 0xbd, 0x3d,
  0xc3, 0x29, 0x32, 0xbe, 0xa1, 0x97, 0x53, 0x3e, 0xe4, 0x3d, 0x08, 0x3e,
  0x9b, 0x30, 0x00, 0xbe, 0xdb, 0xf4, 0x91, 0x3e, 0x90, 0xd6, 0x73, 0x3e,
  0xe0, 0x75, 0x84, 0x3d, 0x7d, 0xe7, 0x60, 0xbe, 0xab, 0x99, 0x5f, 0xbd,
  0xf3, 0xd9, 0x12, 0xbe, 0x7a, 0x8d, 0x38, 0xbe, 0x6e, 0xbf, 0x9c, 0x3d,
  0xa2, 0x15, 0x1f, 0xbe, 0xa5, 0xcb, 0x67, 0x3c, 0x86, 0x05, 0xed, 0x3c,
  0x94, 0x8c, 0xe5, 0xbd, 0xe4, 0x09, 0xd7, 0x3d, 0x89, 0x6d, 0xaa, 0x3d,
  0xf5, 0x9e, 0xad, 0xbd, 0x9c, 0x77, 0xac, 0xbe, 0x66, 0x0d, 0x76, 0x3d,
  0xd4, 0x86, 0x27, 0xbe, 0x70, 0x13, 0x97, 0xbd, 0x97, 0x5e, 0xf7, 0x3d,
  0x07, 0xbe, 0xaa, 0x3e, 0xf0, 0xd4, 0x64, 0xbe, 0x06, 0x91, 0x75, 0xbd,
  0x09, 0xe5, 0x4a, 0xbe, 0x82, 0xdf, 0x32, 0xbe, 0xc8, 0x0a, 0xfe, 0x3e,
  0xa0, 0x48, 0x8e, 0xbe, 0xd6, 0x6a, 0x6c, 0x3d, 0x7e, 0xe5, 0x27, 0x3e,
  0x34, 0xb8, 0x97, 0x3e, 0xf7, 0xeb, 0x81, 0xbe, 0xaa, 0x79, 0x55, 0x3d,
  0x25, 0xb3, 0x0e, 0xbd, 0xee, 0x46, 0x76, 0x3d, 0x69, 0xb8, 0xff, 0x3d,
  0x0b, 0xa7, 0xbb, 0xbe, 0xdb, 0xcd, 0x13, 0x3e, 0x32, 0x00, 0xb4, 0xbe,
  0x10, 0x51, 0x2e, 0x3e, 0xf1, 0x23, 0x60, 0x3e, 0x3f, 0xdd, 0x23, 0xbe,
  0x1c, 0x32, 0xea, 0xbd, 0x0a, 0x9e, 0xcd, 0xbd, 0xd6, 0x4a, 0x34, 0x3c,
  0xe9, 0x3c, 0xa3, 0xbe, 0xbf, 0x53, 0x43, 0xbe, 0x29, 0xe3, 0x66, 0xbe,
  0xc2, 0x00, 0xba, 0x3e, 0x5f, 0x1b, 0x0d, 0xbe, 0x4c, 0xa1, 0x44, 0x3c,
  0xa5, 0xae, 0x6a, 0x3e, 0xac, 0x4e, 0x74, 0xbe, 0xc0, 0x53, 0x16, 0x3d,
  0x59, 0x14, 0xb1, 0xbe, 0x97, 0xe1, 0x5c, 0xbe, 0x4e, 0x0d, 0x8a, 0x3e,
  0x12, 0x5f, 0x90, 0x3e, 0xb6, 0xbc, 0xd6, 0x3d, 0x09, 0x8b, 0x46, 0xbe,
  0x53, 0x12, 0x87, 0xbe, 0x88, 0xe6, 0x3d, 0x3d, 0xb7, 0x04, 0x2b, 0xbe,
  0x6a, 0x26, 0x93, 0xbd, 0xaa, 0x6c, 0x90, 0xbd, 0xc6, 0xac, 0xab, 0xbd,
  0xa2, 0xc5, 0xe3, 0x3e, 0xa3, 0xfc, 0x81, 0x3d, 0x0f, 0xc6, 0x3a, 0x3e,
  0xee, 0x93, 0xdd, 0x3c, 0xc4, 0xf5, 0xfd, 0xbd, 0x57, 0x7a, 0x05, 0xbe,
  0x20, 0x36, 0x81, 0xbe, 0x40, 0xa4, 0xb9, 0xbe, 0xd8, 0x4c, 0x28, 0x3e,
  0x35, 0x4b, 0xd7, 0x3e, 0x9e, 0x77, 0x97, 0x3e, 0x00, 0xdf, 0x53, 0x3d,
  0x6a, 0xc3, 0x89, 0x3e, 0x3c, 0x69, 0xf7, 0xbc, 0x7b, 0xe6, 0xe9, 0xbe,
  0x60, 0x3f, 0x7c, 0x3b, 0xf2, 0xae, 0x80, 0xbe, 0x7d, 0x02, 0xc0, 0x3b,
  0xe1, 0x65, 0x83, 0x3e, 0xea, 0xe0, 0xd3, 0xbd, 0x89, 0xfe, 0x81, 0x3d,
  0x49, 0x0f, 0x8f, 0xbd, 0xd4, 0x62, 0xf0, 0x3e, 0xa3, 0x5e, 0x0e, 0xbf,
  0x5b, 0xaf, 0x0c, 0xbc, 0xfd, 0x81, 0x79, 0xbd, 0xa1, 0xaf, 0xf1, 0x3e,
  0x48, 0xda, 0x1e, 0xbe, 0xe9, 0x8c, 0x3e, 0xbe, 0x42, 0x20, 0xe3, 0xbd,
  0x85, 0xad, 0x6e, 0xbe, 0xc3, 0x1b, 0x83, 0x3e, 0x2c, 0xc9, 0xda, 0xbe,
  0x4c, 0xeb, 0x74, 0xbc, 0x74, 0xe5, 0x77, 0xbc, 0xd6, 0xb3, 0xef, 0x3e,
  0xb2, 0x18, 0x6b, 0x3e, 0x84, 0xbc, 0xf4, 0x3d, 0x1b, 0xe9, 0x20, 0xbe,
  0xb8, 0x0c, 0x38, 0xbe, 0xba, 0x3f, 0xa3, 0x3d, 0xa7, 0x11, 0x43, 0xbe,
  0x8c, 0x78, 0x1f, 0x3e, 0xfb, 0x22, 0x5b, 0x3e, 0xb0, 0x56, 0x3b, 0xbe,
  0xda, 0x61, 0xf7, 0xbe, 0xfc, 0x7c, 0x1d, 0x3e, 0xc8, 0x01, 0x59, 0xbd,
  0x6a, 0x45, 0x0f, 0x3e, 0xa5, 0xc7, 0xcc, 0x3e, 0xb1, 0xbb, 0x7d, 0xbd,
  0x7c, 0x30, 0x58, 0xbe, 0xd6, 0xdd, 0x34, 0xbe, 0x1a, 0x4a, 0x50, 0x3c,
  0x2e, 0xc6, 0xe7, 0xbd, 0x17, 0x9e, 0x43, 0xbe, 0xc5, 0x2d, 0xa3, 0xbd,
  0x54, 0x5c, 0x3c, 0x3d, 0x9c, 0xe5, 0x3d, 0x3c, 0xeb, 0x90, 0xe9, 0xbb,
  0x32, 0xa3, 0x22, 0x3e, 0x51, 0x51, 0x03, 0x3e, 0x3b, 0xee, 0x2c, 0xbe,
  0x89, 0x51, 0x94, 0xbe, 0x00, 0x00, 0x06, 0x00, 0x08, 0x00, 0x04, 0x00,
  0x06, 0x00, 0x00, 0x00, 0x04, 0x00, 0x00, 0x00, 0x40, 0x00, 0x00, 0x00,
  0xc5, 0xbb, 0xa0, 0x3e, 0x42, 0x86, 0x33, 0x3b, 0x83, 0x7c, 0x89, 0x3d,
  0xbf, 0x18, 0x72, 0x3e, 0x61, 0x46, 0x29, 0x3e, 0x4a, 0x23, 0xbd, 0x3e,
  0x63, 0x10, 0xc1, 0x3e, 0x92, 0x34, 0xbb, 0x3e, 0xc0, 0xcd, 0x87, 0x3e,
  0x36, 0x19, 0x92, 0x3e, 0x63, 0x6e, 0x90, 0x3e, 0x7a, 0x04, 0xf8, 0x3d,
  0x53, 0x91, 0x61, 0x3e, 0x3b, 0x68, 0x97, 0x3e, 0x6c, 0xff, 0x5f, 0x3e,
  0xae, 0xaf, 0xca, 0x3e, 0x10, 0xf7, 0xff, 0xff, 0x14, 0xf7, 0xff, 0xff,
  0x0f, 0x00, 0x00, 0x00, 0x4d, 0x4c, 0x49, 0x52, 0x20, 0x43, 0x6f, 0x6e,
  0x76, 0x65, 0x72, 0x74, 0x65, 0x64, 0x2e, 0x00, 0x01, 0x00, 0x00, 0x00,
  0x14, 0x00, 0x00, 0x00, 0x00, 0x00, 0x0e, 0x00, 0x18, 0x00, 0x14, 0x00,
  0x10, 0x00, 0x0c, 0x00, 0x08, 0x00, 0x04, 0x00, 0x0e, 0x00, 0x00, 0x00,
  0x14, 0x00, 0x00, 0x00, 0x1c, 0x00, 0x00, 0x00, 0x4c, 0x01, 0x00, 0x00,
  0x50, 0x01, 0x00, 0x00, 0x54, 0x01, 0x00, 0x00, 0x04, 0x00, 0x00, 0x00,
  0x6d, 0x61, 0x69, 0x6e, 0x00, 0x00, 0x00, 0x00, 0x04, 0x00, 0x00, 0x00,
  0xe4, 0x00, 0x00, 0x00, 0x90, 0x00, 0x00, 0x00, 0x68, 0x00, 0x00, 0x00,
  0x14, 0x00, 0x00, 0x00, 0x00, 0x00, 0x0e, 0x00, 0x18, 0x00, 0x14, 0x00,
  0x10, 0x00, 0x0c, 0x00, 0x0b, 0x00, 0x04, 0x00, 0x0e, 0x00, 0x00, 0x00,
  0x20, 0x00, 0x00, 0x00, 0x00, 0x00, 0x00, 0x08, 0x20, 0x00, 0x00, 0x00,
  0x24, 0x00, 0x00, 0x00, 0x02, 0x00, 0x00, 0x00, 0x0c, 0x00, 0x08, 0x00,
  0x00, 0x00, 0x00, 0x00, 0x00, 0x00, 0x07, 0x00, 0x0c, 0x00, 0x00, 0x00,
  0x00, 0x00, 0x00, 0x01, 0x01, 0x00, 0x00, 0x00, 0x0b, 0x00, 0x00, 0x00,
  0x03, 0x00, 0x00, 0x00, 0x0a, 0x00, 0x00, 0x00, 0x07, 0x00, 0x00, 0x00,
  0x05, 0x00, 0x00, 0x00, 0x00, 0x00, 0x0a, 0x00, 0x10, 0x00, 0x0c, 0x00,
  0x08, 0x00, 0x04, 0x00, 0x0a, 0x00, 0x00, 0x00, 0x0c, 0x00, 0x00, 0x00,
  0x10, 0x00, 0x00, 0x00, 0x01, 0x00, 0x00, 0x00, 0x01, 0x00, 0x00, 0x00,
  0x0a, 0x00, 0x00, 0x00, 0x02, 0x00, 0x00, 0x00, 0x09, 0x00, 0x00, 0x00,
  0x03, 0x00, 0x00, 0x00, 0xbe, 0xff, 0xff, 0xff, 0x10, 0x00, 0x00, 0x00,
  0x00, 0x00, 0x00, 0x01, 0x1c, 0x00, 0x00, 0x00, 0x20, 0x00, 0x00, 0x00,
  0xb0, 0xff, 0xff, 0xff, 0x00, 0x00, 0x00, 0x01, 0x01, 0x00, 0x00, 0x00,
  0x01, 0x00, 0x00, 0x00, 0x00, 0x00, 0x00, 0x01, 0x01, 0x00, 0x00, 0x00,
  0x09, 0x00, 0x00, 0x00, 0x03, 0x00, 0x00, 0x00, 0x08, 0x00, 0x00, 0x00,
  0x06, 0x00, 0x00, 0x00, 0x04, 0x00, 0x00, 0x00, 0x00, 0x00, 0x0e, 0x00,
  0x14, 0x00, 0x00, 0x00, 0x10, 0x00, 0x0c, 0x00, 0x0b, 0x00, 0x04, 0x00,
  0x0e, 0x00, 0x00, 0x00, 0x1c, 0x00, 0x00, 0x00, 0x00, 0x00, 0x00, 0x01,
  0x28, 0x00, 0x00, 0x00, 0x2c, 0x00, 0x00, 0x00, 0x0c, 0x00, 0x14, 0x00,
  0x13, 0x00, 0x0c, 0x00, 0x08, 0x00, 0x07, 0x00, 0x0c, 0x00, 0x00, 0x00,
  0x00, 0x00, 0x00, 0x01, 0x01, 0x00, 0x00, 0x00, 0x01, 0x00, 0x00, 0x00,
  0x00, 0x00, 0x00, 0x01, 0x01, 0x00, 0x00, 0x00, 0x08, 0x00, 0x00, 0x00,
  0x03, 0x00, 0x00, 0x00, 0x00, 0x00, 0x00, 0x00, 0x02, 0x00, 0x00, 0x00,
  0x01, 0x00, 0x00, 0x00, 0x01, 0x00, 0x00, 0x00, 0x0b, 0x00, 0x00, 0x00,
  0x01, 0x00, 0x00, 0x00, 0x00, 0x00, 0x00, 0x00, 0x0c, 0x00, 0x00, 0x00,
  0x38, 0x07, 0x00, 0x00, 0x78, 0x06, 0x00, 0x00, 0x1c, 0x06, 0x00, 0x00,
  0xdc, 0x05, 0x00, 0x00, 0x14, 0x05, 0x00, 0x00, 0xc8, 0x04, 0x00, 0x00,
  0xc8, 0x02, 0x00, 0x00, 0x10, 0x02, 0x00, 0x00, 0x5c, 0x01, 0x00, 0x00,
  0xa0, 0x00, 0x00, 0x00, 0x50, 0x00, 0x00, 0x00, 0x04, 0x00, 0x00, 0x00,
  0x0e, 0xf9, 0xff, 0xff, 0x00, 0x00, 0x00, 0x01, 0x10, 0x00, 0x00, 0x00,
  0x10, 0x00, 0x00, 0x00, 0x0c, 0x00, 0x00, 0x00, 0x28, 0x00, 0x00, 0x00,
  0xf8, 0xf8, 0xff, 0xff, 0x1b, 0x00, 0x00, 0x00, 0x53, 0x74, 0x61, 0x74,
  0x65, 0x66, 0x75, 0x6c, 0x50, 0x61, 0x72, 0x74, 0x69, 0x74, 0x69, 0x6f,
  0x6e, 0x65, 0x64, 0x43, 0x61, 0x6c, 0x6c, 0x5f, 0x31, 0x3a, 0x30, 0x00,
  0x02, 0x00, 0x00, 0x00, 0x01, 0x00, 0x00, 0x00, 0x07, 0x00, 0x00, 0x00,
  0x56, 0xf9, 0xff, 0xff, 0x00, 0x00, 0x00, 0x01, 0x10, 0x00, 0x00, 0x00,
  0x10, 0x00, 0x00, 0x00, 0x0b, 0x00, 0x00, 0x00, 0x2c, 0x00, 0x00, 0x00,
  0x40, 0xf9, 0xff, 0xff, 0x1e, 0x00, 0x00, 0x00, 0x73, 0x65, 0x71, 0x75,
  0x65, 0x6e, 0x74, 0x69, 0x61, 0x6c, 0x5f, 0x31, 0x2f, 0x66, 0x6c, 0x61,
  0x74, 0x74, 0x65, 0x6e, 0x5f, 0x31, 0x2f, 0x52, 0x65, 0x73, 0x68, 0x61,
  0x70, 0x65, 0x00, 0x00, 0x02, 0x00, 0x00, 0x00, 0x01, 0x00, 0x00, 0x00,
  0xc0, 0x00, 0x00, 0x00, 0xa2, 0xf9, 0xff, 0xff, 0x00, 0x00, 0x00, 0x01,
  0x10, 0x00, 0x00, 0x00, 0x10, 0x00, 0x00, 0x00, 0x0a, 0x00, 0x00, 0x00,
  0x90, 0x00, 0x00, 0x00, 0x8c, 0xf9, 0xff, 0xff, 0x81, 0x00, 0x00, 0x00,
  0x73, 0x65, 0x71, 0x75, 0x65, 0x6e, 0x74, 0x69, 0x61, 0x6c, 0x5f, 0x31,
  0x2f, 0x63, 0x6f, 0x6e, 0x76, 0x32, 0x64, 0x5f, 0x31, 0x5f, 0x32, 0x2f,
  0x52, 0x65, 0x6c, 0x75, 0x3b, 0x73, 0x65, 0x71, 0x75, 0x65, 0x6e, 0x74,
  0x69, 0x61, 0x6c, 0x5f, 0x31, 0x2f, 0x63, 0x6f, 0x6e, 0x76, 0x32, 0x64,
  0x5f, 0x31, 0x5f, 0x32, 0x2f, 0x42, 0x69, 0x61, 0x73, 0x41, 0x64, 0x64,
  0x3b, 0x73, 0x65, 0x71, 0x75, 0x65, 0x6e, 0x74, 0x69, 0x61, 0x6c, 0x5f,
  0x31, 0x2f, 0x63, 0x6f, 0x6e, 0x76, 0x32, 0x64, 0x5f, 0x31, 0x5f, 0x32,
  0x2f, 0x63, 0x6f, 0x6e, 0x76, 0x6f, 0x6c, 0x75, 0x74, 0x69, 0x6f, 0x6e,
  0x3b, 0x73, 0x65, 0x71, 0x75, 0x65, 0x6e, 0x74, 0x69, 0x61, 0x6c, 0x5f,
  0x31, 0x2f, 0x63, 0x6f, 0x6e, 0x76, 0x32, 0x64, 0x5f, 0x31, 0x5f, 0x32,
  0x2f, 0x53, 0x71, 0x75, 0x65, 0x65, 0x7a, 0x65, 0x31, 0x00, 0x00, 0x00,
  0x04, 0x00, 0x00, 0x00, 0x01, 0x00, 0x00, 0x00, 0x06, 0x00, 0x00, 0x00,
  0x01, 0x00, 0x00, 0x00, 0x20, 0x00, 0x00, 0x00, 0x5a, 0xfa, 0xff, 0xff,
  0x00, 0x00, 0x00, 0x01, 0x10, 0x00, 0x00, 0x00, 0x10, 0x00, 0x00, 0x00,
  0x09, 0x00, 0x00, 0x00, 0x88, 0x00, 0x00, 0x00, 0x44, 0xfa, 0xff, 0xff,
  0x79, 0x00, 0x00, 0x00, 0x73, 0x65, 0x71, 0x75, 0x65, 0x6e, 0x74, 0x69,
  0x61, 0x6c, 0x5f, 0x31, 0x2f, 0x63, 0x6f, 0x6e, 0x76, 0x32, 0x64, 0x5f,
  0x31, 0x2f, 0x52, 0x65, 0x6c, 0x75, 0x3b, 0x73, 0x65, 0x71, 0x75, 0x65,
  0x6e, 0x74, 0x69, 0x61, 0x6c, 0x5f, 0x31, 0x2f, 0x63, 0x6f, 0x6e, 0x76,
  0x32, 0x64, 0x5f, 0x31, 0x2f, 0x42, 0x69, 0x61, 0x73, 0x41, 0x64, 0x64,
  0x3b, 0x73, 0x65, 0x71, 0x75, 0x65, 0x6e, 0x74, 0x69, 0x61, 0x6c, 0x5f,
  0x31, 0x2f, 0x63, 0x6f, 0x6e, 0x76, 0x32, 0x64, 0x5f, 0x31, 0x2f, 0x63,
  0x6f, 0x6e, 0x76, 0x6f, 0x6c, 0x75, 0x74, 0x69, 0x6f, 0x6e, 0x3b, 0x73,
  0x65, 0x71, 0x75, 0x65, 0x6e, 0x74, 0x69, 0x61, 0x6c, 0x5f, 0x31, 0x2f,
  0x63, 0x6f, 0x6e, 0x76, 0x32, 0x64, 0x5f, 0x31, 0x2f, 0x53, 0x71, 0x75,
  0x65, 0x65, 0x7a, 0x65, 0x31, 0x00, 0x00, 0x00, 0x04, 0x00, 0x00, 0x00,
  0x01, 0x00, 0x00, 0x00, 0x08, 0x00, 0x00, 0x00, 0x01, 0x00, 0x00, 0x00,
  0x10, 0x00, 0x00, 0x00, 0x5a, 0xfc, 0xff, 0xff, 0x00, 0x00, 0x00, 0x01,
  0x14, 0x00, 0x00, 0x00, 0x7c, 0x00, 0x00, 0x00, 0x08, 0x00, 0x00, 0x00,
  0x00, 0x00, 0x00, 0x09, 0x90, 0x00, 0x00, 0x00, 0x4c, 0xff, 0xff, 0xff,
  0x08, 0x00, 0x00, 0x00, 0x44, 0x00, 0x00, 0x00, 0x07, 0x00, 0x00, 0x00,
  0x00, 0x00, 0x00, 0x00, 0x00, 0x00, 0x00, 0x00, 0x00, 0x00, 0x00, 0x00,
  0x00, 0x00, 0x00, 0x00, 0x00, 0x00, 0x00, 0x00, 0x00, 0x00, 0x00, 0x00,
  0x00, 0x00, 0x00, 0x00, 0x00, 0x00, 0x00, 0x00, 0x00, 0x00, 0x00, 0x00,
  0x00, 0x00, 0x00, 0x00, 0x00, 0x00, 0x00, 0x00, 0x00, 0x00, 0x00, 0x00,
  0x00, 0x00, 0x00, 0x00, 0x00, 0x00, 0x00, 0x00, 0x00, 0x00, 0x00, 0x00,
  0x07, 0x00, 0x00, 0x00, 0x13, 0x6c, 0x08, 0x3b, 0x54, 0xcf, 0xfe, 0x3a,
  0x05, 0xc0, 0x06, 0x3b, 0x56, 0xeb, 0xc7, 0x3a, 0x6e, 0xb2, 0xc8, 0x3a,
  0x79, 0x0c, 0xb6, 0x3a, 0x1f, 0x49, 0xce, 0x3a, 0x1b, 0x00, 0x00, 0x00,
  0x73, 0x65, 0x71, 0x75, 0x65, 0x6e, 0x74, 0x69, 0x61, 0x6c, 0x5f, 0x31,
  0x2f, 0x64, 0x65, 0x6e, 0x73, 0x65, 0x5f, 0x31, 0x2f, 0x4d, 0x61, 0x74,
  0x4d, 0x75, 0x6c, 0x00, 0x02, 0x00, 0x00, 0x00, 0x07, 0x00, 0x00, 0x00,
  0xc0, 0x00, 0x00, 0x00, 0x0e, 0xfd, 0xff, 0xff, 0x00, 0x00, 0x00, 0x01,
  0x20, 0x00, 0x00, 0x00, 0xb4, 0x01, 0x00, 0x00, 0x07, 0x00, 0x00, 0x00,
  0x00, 0x00, 0x00, 0x09, 0xd0, 0x01, 0x00, 0x00, 0x0c, 0x00, 0x0c, 0x00,
  0x00, 0x00, 0x00, 0x00, 0x08, 0x00, 0x04, 0x00, 0x0c, 0x00, 0x00, 0x00,
  0x08, 0x00, 0x00, 0x00, 0x0c, 0x01, 0x00, 0x00, 0x20, 0x00, 0x00, 0x00,
  0x00, 0x00, 0x00, 0x00, 0x00, 0x00, 0x00, 0x00, 0x00, 0x00, 0x00, 0x00,
  0x00, 0x00, 0x00, 0x00, 0x00, 0x00, 0x00, 0x00, 0x00, 0x00, 0x00, 0x00,
  0x00, 0x00, 0x00, 0x00, 0x00, 0x00, 0x00, 0x00, 0x00, 0x00, 0x00, 0x00,
  0x00, 0x00, 0x00, 0x00, 0x00, 0x00, 0x00, 0x00, 0x00, 0x00, 0x00, 0x00,
  0x00, 0x00, 0x00, 0x00, 0x00, 0x00, 0x00, 0x00, 0x00, 0x00, 0x00, 0x00,
  0x00, 0x00, 0x00, 0x00, 0x00, 0x00, 0x00, 0x00, 0x00, 0x00, 0x00, 0x00,
  0x00, 0x00, 0x00, 0x00, 0x00, 0x00, 0x00, 0x00, 0x00, 0x00, 0x00, 0x00,
  0x00, 0x00, 0x00, 0x00, 0x00, 0x00, 0x00, 0x00, 0x00, 0x00, 0x00, 0x00,
  0x00, 0x00, 0x00, 0x00, 0x00, 0x00, 0x00, 0x00, 0x00, 0x00, 0x00, 0x00,
  0x00, 0x00, 0x00, 0x00, 0x00, 0x00, 0x00, 0x00, 0x00, 0x00, 0x00, 0x00,
  0x00, 0x00, 0x00, 0x00, 0x00, 0x00, 0x00, 0x00, 0x00, 0x00, 0x00, 0x00,
  0x00, 0x00, 0x00, 0x00, 0x00, 0x00, 0x00, 0x00, 0x00, 0x00, 0x00, 0x00,
  0x00, 0x00, 0x00, 0x00, 0x00, 0x00, 0x00, 0x00, 0x00, 0x00, 0x00, 0x00,
  0x00, 0x00, 0x00, 0x00, 0x00, 0x00, 0x00, 0x00, 0x00, 0x00, 0x00, 0x00,
  0x00, 0x00, 0x00, 0x00, 0x00, 0x00, 0x00, 0x00, 0x00, 0x00, 0x00, 0x00,
  0x00, 0x00, 0x00, 0x00, 0x00, 0x00, 0x00, 0x00, 0x00, 0x00, 0x00, 0x00,
  0x00, 0x00, 0x00, 0x00, 0x00, 0x00, 0x00, 0x00, 0x00, 0x00, 0x00, 0x00,
  0x00, 0x00, 0x00, 0x00, 0x00, 0x00, 0x00, 0x00, 0x00, 0x00, 0x00, 0x00,
  0x00, 0x00, 0x00, 0x00, 0x00, 0x00, 0x00, 0x00, 0x00, 0x00, 0x00, 0x00,
  0x00, 0x00, 0x00, 0x00, 0x00, 0x00, 0x00, 0x00, 0x00, 0x00, 0x00, 0x00,
  0x00, 0x00, 0x00, 0x00, 0x00, 0x00, 0x00, 0x00, 0x00, 0x00, 0x00, 0x00,
  0x00, 0x00, 0x00, 0x00, 0x00, 0x00, 0x00, 0x00, 0x20, 0x00, 0x00, 0x00,
  0x90, 0x34, 0x20, 0x3b, 0x3b, 0xf8, 0x15, 0x3b, 0x89, 0xa8, 0x11, 0x3b,
  0x58, 0x7a, 0x0e, 0x3b, 0x8d, 0x93, 0xfa, 0x3a, 0xf9, 0x14, 0x0f, 0x3b,
  0x04, 0x71, 0x37, 0x3b, 0xb0, 0x7e, 0xfb, 0x3a, 0xf5, 0xef, 0xfe, 0x3a,
  0x2e, 0x34, 0xfc, 0x3a, 0x2b, 0xa9, 0xe0, 0x3a, 0xf9, 0xf8, 0x10, 0x3b,
  0x90, 0xf2, 0x10, 0x3b, 0xeb, 0xd3, 0xf8, 0x3a, 0x52, 0x8b, 0x0e, 0x3b,
  0x57, 0x85, 0x1c, 0x3b, 0x12, 0x74, 0x01, 0x3b, 0xcc, 0xe0, 0x1b, 0x3b,
  0x66, 0x8d, 0x24, 0x3b, 0xfb, 0x0d, 0x13, 0x3b, 0x73, 0xa5, 0x1c, 0x3b,
  0xca, 0x5c, 0xef, 0x3a, 0x60, 0x53, 0x01, 0x3b, 0x9c, 0x77, 0xe5, 0x3a,
  0x08, 0xd8, 0x17, 0x3b, 0xe5, 0xc2, 0xfc, 0x3a, 0xb4, 0x83, 0x33, 0x3b,
  0x24, 0x16, 0xff, 0x3a, 0x31, 0x95, 0x11, 0x3b, 0xad, 0x75, 0x01, 0x3b,
  0xcb, 0x31, 0x02, 0x3b, 0x8d, 0x4f, 0xd9, 0x3a, 0x23, 0x00, 0x00, 0x00,
  0x73, 0x65, 0x71, 0x75, 0x65, 0x6e, 0x74, 0x69, 0x61, 0x6c, 0x5f, 0x31,
  0x2f, 0x63, 0x6f, 0x6e, 0x76, 0x32, 0x64, 0x5f, 0x31, 0x5f, 0x32, 0x2f,
  0x63, 0x6f, 0x6e, 0x76, 0x6f, 0x6c, 0x75, 0x74, 0x69, 0x6f, 0x6e, 0x00,
  0x04, 0x00, 0x00, 0x00, 0x20, 0x00, 0x00, 0x00, 0x03, 0x00, 0x00, 0x00,
  0x01, 0x00, 0x00, 0x00, 0x10, 0x00, 0x00, 0x00, 0xba, 0xfd, 0xff, 0xff,
  0x00, 0x00, 0x00, 0x01, 0x10, 0x00, 0x00, 0x00, 0x10, 0x00, 0x00, 0x00,
  0x06, 0x00, 0x00, 0x00, 0x2c, 0x00, 0x00, 0x00, 0xa4, 0xfd, 0xff, 0xff,
  0x1c, 0x00, 0x00, 0x00, 0x73, 0x65, 0x71, 0x75, 0x65, 0x6e, 0x74, 0x69,
  0x61, 0x6c, 0x5f, 0x31, 0x2f, 0x64, 0x65, 0x6e, 0x73, 0x65, 0x5f, 0x31,
  0x2f, 0x42, 0x69, 0x61, 0x73, 0x41, 0x64, 0x64, 0x00, 0x00, 0x00, 0x00,
  0x01, 0x00, 0x00, 0x00, 0x07, 0x00, 0x00, 0x00, 0x02, 0xfe, 0xff, 0xff,
  0x00, 0x00, 0x00, 0x01, 0x10, 0x00, 0x00, 0x00, 0x10, 0x00, 0x00, 0x00,
  0x05, 0x00, 0x00, 0x00, 0x90, 0x00, 0x00, 0x00, 0xec, 0xfd, 0xff, 0xff,
  0x80, 0x00, 0x00, 0x00, 0x73, 0x65, 0x71, 0x75, 0x65, 0x6e, 0x74, 0x69,
  0x61, 0x6c, 0x5f, 0x31, 0x2f, 0x63, 0x6f, 0x6e, 0x76, 0x32, 0x64, 0x5f,
  0x31, 0x5f, 0x32, 0x2f, 0x52, 0x65, 0x6c, 0x75, 0x3b, 0x73, 0x65, 0x71,
  0x75, 0x65, 0x6e, 0x74, 0x69, 0x61, 0x6c, 0x5f, 0x31, 0x2f, 0x63, 0x6f,
  0x6e, 0x76, 0x32, 0x64, 0x5f, 0x31, 0x5f, 0x32, 0x2f, 0x42, 0x69, 0x61,
  0x73, 0x41, 0x64, 0x64, 0x3b, 0x73, 0x65, 0x71, 0x75, 0x65, 0x6e, 0x74,
  0x69, 0x61, 0x6c, 0x5f, 0x31, 0x2f, 0x63, 0x6f, 0x6e, 0x76, 0x32, 0x64,
  0x5f, 0x31, 0x5f, 0x32, 0x2f, 0x63, 0x6f, 0x6e, 0x76, 0x6f, 0x6c, 0x75,
  0x74, 0x69, 0x6f, 0x6e, 0x3b, 0x73, 0x65, 0x71, 0x75, 0x65, 0x6e, 0x74,
  0x69, 0x61, 0x6c, 0x5f, 0x31, 0x2f, 0x63, 0x6f, 0x6e, 0x76, 0x32, 0x64,
  0x5f, 0x31, 0x5f, 0x32, 0x2f, 0x53, 0x71, 0x75, 0x65, 0x65, 0x7a, 0x65,
  0x00, 0x00, 0x00, 0x00, 0x01, 0x00, 0x00, 0x00, 0x20, 0x00, 0x00, 0x00,
  0x00, 0x00, 0x16, 0x00, 0x1c, 0x00, 0x18, 0x00, 0x17, 0x00, 0x10, 0x00,
  0x0c, 0x00, 0x08, 0x00, 0x00, 0x00, 0x00, 0x00, 0x00, 0x00, 0x07, 0x00,
  0x16, 0x00, 0x00, 0x00, 0x00, 0x00, 0x00, 0x01, 0x14, 0x00, 0x00, 0x00,
  0x14, 0x00, 0x00, 0x00, 0x04, 0x00, 0x00, 0x00, 0x00, 0x00, 0x00, 0x02,
  0x1c, 0x00, 0x00, 0x00, 0xb4, 0xfe, 0xff, 0xff, 0x0e, 0x00, 0x00, 0x00,
  0x61, 0x72, 0x69, 0x74, 0x68, 0x2e, 0x63, 0x6f, 0x6e, 0x73, 0x74, 0x61,
  0x6e, 0x74, 0x00, 0x00, 0x01, 0x00, 0x00, 0x00, 0x02, 0x00, 0x00, 0x00,
  0x02, 0xff, 0xff, 0xff, 0x00, 0x00, 0x00, 0x01, 0x10, 0x00, 0x00, 0x00,
  0x10, 0x00, 0x00, 0x00, 0x03, 0x00, 0x00, 0x00, 0x30, 0x00, 0x00, 0x00,
  0xec, 0xfe, 0xff, 0xff, 0x21, 0x00, 0x00, 0x00, 0x73, 0x65, 0x71, 0x75,
  0x65, 0x6e, 0x74, 0x69, 0x61, 0x6c, 0x5f, 0x31, 0x2f, 0x63, 0x6f, 0x6e,
  0x76, 0x32, 0x64, 0x5f, 0x31, 0x2f, 0x63, 0x6f, 0x6e, 0x76, 0x6f, 0x6c,
  0x75, 0x74, 0x69, 0x6f, 0x6e, 0x00, 0x00, 0x00, 0x04, 0x00, 0x00, 0x00,
  0x10, 0x00, 0x00, 0x00, 0x03, 0x00, 0x00, 0x00, 0x01, 0x00, 0x00, 0x00,
  0x09, 0x00, 0x00, 0x00, 0x5a, 0xff, 0xff, 0xff, 0x00, 0x00, 0x00, 0x01,
  0x10, 0x00, 0x00, 0x00, 0x10, 0x00, 0x00, 0x00, 0x02, 0x00, 0x00, 0x00,
  0x88, 0x00, 0x00, 0x00, 0x44, 0xff, 0xff, 0xff, 0x78, 0x00, 0x00, 0x00,
  0x73, 0x65, 0x71, 0x75, 0x65, 0x6e, 0x74, 0x69, 0x61, 0x6c, 0x5f, 0x31,
  0x2f, 0x63, 0x6f, 0x6e, 0x76, 0x32, 0x64, 0x5f, 0x31, 0x2f, 0x52, 0x65,
  0x6c, 0x75, 0x3b, 0x73, 0x65, 0x71, 0x75, 0x65, 0x6e, 0x74, 0x69, 0x61,
  0x6c, 0x5f, 0x31, 0x2f, 0x63, 0x6f, 0x6e, 0x76, 0x32, 0x64, 0x5f, 0x31,
  0x2f, 0x42, 0x69, 0x61, 0x73, 0x41, 0x64, 0x64, 0x3b, 0x73, 0x65, 0x71,
  0x75, 0x65, 0x6e, 0x74, 0x69, 0x61, 0x6c, 0x5f, 0x31, 0x2f, 0x63, 0x6f,
  0x6e, 0x76, 0x32, 0x64, 0x5f, 0x31, 0x2f, 0x63, 0x6f, 0x6e, 0x76, 0x6f,
  0x6c, 0x75, 0x74, 0x69, 0x6f, 0x6e, 0x3b, 0x73, 0x65, 0x71, 0x75, 0x65,
  0x6e, 0x74, 0x69, 0x61, 0x6c, 0x5f, 0x31, 0x2f, 0x63, 0x6f, 0x6e, 0x76,
  0x32, 0x64, 0x5f, 0x31, 0x2f, 0x53, 0x71, 0x75, 0x65, 0x65, 0x7a, 0x65,
  0x00, 0x00, 0x00, 0x00, 0x01, 0x00, 0x00, 0x00, 0x10, 0x00, 0x00, 0x00,
  0x00, 0x00, 0x16, 0x00, 0x18, 0x00, 0x14, 0x00, 0x00, 0x00, 0x10, 0x00,
  0x0c, 0x00, 0x08, 0x00, 0x00, 0x00, 0x00, 0x00, 0x00, 0x00, 0x07, 0x00,
  0x16, 0x00, 0x00, 0x00, 0x00, 0x00, 0x00, 0x01, 0x14, 0x00, 0x00, 0x00,
  0x14, 0x00, 0x00, 0x00, 0x01, 0x00, 0x00, 0x00, 0x34, 0x00, 0x00, 0x00,
  0x04, 0x00, 0x04, 0x00, 0x04, 0x00, 0x00, 0x00, 0x21, 0x00, 0x00, 0x00,
  0x73, 0x65, 0x72, 0x76, 0x69, 0x6e, 0x67, 0x5f, 0x64, 0x65, 0x66, 0x61,
  0x75, 0x6c, 0x74, 0x5f, 0x6b, 0x65, 0x72, 0x61, 0x73, 0x5f, 0x74, 0x65,
  0x6e, 0x73, 0x6f, 0x72, 0x5f, 0x31, 0x30, 0x3a, 0x30, 0x00, 0x00, 0x00,
  0x04, 0x00, 0x00, 0x00, 0x01, 0x00, 0x00, 0x00, 0x0a, 0x00, 0x00, 0x00,
  0x01, 0x00, 0x00, 0x00, 0x09, 0x00, 0x00, 0x00, 0x03, 0x00, 0x00, 0x00,
  0x40, 0x00, 0x00, 0x00, 0x24, 0x00, 0x00, 0x00, 0x04, 0x00, 0x00, 0x00,
  0xd8, 0xff, 0xff, 0xff, 0x09, 0x00, 0x00, 0x00, 0x0c, 0x00, 0x00, 0x00,
  0x00, 0x00, 0x00, 0x09, 0x0c, 0x00, 0x0c, 0x00, 0x0b, 0x00, 0x00, 0x00,
  0x00, 0x00, 0x04, 0x00, 0x0c, 0x00, 0x00, 0x00, 0x16, 0x00, 0x00, 0x00,
  0x00, 0x00, 0x00, 0x16, 0x0c, 0x00, 0x10, 0x00, 0x0f, 0x00, 0x00, 0x00,
  0x08, 0x00, 0x04, 0x00, 0x0c, 0x00, 0x00, 0x00, 0x03, 0x00, 0x00, 0x00,
  0x05, 0x00, 0x00, 0x00, 0x00, 0x00, 0x00, 0x03
};
unsigned int tflite_models_conv_lr0_0001_bs32_hybrid_tflite_len = 7856;
