unsigned char tflite_models_residual_conv_lstm_lr0_0001_bs32_int8_tflite[] = {
  0x1c, 0x00, 0x00, 0x00, 0x54, 0x46, 0x4c, 0x33, 0x14, 0x00, 0x20, 0x00,
  0x1c, 0x00, 0x18, 0x00, 0x14, 0x00, 0x10, 0x00, 0x0c, 0x00, 0x00, 0x00,
  0x08, 0x00, 0x04, 0x00, 0x14, 0x00, 0x00, 0x00, 0x1c, 0x00, 0x00, 0x00,
  0x8c, 0x00, 0x00, 0x00, 0xe4, 0x00, 0x00, 0x00, 0x18, 0x16, 0x00, 0x00,
  0x28, 0x16, 0x00, 0x00, 0x88, 0x97, 0x00, 0x00, 0x03, 0x00, 0x00, 0x00,
  0x01, 0x00, 0x00, 0x00, 0x04, 0x00, 0x00, 0x00, 0x92, 0xd6, 0xff, 0xff,
  0x0c, 0x00, 0x00, 0x00, 0x1c, 0x00, 0x00, 0x00, 0x3c, 0x00, 0x00, 0x00,
  0x0f, 0x00, 0x00, 0x00, 0x73, 0x65, 0x72, 0x76, 0x69, 0x6e, 0x67, 0x5f,
  0x64, 0x65, 0x66, 0x61, 0x75, 0x6c, 0x74, 0x00, 0x01, 0x00, 0x00, 0x00,
  0x04, 0x00, 0x00, 0x00, 0x90, 0xff, 0xff, 0xff, 0x96, 0x00, 0x00, 0x00,
  0x04, 0x00, 0x00, 0x00, 0x08, 0x00, 0x00, 0x00, 0x6f, 0x75, 0x74, 0x70,
  0x75, 0x74, 0x5f, 0x30, 0x00, 0x00, 0x00, 0x00, 0x01, 0x00, 0x00, 0x00,
  0x04, 0x00, 0x00, 0x00, 0x1a, 0xd7, 0xff, 0xff, 0x04, 0x00, 0x00, 0x00,
  0x0f, 0x00, 0x00, 0x00, 0x6b, 0x65, 0x72, 0x61, 0x73, 0x5f, 0x74, 0x65,
  0x6e, 0x73, 0x6f, 0x72, 0x5f, 0x35, 0x39, 0x00, 0x02, 0x00, 0x00, 0x00,
  0x34, 0x00, 0x00, 0x00, 0x04, 0x00, 0x00, 0x00, 0xdc, 0xff, 0xff, 0xff,
  0x99, 0x00, 0x00, 0x00, 0x04, 0x00, 0x00, 0x00, 0x13, 0x00, 0x00, 0x00,
  0x43, 0x4f, 0x4e, 0x56, 0x45, 0x52, 0x53, 0x49, 0x4f, 0x4e, 0x5f, 0x4d,
  0x45, 0x54, 0x41, 0x44, 0x41, 0x54, 0x41, 0x00, 0x08, 0x00, 0x0c, 0x00,
  0x08, 0x00, 0x04, 0x00, 0x08, 0x00, 0x00, 0x00, 0x98, 0x00, 0x00, 0x00,
  0x04, 0x00, 0x00, 0x00, 0x13, 0x00, 0x00, 0x00, 0x6d, 0x69, 0x6e, 0x5f,
  0x72, 0x75, 0x6e, 0x74, 0x69, 0x6d, 0x65, 0x5f, 0x76, 0x65, 0x72, 0x73,
  0x69, 0x6f, 0x6e, 0x00, 0x9a, 0x00, 0x00, 0x00, 0x30, 0x15, 0x00, 0x00,
  0x28, 0x15, 0x00, 0x00, 0x0c, 0x15, 0x00, 0x00, 0xf8, 0x14, 0x00, 0x00,
  0xe4, 0x14, 0x00, 0x00, 0xb8, 0x14, 0x00, 0x00, 0x1c, 0x14, 0x00, 0x00,
  0xbc, 0x13, 0x00, 0x00, 0x5c, 0x13, 0x00, 0x00, 0x0c, 0x13, 0x00, 0x00,
  0xbc, 0x12, 0x00, 0x00, 0x9c, 0x12, 0x00, 0x00, 0x8c, 0x10, 0x00, 0x00,
  0xfc, 0x0f, 0x00, 0x00, 0x6c, 0x0b, 0x00, 0x00, 0xdc, 0x0a, 0x00, 0x00,
  0xcc, 0x06, 0x00, 0x00, 0x7c, 0x06, 0x00, 0x00, 0xbc, 0x04, 0x00, 0x00,
  0xb4, 0x04, 0x00, 0x00, 0xac, 0x04, 0x00, 0x00, 0xa4, 0x04, 0x00, 0x00,
  0x9c, 0x04, 0x00, 0x00, 0x94, 0x04, 0x00, 0x00, 0x8c, 0x04, 0x00, 0x00,
  0x84, 0x04, 0x00, 0x00, 0x7c, 0x04, 0x00, 0x00, 0x74, 0x04, 0x00, 0x00,
  0x6c, 0x04, 0x00, 0x00, 0x64, 0x04, 0x00, 0x00, 0x5c, 0x04, 0x00, 0x00,
  0x54, 0x04, 0x00, 0x00, 0x4c, 0x04, 0x00, 0x00, 0x44, 0x04, 0x00, 0x00,
  0x3c, 0x04, 0x00, 0x00, 0x34, 0x04, 0x00, 0x00, 0x2c, 0x04, 0x00, 0x00,
  0x24, 0x04, 0x00, 0x00, 0x1c, 0x04, 0x00, 0x00, 0x14, 0x04, 0x00, 0x00,
  0x0c, 0x04, 0x00, 0x00, 0x04, 0x04, 0x00, 0x00, 0xfc, 0x03, 0x00, 0x00,
  0xf4, 0x03, 0x00, 0x00, 0xec, 0x03, 0x00, 0x00, 0xe4, 0x03, 0x00, 0x00,
  0xdc, 0x03, 0x00, 0x00, 0xd4, 0x03, 0x00, 0x00, 0xcc, 0x03, 0x00, 0x00,
  0xc4, 0x03, 0x00, 0x00, 0xbc, 0x03, 0x00, 0x00, 0xb4, 0x03, 0x00, 0x00,
  0xac, 0x03, 0x00, 0x00, 0xa4, 0x03, 0x00, 0x00, 0x9c, 0x03, 0x00, 0x00,
  0x94, 0x03, 0x00, 0x00, 0x8c, 0x03, 0x00, 0x00, 0x84, 0x03, 0x00, 0x00,
  0x7c, 0x03, 0x00, 0x00, 0x74, 0x03, 0x00, 0x00, 0x6c, 0x03, 0x00, 0x00,
  0x64, 0x03, 0x00, 0x00, 0x5c, 0x03, 0x00, 0x00, 0x54, 0x03, 0x00, 0x00,
  0x4c, 0x03, 0x00, 0x00, 0x44, 0x03, 0x00, 0x00, 0x3c, 0x03, 0x00, 0x00,
  0x34, 0x03, 0x00, 0x00, 0x2c, 0x03, 0x00, 0x00, 0x24, 0x03, 0x00, 0x00,
  0x1c, 0x03, 0x00, 0x00, 0x14, 0x03, 0x00, 0x00, 0x0c, 0x03, 0x00, 0x00,
  0x04, 0x03, 0x00, 0x00, 0xfc, 0x02, 0x00, 0x00, 0xf4, 0x02, 0x00, 0x00,
  0xec, 0x02, 0x00, 0x00, 0xe4, 0x02, 0x00, 0x00, 0xdc, 0x02, 0x00, 0x00,
  0xd4, 0x02, 0x00, 0x00, 0xcc, 0x02, 0x00, 0x00, 0xc4, 0x02, 0x00, 0x00,
  0xbc, 0x02, 0x00, 0x00, 0xb4, 0x02, 0x00, 0x00, 0xac, 0x02, 0x00, 0x00,
  0xa4, 0x02, 0x00, 0x00, 0x9c, 0x02, 0x00, 0x00, 0x94, 0x02, 0x00, 0x00,
  0x8c, 0x02, 0x00, 0x00, 0x84, 0x02, 0x00, 0x00, 0x7c, 0x02, 0x00, 0x00,
  0x74, 0x02, 0x00, 0x00, 0x6c, 0x02, 0x00, 0x00, 0x64, 0x02, 0x00, 0x00,
  0x5c, 0x02, 0x00, 0x00, 0x54, 0x02, 0x00, 0x00, 0x4c, 0x02, 0x00, 0x00,
  0x44, 0x02, 0x00, 0x00, 0x3c, 0x02, 0x00, 0x00, 0x34, 0x02, 0x00, 0x00,
  0x2c, 0x02, 0x00, 0x00, 0x24, 0x02, 0x00, 0x00, 0x1c, 0x02, 0x00, 0x00,
  0x14, 0x02, 0x00, 0x00, 0x0c, 0x02, 0x00, 0x00, 0x04, 0x02, 0x00, 0x00,
  0xfc, 0x01, 0x00, 0x00, 0xf4, 0x01, 0x00, 0x00, 0xec, 0x01, 0x00, 0x00,
  0xe4, 0x01, 0x00, 0x00, 0xdc, 0x01, 0x00, 0x00, 0xd4, 0x01, 0x00, 0x00,
  0xcc, 0x01, 0x00, 0x00, 0xc4, 0x01, 0x00, 0x00, 0xbc, 0x01, 0x00, 0x00,
  0xb4, 0x01, 0x00, 0x00, 0xac, 0x01, 0x00, 0x00, 0xa4, 0x01, 0x00, 0x00,
  0x9c, 0x01, 0x00, 0x00, 0x94, 0x01, 0x00, 0x00, 0x8c, 0x01, 0x00, 0x00,
  0x84, 0x01, 0x00, 0x00, 0x7c, 0x01, 0x00, 0x00, 0x74, 0x01, 0x00, 0x00,
  0x6c, 0x01, 0x00, 0x00, 0x64, 0x01, 0x00, 0x00, 0x5c, 0x01, 0x00, 0x00,
  0x54, 0x01, 0x00, 0x00, 0x4c, 0x01, 0x00, 0x00, 0x44, 0x01, 0x00, 0x00,
  0x3c, 0x01, 0x00, 0x00, 0x34, 0x01, 0x00, 0x00, 0x2c, 0x01, 0x00, 0x00,
  0x24, 0x01, 0x00, 0x00, 0x1c, 0x01, 0x00, 0x00, 0x14, 0x01, 0x00, 0x00,
  0x0c, 0x01, 0x00, 0x00, 0x04, 0x01, 0x00, 0x00, 0xfc, 0x00, 0x00, 0x00,
  0xf4, 0x00, 0x00, 0x00, 0xec, 0x00, 0x00, 0x00, 0xe4, 0x00, 0x00, 0x00,
  0xdc, 0x00, 0x00, 0x00, 0xd4, 0x00, 0x00, 0x00, 0xcc, 0x00, 0x00, 0x00,
  0xc4, 0x00, 0x00, 0x00, 0xbc, 0x00, 0x00, 0x00, 0xb4, 0x00, 0x00, 0x00,
  0xac, 0x00, 0x00, 0x00, 0xa4, 0x00, 0x00, 0x00, 0x9c, 0x00, 0x00, 0x00,
  0x94, 0x00, 0x00, 0x00, 0x74, 0x00, 0x00, 0x00, 0x04, 0x00, 0x00, 0x00,
  0xfe, 0xd9, 0xff, 0xff, 0x04, 0x00, 0x00, 0x00, 0x60, 0x00, 0x00, 0x00,
  0x0c, 0x00, 0x00, 0x00, 0x08, 0x00, 0x0e, 0x00, 0x08, 0x00, 0x04, 0x00,
  0x08, 0x00, 0x00, 0x00, 0x10, 0x00, 0x00, 0x00, 0x28, 0x00, 0x00, 0x00,
  0x00, 0x00, 0x06, 0x00, 0x08, 0x00, 0x04, 0x00, 0x06, 0x00, 0x00, 0x00,
  0x04, 0x00, 0x00, 0x00, 0x01, 0x00, 0x00, 0x00, 0xeb, 0x03, 0x00, 0x00,
  0x0c, 0x00, 0x18, 0x00, 0x14, 0x00, 0x10, 0x00, 0x0c, 0x00, 0x04, 0x00,
  0x0c, 0x00, 0x00, 0x00, 0x77, 0x56, 0x42, 0x7a, 0x09, 0x29, 0xdf, 0x29,
  0x02, 0x00, 0x00, 0x00, 0x02, 0x00, 0x00, 0x00, 0x04, 0x00, 0x00, 0x00,
  0x06, 0x00, 0x00, 0x00, 0x32, 0x2e, 0x32, 0x31, 0x2e, 0x30, 0x00, 0x00,
  0x6a, 0xda, 0xff, 0xff, 0x04, 0x00, 0x00, 0x00, 0x10, 0x00, 0x00, 0x00,
  0x31, 0x2e, 0x31, 0x34, 0x2e, 0x30, 0x00, 0x00, 0x00, 0x00, 0x00, 0x00,
  0x00, 0x00, 0x00, 0x00, 0x40, 0x6d, 0xff, 0xff, 0x44, 0x6d, 0xff, 0xff,
  0x48, 0x6d, 0xff, 0xff, 0x4c, 0x6d, 0xff, 0xff, 0x50, 0x6d, 0xff, 0xff,
  0x54, 0x6d, 0xff, 0xff, 0x58, 0x6d, 0xff, 0xff, 0x5c, 0x6d, 0xff, 0xff,
  0x60, 0x6d, 0xff, 0xff, 0x64, 0x6d, 0xff, 0xff, 0x68, 0x6d, 0xff, 0xff,
  0x6c, 0x6d, 0xff, 0xff, 0x70, 0x6d, 0xff, 0xff, 0x74, 0x6d, 0xff, 0xff,
  0x78, 0x6d, 0xff, 0xff, 0x7c, 0x6d, 0xff, 0xff, 0x80, 0x6d, 0xff, 0xff,
  0x84, 0x6d, 0xff, 0xff, 0x88, 0x6d, 0xff, 0xff, 0x8c, 0x6d, 0xff, 0xff,
  0x90, 0x6d, 0xff, 0xff, 0x94, 0x6d, 0xff, 0xff, 0x98, 0x6d, 0xff, 0xff,
  0x9c, 0x6d, 0xff, 0xff, 0xa0, 0x6d, 0xff, 0xff, 0xa4, 0x6d, 0xff, 0xff,
  0xa8, 0x6d, 0xff, 0xff, 0xac, 0x6d, 0xff, 0xff, 0xb0, 0x6d, 0xff, 0xff,
  0xb4, 0x6d, 0xff, 0xff, 0xb8, 0x6d, 0xff, 0xff, 0xbc, 0x6d, 0xff, 0xff,
  0xc0, 0x6d, 0xff, 0xff, 0xc4, 0x6d, 0xff, 0xff, 0xc8, 0x6d, 0xff, 0xff,
  0xcc, 0x6d, 0xff, 0xff, 0xd0, 0x6d, 0xff, 0xff, 0xd4, 0x6d, 0xff, 0xff,
  0xd8, 0x6d, 0xff, 0xff, 0xdc, 0x6d, 0xff, 0xff, 0xe0, 0x6d, 0xff, 0xff,
  0xe4, 0x6d, 0xff, 0xff, 0xe8, 0x6d, 0xff, 0xff, 0xec, 0x6d, 0xff, 0xff,
  0xf0, 0x6d, 0xff, 0xff, 0xf4, 0x6d, 0xff, 0xff, 0xf8, 0x6d, 0xff, 0xff,
  0xfc, 0x6d, 0xff, 0xff, 0x00, 0x6e, 0xff, 0xff, 0x04, 0x6e, 0xff, 0xff,
  0x08, 0x6e, 0xff, 0xff, 0x0c, 0x6e, 0xff, 0xff, 0x10, 0x6e, 0xff, 0xff,
  0x14, 0x6e, 0xff, 0xff, 0x18, 0x6e, 0xff, 0xff, 0x1c, 0x6e, 0xff, 0xff,
  0x20, 0x6e, 0xff, 0xff, 0x24, 0x6e, 0xff, 0xff, 0x28, 0x6e, 0xff, 0xff,
  0x2c, 0x6e, 0xff, 0xff, 0x30, 0x6e, 0xff, 0xff, 0x34, 0x6e, 0xff, 0xff,
  0x38, 0x6e, 0xff, 0xff, 0x3c, 0x6e, 0xff, 0xff, 0x40, 0x6e, 0xff, 0xff,
  0x44, 0x6e, 0xff, 0xff, 0x48, 0x6e, 0xff, 0xff, 0x4c, 0x6e, 0xff, 0xff,
  0x50, 0x6e, 0xff, 0xff, 0x54, 0x6e, 0xff, 0xff, 0x58, 0x6e, 0xff, 0xff,
  0x5c, 0x6e, 0xff, 0xff, 0x60, 0x6e, 0xff, 0xff, 0x64, 0x6e, 0xff, 0xff,
  0x68, 0x6e, 0xff, 0xff, 0x6c, 0x6e, 0xff, 0xff, 0x70, 0x6e, 0xff, 0xff,
  0x74, 0x6e, 0xff, 0xff, 0x78, 0x6e, 0xff, 0xff, 0x7c, 0x6e, 0xff, 0xff,
  0x80, 0x6e, 0xff, 0xff, 0x84, 0x6e, 0xff, 0xff, 0x88, 0x6e, 0xff, 0xff,
  0x8c, 0x6e, 0xff, 0xff, 0x90, 0x6e, 0xff, 0xff, 0x94, 0x6e, 0xff, 0xff,
  0x98, 0x6e, 0xff, 0xff, 0x9c, 0x6e, 0xff, 0xff, 0xa0, 0x6e, 0xff, 0xff,
  0xa4, 0x6e, 0xff, 0xff, 0xa8, 0x6e, 0xff, 0xff, 0xac, 0x6e, 0xff, 0xff,
  0xb0, 0x6e, 0xff, 0xff, 0xb4, 0x6e, 0xff, 0xff, 0xb8, 0x6e, 0xff, 0xff,
  0xbc, 0x6e, 0xff, 0xff, 0xc0, 0x6e, 0xff, 0xff, 0xc4, 0x6e, 0xff, 0xff,
  0xc8, 0x6e, 0xff, 0xff, 0xcc, 0x6e, 0xff, 0xff, 0xd0, 0x6e, 0xff, 0xff,
  0xd4, 0x6e, 0xff, 0xff, 0xd8, 0x6e, 0xff, 0xff, 0xdc, 0x6e, 0xff, 0xff,
  0xe0, 0x6e, 0xff, 0xff, 0xe4, 0x6e, 0xff, 0xff, 0xe8, 0x6e, 0xff, 0xff,
  0xec, 0x6e, 0xff, 0xff, 0xf0, 0x6e, 0xff, 0xff, 0xf4, 0x6e, 0xff, 0xff,
  0xf8, 0x6e, 0xff, 0xff, 0xfc, 0x6e, 0xff, 0xff, 0x00, 0x6f, 0xff, 0xff,
  0x04, 0x6f, 0xff, 0xff, 0x08, 0x6f, 0xff, 0xff, 0x0c, 0x6f, 0xff, 0xff,
  0x10, 0x6f, 0xff, 0xff, 0x14, 0x6f, 0xff, 0xff, 0x18, 0x6f, 0xff, 0xff,
  0x1c, 0x6f, 0xff, 0xff, 0x20, 0x6f, 0xff, 0xff, 0x24, 0x6f, 0xff, 0xff,
  0x28, 0x6f, 0xff, 0xff, 0x2c, 0x6f, 0xff, 0xff, 0x30, 0x6f, 0xff, 0xff,
  0x34, 0x6f, 0xff, 0xff, 0x38, 0x6f, 0xff, 0xff, 0x3c, 0x6f, 0xff, 0xff,
  0x40, 0x6f, 0xff, 0xff, 0x44, 0x6f, 0xff, 0xff, 0x48, 0x6f, 0xff, 0xff,
  0x4c, 0x6f, 0xff, 0xff, 0x50, 0x6f, 0xff, 0xff, 0x9a, 0xdc, 0xff, 0xff,
  0x04, 0x00, 0x00, 0x00, 0xb0, 0x01, 0x00, 0x00, 0x61, 0x42, 0xb8, 0x09,
  0x60, 0x56, 0xa2, 0xc2, 0x1f, 0x81, 0xc7, 0x97, 0xd6, 0x98, 0xb9, 0xe7,
  0x36, 0x75, 0x35, 0xee, 0xee, 0x55, 0x2c, 0x22, 0x12, 0xaa, 0x48, 0x6b,
  0x41, 0x3c, 0xb1, 0x9e, 0xa8, 0x91, 0xbe, 0xe9, 0x9b, 0xc2, 0xdf, 0x99,
  0x56, 0xb4, 0xa3, 0xcd, 0x03, 0xda, 0xbb, 0x4e, 0xee, 0x81, 0x2b, 0x51,
  0x97, 0xa9, 0x75, 0xc5, 0xaf, 0x2a, 0x9f, 0x62, 0xbd, 0xba, 0x93, 0x82,
  0x8e, 0x1c, 0x65, 0x69, 0x14, 0xc2, 0xc9, 0x09, 0xad, 0xe7, 0xbe, 0x81,
  0xcb, 0xbf, 0xbd, 0x06, 0xa4, 0x1f, 0xbf, 0xe5, 0x26, 0x09, 0x46, 0xaa,
  0x6f, 0xf7, 0xc9, 0x35, 0x45, 0x7f, 0x5c, 0xa8, 0xac, 0x96, 0x11, 0x8a,
  0x2d, 0x60, 0x2f, 0xc9, 0x18, 0x24, 0xa5, 0x8f, 0xca, 0x74, 0xfe, 0x50,
  0xb3, 0xf7, 0x39, 0xcf, 0x18, 0x08, 0x7f, 0xe9, 0xd6, 0x13, 0xc2, 0xb4,
  0x47, 0x36, 0x5f, 0xd2, 0xcd, 0x22, 0xa1, 0x0f, 0x66, 0x10, 0xb1, 0x65,
  0x81, 0x1b, 0xbf, 0x6d, 0xb9, 0x69, 0x22, 0x3c, 0xf9, 0xbe, 0xdb, 0x6d,
  0xaa, 0xd8, 0xd7, 0xb0, 0x13, 0x38, 0x62, 0xc9, 0xbd, 0x75, 0xf7, 0x54,
  0x72, 0x3d, 0xd1, 0x09, 0x46, 0x09, 0x74, 0x4e, 0x6e, 0xa7, 0x37, 0x12,
  0x81, 0xc9, 0x47, 0x67, 0x62, 0x34, 0xa5, 0x9c, 0xd8, 0x04, 0x3f, 0x0b,
  0xd4, 0xa7, 0xb1, 0xf9, 0x11, 0x5a, 0x2c, 0x56, 0x9e, 0xd3, 0x7f, 0xbc,
  0x1f, 0xcc, 0xb1, 0xe9, 0xb8, 0x23, 0xcf, 0x42, 0x10, 0x5d, 0xf5, 0xfb,
  0x11, 0xcd, 0x9d, 0x37, 0x75, 0xbf, 0x15, 0xcd, 0xa8, 0x5a, 0xef, 0x81,
  0x3d, 0x66, 0x65, 0x41, 0xb4, 0x69, 0xd4, 0xc8, 0x50, 0xb9, 0xcd, 0xde,
  0x48, 0x25, 0xd0, 0x05, 0x92, 0x31, 0x9e, 0xd5, 0x31, 0x0b, 0xff, 0xd6,
  0x03, 0xb8, 0x0c, 0xec, 0xc0, 0xbc, 0x39, 0x36, 0xfd, 0xcb, 0x76, 0xbd,
  0x86, 0x03, 0xbd, 0xec, 0xb0, 0x23, 0xee, 0xcc, 0x90, 0x81, 0xa0, 0x13,
  0x26, 0xea, 0x1f, 0x1a, 0x98, 0xf5, 0xf6, 0xb3, 0xee, 0x2f, 0xf5, 0x70,
  0xe1, 0x44, 0xa5, 0x6b, 0xd4, 0x0b, 0xf2, 0x06, 0x7f, 0xda, 0x24, 0x0f,
  0xc8, 0x5e, 0x4f, 0x93, 0x3c, 0x9f, 0x05, 0x8b, 0x2a, 0xe0, 0x42, 0xdd,
  0xdf, 0xcd, 0x94, 0xa9, 0x6f, 0xac, 0xa9, 0xb3, 0x81, 0x61, 0x02, 0xc1,
  0x1c, 0x6f, 0xd7, 0x14, 0x07, 0xdb, 0x57, 0x94, 0x48, 0x81, 0xfa, 0xc1,
  0x71, 0x06, 0xe6, 0x95, 0x5f, 0x4d, 0xb2, 0x54, 0xef, 0xab, 0xe1, 0x1d,
  0x04, 0xc2, 0xe2, 0xc8, 0x6d, 0x4c, 0xa9, 0x29, 0x73, 0x17, 0xdb, 0x31,
  0x7f, 0x5a, 0x37, 0xf3, 0x9d, 0x78, 0x14, 0x34, 0xcd, 0x48, 0x26, 0x7b,
  0xd5, 0x2f, 0x18, 0xca, 0xd6, 0x5e, 0x50, 0x13, 0xce, 0x9c, 0xe6, 0xff,
  0x3f, 0x13, 0x0f, 0x81, 0x14, 0xdf, 0x6b, 0x59, 0x2d, 0x36, 0xb8, 0x07,
  0x91, 0xd0, 0xa5, 0x3c, 0x43, 0x62, 0xd7, 0x0f, 0xc0, 0x93, 0xf7, 0x09,
  0x21, 0x69, 0x68, 0x63, 0xad, 0x1f, 0x8b, 0xf6, 0xcf, 0xd4, 0x6c, 0x9c,
  0x18, 0x90, 0xe1, 0x36, 0xb1, 0x7a, 0x42, 0xef, 0xa6, 0xea, 0x81, 0xf9,
  0xe3, 0x08, 0x56, 0x85, 0x5b, 0xbb, 0x6f, 0x47, 0x56, 0xde, 0xff, 0xff,
  0x04, 0x00, 0x00, 0x00, 0x40, 0x00, 0x00, 0x00, 0x06, 0x00, 0x00, 0x00,
  0xf5, 0xff, 0xff, 0xff, 0xfe, 0xff, 0xff, 0xff, 0x0b, 0x00, 0x00, 0x00,
  0x0e, 0x00, 0x00, 0x00, 0xf9, 0xff, 0xff, 0xff, 0x04, 0x00, 0x00, 0x00,
  0x0c, 0x00, 0x00, 0x00, 0x04, 0x00, 0x00, 0x00, 0xff, 0xff, 0xff, 0xff,
  0x0f, 0x00, 0x00, 0x00, 0x00, 0x00, 0x00, 0x00, 0x03, 0x00, 0x00, 0x00,
  0x0c, 0x00, 0x00, 0x00, 0x13, 0x00, 0x00, 0x00, 0x01, 0x00, 0x00, 0x00,
  0xa2, 0xde, 0xff, 0xff, 0x04, 0x00, 0x00, 0x00, 0x00, 0x04, 0x00, 0x00,
  0xdf, 0xdc, 0xd9, 0x45, 0x43, 0x37, 0x35, 0x62, 0x18, 0xe7, 0xc1, 0xb7,
  0xdc, 0x02, 0x6b, 0x13, 0x86, 0x27, 0xca, 0x21, 0xbd, 0x34, 0xaa, 0x81,
  0x47, 0x9b, 0x9a, 0x21, 0x77, 0x36, 0xd8, 0xbb, 0x5c, 0xc0, 0xf8, 0xfa,
  0x77, 0xdb, 0x7e, 0xef, 0xe3, 0x03, 0x3f, 0x72, 0x1f, 0x70, 0x2b, 0x49,
  0x68, 0xde, 0xd0, 0x5b, 0x5b, 0xbc, 0x26, 0xd2, 0x35, 0x6c, 0x3c, 0xc0,
  0x7f, 0x68, 0x67, 0x7a, 0x61, 0xa8, 0xfb, 0xea, 0x56, 0xf0, 0x37, 0x72,
  0xb9, 0xc9, 0xff, 0xe3, 0x77, 0x72, 0x44, 0x55, 0x69, 0xf6, 0xc5, 0x45,
  0xaf, 0x68, 0xb4, 0xea, 0x0c, 0xac, 0x58, 0x7f, 0xde, 0x19, 0xb3, 0x19,
  0x75, 0x55, 0x8c, 0xa6, 0xca, 0x4a, 0x20, 0xc8, 0xcd, 0xce, 0x65, 0x12,
  0x90, 0xc8, 0xf5, 0xb2, 0x47, 0x7f, 0x88, 0xad, 0x4b, 0x68, 0x22, 0x5d,
  0xc3, 0xed, 0xad, 0x89, 0x76, 0x9b, 0x5c, 0xe8, 0xe9, 0xaa, 0xdd, 0x03,
  0x3e, 0x13, 0x3b, 0x28, 0xf1, 0xe6, 0xed, 0xdb, 0xc4, 0x0d, 0x2a, 0x29,
  0xf8, 0xff, 0x19, 0xae, 0xdd, 0x57, 0x7f, 0xf0, 0x0e, 0x05, 0xb9, 0xb4,
  0x29, 0x1e, 0x75, 0xd9, 0x35, 0x1f, 0xb3, 0x19, 0xbc, 0x27, 0x63, 0x93,
  0x72, 0xa0, 0x8a, 0xb0, 0xb1, 0x1a, 0xdd, 0xbb, 0xc5, 0x1a, 0x7f, 0xad,
  0x06, 0x3b, 0x4c, 0x24, 0xe7, 0x90, 0x9f, 0x68, 0x1e, 0x3c, 0x26, 0xcb,
  0xa3, 0x3e, 0x87, 0xb7, 0x81, 0xed, 0x0d, 0x19, 0x17, 0x09, 0xa5, 0x57,
  0xd1, 0xd7, 0x8a, 0x06, 0x38, 0xf2, 0x0b, 0xd8, 0x87, 0xb9, 0xb0, 0xf6,
  0x31, 0xa4, 0x6c, 0x03, 0x35, 0xdf, 0xb9, 0x34, 0xf4, 0x1a, 0x01, 0x05,
  0xd2, 0x07, 0xdf, 0x58, 0x81, 0xbc, 0x94, 0xfa, 0x5c, 0x3d, 0xfc, 0x5c,
  0x27, 0x95, 0x0e, 0x70, 0xdf, 0x07, 0x90, 0x1d, 0x06, 0xe6, 0x24, 0x54,
  0xc3, 0x7a, 0x25, 0xb8, 0x52, 0x62, 0xd0, 0x08, 0x04, 0xa5, 0x2e, 0x9b,
  0xdb, 0x42, 0x5d, 0x31, 0xc5, 0xd9, 0x81, 0x2d, 0x8b, 0x43, 0xc3, 0x84,
  0x31, 0xf3, 0x16, 0xe8, 0x23, 0x2a, 0xef, 0x53, 0x30, 0xb0, 0x16, 0x1b,
  0x00, 0xcb, 0x67, 0x6e, 0x63, 0x7f, 0x0d, 0x27, 0x14, 0xb8, 0x48, 0xec,
  0x17, 0x3c, 0x28, 0xbb, 0xb0, 0xd5, 0x4f, 0xe8, 0x60, 0xca, 0x32, 0x58,
  0xf8, 0xb4, 0xef, 0x19, 0xc2, 0xdb, 0x06, 0x60, 0x7f, 0x95, 0x5e, 0xfd,
  0x30, 0xbb, 0xd3, 0xbd, 0xb0, 0x93, 0xca, 0x47, 0xc7, 0xb7, 0x6e, 0x49,
  0x27, 0x73, 0x02, 0x8b, 0xd6, 0xc4, 0xa5, 0x25, 0xca, 0x35, 0xb5, 0x0b,
  0xf6, 0x3d, 0x52, 0x8c, 0x25, 0x95, 0xb6, 0x99, 0xc5, 0x4f, 0xdf, 0xb5,
  0x2b, 0x39, 0x8e, 0xc2, 0x02, 0xa3, 0xb9, 0x34, 0xef, 0xeb, 0x7f, 0x17,
  0x20, 0x28, 0x05, 0xaf, 0xc0, 0x32, 0x48, 0xf1, 0xf4, 0x9b, 0xb8, 0x94,
  0x54, 0x47, 0xb0, 0x79, 0xb6, 0xb0, 0xb0, 0x7f, 0x16, 0x37, 0xf3, 0x55,
  0x2e, 0x52, 0xe0, 0x6d, 0x3f, 0x5c, 0x0c, 0x1b, 0x15, 0xf8, 0x69, 0x6b,
  0xdc, 0xd3, 0x7f, 0x09, 0x00, 0x10, 0x1a, 0xf9, 0x7f, 0x6d, 0xde, 0x0b,
  0x15, 0x4a, 0x92, 0xd0, 0xfc, 0xc5, 0x51, 0xce, 0x95, 0xd4, 0x20, 0x4d,
  0x20, 0x97, 0xd2, 0xc4, 0xb6, 0x2c, 0xf1, 0x31, 0x01, 0xc1, 0x66, 0x67,
  0x9e, 0x02, 0x64, 0x04, 0x74, 0x4b, 0x27, 0xd8, 0xbd, 0x42, 0x13, 0x5d,
  0x97, 0xb8, 0x93, 0xae, 0xbf, 0x64, 0x81, 0xa6, 0x98, 0x4b, 0x5b, 0xbd,
  0xa4, 0x87, 0x37, 0x57, 0xa2, 0xd3, 0xcf, 0x8e, 0xbf, 0x49, 0x3a, 0x3f,
  0x5d, 0x30, 0x8a, 0x4b, 0x3f, 0xee, 0x11, 0x41, 0xa6, 0x85, 0xd5, 0xd9,
  0x44, 0xf6, 0x27, 0x2b, 0xfe, 0xb4, 0x20, 0x4b, 0xdf, 0x09, 0x81, 0x34,
  0xa2, 0x85, 0x26, 0x06, 0xe9, 0x06, 0xc2, 0xd0, 0x5d, 0x48, 0x2c, 0x1a,
  0x52, 0x49, 0x2a, 0x7c, 0x91, 0x23, 0x93, 0x59, 0x70, 0x33, 0x3b, 0x42,
  0xc0, 0x5f, 0x71, 0x92, 0xa2, 0x40, 0x7f, 0x9d, 0x8a, 0x06, 0xf3, 0x6d,
  0x35, 0xa5, 0x69, 0x34, 0x60, 0xd7, 0x26, 0x17, 0x70, 0xfa, 0x16, 0xc5,
  0x5c, 0x07, 0x5f, 0xdc, 0x56, 0x5b, 0x7b, 0x24, 0xd6, 0xe2, 0x0c, 0x25,
  0x6c, 0xcb, 0xc7, 0x66, 0xe8, 0x7f, 0x30, 0x56, 0x5d, 0x4d, 0x4e, 0x55,
  0x26, 0x22, 0x0c, 0x11, 0xf7, 0xdb, 0x50, 0x1d, 0xe7, 0x57, 0xee, 0x0f,
  0x4f, 0xe5, 0x6f, 0x0d, 0x7f, 0x00, 0x2c, 0xea, 0xe8, 0xc2, 0x03, 0x30,
  0x5f, 0x0e, 0x2b, 0xd3, 0x5e, 0x0f, 0x0a, 0xee, 0x51, 0x2c, 0x26, 0x2c,
  0x17, 0x84, 0xf1, 0x1f, 0x0b, 0xe9, 0x7e, 0xde, 0x29, 0xd6, 0x36, 0xb3,
  0xda, 0x9b, 0x57, 0xc2, 0x7d, 0x28, 0xf0, 0x4b, 0x57, 0x7f, 0x8c, 0xcc,
  0xd9, 0xf0, 0x87, 0xd6, 0x3d, 0xc0, 0xe0, 0xba, 0xee, 0x30, 0x6a, 0x0c,
  0x12, 0x61, 0x78, 0x06, 0x4e, 0x0d, 0x7f, 0xc0, 0x09, 0x0d, 0x15, 0x49,
  0x5a, 0xdc, 0x05, 0x48, 0x77, 0xe9, 0x09, 0x30, 0x18, 0x59, 0x53, 0x24,
  0xd6, 0x73, 0x5e, 0x27, 0xc7, 0xd7, 0xbb, 0xe7, 0xa5, 0x5b, 0x54, 0xd9,
  0x38, 0xf7, 0xd6, 0xcc, 0x41, 0x56, 0x53, 0xfd, 0x29, 0x10, 0x0c, 0xdd,
  0xe9, 0x3b, 0xe6, 0x2b, 0x14, 0x11, 0x48, 0x81, 0x03, 0x99, 0xe3, 0x82,
  0xe2, 0x3a, 0xb8, 0xee, 0x4a, 0xb5, 0xb7, 0x3e, 0xcf, 0x16, 0x03, 0x3a,
  0x34, 0x40, 0x38, 0xb1, 0x8d, 0x28, 0x4f, 0x44, 0x98, 0xa3, 0x5a, 0x81,
  0x88, 0x0e, 0x97, 0x57, 0x81, 0x19, 0x23, 0xdb, 0x02, 0xae, 0xc4, 0x92,
  0x23, 0x22, 0x20, 0xbd, 0xd5, 0xee, 0x3a, 0x2b, 0x2c, 0x0c, 0xd8, 0xeb,
  0x99, 0xd0, 0x60, 0xa7, 0x45, 0x8c, 0xcc, 0x3c, 0x13, 0x06, 0xaa, 0x51,
  0xc6, 0x45, 0x1c, 0x01, 0xd3, 0x7f, 0x67, 0x6f, 0xb9, 0xe8, 0x44, 0x34,
  0xaf, 0x54, 0x72, 0x4d, 0x40, 0xda, 0x23, 0x0d, 0xc4, 0x55, 0x26, 0xc3,
  0x51, 0xfe, 0x70, 0xb8, 0xd3, 0x4b, 0x30, 0x01, 0x6b, 0x25, 0x99, 0xbf,
  0xb3, 0x05, 0x81, 0x58, 0xbe, 0x79, 0x05, 0x04, 0x3a, 0xd5, 0x61, 0x3a,
  0x86, 0xe4, 0x17, 0x38, 0xdf, 0x0a, 0xa4, 0x8f, 0x1d, 0x6e, 0x43, 0x75,
  0x2f, 0xa4, 0x54, 0x1f, 0x48, 0xdd, 0x13, 0xd1, 0x95, 0xfc, 0x7f, 0x72,
  0x57, 0x62, 0x44, 0x24, 0xb9, 0xaf, 0x52, 0x42, 0x97, 0x5a, 0x43, 0xdc,
  0xf6, 0x7c, 0x99, 0xce, 0x4c, 0x35, 0x3e, 0x95, 0xb6, 0xba, 0x56, 0x93,
  0xe5, 0xda, 0x22, 0x02, 0x7b, 0xa9, 0x14, 0x28, 0xaf, 0x5e, 0x81, 0x60,
  0xba, 0x67, 0x02, 0x3d, 0x81, 0x39, 0xf6, 0x8d, 0xb5, 0x6a, 0xd4, 0x73,
  0xd5, 0x64, 0x2b, 0x3c, 0x1c, 0x61, 0xd3, 0x2f, 0xef, 0xe3, 0xab, 0x38,
  0x81, 0x20, 0x0d, 0xd7, 0xec, 0x1a, 0x4f, 0x0b, 0x29, 0x4a, 0xae, 0x55,
  0x3c, 0x02, 0x94, 0xe8, 0x21, 0xcd, 0xd8, 0x95, 0x88, 0x53, 0xc8, 0xf8,
  0xcb, 0x1e, 0xb2, 0xac, 0xb2, 0x74, 0x94, 0xa9, 0x56, 0x81, 0xdf, 0xbe,
  0x88, 0x54, 0xab, 0xa7, 0x42, 0x89, 0x26, 0x07, 0x29, 0x75, 0x20, 0xed,
  0x87, 0x08, 0x90, 0x0d, 0x23, 0xf3, 0xa0, 0x20, 0x85, 0x0a, 0x51, 0x98,
  0x2b, 0x03, 0x16, 0xf9, 0xc8, 0x02, 0x93, 0x97, 0x69, 0x64, 0x8f, 0x97,
  0xe4, 0x65, 0x71, 0x81, 0xe6, 0x9e, 0xde, 0x5c, 0xdb, 0x61, 0x8d, 0xdc,
  0x0f, 0x91, 0xcd, 0x1a, 0xfa, 0x72, 0xc9, 0xe8, 0xa1, 0xa7, 0x7f, 0xfe,
  0x1c, 0xfd, 0x3d, 0xdf, 0x79, 0x40, 0xe5, 0xc2, 0x68, 0x38, 0xe5, 0x1d,
  0x71, 0x11, 0x39, 0x2b, 0x77, 0xba, 0x75, 0x01, 0xae, 0x33, 0x12, 0xb6,
  0xaa, 0xfb, 0xab, 0x5a, 0xae, 0xe2, 0xff, 0xff, 0x04, 0x00, 0x00, 0x00,
  0x80, 0x00, 0x00, 0x00, 0x12, 0x00, 0x00, 0x00, 0x24, 0x00, 0x00, 0x00,
  0x13, 0x00, 0x00, 0x00, 0xf6, 0xff, 0xff, 0xff, 0x1d, 0x00, 0x00, 0x00,
  0x05, 0x00, 0x00, 0x00, 0xe9, 0xff, 0xff, 0xff, 0xfe, 0xff, 0xff, 0xff,
  0xe1, 0xff, 0xff, 0xff, 0x19, 0x00, 0x00, 0x00, 0x0e, 0x00, 0x00, 0x00,
  0x02, 0x00, 0x00, 0x00, 0x1c, 0x00, 0x00, 0x00, 0x0b, 0x00, 0x00, 0x00,
  0x0a, 0x00, 0x00, 0x00, 0xec, 0xff, 0xff, 0xff, 0xfa, 0xff, 0xff, 0xff,
  0x3c, 0x00, 0x00, 0x00, 0x22, 0x00, 0x00, 0x00, 0x04, 0x00, 0x00, 0x00,
  0x1a, 0x00, 0x00, 0x00, 0x01, 0x00, 0x00, 0x00, 0xda, 0xff, 0xff, 0xff,
  0xda, 0xff, 0xff, 0xff, 0x0b, 0x00, 0x00, 0x00, 0x15, 0x00, 0x00, 0x00,
  0x12, 0x00, 0x00, 0x00, 0xf1, 0xff, 0xff, 0xff, 0xf3, 0xff, 0xff, 0xff,
  0xfa, 0xff, 0xff, 0xff, 0xf2, 0xff, 0xff, 0xff, 0x0a, 0x00, 0x00, 0x00,
  0x3a, 0xe3, 0xff, 0xff, 0x04, 0x00, 0x00, 0x00, 0x80, 0x04, 0x00, 0x00,
  0x62, 0x2a, 0xd9, 0xff, 0x45, 0x5a, 0xaa, 0xd1, 0x55, 0x12, 0x37, 0x48,
  0x12, 0x26, 0xfa, 0x81, 0x55, 0x30, 0x50, 0xe1, 0x32, 0x11, 0xeb, 0x5a,
  0x85, 0x27, 0x4f, 0x5c, 0x29, 0x45, 0x16, 0xde, 0xed, 0x14, 0x41, 0x87,
  0x81, 0x47, 0xc2, 0x4a, 0x28, 0xe8, 0x44, 0xd8, 0xbe, 0x86, 0xeb, 0x1e,
  0x3e, 0x10, 0x08, 0x32, 0xe7, 0x5b, 0x4a, 0x48, 0xaa, 0xd4, 0x41, 0xd9,
  0x1e, 0x4e, 0x9b, 0xfb, 0xfe, 0xd4, 0x3b, 0xf6, 0xfc, 0x32, 0x1d, 0xf5,
  0xf4, 0xf8, 0x9e, 0x55, 0x08, 0x05, 0x4c, 0x1a, 0xdc, 0x6c, 0x35, 0xcf,
  0xb8, 0x0a, 0x7a, 0x9e, 0x87, 0x95, 0xf3, 0x81, 0x74, 0x8a, 0xd8, 0xb3,
  0xfc, 0x96, 0xb0, 0x68, 0x0f, 0xd0, 0xf2, 0x3e, 0x73, 0xae, 0xd9, 0x37,
  0xf8, 0x69, 0xd0, 0x6b, 0x82, 0x41, 0xd7, 0xfb, 0xf5, 0x09, 0x29, 0x6b,
  0x3d, 0x03, 0x7f, 0xaa, 0x24, 0xdb, 0x66, 0x19, 0x11, 0x5d, 0xd5, 0x00,
  0x57, 0x18, 0x65, 0x28, 0xbf, 0x4e, 0xc1, 0xa9, 0x69, 0xf9, 0xf3, 0xdd,
  0x1a, 0x85, 0x29, 0x2d, 0x1f, 0x4d, 0x7a, 0x02, 0x29, 0x48, 0xad, 0x81,
  0x21, 0xc3, 0x5b, 0x47, 0xbc, 0x97, 0x29, 0xb2, 0xaf, 0x07, 0x88, 0x46,
  0xc2, 0xde, 0x44, 0x5a, 0x38, 0xf6, 0xab, 0xae, 0xd4, 0xc4, 0xc0, 0x0d,
  0xc7, 0xd9, 0x01, 0x38, 0x35, 0x47, 0xba, 0x48, 0xee, 0xa2, 0xa1, 0x0f,
  0x81, 0x3b, 0x30, 0x26, 0x77, 0x1e, 0xd3, 0x17, 0xbb, 0x16, 0xbe, 0x0b,
  0xb5, 0x13, 0xfd, 0x4c, 0x51, 0xe3, 0x25, 0xfc, 0xc8, 0x66, 0xb6, 0xb3,
  0x02, 0x25, 0x3a, 0x01, 0x81, 0x1f, 0xa7, 0xb4, 0xf2, 0xaf, 0xc0, 0x42,
  0x4f, 0xae, 0x5c, 0xd3, 0x3f, 0xb1, 0x37, 0x61, 0xc1, 0x29, 0x0d, 0xfe,
  0xd3, 0x0e, 0x7f, 0x4a, 0xc1, 0xc0, 0x1c, 0xbb, 0xc3, 0x1b, 0x54, 0xcf,
  0x0f, 0xb4, 0x72, 0x64, 0x06, 0xd3, 0x60, 0x30, 0xb7, 0xc2, 0x66, 0xc1,
  0x31, 0x7f, 0xfc, 0x2c, 0xa7, 0x5f, 0xce, 0x71, 0xeb, 0xce, 0x18, 0x4f,
  0x24, 0xd4, 0x28, 0x13, 0x07, 0x02, 0xe7, 0x07, 0x51, 0x48, 0x28, 0xda,
  0xb7, 0xe7, 0xef, 0x56, 0xc7, 0x29, 0xed, 0x0e, 0x34, 0xc7, 0xbc, 0x87,
  0x79, 0xbf, 0x4e, 0x1a, 0x0d, 0x03, 0xea, 0x09, 0x5b, 0xad, 0x45, 0xf0,
  0x38, 0xcf, 0x2d, 0x7f, 0x33, 0x41, 0xe9, 0x1c, 0x4b, 0x94, 0x36, 0x32,
  0x0d, 0x0b, 0x6c, 0x16, 0xaf, 0xd3, 0x33, 0x56, 0x1d, 0x7f, 0x42, 0xe8,
  0xaf, 0x2b, 0xa9, 0x20, 0x58, 0x04, 0x76, 0xf1, 0x01, 0xf2, 0xff, 0xe5,
  0xd2, 0x2c, 0xe7, 0x1f, 0xcb, 0x95, 0xf1, 0x21, 0x9f, 0x3a, 0x26, 0xed,
  0xae, 0x22, 0xf0, 0xbd, 0x90, 0x55, 0x2d, 0x33, 0x16, 0x8c, 0x4d, 0x57,
  0xc2, 0x30, 0x21, 0xfe, 0xea, 0xeb, 0x99, 0x65, 0xa3, 0x4c, 0xa2, 0x53,
  0xaf, 0xb2, 0x10, 0x6f, 0x44, 0xad, 0xbe, 0x2a, 0x97, 0x31, 0x7f, 0x5b,
  0x7f, 0xf2, 0x01, 0xcf, 0x87, 0x3d, 0x7a, 0xc2, 0x25, 0xd2, 0xd8, 0x7a,
  0x8f, 0x8c, 0x30, 0x27, 0x52, 0x68, 0x17, 0x78, 0x25, 0x9a, 0x72, 0x6a,
  0x5f, 0xd6, 0x03, 0x55, 0x09, 0x12, 0x09, 0xdf, 0x47, 0x4d, 0xb5, 0xc4,
  0x7f, 0x7f, 0xee, 0xd4, 0x2c, 0x28, 0x75, 0xf0, 0x73, 0x31, 0xd0, 0x47,
  0x5d, 0x2f, 0x54, 0x7c, 0x6d, 0x9f, 0x77, 0x2b, 0x17, 0xba, 0x58, 0xfa,
  0xb7, 0x2d, 0x11, 0xab, 0x11, 0x56, 0x28, 0xf1, 0xea, 0xbe, 0xa2, 0xa1,
  0x34, 0x7f, 0xac, 0xe3, 0x8e, 0xfb, 0x02, 0xa6, 0x62, 0x25, 0x43, 0x2b,
  0x99, 0x31, 0xac, 0xa4, 0x68, 0x8a, 0x32, 0x8c, 0x5e, 0xd8, 0xab, 0xc4,
  0xa5, 0x2d, 0x72, 0x5a, 0xb2, 0x51, 0x6b, 0xc4, 0x1d, 0x07, 0x71, 0x4f,
  0x0f, 0xf2, 0x13, 0xb1, 0x2d, 0x1a, 0x4d, 0x60, 0xb1, 0xf9, 0x95, 0xdd,
  0x20, 0x73, 0xad, 0xee, 0x59, 0xf4, 0xbd, 0x4a, 0xcb, 0x23, 0x01, 0xc5,
  0x81, 0x3d, 0x50, 0x3e, 0xa4, 0x5f, 0xaa, 0xa9, 0xc3, 0x9d, 0xa5, 0xdb,
  0xe9, 0xbe, 0x49, 0x49, 0x25, 0x50, 0x0d, 0x11, 0x2a, 0xdf, 0xaa, 0xb4,
  0xc5, 0x3e, 0xca, 0xbf, 0x4c, 0x9f, 0x2c, 0xee, 0x0e, 0x3d, 0xa5, 0x67,
  0xe3, 0xd3, 0x5d, 0xe6, 0x73, 0xfc, 0xf4, 0x81, 0xe3, 0x47, 0x98, 0x09,
  0x4a, 0x83, 0x65, 0x1b, 0x3e, 0x1d, 0xea, 0x6e, 0xf0, 0xca, 0x26, 0x05,
  0xcd, 0x5c, 0x2d, 0x21, 0x2a, 0x86, 0xa6, 0xbc, 0x00, 0x28, 0x7f, 0x05,
  0x9d, 0x1f, 0xda, 0xcf, 0x48, 0xa0, 0xb6, 0xaf, 0xb6, 0x0c, 0xf6, 0xdb,
  0x6f, 0x5e, 0xf8, 0x21, 0xde, 0x3d, 0x7a, 0xb7, 0xe1, 0xb9, 0x08, 0x1a,
  0x45, 0xa7, 0xd5, 0x23, 0xeb, 0x4e, 0xdd, 0x45, 0x7f, 0xa3, 0x78, 0xda,
  0xeb, 0x2e, 0x44, 0x7a, 0xf9, 0xee, 0xa1, 0x36, 0xad, 0x0e, 0xfb, 0x45,
  0x37, 0x2d, 0x67, 0x2c, 0x93, 0x60, 0xb4, 0xb1, 0xd2, 0x2d, 0x6b, 0xbf,
  0x02, 0x36, 0xbb, 0x7f, 0x3d, 0x8d, 0x86, 0xdf, 0x46, 0xb9, 0x18, 0x67,
  0x25, 0x11, 0x1a, 0xe7, 0xe0, 0x3c, 0xf5, 0x1a, 0x8b, 0x9c, 0x30, 0x63,
  0xb5, 0xa3, 0xe2, 0xa0, 0x49, 0x64, 0xb3, 0xc9, 0xc8, 0xdb, 0xd0, 0x19,
  0x6d, 0x07, 0x88, 0x38, 0xfc, 0xd9, 0x7c, 0x8d, 0x65, 0x73, 0x0e, 0x81,
  0x1e, 0xe9, 0xc5, 0x08, 0x03, 0xc7, 0x8a, 0x69, 0xc0, 0x55, 0xd0, 0xbf,
  0xb6, 0x7f, 0x16, 0xf0, 0xe1, 0x1d, 0xb4, 0x26, 0x19, 0xa9, 0x23, 0x63,
  0xef, 0x28, 0x92, 0x01, 0x0e, 0xcf, 0xae, 0xc3, 0xc8, 0x04, 0xb7, 0x1d,
  0xdf, 0x99, 0x56, 0x32, 0x49, 0xcd, 0x0e, 0x3e, 0x05, 0x91, 0xdc, 0xf6,
  0xed, 0x37, 0xf2, 0x01, 0xa7, 0xa3, 0xb2, 0x6b, 0x49, 0x53, 0xe1, 0x25,
  0x61, 0x22, 0x38, 0x92, 0x35, 0x1e, 0x11, 0x5a, 0x50, 0x20, 0xf5, 0x10,
  0x09, 0x7f, 0x11, 0x1b, 0xff, 0xdb, 0x5f, 0x3f, 0x78, 0xef, 0xe8, 0x21,
  0xdd, 0x23, 0x81, 0xf7, 0x11, 0xfb, 0xda, 0x04, 0x0b, 0x5b, 0x6b, 0x1c,
  0x05, 0x5d, 0xd4, 0x5f, 0x9d, 0x37, 0x50, 0x90, 0xce, 0xc3, 0xb4, 0xd2,
  0xfc, 0xae, 0xbe, 0x15, 0xfb, 0x20, 0x63, 0xc8, 0x4a, 0x15, 0x87, 0x9a,
  0x41, 0xca, 0x26, 0xa0, 0x4a, 0x6a, 0xf3, 0x25, 0x11, 0x4c, 0xa0, 0xe8,
  0xb4, 0x03, 0xa0, 0xee, 0xd6, 0xfd, 0xa7, 0x4d, 0x4d, 0xf7, 0x32, 0x54,
  0x3a, 0x7f, 0xf6, 0x4f, 0x2b, 0xcd, 0x0e, 0xd2, 0x3f, 0x02, 0x3f, 0x5a,
  0xa2, 0xef, 0x86, 0x44, 0x66, 0xde, 0x81, 0xc5, 0x73, 0xa1, 0x40, 0x49,
  0xd3, 0xdf, 0xf2, 0xe6, 0x17, 0xb6, 0xd2, 0x83, 0xae, 0xfd, 0x53, 0x6c,
  0x4e, 0xa8, 0xc4, 0x5c, 0x3e, 0x3b, 0x46, 0xe1, 0x30, 0xb1, 0x2b, 0x87,
  0x26, 0x40, 0x1a, 0x6a, 0x01, 0xbc, 0xa1, 0x51, 0x0b, 0x98, 0xf7, 0x76,
  0xa7, 0xb3, 0x2a, 0x81, 0xf8, 0xfd, 0x97, 0xb6, 0x0b, 0xea, 0x79, 0x46,
  0x8b, 0x33, 0xc7, 0xb1, 0x53, 0xe6, 0x5a, 0x5c, 0xf6, 0x04, 0x50, 0x47,
  0x3e, 0x68, 0x29, 0xa6, 0xfa, 0xb7, 0x3a, 0xc6, 0x3f, 0xe3, 0x52, 0x7f,
  0x41, 0xfc, 0x71, 0x46, 0x44, 0xce, 0x14, 0x95, 0xbb, 0xf3, 0x4d, 0x22,
  0x33, 0xeb, 0xfd, 0x98, 0x24, 0x3e, 0xca, 0xbb, 0xbd, 0x72, 0x44, 0xd8,
  0x56, 0x1e, 0x31, 0xe7, 0x61, 0xd7, 0xca, 0x7f, 0xb8, 0x10, 0xbb, 0x0c,
  0x0f, 0xb9, 0x06, 0x60, 0x9c, 0xfb, 0x51, 0x3e, 0xb1, 0xd5, 0x0b, 0x4a,
  0x53, 0x17, 0x6d, 0xac, 0xde, 0x16, 0x28, 0xae, 0xad, 0xff, 0x13, 0x75,
  0x6c, 0xa4, 0xcc, 0xa8, 0x3b, 0x06, 0x72, 0x61, 0xae, 0x37, 0x70, 0x52,
  0xb9, 0x22, 0x83, 0xa9, 0x5c, 0xe6, 0x28, 0x79, 0xca, 0x09, 0xf5, 0x3e,
  0xa4, 0x54, 0xe3, 0xc4, 0x91, 0x09, 0x36, 0xa3, 0x94, 0x13, 0x71, 0x7f,
  0x36, 0xd2, 0x2b, 0x30, 0x0a, 0x19, 0x64, 0x81, 0xc3, 0x3e, 0x32, 0xdf,
  0xba, 0x37, 0x36, 0xba, 0x95, 0xdb, 0x43, 0xba, 0x23, 0xa1, 0x75, 0x43,
  0x90, 0x59, 0x40, 0x13, 0xbd, 0x37, 0xa5, 0x6a, 0xc1, 0xb0, 0x2e, 0xdd,
  0xec, 0x84, 0x4a, 0x9b, 0xe0, 0x45, 0x1b, 0xb9, 0x14, 0x21, 0xdd, 0xac,
  0x8b, 0x7f, 0x9c, 0x96, 0xac, 0x37, 0x3d, 0x2b, 0x27, 0x26, 0xd9, 0x0d,
  0x41, 0x9d, 0x82, 0x13, 0x2e, 0xef, 0xed, 0x2e, 0xe2, 0x3a, 0xff, 0x89,
  0xb4, 0x92, 0x4c, 0x56, 0xe7, 0x68, 0xd6, 0x23, 0xbb, 0x40, 0x69, 0xf6,
  0xd6, 0x9d, 0x61, 0x3a, 0x03, 0xed, 0x66, 0x3c, 0x0c, 0x1c, 0x2c, 0xd6,
  0x34, 0x41, 0x13, 0x24, 0x9c, 0x3f, 0x95, 0x2d, 0x35, 0x71, 0x7f, 0x2e,
  0xc6, 0xe7, 0xff, 0xff, 0x04, 0x00, 0x00, 0x00, 0x80, 0x00, 0x00, 0x00,
  0x09, 0x00, 0x00, 0x00, 0x0e, 0x00, 0x00, 0x00, 0x0b, 0x00, 0x00, 0x00,
  0xfe, 0xff, 0xff, 0xff, 0x0b, 0x00, 0x00, 0x00, 0xf4, 0xff, 0xff, 0xff,
  0xe2, 0xff, 0xff, 0xff, 0x0d, 0x00, 0x00, 0x00, 0xee, 0xff, 0xff, 0xff,
  0x0f, 0x00, 0x00, 0x00, 0x01, 0x00, 0x00, 0x00, 0xff, 0xff, 0xff, 0xff,
  0x07, 0x00, 0x00, 0x00, 0xf9, 0xff, 0xff, 0xff, 0x0d, 0x00, 0x00, 0x00,
  0xf7, 0xff, 0xff, 0xff, 0xff, 0xff, 0xff, 0xff, 0x1a, 0x00, 0x00, 0x00,
  0x10, 0x00, 0x00, 0x00, 0xed, 0xff, 0xff, 0xff, 0x0b, 0x00, 0x00, 0x00,
  0xfd, 0xff, 0xff, 0xff, 0xf6, 0xff, 0xff, 0xff, 0xe7, 0xff, 0xff, 0xff,
  0x03, 0x00, 0x00, 0x00, 0x05, 0x00, 0x00, 0x00, 0x0d, 0x00, 0x00, 0x00,
  0xf6, 0xff, 0xff, 0xff, 0xf5, 0xff, 0xff, 0xff, 0xfa, 0xff, 0xff, 0xff,
  0x04, 0x00, 0x00, 0x00, 0xf2, 0xff, 0xff, 0xff, 0x52, 0xe8, 0xff, 0xff,
  0x04, 0x00, 0x00, 0x00, 0x00, 0x02, 0x00, 0x00, 0x1a, 0x2d, 0x03, 0x99,
  0x15, 0xc0, 0xd0, 0xa9, 0xb3, 0x54, 0xdb, 0x36, 0x3e, 0xe9, 0xd3, 0xf1,
  0xc5, 0x35, 0x78, 0xa1, 0x2b, 0xcc, 0xd5, 0xdc, 0x33, 0x7f, 0xc4, 0xd0,
  0xc2, 0xc6, 0xda, 0xf5, 0xe1, 0x40, 0xe6, 0x83, 0xea, 0x38, 0x81, 0x8c,
  0xc6, 0x99, 0x61, 0x0a, 0xd4, 0xc5, 0x28, 0xa2, 0xf3, 0xca, 0xcf, 0x23,
  0x38, 0x42, 0x60, 0x51, 0xd8, 0xc9, 0xc8, 0x34, 0xde, 0x5f, 0x3a, 0x19,
  0xd0, 0x7f, 0xb3, 0x08, 0xef, 0xb5, 0xa4, 0x4b, 0xb6, 0xc2, 0x02, 0x22,
  0x44, 0xf9, 0xdf, 0x65, 0x45, 0xe5, 0xcb, 0xca, 0xfd, 0x10, 0x17, 0xc9,
  0x64, 0xd5, 0x6e, 0xfa, 0x37, 0xf7, 0x31, 0xb5, 0xcc, 0x47, 0x5f, 0x53,
  0x7f, 0x64, 0x91, 0x01, 0xe3, 0xaa, 0xa8, 0xf7, 0x65, 0x57, 0x4d, 0xc0,
  0x3b, 0xff, 0xb8, 0x5a, 0x10, 0x00, 0xf7, 0x65, 0xaf, 0xcb, 0x6c, 0xef,
  0xc0, 0x96, 0x5b, 0x29, 0x58, 0x2e, 0x0a, 0x15, 0x3c, 0xb3, 0xd0, 0xb4,
  0x1e, 0x21, 0x7f, 0xec, 0x4c, 0xd5, 0x50, 0x0c, 0x0c, 0x18, 0xb5, 0xbf,
  0x18, 0xb7, 0xdc, 0xc4, 0xe2, 0x23, 0x31, 0xd3, 0x07, 0x57, 0x59, 0xbd,
  0xc6, 0xc1, 0xca, 0x6f, 0xba, 0x65, 0xb5, 0xac, 0x38, 0xc5, 0xc0, 0x9e,
  0x14, 0x41, 0xc5, 0x76, 0xee, 0x5b, 0x60, 0xa2, 0x28, 0x9e, 0x74, 0x33,
  0x96, 0x49, 0x43, 0x8f, 0x81, 0x27, 0xd5, 0x6b, 0xa7, 0xa1, 0x1f, 0x01,
  0xc7, 0x4e, 0xc3, 0x44, 0xe2, 0x64, 0xdd, 0x95, 0xed, 0x71, 0xbe, 0x61,
  0x7f, 0x68, 0xf3, 0x43, 0x57, 0x96, 0x56, 0x73, 0xd8, 0xa9, 0x6c, 0x75,
  0x27, 0x1e, 0x2e, 0x84, 0xd8, 0x3c, 0x76, 0x00, 0xa3, 0x18, 0x8d, 0xcf,
  0x1e, 0xd1, 0x95, 0xf1, 0xef, 0x23, 0x01, 0xbf, 0xa9, 0x1d, 0x50, 0xd2,
  0x39, 0x79, 0xf4, 0xa0, 0x7f, 0xd4, 0x51, 0x6b, 0xf3, 0x96, 0x61, 0x20,
  0xc1, 0x9d, 0x9c, 0x4b, 0x36, 0x40, 0x63, 0x9e, 0x3c, 0x0d, 0xef, 0x40,
  0x63, 0xc9, 0xcc, 0xd9, 0x81, 0x8e, 0xd0, 0x43, 0x50, 0xc2, 0xee, 0x43,
  0x4d, 0xdf, 0xd0, 0xf2, 0xbd, 0x91, 0xb3, 0x17, 0xd4, 0xda, 0xff, 0x9c,
  0xf4, 0x37, 0x02, 0x23, 0x5d, 0x24, 0xe2, 0x16, 0xd9, 0xe5, 0xb5, 0x21,
  0xb2, 0x5b, 0xae, 0x48, 0x70, 0xe9, 0xd9, 0x81, 0x29, 0x1d, 0x40, 0x47,
  0x89, 0x69, 0x09, 0x32, 0x1f, 0x9b, 0x60, 0x2f, 0x51, 0x4c, 0x08, 0x8f,
  0xae, 0x36, 0xc6, 0xc0, 0x24, 0x90, 0x41, 0x27, 0x34, 0xca, 0xab, 0xe5,
  0x34, 0xc6, 0x00, 0xac, 0x60, 0x8e, 0x44, 0xbe, 0x45, 0x81, 0xe0, 0xc1,
  0xac, 0xc7, 0xbf, 0xb9, 0x05, 0xeb, 0x9b, 0x0a, 0x83, 0xe8, 0x7f, 0xd9,
  0xd4, 0xea, 0x9b, 0xd0, 0x8b, 0x1d, 0xaf, 0xcd, 0xb2, 0x20, 0x3f, 0x58,
  0xcf, 0x3f, 0xf6, 0x51, 0x7e, 0x9e, 0x7d, 0x87, 0x6f, 0x72, 0x98, 0xf2,
  0xa6, 0x2a, 0x86, 0x3a, 0x1f, 0x4a, 0x8b, 0x67, 0xdc, 0x14, 0x6c, 0x7f,
  0x23, 0x19, 0x5a, 0xef, 0xea, 0x04, 0x57, 0x5e, 0x48, 0x4f, 0xfa, 0x8a,
  0xee, 0xa7, 0x65, 0x5b, 0x34, 0xb3, 0x67, 0xe2, 0xaa, 0x5f, 0x0c, 0x4d,
  0x16, 0x93, 0x81, 0xce, 0xe4, 0x82, 0xa3, 0xc1, 0xf5, 0xa9, 0x40, 0xd3,
  0x2e, 0x23, 0xff, 0x66, 0x34, 0xad, 0xce, 0xd7, 0x74, 0xc6, 0x69, 0x65,
  0x4e, 0xb5, 0xda, 0x73, 0xd2, 0xaf, 0x7a, 0x16, 0xef, 0xc8, 0x59, 0x1e,
  0x9d, 0xfb, 0xa3, 0x23, 0xaa, 0x3e, 0xd1, 0xac, 0x6c, 0x20, 0xd0, 0x3c,
  0x99, 0xa2, 0x6d, 0x24, 0x7f, 0xc7, 0xfd, 0x28, 0xd3, 0xab, 0xe2, 0x02,
  0x39, 0x23, 0xc5, 0x7f, 0x09, 0x47, 0x5b, 0xa8, 0x1b, 0xf0, 0x45, 0xfb,
  0xf2, 0x11, 0x35, 0x47, 0x1e, 0x12, 0x36, 0x99, 0x35, 0xb9, 0x6d, 0x59,
  0x7a, 0x6c, 0x9b, 0x3f, 0x5e, 0xea, 0xff, 0xff, 0x04, 0x00, 0x00, 0x00,
  0x10, 0x00, 0x00, 0x00, 0x93, 0x82, 0x8b, 0x97, 0x7f, 0x6f, 0x74, 0x7f,
  0x80, 0x8a, 0x80, 0x86, 0x8f, 0x8a, 0x90, 0x98, 0x7a, 0xea, 0xff, 0xff,
  0x04, 0x00, 0x00, 0x00, 0x40, 0x00, 0x00, 0x00, 0x11, 0x00, 0x00, 0x00,
  0xf5, 0xff, 0xff, 0xff, 0x04, 0x00, 0x00, 0x00, 0x1e, 0x00, 0x00, 0x00,
  0x9e, 0x01, 0x00, 0x00, 0xa0, 0x01, 0x00, 0x00, 0xd6, 0x01, 0x00, 0x00,
  0xde, 0x01, 0x00, 0x00, 0xf2, 0xff, 0xff, 0xff, 0x02, 0x00, 0x00, 0x00,
  0xf0, 0xff, 0xff, 0xff, 0xf9, 0xff, 0xff, 0xff, 0x0b, 0x00, 0x00, 0x00,
  0x02, 0x00, 0x00, 0x00, 0x0e, 0x00, 0x00, 0x00, 0x19, 0x00, 0x00, 0x00,
  0xc6, 0xea, 0xff, 0xff, 0x04, 0x00, 0x00, 0x00, 0x40, 0x00, 0x00, 0x00,
  0xfd, 0x81, 0x47, 0xd2, 0x58, 0x7f, 0xd3, 0x11, 0x6a, 0x3c, 0x7f, 0x23,
  0x28, 0x7f, 0x25, 0x1a, 0xfe, 0xe7, 0x16, 0x81, 0x96, 0x81, 0x98, 0x19,
  0x1a, 0x7f, 0xab, 0x81, 0x26, 0xed, 0x96, 0x81, 0x7f, 0xd8, 0xe5, 0x01,
  0x49, 0x7f, 0xcf, 0xb2, 0xff, 0xb8, 0x87, 0x7f, 0xb3, 0x0a, 0xf9, 0x81,
  0xf1, 0x9b, 0xae, 0x81, 0x81, 0x7d, 0xdf, 0x1c, 0x03, 0x33, 0x7f, 0xa2,
  0x3c, 0x3e, 0x81, 0xde, 0x12, 0xeb, 0xff, 0xff, 0x04, 0x00, 0x00, 0x00,
  0x50, 0x00, 0x00, 0x00, 0xbd, 0xcd, 0xd4, 0x7f, 0x81, 0xf2, 0xd6, 0xdc,
  0x27, 0x37, 0x81, 0xb4, 0xb4, 0x9a, 0x81, 0xaf, 0x7f, 0x3b, 0xc7, 0xa7,
  0x74, 0xec, 0x6f, 0x81, 0x7f, 0x00, 0x1a, 0x8d, 0x7f, 0xf5, 0x71, 0xb7,
  0x81, 0xfb, 0xd0, 0x9e, 0x81, 0xdb, 0xf8, 0x9c, 0x81, 0xda, 0x0d, 0xd7,
  0x81, 0xf6, 0x35, 0x8c, 0x00, 0x3d, 0xc9, 0x7f, 0x81, 0xf4, 0x0e, 0xfb,
  0x1f, 0xbe, 0x7f, 0xa5, 0xc7, 0x8d, 0x81, 0x49, 0x81, 0xf8, 0xda, 0xb4,
  0x7f, 0xf6, 0x1e, 0xfd, 0xad, 0x56, 0xda, 0x81, 0x81, 0x39, 0xdf, 0xbc,
  0x6e, 0xeb, 0xff, 0xff, 0x04, 0x00, 0x00, 0x00, 0x50, 0x00, 0x00, 0x00,
  0x11, 0xcd, 0xff, 0xff, 0x72, 0x6c, 0x00, 0x00, 0xb0, 0xd7, 0xff, 0xff,
  0xe2, 0x73, 0xff, 0xff, 0xbf, 0xea, 0xff, 0xff, 0x17, 0xef, 0xff, 0xff,
  0x09, 0xfc, 0xff, 0xff, 0x13, 0xf4, 0xff, 0xff, 0xbc, 0x45, 0x00, 0x00,
  0xa8, 0xc7, 0x00, 0x00, 0x4e, 0x41, 0x00, 0x00, 0xbe, 0x38, 0x00, 0x00,
  0x85, 0xfe, 0xff, 0xff, 0xc7, 0x75, 0x00, 0x00, 0x56, 0xd2, 0xff, 0xff,
  0xf0, 0xc2, 0xff, 0xff, 0x62, 0x3e, 0x00, 0x00, 0x5f, 0xf6, 0xff, 0xff,
  0x7f, 0xff, 0xff, 0xff, 0x47, 0x7e, 0x00, 0x00, 0xca, 0xeb, 0xff, 0xff,
  0x04, 0x00, 0x00, 0x00, 0x8c, 0x00, 0x00, 0x00, 0xf6, 0x18, 0xf1, 0xd0,
  0x24, 0x38, 0x9b, 0x66, 0xaf, 0x7f, 0x7f, 0xb4, 0x9a, 0x00, 0x6f, 0x2d,
  0x0b, 0x24, 0xb5, 0xa2, 0x66, 0x00, 0xf1, 0xec, 0x41, 0xf2, 0xba, 0x40,
  0xdb, 0xcf, 0xb3, 0x33, 0xad, 0x09, 0x51, 0xc7, 0x4c, 0x13, 0xb3, 0x81,
  0xee, 0x71, 0xf2, 0xf7, 0xf8, 0xf1, 0xf4, 0xf1, 0x3c, 0x7f, 0x40, 0x36,
  0xf8, 0x73, 0xf2, 0xf2, 0x3d, 0xee, 0x14, 0x72, 0x78, 0xca, 0x5a, 0xe2,
  0xf8, 0x8e, 0xb4, 0x72, 0x15, 0x21, 0x14, 0x60, 0x81, 0x49, 0xd2, 0x24,
  0xd8, 0xb2, 0x87, 0xc0, 0x4c, 0x20, 0xa8, 0xa9, 0xfe, 0x2d, 0x58, 0x46,
  0xe9, 0xf6, 0x0a, 0xcb, 0x31, 0x81, 0x9c, 0x9f, 0x60, 0x96, 0x05, 0x33,
  0xdb, 0xd6, 0x4e, 0x20, 0xa2, 0xdc, 0xcf, 0x2e, 0x02, 0xef, 0xdf, 0xf1,
  0x81, 0xf0, 0xf1, 0x59, 0x32, 0x1a, 0x58, 0x1e, 0xd1, 0x1a, 0x66, 0xf7,
  0x3f, 0x4f, 0xc3, 0xff, 0x40, 0xb2, 0x3e, 0xb3, 0xeb, 0xe2, 0xcc, 0x81,
  0x37, 0x44, 0x2a, 0xe2, 0x62, 0xec, 0xff, 0xff, 0x04, 0x00, 0x00, 0x00,
  0x1c, 0x00, 0x00, 0x00, 0xc6, 0x04, 0x00, 0x00, 0x25, 0xfb, 0xff, 0xff,
  0x68, 0x14, 0x00, 0x00, 0xda, 0x02, 0x00, 0x00, 0x81, 0xfd, 0xff, 0xff,
  0xff, 0x03, 0x00, 0x00, 0x3d, 0xfd, 0xff, 0xff, 0x8a, 0xec, 0xff, 0xff,
  0x04, 0x00, 0x00, 0x00, 0x04, 0x00, 0x00, 0x00, 0x10, 0x00, 0x00, 0x00,
  0x9a, 0xec, 0xff, 0xff, 0x04, 0x00, 0x00, 0x00, 0x04, 0x00, 0x00, 0x00,
  0x01, 0x00, 0x00, 0x00, 0xaa, 0xec, 0xff, 0xff, 0x04, 0x00, 0x00, 0x00,
  0x0c, 0x00, 0x00, 0x00, 0x07, 0x00, 0x00, 0x00, 0x01, 0x00, 0x00, 0x00,
  0x20, 0x00, 0x00, 0x00, 0x7c, 0x7f, 0xff, 0xff, 0x80, 0x7f, 0xff, 0xff,
  0x0f, 0x00, 0x00, 0x00, 0x4d, 0x4c, 0x49, 0x52, 0x20, 0x43, 0x6f, 0x6e,
  0x76, 0x65, 0x72, 0x74, 0x65, 0x64, 0x2e, 0x00, 0x01, 0x00, 0x00, 0x00,
  0x14, 0x00, 0x00, 0x00, 0x00, 0x00, 0x0e, 0x00, 0x18, 0x00, 0x14, 0x00,
  0x10, 0x00, 0x0c, 0x00, 0x08, 0x00, 0x04, 0x00, 0x0e, 0x00, 0x00, 0x00,
  0x14, 0x00, 0x00, 0x00, 0x1c, 0x00, 0x00, 0x00, 0x80, 0x14, 0x00, 0x00,
  0x84, 0x14, 0x00, 0x00, 0x88, 0x14, 0x00, 0x00, 0x04, 0x00, 0x00, 0x00,
  0x6d, 0x61, 0x69, 0x6e, 0x00, 0x00, 0x00, 0x00, 0x6a, 0x00, 0x00, 0x00,
  0x18, 0x14, 0x00, 0x00, 0xc4, 0x13, 0x00, 0x00, 0x80, 0x13, 0x00, 0x00,
  0x4c, 0x13, 0x00, 0x00, 0x14, 0x13, 0x00, 0x00, 0xb4, 0x12, 0x00, 0x00,
  0x6c, 0x12, 0x00, 0x00, 0x28, 0x12, 0x00, 0x00, 0x04, 0x12, 0x00, 0x00,
  0xe0, 0x11, 0x00, 0x00, 0xbc, 0x11, 0x00, 0x00, 0x88, 0x11, 0x00, 0x00,
  0x64, 0x11, 0x00, 0x00, 0x30, 0x11, 0x00, 0x00, 0xf8, 0x10, 0x00, 0x00,
  0xd0, 0x10, 0x00, 0x00, 0x98, 0x10, 0x00, 0x00, 0x60, 0x10, 0x00, 0x00,
  0x28, 0x10, 0x00, 0x00, 0xf4, 0x0f, 0x00, 0x00, 0xc0, 0x0f, 0x00, 0x00,
  0x7c, 0x0f, 0x00, 0x00, 0x58, 0x0f, 0x00, 0x00, 0x34, 0x0f, 0x00, 0x00,
  0x00, 0x0f, 0x00, 0x00, 0xdc, 0x0e, 0x00, 0x00, 0xb8, 0x0e, 0x00, 0x00,
  0x84, 0x0e, 0x00, 0x00, 0x50, 0x0e, 0x00, 0x00, 0x2c, 0x0e, 0x00, 0x00,
  0xf8, 0x0d, 0x00, 0x00, 0xc0, 0x0d, 0x00, 0x00, 0x98, 0x0d, 0x00, 0x00,
  0x60, 0x0d, 0x00, 0x00, 0x2c, 0x0d, 0x00, 0x00, 0xf8, 0x0c, 0x00, 0x00,
  0xb4, 0x0c, 0x00, 0x00, 0x90, 0x0c, 0x00, 0x00, 0x6c, 0x0c, 0x00, 0x00,
  0x38, 0x0c, 0x00, 0x00, 0x14, 0x0c, 0x00, 0x00, 0xf0, 0x0b, 0x00, 0x00,
  0xbc, 0x0b, 0x00, 0x00, 0x88, 0x0b, 0x00, 0x00, 0x64, 0x0b, 0x00, 0x00,
  0x30, 0x0b, 0x00, 0x00, 0xf8, 0x0a, 0x00, 0x00, 0xd0, 0x0a, 0x00, 0x00,
  0x98, 0x0a, 0x00, 0x00, 0x64, 0x0a, 0x00, 0x00, 0x30, 0x0a, 0x00, 0x00,
  0xec, 0x09, 0x00, 0x00, 0xc8, 0x09, 0x00, 0x00, 0xa4, 0x09, 0x00, 0x00,
  0x70, 0x09, 0x00, 0x00, 0x4c, 0x09, 0x00, 0x00, 0x28, 0x09, 0x00, 0x00,
  0xf4, 0x08, 0x00, 0x00, 0xc0, 0x08, 0x00, 0x00, 0x9c, 0x08, 0x00, 0x00,
  0x68, 0x08, 0x00, 0x00, 0x30, 0x08, 0x00, 0x00, 0x08, 0x08, 0x00, 0x00,
  0xd0, 0x07, 0x00, 0x00, 0x9c, 0x07, 0x00, 0x00, 0x68, 0x07, 0x00, 0x00,
  0x24, 0x07, 0x00, 0x00, 0x00, 0x07, 0x00, 0x00, 0xdc, 0x06, 0x00, 0x00,
  0xa8, 0x06, 0x00, 0x00, 0x84, 0x06, 0x00, 0x00, 0x60, 0x06, 0x00, 0x00,
  0x2c, 0x06, 0x00, 0x00, 0xf8, 0x05, 0x00, 0x00, 0xd4, 0x05, 0x00, 0x00,
  0xa0, 0x05, 0x00, 0x00, 0x68, 0x05, 0x00, 0x00, 0x40, 0x05, 0x00, 0x00,
  0x0c, 0x05, 0x00, 0x00, 0xd8, 0x04, 0x00, 0x00, 0x94, 0x04, 0x00, 0x00,
  0x70, 0x04, 0x00, 0x00, 0x4c, 0x04, 0x00, 0x00, 0x18, 0x04, 0x00, 0x00,
  0xf4, 0x03, 0x00, 0x00, 0xd0, 0x03, 0x00, 0x00, 0x9c, 0x03, 0x00, 0x00,
  0x68, 0x03, 0x00, 0x00, 0x44, 0x03, 0x00, 0x00, 0x10, 0x03, 0x00, 0x00,
  0xd8, 0x02, 0x00, 0x00, 0xb0, 0x02, 0x00, 0x00, 0x7c, 0x02, 0x00, 0x00,
  0x48, 0x02, 0x00, 0x00, 0x04, 0x02, 0x00, 0x00, 0xe0, 0x01, 0x00, 0x00,
  0xbc, 0x01, 0x00, 0x00, 0x88, 0x01, 0x00, 0x00, 0x64, 0x01, 0x00, 0x00,
  0x40, 0x01, 0x00, 0x00, 0x0c, 0x01, 0x00, 0x00, 0xd8, 0x00, 0x00, 0x00,
  0xb4, 0x00, 0x00, 0x00, 0x80, 0x00, 0x00, 0x00, 0x3c, 0x00, 0x00, 0x00,
  0x04, 0x00, 0x00, 0x00, 0x5e, 0xee, 0xff, 0xff, 0x14, 0x00, 0x00, 0x00,
  0x00, 0x00, 0x00, 0x08, 0x10, 0x00, 0x00, 0x00, 0x14, 0x00, 0x00, 0x00,
  0x04, 0x00, 0x00, 0x00, 0x98, 0x81, 0xff, 0xff, 0x01, 0x00, 0x00, 0x00,
  0x96, 0x00, 0x00, 0x00, 0x03, 0x00, 0x00, 0x00, 0x95, 0x00, 0x00, 0x00,
  0x05, 0x00, 0x00, 0x00, 0x04, 0x00, 0x00, 0x00, 0x22, 0xef, 0xff, 0xff,
  0x1c, 0x00, 0x00, 0x00, 0x00, 0x00, 0x00, 0x08, 0x1c, 0x00, 0x00, 0x00,
  0x20, 0x00, 0x00, 0x00, 0x04, 0x00, 0x00, 0x00, 0x00, 0x00, 0x06, 0x00,
  0x08, 0x00, 0x07, 0x00, 0x06, 0x00, 0x00, 0x00, 0x00, 0x00, 0x00, 0x01,
  0x01, 0x00, 0x00, 0x00, 0x95, 0x00, 0x00, 0x00, 0x03, 0x00, 0x00, 0x00,
  0x94, 0x00, 0x00, 0x00, 0x07, 0x00, 0x00, 0x00, 0x06, 0x00, 0x00, 0x00,
  0xd2, 0xee, 0xff, 0xff, 0x14, 0x00, 0x00, 0x00, 0x00, 0x00, 0x00, 0x15,
  0x10, 0x00, 0x00, 0x00, 0x14, 0x00, 0x00, 0x00, 0x08, 0x00, 0x00, 0x00,
  0x0c, 0x82, 0xff, 0xff, 0x01, 0x00, 0x00, 0x00, 0x94, 0x00, 0x00, 0x00,
  0x02, 0x00, 0x00, 0x00, 0x8f, 0x00, 0x00, 0x00, 0x93, 0x00, 0x00, 0x00,
  0x32, 0xef, 0xff, 0xff, 0x0c, 0x00, 0x00, 0x00, 0x10, 0x00, 0x00, 0x00,
  0x07, 0x00, 0x00, 0x00, 0x01, 0x00, 0x00, 0x00, 0x93, 0x00, 0x00, 0x00,
  0x01, 0x00, 0x00, 0x00, 0x92, 0x00, 0x00, 0x00, 0x22, 0xef, 0xff, 0xff,
  0x14, 0x00, 0x00, 0x00, 0x00, 0x00, 0x00, 0x0b, 0x10, 0x00, 0x00, 0x00,
  0x14, 0x00, 0x00, 0x00, 0x01, 0x00, 0x00, 0x00, 0x5c, 0x82, 0xff, 0xff,
  0x01, 0x00, 0x00, 0x00, 0x92, 0x00, 0x00, 0x00, 0x02, 0x00, 0x00, 0x00,
  0x8e, 0x00, 0x00, 0x00, 0x91, 0x00, 0x00, 0x00, 0x52, 0xef, 0xff, 0xff,
  0x14, 0x00, 0x00, 0x00, 0x00, 0x00, 0x00, 0x15, 0x10, 0x00, 0x00, 0x00,
  0x14, 0x00, 0x00, 0x00, 0x08, 0x00, 0x00, 0x00, 0x8c, 0x82, 0xff, 0xff,
  0x01, 0x00, 0x00, 0x00, 0x91, 0x00, 0x00, 0x00, 0x02, 0x00, 0x00, 0x00,
  0x8c, 0x00, 0x00, 0x00, 0x90, 0x00, 0x00, 0x00, 0xb2, 0xef, 0xff, 0xff,
  0x0c, 0x00, 0x00, 0x00, 0x10, 0x00, 0x00, 0x00, 0x07, 0x00, 0x00, 0x00,
  0x01, 0x00, 0x00, 0x00, 0x90, 0x00, 0x00, 0x00, 0x01, 0x00, 0x00, 0x00,
  0x8a, 0x00, 0x00, 0x00, 0xd2, 0xef, 0xff, 0xff, 0x0c, 0x00, 0x00, 0x00,
  0x10, 0x00, 0x00, 0x00, 0x06, 0x00, 0x00, 0x00, 0x01, 0x00, 0x00, 0x00,
  0x8f, 0x00, 0x00, 0x00, 0x01, 0x00, 0x00, 0x00, 0x8b, 0x00, 0x00, 0x00,
  0xc2, 0xef, 0xff, 0xff, 0x14, 0x00, 0x00, 0x00, 0x00, 0x00, 0x00, 0x15,
  0x10, 0x00, 0x00, 0x00, 0x14, 0x00, 0x00, 0x00, 0x08, 0x00, 0x00, 0x00,
  0xfc, 0x82, 0xff, 0xff, 0x01, 0x00, 0x00, 0x00, 0x8e, 0x00, 0x00, 0x00,
  0x02, 0x00, 0x00, 0x00, 0x8d, 0x00, 0x00, 0x00, 0x81, 0x00, 0x00, 0x00,
  0x22, 0xf0, 0xff, 0xff, 0x0c, 0x00, 0x00, 0x00, 0x10, 0x00, 0x00, 0x00,
  0x06, 0x00, 0x00, 0x00, 0x01, 0x00, 0x00, 0x00, 0x8d, 0x00, 0x00, 0x00,
  0x01, 0x00, 0x00, 0x00, 0x89, 0x00, 0x00, 0x00, 0x42, 0xf0, 0xff, 0xff,
  0x0c, 0x00, 0x00, 0x00, 0x10, 0x00, 0x00, 0x00, 0x06, 0x00, 0x00, 0x00,
  0x01, 0x00, 0x00, 0x00, 0x8c, 0x00, 0x00, 0x00, 0x01, 0x00, 0x00, 0x00,
  0x88, 0x00, 0x00, 0x00, 0x32, 0xf0, 0xff, 0xff, 0x14, 0x00, 0x00, 0x00,
  0x00, 0x00, 0x00, 0x23, 0x14, 0x00, 0x00, 0x00, 0x24, 0x00, 0x00, 0x00,
  0x05, 0x00, 0x00, 0x00, 0xb2, 0xf0, 0xff, 0xff, 0x04, 0x00, 0x00, 0x00,
  0x04, 0x00, 0x00, 0x00, 0x88, 0x00, 0x00, 0x00, 0x89, 0x00, 0x00, 0x00,
  0x8a, 0x00, 0x00, 0x00, 0x8b, 0x00, 0x00, 0x00, 0x02, 0x00, 0x00, 0x00,
  0x02, 0x00, 0x00, 0x00, 0x87, 0x00, 0x00, 0x00, 0x72, 0xf0, 0xff, 0xff,
  0x14, 0x00, 0x00, 0x00, 0x00, 0x00, 0x00, 0x0b, 0x10, 0x00, 0x00, 0x00,
  0x14, 0x00, 0x00, 0x00, 0x01, 0x00, 0x00, 0x00, 0xac, 0x83, 0xff, 0xff,
  0x01, 0x00, 0x00, 0x00, 0x87, 0x00, 0x00, 0x00, 0x02, 0x00, 0x00, 0x00,
  0x86, 0x00, 0x00, 0x00, 0x0a, 0x00, 0x00, 0x00, 0xa2, 0xf0, 0xff, 0xff,
  0x14, 0x00, 0x00, 0x00, 0x00, 0x00, 0x00, 0x0b, 0x10, 0x00, 0x00, 0x00,
  0x14, 0x00, 0x00, 0x00, 0x01, 0x00, 0x00, 0x00, 0xdc, 0x83, 0xff, 0xff,
  0x01, 0x00, 0x00, 0x00, 0x86, 0x00, 0x00, 0x00, 0x02, 0x00, 0x00, 0x00,
  0x2c, 0x00, 0x00, 0x00, 0x85, 0x00, 0x00, 0x00, 0x02, 0xf1, 0xff, 0xff,
  0x0c, 0x00, 0x00, 0x00, 0x10, 0x00, 0x00, 0x00, 0x02, 0x00, 0x00, 0x00,
  0x01, 0x00, 0x00, 0x00, 0x85, 0x00, 0x00, 0x00, 0x02, 0x00, 0x00, 0x00,
  0x84, 0x00, 0x00, 0x00, 0x03, 0x00, 0x00, 0x00, 0xf6, 0xf0, 0xff, 0xff,
  0x14, 0x00, 0x00, 0x00, 0x00, 0x00, 0x00, 0x08, 0x10, 0x00, 0x00, 0x00,
  0x14, 0x00, 0x00, 0x00, 0x04, 0x00, 0x00, 0x00, 0x30, 0x84, 0xff, 0xff,
  0x01, 0x00, 0x00, 0x00, 0x84, 0x00, 0x00, 0x00, 0x03, 0x00, 0x00, 0x00,
  0x83, 0x00, 0x00, 0x00, 0x08, 0x00, 0x00, 0x00, 0xff, 0xff, 0xff, 0xff,
  0x2a, 0xf1, 0xff, 0xff, 0x14, 0x00, 0x00, 0x00, 0x00, 0x00, 0x00, 0x15,
  0x10, 0x00, 0x00, 0x00, 0x14, 0x00, 0x00, 0x00, 0x08, 0x00, 0x00, 0x00,
  0x64, 0x84, 0xff, 0xff, 0x01, 0x00, 0x00, 0x00, 0x83, 0x00, 0x00, 0x00,
  0x02, 0x00, 0x00, 0x00, 0x7e, 0x00, 0x00, 0x00, 0x82, 0x00, 0x00, 0x00,
  0x8a, 0xf1, 0xff, 0xff, 0x0c, 0x00, 0x00, 0x00, 0x10, 0x00, 0x00, 0x00,
  0x07, 0x00, 0x00, 0x00, 0x01, 0x00, 0x00, 0x00, 0x82, 0x00, 0x00, 0x00,
  0x01, 0x00, 0x00, 0x00, 0x81, 0x00, 0x00, 0x00, 0x7a, 0xf1, 0xff, 0xff,
  0x14, 0x00, 0x00, 0x00, 0x00, 0x00, 0x00, 0x0b, 0x10, 0x00, 0x00, 0x00,
  0x14, 0x00, 0x00, 0x00, 0x01, 0x00, 0x00, 0x00, 0xb4, 0x84, 0xff, 0xff,
  0x01, 0x00, 0x00, 0x00, 0x81, 0x00, 0x00, 0x00, 0x02, 0x00, 0x00, 0x00,
  0x7d, 0x00, 0x00, 0x00, 0x80, 0x00, 0x00, 0x00, 0xaa, 0xf1, 0xff, 0xff,
  0x14, 0x00, 0x00, 0x00, 0x00, 0x00, 0x00, 0x15, 0x10, 0x00, 0x00, 0x00,
  0x14, 0x00, 0x00, 0x00, 0x08, 0x00, 0x00, 0x00, 0xe4, 0x84, 0xff, 0xff,
  0x01, 0x00, 0x00, 0x00, 0x80, 0x00, 0x00, 0x00, 0x02, 0x00, 0x00, 0x00,
  0x7b, 0x00, 0x00, 0x00, 0x7f, 0x00, 0x00, 0x00, 0x0a, 0xf2, 0xff, 0xff,
  0x0c, 0x00, 0x00, 0x00, 0x10, 0x00, 0x00, 0x00, 0x07, 0x00, 0x00, 0x00,
  0x01, 0x00, 0x00, 0x00, 0x7f, 0x00, 0x00, 0x00, 0x01, 0x00, 0x00, 0x00,
  0x79, 0x00, 0x00, 0x00, 0x2a, 0xf2, 0xff, 0xff, 0x0c, 0x00, 0x00, 0x00,
  0x10, 0x00, 0x00, 0x00, 0x06, 0x00, 0x00, 0x00, 0x01, 0x00, 0x00, 0x00,
  0x7e, 0x00, 0x00, 0x00, 0x01, 0x00, 0x00, 0x00, 0x7a, 0x00, 0x00, 0x00,
  0x1a, 0xf2, 0xff, 0xff, 0x14, 0x00, 0x00, 0x00, 0x00, 0x00, 0x00, 0x15,
  0x10, 0x00, 0x00, 0x00, 0x14, 0x00, 0x00, 0x00, 0x08, 0x00, 0x00, 0x00,
  0x54, 0x85, 0xff, 0xff, 0x01, 0x00, 0x00, 0x00, 0x7d, 0x00, 0x00, 0x00,
  0x02, 0x00, 0x00, 0x00, 0x7c, 0x00, 0x00, 0x00, 0x70, 0x00, 0x00, 0x00,
  0x7a, 0xf2, 0xff, 0xff, 0x0c, 0x00, 0x00, 0x00, 0x10, 0x00, 0x00, 0x00,
  0x06, 0x00, 0x00, 0x00, 0x01, 0x00, 0x00, 0x00, 0x7c, 0x00, 0x00, 0x00,
  0x01, 0x00, 0x00, 0x00, 0x78, 0x00, 0x00, 0x00, 0x9a, 0xf2, 0xff, 0xff,
  0x0c, 0x00, 0x00, 0x00, 0x10, 0x00, 0x00, 0x00, 0x06, 0x00, 0x00, 0x00,
  0x01, 0x00, 0x00, 0x00, 0x7b, 0x00, 0x00, 0x00, 0x01, 0x00, 0x00, 0x00,
  0x77, 0x00, 0x00, 0x00, 0x8a, 0xf2, 0xff, 0xff, 0x14, 0x00, 0x00, 0x00,
  0x00, 0x00, 0x00, 0x23, 0x14, 0x00, 0x00, 0x00, 0x24, 0x00, 0x00, 0x00,
  0x05, 0x00, 0x00, 0x00, 0x0a, 0xf3, 0xff, 0xff, 0x04, 0x00, 0x00, 0x00,
  0x04, 0x00, 0x00, 0x00, 0x77, 0x00, 0x00, 0x00, 0x78, 0x00, 0x00, 0x00,
  0x79, 0x00, 0x00, 0x00, 0x7a, 0x00, 0x00, 0x00, 0x02, 0x00, 0x00, 0x00,
  0x02, 0x00, 0x00, 0x00, 0x76, 0x00, 0x00, 0x00, 0xca, 0xf2, 0xff, 0xff,
  0x14, 0x00, 0x00, 0x00, 0x00, 0x00, 0x00, 0x0b, 0x10, 0x00, 0x00, 0x00,
  0x14, 0x00, 0x00, 0x00, 0x01, 0x00, 0x00, 0x00, 0x04, 0x86, 0xff, 0xff,
  0x01, 0x00, 0x00, 0x00, 0x76, 0x00, 0x00, 0x00, 0x02, 0x00, 0x00, 0x00,
  0x75, 0x00, 0x00, 0x00, 0x0a, 0x00, 0x00, 0x00, 0xfa, 0xf2, 0xff, 0xff,
  0x14, 0x00, 0x00, 0x00, 0x00, 0x00, 0x00, 0x0b, 0x10, 0x00, 0x00, 0x00,
  0x14, 0x00, 0x00, 0x00, 0x01, 0x00, 0x00, 0x00, 0x34, 0x86, 0xff, 0xff,
  0x01, 0x00, 0x00, 0x00, 0x75, 0x00, 0x00, 0x00, 0x02, 0x00, 0x00, 0x00,
  0x2b, 0x00, 0x00, 0x00, 0x74, 0x00, 0x00, 0x00, 0x5a, 0xf3, 0xff, 0xff,
  0x0c, 0x00, 0x00, 0x00, 0x10, 0x00, 0x00, 0x00, 0x02, 0x00, 0x00, 0x00,
  0x01, 0x00, 0x00, 0x00, 0x74, 0x00, 0x00, 0x00, 0x02, 0x00, 0x00, 0x00,
  0x73, 0x00, 0x00, 0x00, 0x03, 0x00, 0x00, 0x00, 0x4e, 0xf3, 0xff, 0xff,
  0x14, 0x00, 0x00, 0x00, 0x00, 0x00, 0x00, 0x08, 0x10, 0x00, 0x00, 0x00,
  0x14, 0x00, 0x00, 0x00, 0x04, 0x00, 0x00, 0x00, 0x88, 0x86, 0xff, 0xff,
  0x01, 0x00, 0x00, 0x00, 0x73, 0x00, 0x00, 0x00, 0x03, 0x00, 0x00, 0x00,
  0x72, 0x00, 0x00, 0x00, 0x08, 0x00, 0x00, 0x00, 0xff, 0xff, 0xff, 0xff,
  0x82, 0xf3, 0xff, 0xff, 0x14, 0x00, 0x00, 0x00, 0x00, 0x00, 0x00, 0x15,
  0x10, 0x00, 0x00, 0x00, 0x14, 0x00, 0x00, 0x00, 0x08, 0x00, 0x00, 0x00,
  0xbc, 0x86, 0xff, 0xff, 0x01, 0x00, 0x00, 0x00, 0x72, 0x00, 0x00, 0x00,
  0x02, 0x00, 0x00, 0x00, 0x6d, 0x00, 0x00, 0x00, 0x71, 0x00, 0x00, 0x00,
  0xe2, 0xf3, 0xff, 0xff, 0x0c, 0x00, 0x00, 0x00, 0x10, 0x00, 0x00, 0x00,
  0x07, 0x00, 0x00, 0x00, 0x01, 0x00, 0x00, 0x00, 0x71, 0x00, 0x00, 0x00,
  0x01, 0x00, 0x00, 0x00, 0x70, 0x00, 0x00, 0x00, 0xd2, 0xf3, 0xff, 0xff,
  0x14, 0x00, 0x00, 0x00, 0x00, 0x00, 0x00, 0x0b, 0x10, 0x00, 0x00, 0x00,
  0x14, 0x00, 0x00, 0x00, 0x01, 0x00, 0x00, 0x00, 0x0c, 0x87, 0xff, 0xff,
  0x01, 0x00, 0x00, 0x00, 0x70, 0x00, 0x00, 0x00, 0x02, 0x00, 0x00, 0x00,
  0x6c, 0x00, 0x00, 0x00, 0x6f, 0x00, 0x00, 0x00, 0x02, 0xf4, 0xff, 0xff,
  0x14, 0x00, 0x00, 0x00, 0x00, 0x00, 0x00, 0x15, 0x10, 0x00, 0x00, 0x00,
  0x14, 0x00, 0x00, 0x00, 0x08, 0x00, 0x00, 0x00, 0x3c, 0x87, 0xff, 0xff,
  0x01, 0x00, 0x00, 0x00, 0x6f, 0x00, 0x00, 0x00, 0x02, 0x00, 0x00, 0x00,
  0x6a, 0x00, 0x00, 0x00, 0x6e, 0x00, 0x00, 0x00, 0x62, 0xf4, 0xff, 0xff,
  0x0c, 0x00, 0x00, 0x00, 0x10, 0x00, 0x00, 0x00, 0x07, 0x00, 0x00, 0x00,
  0x01, 0x00, 0x00, 0x00, 0x6e, 0x00, 0x00, 0x00, 0x01, 0x00, 0x00, 0x00,
  0x68, 0x00, 0x00, 0x00, 0x82, 0xf4, 0xff, 0xff, 0x0c, 0x00, 0x00, 0x00,
  0x10, 0x00, 0x00, 0x00, 0x06, 0x00, 0x00, 0x00, 0x01, 0x00, 0x00, 0x00,
  0x6d, 0x00, 0x00, 0x00, 0x01, 0x00, 0x00, 0x00, 0x69, 0x00, 0x00, 0x00,
  0x72, 0xf4, 0xff, 0xff, 0x14, 0x00, 0x00, 0x00, 0x00, 0x00, 0x00, 0x15,
  0x10, 0x00, 0x00, 0x00, 0x14, 0x00, 0x00, 0x00, 0x08, 0x00, 0x00, 0x00,
  0xac, 0x87, 0xff, 0xff, 0x01, 0x00, 0x00, 0x00, 0x6c, 0x00, 0x00, 0x00,
  0x02, 0x00, 0x00, 0x00, 0x6b, 0x00, 0x00, 0x00, 0x5e, 0x00, 0x00, 0x00,
  0xd2, 0xf4, 0xff, 0xff, 0x0c, 0x00, 0x00, 0x00, 0x10, 0x00, 0x00, 0x00,
  0x06, 0x00, 0x00, 0x00, 0x01, 0x00, 0x00, 0x00, 0x6b, 0x00, 0x00, 0x00,
  0x01, 0x00, 0x00, 0x00, 0x67, 0x00, 0x00, 0x00, 0xf2, 0xf4, 0xff, 0xff,
  0x0c, 0x00, 0x00, 0x00, 0x10, 0x00, 0x00, 0x00, 0x06, 0x00, 0x00, 0x00,
  0x01, 0x00, 0x00, 0x00, 0x6a, 0x00, 0x00, 0x00, 0x01, 0x00, 0x00, 0x00,
  0x66, 0x00, 0x00, 0x00, 0xe2, 0xf4, 0xff, 0xff, 0x14, 0x00, 0x00, 0x00,
  0x00, 0x00, 0x00, 0x23, 0x14, 0x00, 0x00, 0x00, 0x24, 0x00, 0x00, 0x00,
  0x05, 0x00, 0x00, 0x00, 0x62, 0xf5, 0xff, 0xff, 0x04, 0x00, 0x00, 0x00,
  0x04, 0x00, 0x00, 0x00, 0x66, 0x00, 0x00, 0x00, 0x67, 0x00, 0x00, 0x00,
  0x68, 0x00, 0x00, 0x00, 0x69, 0x00, 0x00, 0x00, 0x02, 0x00, 0x00, 0x00,
  0x02, 0x00, 0x00, 0x00, 0x65, 0x00, 0x00, 0x00, 0x22, 0xf5, 0xff, 0xff,
  0x14, 0x00, 0x00, 0x00, 0x00, 0x00, 0x00, 0x0b, 0x10, 0x00, 0x00, 0x00,
  0x14, 0x00, 0x00, 0x00, 0x01, 0x00, 0x00, 0x00, 0x5c, 0x88, 0xff, 0xff,
  0x01, 0x00, 0x00, 0x00, 0x65, 0x00, 0x00, 0x00, 0x02, 0x00, 0x00, 0x00,
  0x64, 0x00, 0x00, 0x00, 0x0a, 0x00, 0x00, 0x00, 0x52, 0xf5, 0xff, 0xff,
  0x14, 0x00, 0x00, 0x00, 0x00, 0x00, 0x00, 0x0b, 0x10, 0x00, 0x00, 0x00,
  0x14, 0x00, 0x00, 0x00, 0x01, 0x00, 0x00, 0x00, 0x8c, 0x88, 0xff, 0xff,
  0x01, 0x00, 0x00, 0x00, 0x64, 0x00, 0x00, 0x00, 0x02, 0x00, 0x00, 0x00,
  0x63, 0x00, 0x00, 0x00, 0x62, 0x00, 0x00, 0x00, 0x82, 0xf5, 0xff, 0xff,
  0x14, 0x00, 0x00, 0x00, 0x00, 0x00, 0x00, 0x08, 0x10, 0x00, 0x00, 0x00,
  0x14, 0x00, 0x00, 0x00, 0x04, 0x00, 0x00, 0x00, 0xbc, 0x88, 0xff, 0xff,
  0x01, 0x00, 0x00, 0x00, 0x63, 0x00, 0x00, 0x00, 0x03, 0x00, 0x00, 0x00,
  0x1b, 0x00, 0x00, 0x00, 0x0b, 0x00, 0x00, 0x00, 0xff, 0xff, 0xff, 0xff,
  0xe6, 0xf5, 0xff, 0xff, 0x0c, 0x00, 0x00, 0x00, 0x10, 0x00, 0x00, 0x00,
  0x02, 0x00, 0x00, 0x00, 0x01, 0x00, 0x00, 0x00, 0x62, 0x00, 0x00, 0x00,
  0x02, 0x00, 0x00, 0x00, 0x61, 0x00, 0x00, 0x00, 0x03, 0x00, 0x00, 0x00,
  0xda, 0xf5, 0xff, 0xff, 0x14, 0x00, 0x00, 0x00, 0x00, 0x00, 0x00, 0x08,
  0x10, 0x00, 0x00, 0x00, 0x14, 0x00, 0x00, 0x00, 0x04, 0x00, 0x00, 0x00,
  0x14, 0x89, 0xff, 0xff, 0x01, 0x00, 0x00, 0x00, 0x61, 0x00, 0x00, 0x00,
  0x03, 0x00, 0x00, 0x00, 0x60, 0x00, 0x00, 0x00, 0x08, 0x00, 0x00, 0x00,
  0xff, 0xff, 0xff, 0xff, 0x0e, 0xf6, 0xff, 0xff, 0x14, 0x00, 0x00, 0x00,
  0x00, 0x00, 0x00, 0x15, 0x10, 0x00, 0x00, 0x00, 0x14, 0x00, 0x00, 0x00,
  0x08, 0x00, 0x00, 0x00, 0x48, 0x89, 0xff, 0xff, 0x01, 0x00, 0x00, 0x00,
  0x60, 0x00, 0x00, 0x00, 0x02, 0x00, 0x00, 0x00, 0x5b, 0x00, 0x00, 0x00,
  0x5f, 0x00, 0x00, 0x00, 0x6e, 0xf6, 0xff, 0xff, 0x0c, 0x00, 0x00, 0x00,
  0x10, 0x00, 0x00, 0x00, 0x07, 0x00, 0x00, 0x00, 0x01, 0x00, 0x00, 0x00,
  0x5f, 0x00, 0x00, 0x00, 0x01, 0x00, 0x00, 0x00, 0x5e, 0x00, 0x00, 0x00,
  0x5e, 0xf6, 0xff, 0xff, 0x14, 0x00, 0x00, 0x00, 0x00, 0x00, 0x00, 0x0b,
  0x10, 0x00, 0x00, 0x00, 0x14, 0x00, 0x00, 0x00, 0x01, 0x00, 0x00, 0x00,
  0x98, 0x89, 0xff, 0xff, 0x01, 0x00, 0x00, 0x00, 0x5e, 0x00, 0x00, 0x00,
  0x02, 0x00, 0x00, 0x00, 0x5a, 0x00, 0x00, 0x00, 0x5d, 0x00, 0x00, 0x00,
  0x8e, 0xf6, 0xff, 0xff, 0x14, 0x00, 0x00, 0x00, 0x00, 0x00, 0x00, 0x15,
  0x10, 0x00, 0x00, 0x00, 0x14, 0x00, 0x00, 0x00, 0x08, 0x00, 0x00, 0x00,
  0xc8, 0x89, 0xff, 0xff, 0x01, 0x00, 0x00, 0x00, 0x5d, 0x00, 0x00, 0x00,
  0x02, 0x00, 0x00, 0x00, 0x58, 0x00, 0x00, 0x00, 0x5c, 0x00, 0x00, 0x00,
  0xee, 0xf6, 0xff, 0xff, 0x0c, 0x00, 0x00, 0x00, 0x10, 0x00, 0x00, 0x00,
  0x07, 0x00, 0x00, 0x00, 0x01, 0x00, 0x00, 0x00, 0x5c, 0x00, 0x00, 0x00,
  0x01, 0x00, 0x00, 0x00, 0x56, 0x00, 0x00, 0x00, 0x0e, 0xf7, 0xff, 0xff,
  0x0c, 0x00, 0x00, 0x00, 0x10, 0x00, 0x00, 0x00, 0x06, 0x00, 0x00, 0x00,
  0x01, 0x00, 0x00, 0x00, 0x5b, 0x00, 0x00, 0x00, 0x01, 0x00, 0x00, 0x00,
  0x57, 0x00, 0x00, 0x00, 0xfe, 0xf6, 0xff, 0xff, 0x14, 0x00, 0x00, 0x00,
  0x00, 0x00, 0x00, 0x15, 0x10, 0x00, 0x00, 0x00, 0x14, 0x00, 0x00, 0x00,
  0x08, 0x00, 0x00, 0x00, 0x38, 0x8a, 0xff, 0xff, 0x01, 0x00, 0x00, 0x00,
  0x5a, 0x00, 0x00, 0x00, 0x02, 0x00, 0x00, 0x00, 0x59, 0x00, 0x00, 0x00,
  0x4c, 0x00, 0x00, 0x00, 0x5e, 0xf7, 0xff, 0xff, 0x0c, 0x00, 0x00, 0x00,
  0x10, 0x00, 0x00, 0x00, 0x06, 0x00, 0x00, 0x00, 0x01, 0x00, 0x00, 0x00,
  0x59, 0x00, 0x00, 0x00, 0x01, 0x00, 0x00, 0x00, 0x55, 0x00, 0x00, 0x00,
  0x7e, 0xf7, 0xff, 0xff, 0x0c, 0x00, 0x00, 0x00, 0x10, 0x00, 0x00, 0x00,
  0x06, 0x00, 0x00, 0x00, 0x01, 0x00, 0x00, 0x00, 0x58, 0x00, 0x00, 0x00,
  0x01, 0x00, 0x00, 0x00, 0x54, 0x00, 0x00, 0x00, 0x6e, 0xf7, 0xff, 0xff,
  0x14, 0x00, 0x00, 0x00, 0x00, 0x00, 0x00, 0x23, 0x14, 0x00, 0x00, 0x00,
  0x24, 0x00, 0x00, 0x00, 0x05, 0x00, 0x00, 0x00, 0xee, 0xf7, 0xff, 0xff,
  0x04, 0x00, 0x00, 0x00, 0x04, 0x00, 0x00, 0x00, 0x54, 0x00, 0x00, 0x00,
  0x55, 0x00, 0x00, 0x00, 0x56, 0x00, 0x00, 0x00, 0x57, 0x00, 0x00, 0x00,
  0x02, 0x00, 0x00, 0x00, 0x02, 0x00, 0x00, 0x00, 0x53, 0x00, 0x00, 0x00,
  0xae, 0xf7, 0xff, 0xff, 0x14, 0x00, 0x00, 0x00, 0x00, 0x00, 0x00, 0x0b,
  0x10, 0x00, 0x00, 0x00, 0x14, 0x00, 0x00, 0x00, 0x01, 0x00, 0x00, 0x00,
  0xe8, 0x8a, 0xff, 0xff, 0x01, 0x00, 0x00, 0x00, 0x53, 0x00, 0x00, 0x00,
  0x02, 0x00, 0x00, 0x00, 0x52, 0x00, 0x00, 0x00, 0x0a, 0x00, 0x00, 0x00,
  0xde, 0xf7, 0xff, 0xff, 0x14, 0x00, 0x00, 0x00, 0x00, 0x00, 0x00, 0x0b,
  0x10, 0x00, 0x00, 0x00, 0x14, 0x00, 0x00, 0x00, 0x01, 0x00, 0x00, 0x00,
  0x18, 0x8b, 0xff, 0xff, 0x01, 0x00, 0x00, 0x00, 0x52, 0x00, 0x00, 0x00,
  0x02, 0x00, 0x00, 0x00, 0x51, 0x00, 0x00, 0x00, 0x50, 0x00, 0x00, 0x00,
  0x0e, 0xf8, 0xff, 0xff, 0x14, 0x00, 0x00, 0x00, 0x00, 0x00, 0x00, 0x08,
  0x10, 0x00, 0x00, 0x00, 0x14, 0x00, 0x00, 0x00, 0x04, 0x00, 0x00, 0x00,
  0x48, 0x8b, 0xff, 0xff, 0x01, 0x00, 0x00, 0x00, 0x51, 0x00, 0x00, 0x00,
  0x03, 0x00, 0x00, 0x00, 0x1a, 0x00, 0x00, 0x00, 0x0b, 0x00, 0x00, 0x00,
  0xff, 0xff, 0xff, 0xff, 0x72, 0xf8, 0xff, 0xff, 0x0c, 0x00, 0x00, 0x00,
  0x10, 0x00, 0x00, 0x00, 0x02, 0x00, 0x00, 0x00, 0x01, 0x00, 0x00, 0x00,
  0x50, 0x00, 0x00, 0x00, 0x02, 0x00, 0x00, 0x00, 0x4f, 0x00, 0x00, 0x00,
  0x03, 0x00, 0x00, 0x00, 0x66, 0xf8, 0xff, 0xff, 0x14, 0x00, 0x00, 0x00,
  0x00, 0x00, 0x00, 0x08, 0x10, 0x00, 0x00, 0x00, 0x14, 0x00, 0x00, 0x00,
  0x04, 0x00, 0x00, 0x00, 0xa0, 0x8b, 0xff, 0xff, 0x01, 0x00, 0x00, 0x00,
  0x4f, 0x00, 0x00, 0x00, 0x03, 0x00, 0x00, 0x00, 0x4e, 0x00, 0x00, 0x00,
  0x08, 0x00, 0x00, 0x00, 0xff, 0xff, 0xff, 0xff, 0x9a, 0xf8, 0xff, 0xff,
  0x14, 0x00, 0x00, 0x00, 0x00, 0x00, 0x00, 0x15, 0x10, 0x00, 0x00, 0x00,
  0x14, 0x00, 0x00, 0x00, 0x08, 0x00, 0x00, 0x00, 0xd4, 0x8b, 0xff, 0xff,
  0x01, 0x00, 0x00, 0x00, 0x4e, 0x00, 0x00, 0x00, 0x02, 0x00, 0x00, 0x00,
  0x49, 0x00, 0x00, 0x00, 0x4d, 0x00, 0x00, 0x00, 0xfa, 0xf8, 0xff, 0xff,
  0x0c, 0x00, 0x00, 0x00, 0x10, 0x00, 0x00, 0x00, 0x07, 0x00, 0x00, 0x00,
  0x01, 0x00, 0x00, 0x00, 0x4d, 0x00, 0x00, 0x00, 0x01, 0x00, 0x00, 0x00,
  0x4c, 0x00, 0x00, 0x00, 0xea, 0xf8, 0xff, 0xff, 0x14, 0x00, 0x00, 0x00,
  0x00, 0x00, 0x00, 0x0b, 0x10, 0x00, 0x00, 0x00, 0x14, 0x00, 0x00, 0x00,
  0x01, 0x00, 0x00, 0x00, 0x24, 0x8c, 0xff, 0xff, 0x01, 0x00, 0x00, 0x00,
  0x4c, 0x00, 0x00, 0x00, 0x02, 0x00, 0x00, 0x00, 0x48, 0x00, 0x00, 0x00,
  0x4b, 0x00, 0x00, 0x00, 0x1a, 0xf9, 0xff, 0xff, 0x14, 0x00, 0x00, 0x00,
  0x00, 0x00, 0x00, 0x15, 0x10, 0x00, 0x00, 0x00, 0x14, 0x00, 0x00, 0x00,
  0x08, 0x00, 0x00, 0x00, 0x54, 0x8c, 0xff, 0xff, 0x01, 0x00, 0x00, 0x00,
  0x4b, 0x00, 0x00, 0x00, 0x02, 0x00, 0x00, 0x00, 0x46, 0x00, 0x00, 0x00,
  0x4a, 0x00, 0x00, 0x00, 0x7a, 0xf9, 0xff, 0xff, 0x0c, 0x00, 0x00, 0x00,
  0x10, 0x00, 0x00, 0x00, 0x07, 0x00, 0x00, 0x00, 0x01, 0x00, 0x00, 0x00,
  0x4a, 0x00, 0x00, 0x00, 0x01, 0x00, 0x00, 0x00, 0x44, 0x00, 0x00, 0x00,
  0x9a, 0xf9, 0xff, 0xff, 0x0c, 0x00, 0x00, 0x00, 0x10, 0x00, 0x00, 0x00,
  0x06, 0x00, 0x00, 0x00, 0x01, 0x00, 0x00, 0x00, 0x49, 0x00, 0x00, 0x00,
  0x01, 0x00, 0x00, 0x00, 0x45, 0x00, 0x00, 0x00, 0x8a, 0xf9, 0xff, 0xff,
  0x14, 0x00, 0x00, 0x00, 0x00, 0x00, 0x00, 0x15, 0x10, 0x00, 0x00, 0x00,
  0x14, 0x00, 0x00, 0x00, 0x08, 0x00, 0x00, 0x00, 0xc4, 0x8c, 0xff, 0xff,
  0x01, 0x00, 0x00, 0x00, 0x48, 0x00, 0x00, 0x00, 0x02, 0x00, 0x00, 0x00,
  0x47, 0x00, 0x00, 0x00, 0x3a, 0x00, 0x00, 0x00, 0xea, 0xf9, 0xff, 0xff,
  0x0c, 0x00, 0x00, 0x00, 0x10, 0x00, 0x00, 0x00, 0x06, 0x00, 0x00, 0x00,
  0x01, 0x00, 0x00, 0x00, 0x47, 0x00, 0x00, 0x00, 0x01, 0x00, 0x00, 0x00,
  0x43, 0x00, 0x00, 0x00, 0x0a, 0xfa, 0xff, 0xff, 0x0c, 0x00, 0x00, 0x00,
  0x10, 0x00, 0x00, 0x00, 0x06, 0x00, 0x00, 0x00, 0x01, 0x00, 0x00, 0x00,
  0x46, 0x00, 0x00, 0x00, 0x01, 0x00, 0x00, 0x00, 0x42, 0x00, 0x00, 0x00,
  0xfa, 0xf9, 0xff, 0xff, 0x14, 0x00, 0x00, 0x00, 0x00, 0x00, 0x00, 0x23,
  0x14, 0x00, 0x00, 0x00, 0x24, 0x00, 0x00, 0x00, 0x05, 0x00, 0x00, 0x00,
  0x7a, 0xfa, 0xff, 0xff, 0x04, 0x00, 0x00, 0x00, 0x04, 0x00, 0x00, 0x00,
  0x42, 0x00, 0x00, 0x00, 0x43, 0x00, 0x00, 0x00, 0x44, 0x00, 0x00, 0x00,
  0x45, 0x00, 0x00, 0x00, 0x02, 0x00, 0x00, 0x00, 0x02, 0x00, 0x00, 0x00,
  0x41, 0x00, 0x00, 0x00, 0x3a, 0xfa, 0xff, 0xff, 0x14, 0x00, 0x00, 0x00,
  0x00, 0x00, 0x00, 0x0b, 0x10, 0x00, 0x00, 0x00, 0x14, 0x00, 0x00, 0x00,
  0x01, 0x00, 0x00, 0x00, 0x74, 0x8d, 0xff, 0xff, 0x01, 0x00, 0x00, 0x00,
  0x41, 0x00, 0x00, 0x00, 0x02, 0x00, 0x00, 0x00, 0x40, 0x00, 0x00, 0x00,
  0x0a, 0x00, 0x00, 0x00, 0x6a, 0xfa, 0xff, 0xff, 0x14, 0x00, 0x00, 0x00,
  0x00, 0x00, 0x00, 0x0b, 0x10, 0x00, 0x00, 0x00, 0x14, 0x00, 0x00, 0x00,
  0x01, 0x00, 0x00, 0x00, 0xa4, 0x8d, 0xff, 0xff, 0x01, 0x00, 0x00, 0x00,
  0x40, 0x00, 0x00, 0x00, 0x02, 0x00, 0x00, 0x00, 0x3f, 0x00, 0x00, 0x00,
  0x3e, 0x00, 0x00, 0x00, 0x9a, 0xfa, 0xff, 0xff, 0x14, 0x00, 0x00, 0x00,
  0x00, 0x00, 0x00, 0x08, 0x10, 0x00, 0x00, 0x00, 0x14, 0x00, 0x00, 0x00,
  0x04, 0x00, 0x00, 0x00, 0xd4, 0x8d, 0xff, 0xff, 0x01, 0x00, 0x00, 0x00,
  0x3f, 0x00, 0x00, 0x00, 0x03, 0x00, 0x00, 0x00, 0x19, 0x00, 0x00, 0x00,
  0x0b, 0x00, 0x00, 0x00, 0xff, 0xff, 0xff, 0xff, 0xfe, 0xfa, 0xff, 0xff,
  0x0c, 0x00, 0x00, 0x00, 0x10, 0x00, 0x00, 0x00, 0x02, 0x00, 0x00, 0x00,
  0x01, 0x00, 0x00, 0x00, 0x3e, 0x00, 0x00, 0x00, 0x02, 0x00, 0x00, 0x00,
  0x3d, 0x00, 0x00, 0x00, 0x03, 0x00, 0x00, 0x00, 0xf2, 0xfa, 0xff, 0xff,
  0x14, 0x00, 0x00, 0x00, 0x00, 0x00, 0x00, 0x08, 0x10, 0x00, 0x00, 0x00,
  0x14, 0x00, 0x00, 0x00, 0x04, 0x00, 0x00, 0x00, 0x2c, 0x8e, 0xff, 0xff,
  0x01, 0x00, 0x00, 0x00, 0x3d, 0x00, 0x00, 0x00, 0x03, 0x00, 0x00, 0x00,
  0x3c, 0x00, 0x00, 0x00, 0x08, 0x00, 0x00, 0x00, 0xff, 0xff, 0xff, 0xff,
  0x26, 0xfb, 0xff, 0xff, 0x14, 0x00, 0x00, 0x00, 0x00, 0x00, 0x00, 0x15,
  0x10, 0x00, 0x00, 0x00, 0x14, 0x00, 0x00, 0x00, 0x08, 0x00, 0x00, 0x00,
  0x60, 0x8e, 0xff, 0xff, 0x01, 0x00, 0x00, 0x00, 0x3c, 0x00, 0x00, 0x00,
  0x02, 0x00, 0x00, 0x00, 0x37, 0x00, 0x00, 0x00, 0x3b, 0x00, 0x00, 0x00,
  0x86, 0xfb, 0xff, 0xff, 0x0c, 0x00, 0x00, 0x00, 0x10, 0x00, 0x00, 0x00,
  0x07, 0x00, 0x00, 0x00, 0x01, 0x00, 0x00, 0x00, 0x3b, 0x00, 0x00, 0x00,
  0x01, 0x00, 0x00, 0x00, 0x3a, 0x00, 0x00, 0x00, 0x76, 0xfb, 0xff, 0xff,
  0x14, 0x00, 0x00, 0x00, 0x00, 0x00, 0x00, 0x0b, 0x10, 0x00, 0x00, 0x00,
  0x14, 0x00, 0x00, 0x00, 0x01, 0x00, 0x00, 0x00, 0xb0, 0x8e, 0xff, 0xff,
  0x01, 0x00, 0x00, 0x00, 0x3a, 0x00, 0x00, 0x00, 0x02, 0x00, 0x00, 0x00,
  0x36, 0x00, 0x00, 0x00, 0x39, 0x00, 0x00, 0x00, 0xa6, 0xfb, 0xff, 0xff,
  0x14, 0x00, 0x00, 0x00, 0x00, 0x00, 0x00, 0x15, 0x10, 0x00, 0x00, 0x00,
  0x14, 0x00, 0x00, 0x00, 0x08, 0x00, 0x00, 0x00, 0xe0, 0x8e, 0xff, 0xff,
  0x01, 0x00, 0x00, 0x00, 0x39, 0x00, 0x00, 0x00, 0x02, 0x00, 0x00, 0x00,
  0x34, 0x00, 0x00, 0x00, 0x38, 0x00, 0x00, 0x00, 0x06, 0xfc, 0xff, 0xff,
  0x0c, 0x00, 0x00, 0x00, 0x10, 0x00, 0x00, 0x00, 0x07, 0x00, 0x00, 0x00,
  0x01, 0x00, 0x00, 0x00, 0x38, 0x00, 0x00, 0x00, 0x01, 0x00, 0x00, 0x00,
  0x32, 0x00, 0x00, 0x00, 0x26, 0xfc, 0xff, 0xff, 0x0c, 0x00, 0x00, 0x00,
  0x10, 0x00, 0x00, 0x00, 0x06, 0x00, 0x00, 0x00, 0x01, 0x00, 0x00, 0x00,
  0x37, 0x00, 0x00, 0x00, 0x01, 0x00, 0x00, 0x00, 0x33, 0x00, 0x00, 0x00,
  0x16, 0xfc, 0xff, 0xff, 0x14, 0x00, 0x00, 0x00, 0x00, 0x00, 0x00, 0x15,
  0x10, 0x00, 0x00, 0x00, 0x14, 0x00, 0x00, 0x00, 0x08, 0x00, 0x00, 0x00,
  0x50, 0x8f, 0xff, 0xff, 0x01, 0x00, 0x00, 0x00, 0x36, 0x00, 0x00, 0x00,
  0x02, 0x00, 0x00, 0x00, 0x35, 0x00, 0x00, 0x00, 0x26, 0x00, 0x00, 0x00,
  0x76, 0xfc, 0xff, 0xff, 0x0c, 0x00, 0x00, 0x00, 0x10, 0x00, 0x00, 0x00,
  0x06, 0x00, 0x00, 0x00, 0x01, 0x00, 0x00, 0x00, 0x35, 0x00, 0x00, 0x00,
  0x01, 0x00, 0x00, 0x00, 0x31, 0x00, 0x00, 0x00, 0x96, 0xfc, 0xff, 0xff,
  0x0c, 0x00, 0x00, 0x00, 0x10, 0x00, 0x00, 0x00, 0x06, 0x00, 0x00, 0x00,
  0x01, 0x00, 0x00, 0x00, 0x34, 0x00, 0x00, 0x00, 0x01, 0x00, 0x00, 0x00,
  0x30, 0x00, 0x00, 0x00, 0x86, 0xfc, 0xff, 0xff, 0x14, 0x00, 0x00, 0x00,
  0x00, 0x00, 0x00, 0x23, 0x14, 0x00, 0x00, 0x00, 0x24, 0x00, 0x00, 0x00,
  0x05, 0x00, 0x00, 0x00, 0x06, 0xfd, 0xff, 0xff, 0x04, 0x00, 0x00, 0x00,
  0x04, 0x00, 0x00, 0x00, 0x30, 0x00, 0x00, 0x00, 0x31, 0x00, 0x00, 0x00,
  0x32, 0x00, 0x00, 0x00, 0x33, 0x00, 0x00, 0x00, 0x02, 0x00, 0x00, 0x00,
  0x02, 0x00, 0x00, 0x00, 0x2f, 0x00, 0x00, 0x00, 0xc6, 0xfc, 0xff, 0xff,
  0x14, 0x00, 0x00, 0x00, 0x00, 0x00, 0x00, 0x0b, 0x10, 0x00, 0x00, 0x00,
  0x14, 0x00, 0x00, 0x00, 0x01, 0x00, 0x00, 0x00, 0x00, 0x90, 0xff, 0xff,
  0x01, 0x00, 0x00, 0x00, 0x2f, 0x00, 0x00, 0x00, 0x02, 0x00, 0x00, 0x00,
  0x2e, 0x00, 0x00, 0x00, 0x0a, 0x00, 0x00, 0x00, 0xf6, 0xfc, 0xff, 0xff,
  0x14, 0x00, 0x00, 0x00, 0x00, 0x00, 0x00, 0x0b, 0x10, 0x00, 0x00, 0x00,
  0x14, 0x00, 0x00, 0x00, 0x01, 0x00, 0x00, 0x00, 0x30, 0x90, 0xff, 0xff,
  0x01, 0x00, 0x00, 0x00, 0x2e, 0x00, 0x00, 0x00, 0x02, 0x00, 0x00, 0x00,
  0x2d, 0x00, 0x00, 0x00, 0x2a, 0x00, 0x00, 0x00, 0x26, 0xfd, 0xff, 0xff,
  0x14, 0x00, 0x00, 0x00, 0x00, 0x00, 0x00, 0x08, 0x10, 0x00, 0x00, 0x00,
  0x14, 0x00, 0x00, 0x00, 0x04, 0x00, 0x00, 0x00, 0x60, 0x90, 0xff, 0xff,
  0x01, 0x00, 0x00, 0x00, 0x2d, 0x00, 0x00, 0x00, 0x03, 0x00, 0x00, 0x00,
  0x18, 0x00, 0x00, 0x00, 0x0b, 0x00, 0x00, 0x00, 0xff, 0xff, 0xff, 0xff,
  0x5a, 0xfd, 0xff, 0xff, 0x14, 0x00, 0x00, 0x00, 0x00, 0x00, 0x00, 0x08,
  0x10, 0x00, 0x00, 0x00, 0x14, 0x00, 0x00, 0x00, 0x04, 0x00, 0x00, 0x00,
  0x94, 0x90, 0xff, 0xff, 0x01, 0x00, 0x00, 0x00, 0x2c, 0x00, 0x00, 0x00,
  0x03, 0x00, 0x00, 0x00, 0x1d, 0x00, 0x00, 0x00, 0x0b, 0x00, 0x00, 0x00,
  0xff, 0xff, 0xff, 0xff, 0x8e, 0xfd, 0xff, 0xff, 0x14, 0x00, 0x00, 0x00,
  0x00, 0x00, 0x00, 0x08, 0x10, 0x00, 0x00, 0x00, 0x14, 0x00, 0x00, 0x00,
  0x04, 0x00, 0x00, 0x00, 0xc8, 0x90, 0xff, 0xff, 0x01, 0x00, 0x00, 0x00,
  0x2b, 0x00, 0x00, 0x00, 0x03, 0x00, 0x00, 0x00, 0x1c, 0x00, 0x00, 0x00,
  0x0b, 0x00, 0x00, 0x00, 0xff, 0xff, 0xff, 0xff, 0xf2, 0xfd, 0xff, 0xff,
  0x0c, 0x00, 0x00, 0x00, 0x10, 0x00, 0x00, 0x00, 0x02, 0x00, 0x00, 0x00,
  0x01, 0x00, 0x00, 0x00, 0x2a, 0x00, 0x00, 0x00, 0x02, 0x00, 0x00, 0x00,
  0x29, 0x00, 0x00, 0x00, 0x03, 0x00, 0x00, 0x00, 0xe6, 0xfd, 0xff, 0xff,
  0x14, 0x00, 0x00, 0x00, 0x00, 0x00, 0x00, 0x08, 0x10, 0x00, 0x00, 0x00,
  0x14, 0x00, 0x00, 0x00, 0x04, 0x00, 0x00, 0x00, 0x20, 0x91, 0xff, 0xff,
  0x01, 0x00, 0x00, 0x00, 0x29, 0x00, 0x00, 0x00, 0x03, 0x00, 0x00, 0x00,
  0x28, 0x00, 0x00, 0x00, 0x08, 0x00, 0x00, 0x00, 0xff, 0xff, 0xff, 0xff,
  0x1a, 0xfe, 0xff, 0xff, 0x14, 0x00, 0x00, 0x00, 0x00, 0x00, 0x00, 0x15,
  0x10, 0x00, 0x00, 0x00, 0x14, 0x00, 0x00, 0x00, 0x08, 0x00, 0x00, 0x00,
  0x54, 0x91, 0xff, 0xff, 0x01, 0x00, 0x00, 0x00, 0x28, 0x00, 0x00, 0x00,
  0x02, 0x00, 0x00, 0x00, 0x24, 0x00, 0x00, 0x00, 0x27, 0x00, 0x00, 0x00,
  0x7a, 0xfe, 0xff, 0xff, 0x0c, 0x00, 0x00, 0x00, 0x10, 0x00, 0x00, 0x00,
  0x07, 0x00, 0x00, 0x00, 0x01, 0x00, 0x00, 0x00, 0x27, 0x00, 0x00, 0x00,
  0x01, 0x00, 0x00, 0x00, 0x26, 0x00, 0x00, 0x00, 0x6a, 0xfe, 0xff, 0xff,
  0x14, 0x00, 0x00, 0x00, 0x00, 0x00, 0x00, 0x15, 0x10, 0x00, 0x00, 0x00,
  0x14, 0x00, 0x00, 0x00, 0x08, 0x00, 0x00, 0x00, 0xa4, 0x91, 0xff, 0xff,
  0x01, 0x00, 0x00, 0x00, 0x26, 0x00, 0x00, 0x00, 0x02, 0x00, 0x00, 0x00,
  0x23, 0x00, 0x00, 0x00, 0x25, 0x00, 0x00, 0x00, 0xca, 0xfe, 0xff, 0xff,
  0x0c, 0x00, 0x00, 0x00, 0x10, 0x00, 0x00, 0x00, 0x07, 0x00, 0x00, 0x00,
  0x01, 0x00, 0x00, 0x00, 0x25, 0x00, 0x00, 0x00, 0x01, 0x00, 0x00, 0x00,
  0x21, 0x00, 0x00, 0x00, 0xea, 0xfe, 0xff, 0xff, 0x0c, 0x00, 0x00, 0x00,
  0x10, 0x00, 0x00, 0x00, 0x06, 0x00, 0x00, 0x00, 0x01, 0x00, 0x00, 0x00,
  0x24, 0x00, 0x00, 0x00, 0x01, 0x00, 0x00, 0x00, 0x22, 0x00, 0x00, 0x00,
  0x0a, 0xff, 0xff, 0xff, 0x0c, 0x00, 0x00, 0x00, 0x10, 0x00, 0x00, 0x00,
  0x06, 0x00, 0x00, 0x00, 0x01, 0x00, 0x00, 0x00, 0x23, 0x00, 0x00, 0x00,
  0x01, 0x00, 0x00, 0x00, 0x1f, 0x00, 0x00, 0x00, 0xfa, 0xfe, 0xff, 0xff,
  0x14, 0x00, 0x00, 0x00, 0x00, 0x00, 0x00, 0x23, 0x14, 0x00, 0x00, 0x00,
  0x24, 0x00, 0x00, 0x00, 0x05, 0x00, 0x00, 0x00, 0x7a, 0xff, 0xff, 0xff,
  0x04, 0x00, 0x00, 0x00, 0x04, 0x00, 0x00, 0x00, 0x1f, 0x00, 0x00, 0x00,
  0x20, 0x00, 0x00, 0x00, 0x21, 0x00, 0x00, 0x00, 0x22, 0x00, 0x00, 0x00,
  0x02, 0x00, 0x00, 0x00, 0x02, 0x00, 0x00, 0x00, 0x1e, 0x00, 0x00, 0x00,
  0x3a, 0xff, 0xff, 0xff, 0x14, 0x00, 0x00, 0x00, 0x00, 0x00, 0x00, 0x08,
  0x10, 0x00, 0x00, 0x00, 0x14, 0x00, 0x00, 0x00, 0x04, 0x00, 0x00, 0x00,
  0x74, 0x92, 0xff, 0xff, 0x01, 0x00, 0x00, 0x00, 0x1e, 0x00, 0x00, 0x00,
  0x03, 0x00, 0x00, 0x00, 0x17, 0x00, 0x00, 0x00, 0x0b, 0x00, 0x00, 0x00,
  0x09, 0x00, 0x00, 0x00, 0x00, 0x00, 0x0e, 0x00, 0x1a, 0x00, 0x14, 0x00,
  0x10, 0x00, 0x0c, 0x00, 0x0b, 0x00, 0x04, 0x00, 0x0e, 0x00, 0x00, 0x00,
  0x1c, 0x00, 0x00, 0x00, 0x00, 0x00, 0x00, 0x40, 0x1c, 0x00, 0x00, 0x00,
  0x38, 0x00, 0x00, 0x00, 0x03, 0x00, 0x00, 0x00, 0x00, 0x00, 0x06, 0x00,
  0x08, 0x00, 0x04, 0x00, 0x06, 0x00, 0x00, 0x00, 0x07, 0x00, 0x00, 0x00,
  0x07, 0x00, 0x00, 0x00, 0x17, 0x00, 0x00, 0x00, 0x18, 0x00, 0x00, 0x00,
  0x19, 0x00, 0x00, 0x00, 0x1a, 0x00, 0x00, 0x00, 0x1b, 0x00, 0x00, 0x00,
  0x1c, 0x00, 0x00, 0x00, 0x1d, 0x00, 0x00, 0x00, 0x01, 0x00, 0x00, 0x00,
  0x16, 0x00, 0x00, 0x00, 0x00, 0x00, 0x0a, 0x00, 0x10, 0x00, 0x0c, 0x00,
  0x08, 0x00, 0x04, 0x00, 0x0a, 0x00, 0x00, 0x00, 0x0c, 0x00, 0x00, 0x00,
  0x10, 0x00, 0x00, 0x00, 0x02, 0x00, 0x00, 0x00, 0x01, 0x00, 0x00, 0x00,
  0x16, 0x00, 0x00, 0x00, 0x02, 0x00, 0x00, 0x00, 0x15, 0x00, 0x00, 0x00,
  0x01, 0x00, 0x00, 0x00, 0x00, 0x00, 0x0e, 0x00, 0x18, 0x00, 0x14, 0x00,
  0x10, 0x00, 0x0c, 0x00, 0x0b, 0x00, 0x04, 0x00, 0x0e, 0x00, 0x00, 0x00,
  0x14, 0x00, 0x00, 0x00, 0x00, 0x00, 0x00, 0x0b, 0x10, 0x00, 0x00, 0x00,
  0x14, 0x00, 0x00, 0x00, 0x01, 0x00, 0x00, 0x00, 0x48, 0x93, 0xff, 0xff,
  0x01, 0x00, 0x00, 0x00, 0x15, 0x00, 0x00, 0x00, 0x02, 0x00, 0x00, 0x00,
  0x13, 0x00, 0x00, 0x00, 0x14, 0x00, 0x00, 0x00, 0x7e, 0xff, 0xff, 0xff,
  0x10, 0x00, 0x00, 0x00, 0x00, 0x00, 0x00, 0x01, 0x1c, 0x00, 0x00, 0x00,
  0x20, 0x00, 0x00, 0x00, 0x70, 0xff, 0xff, 0xff, 0x00, 0x00, 0x00, 0x01,
  0x01, 0x00, 0x00, 0x00, 0x01, 0x00, 0x00, 0x00, 0x00, 0x00, 0x00, 0x01,
  0x01, 0x00, 0x00, 0x00, 0x14, 0x00, 0x00, 0x00, 0x03, 0x00, 0x00, 0x00,
  0x00, 0x00, 0x00, 0x00, 0x0d, 0x00, 0x00, 0x00, 0x0c, 0x00, 0x00, 0x00,
  0xbe, 0xff, 0xff, 0xff, 0x10, 0x00, 0x00, 0x00, 0x00, 0x00, 0x00, 0x01,
  0x1c, 0x00, 0x00, 0x00, 0x20, 0x00, 0x00, 0x00, 0xb0, 0xff, 0xff, 0xff,
  0x00, 0x00, 0x00, 0x01, 0x01, 0x00, 0x00, 0x00, 0x01, 0x00, 0x00, 0x00,
  0x00, 0x00, 0x00, 0x01, 0x01, 0x00, 0x00, 0x00, 0x13, 0x00, 0x00, 0x00,
  0x03, 0x00, 0x00, 0x00, 0x12, 0x00, 0x00, 0x00, 0x0f, 0x00, 0x00, 0x00,
  0x0e, 0x00, 0x00, 0x00, 0x00, 0x00, 0x0e, 0x00, 0x14, 0x00, 0x00, 0x00,
  0x10, 0x00, 0x0c, 0x00, 0x0b, 0x00, 0x04, 0x00, 0x0e, 0x00, 0x00, 0x00,
  0x1c, 0x00, 0x00, 0x00, 0x00, 0x00, 0x00, 0x01, 0x28, 0x00, 0x00, 0x00,
  0x2c, 0x00, 0x00, 0x00, 0x0c, 0x00, 0x14, 0x00, 0x13, 0x00, 0x0c, 0x00,
  0x08, 0x00, 0x07, 0x00, 0x0c, 0x00, 0x00, 0x00, 0x00, 0x00, 0x00, 0x01,
  0x01, 0x00, 0x00, 0x00, 0x01, 0x00, 0x00, 0x00, 0x00, 0x00, 0x00, 0x01,
  0x01, 0x00, 0x00, 0x00, 0x12, 0x00, 0x00, 0x00, 0x03, 0x00, 0x00, 0x00,
  0x00, 0x00, 0x00, 0x00, 0x11, 0x00, 0x00, 0x00, 0x10, 0x00, 0x00, 0x00,
  0x01, 0x00, 0x00, 0x00, 0x96, 0x00, 0x00, 0x00, 0x01, 0x00, 0x00, 0x00,
  0x00, 0x00, 0x00, 0x00, 0x97, 0x00, 0x00, 0x00, 0x28, 0x6c, 0x00, 0x00,
  0x90, 0x6b, 0x00, 0x00, 0x54, 0x6b, 0x00, 0x00, 0x14, 0x6b, 0x00, 0x00,
  0x5c, 0x6a, 0x00, 0x00, 0xa0, 0x69, 0x00, 0x00, 0x2c, 0x68, 0x00, 0x00,
  0xd0, 0x66, 0x00, 0x00, 0xbc, 0x65, 0x00, 0x00, 0xa8, 0x64, 0x00, 0x00,
  0x44, 0x64, 0x00, 0x00, 0x30, 0x63, 0x00, 0x00, 0xdc, 0x60, 0x00, 0x00,
  0xe8, 0x5e, 0x00, 0x00, 0x94, 0x5c, 0x00, 0x00, 0xa0, 0x5a, 0x00, 0x00,
  0x0c, 0x59, 0x00, 0x00, 0xd8, 0x57, 0x00, 0x00, 0xec, 0x56, 0x00, 0x00,
  0x00, 0x56, 0x00, 0x00, 0x14, 0x55, 0x00, 0x00, 0xa8, 0x54, 0x00, 0x00,
  0x04, 0x54, 0x00, 0x00, 0xc0, 0x52, 0x00, 0x00, 0x7c, 0x51, 0x00, 0x00,
  0x38, 0x50, 0x00, 0x00, 0xf4, 0x4e, 0x00, 0x00, 0xb0, 0x4d, 0x00, 0x00,
  0x6c, 0x4c, 0x00, 0x00, 0x28, 0x4b, 0x00, 0x00, 0x7c, 0x4a, 0x00, 0x00,
  0x78, 0x49, 0x00, 0x00, 0x74, 0x48, 0x00, 0x00, 0x70, 0x47, 0x00, 0x00,
  0x6c, 0x46, 0x00, 0x00, 0xe8, 0x45, 0x00, 0x00, 0x64, 0x45, 0x00, 0x00,
  0xe8, 0x44, 0x00, 0x00, 0x6c, 0x44, 0x00, 0x00, 0xf0, 0x43, 0x00, 0x00,
  0x74, 0x43, 0x00, 0x00, 0xf0, 0x42, 0x00, 0x00, 0x74, 0x42, 0x00, 0x00,
  0xf0, 0x41, 0x00, 0x00, 0x6c, 0x41, 0x00, 0x00, 0xf0, 0x40, 0x00, 0x00,
  0x6c, 0x40, 0x00, 0x00, 0xe8, 0x3f, 0x00, 0x00, 0xe4, 0x3e, 0x00, 0x00,
  0xe0, 0x3d, 0x00, 0x00, 0xdc, 0x3c, 0x00, 0x00, 0xd8, 0x3b, 0x00, 0x00,
  0x54, 0x3b, 0x00, 0x00, 0xd0, 0x3a, 0x00, 0x00, 0x54, 0x3a, 0x00, 0x00,
  0xd0, 0x39, 0x00, 0x00, 0x54, 0x39, 0x00, 0x00, 0xd8, 0x38, 0x00, 0x00,
  0x5c, 0x38, 0x00, 0x00, 0xe0, 0x37, 0x00, 0x00, 0x64, 0x37, 0x00, 0x00,
  0xe0, 0x36, 0x00, 0x00, 0x64, 0x36, 0x00, 0x00, 0xe8, 0x35, 0x00, 0x00,
  0x64, 0x35, 0x00, 0x00, 0xe0, 0x34, 0x00, 0x00, 0xdc, 0x33, 0x00, 0x00,
  0xd8, 0x32, 0x00, 0x00, 0xd4, 0x31, 0x00, 0x00, 0xd0, 0x30, 0x00, 0x00,
  0x4c, 0x30, 0x00, 0x00, 0xc8, 0x2f, 0x00, 0x00, 0x4c, 0x2f, 0x00, 0x00,
  0xc8, 0x2e, 0x00, 0x00, 0x4c, 0x2e, 0x00, 0x00, 0xd0, 0x2d, 0x00, 0x00,
  0x54, 0x2d, 0x00, 0x00, 0xd8, 0x2c, 0x00, 0x00, 0x5c, 0x2c, 0x00, 0x00,
  0xd8, 0x2b, 0x00, 0x00, 0x5c, 0x2b, 0x00, 0x00, 0xe0, 0x2a, 0x00, 0x00,
  0x5c, 0x2a, 0x00, 0x00, 0xd8, 0x29, 0x00, 0x00, 0xd4, 0x28, 0x00, 0x00,
  0xd0, 0x27, 0x00, 0x00, 0xcc, 0x26, 0x00, 0x00, 0xc8, 0x25, 0x00, 0x00,
  0x44, 0x25, 0x00, 0x00, 0xc0, 0x24, 0x00, 0x00, 0x44, 0x24, 0x00, 0x00,
  0xc0, 0x23, 0x00, 0x00, 0x44, 0x23, 0x00, 0x00, 0xc8, 0x22, 0x00, 0x00,
  0x4c, 0x22, 0x00, 0x00, 0xd0, 0x21, 0x00, 0x00, 0x54, 0x21, 0x00, 0x00,
  0xd0, 0x20, 0x00, 0x00, 0x54, 0x20, 0x00, 0x00, 0xd8, 0x1f, 0x00, 0x00,
  0x54, 0x1f, 0x00, 0x00, 0xd0, 0x1e, 0x00, 0x00, 0xcc, 0x1d, 0x00, 0x00,
  0xc8, 0x1c, 0x00, 0x00, 0xc4, 0x1b, 0x00, 0x00, 0xc0, 0x1a, 0x00, 0x00,
  0x3c, 0x1a, 0x00, 0x00, 0xb8, 0x19, 0x00, 0x00, 0x3c, 0x19, 0x00, 0x00,
  0xb8, 0x18, 0x00, 0x00, 0x3c, 0x18, 0x00, 0x00, 0xc0, 0x17, 0x00, 0x00,
  0x44, 0x17, 0x00, 0x00, 0xc8, 0x16, 0x00, 0x00, 0x4c, 0x16, 0x00, 0x00,
  0xc8, 0x15, 0x00, 0x00, 0x4c, 0x15, 0x00, 0x00, 0xc8, 0x14, 0x00, 0x00,
  0x44, 0x14, 0x00, 0x00, 0x40, 0x13, 0x00, 0x00, 0x3c, 0x12, 0x00, 0x00,
  0x38, 0x11, 0x00, 0x00, 0x34, 0x10, 0x00, 0x00, 0xb0, 0x0f, 0x00, 0x00,
  0x2c, 0x0f, 0x00, 0x00, 0xb0, 0x0e, 0x00, 0x00, 0x2c, 0x0e, 0x00, 0x00,
  0xb0, 0x0d, 0x00, 0x00, 0x34, 0x0d, 0x00, 0x00, 0xb8, 0x0c, 0x00, 0x00,
  0x34, 0x0c, 0x00, 0x00, 0xb8, 0x0b, 0x00, 0x00, 0x34, 0x0b, 0x00, 0x00,
  0xb8, 0x0a, 0x00, 0x00, 0x34, 0x0a, 0x00, 0x00, 0xb0, 0x09, 0x00, 0x00,
  0xac, 0x08, 0x00, 0x00, 0xa8, 0x07, 0x00, 0x00, 0xa4, 0x06, 0x00, 0x00,
  0xa0, 0x05, 0x00, 0x00, 0x1c, 0x05, 0x00, 0x00, 0x98, 0x04, 0x00, 0x00,
  0x1c, 0x04, 0x00, 0x00, 0x98, 0x03, 0x00, 0x00, 0x1c, 0x03, 0x00, 0x00,
  0xa0, 0x02, 0x00, 0x00, 0x24, 0x02, 0x00, 0x00, 0xa0, 0x01, 0x00, 0x00,
  0x24, 0x01, 0x00, 0x00, 0x70, 0x00, 0x00, 0x00, 0x04, 0x00, 0x00, 0x00,
  0x4a, 0x96, 0xff, 0xff, 0x00, 0x00, 0x00, 0x01, 0x14, 0x00, 0x00, 0x00,
  0x30, 0x00, 0x00, 0x00, 0x97, 0x00, 0x00, 0x00, 0x00, 0x00, 0x00, 0x09,
  0x44, 0x00, 0x00, 0x00, 0x34, 0x96, 0xff, 0xff, 0x08, 0x00, 0x00, 0x00,
  0x10, 0x00, 0x00, 0x00, 0x01, 0x00, 0x00, 0x00, 0x90, 0xff, 0xff, 0xff,
  0xff, 0xff, 0xff, 0xff, 0x01, 0x00, 0x00, 0x00, 0x48, 0x83, 0x45, 0x3e,
  0x1b, 0x00, 0x00, 0x00, 0x53, 0x74, 0x61, 0x74, 0x65, 0x66, 0x75, 0x6c,
  0x50, 0x61, 0x72, 0x74, 0x69, 0x74, 0x69, 0x6f, 0x6e, 0x65, 0x64, 0x43,
  0x61, 0x6c, 0x6c, 0x5f, 0x31, 0x3a, 0x30, 0x00, 0x02, 0x00, 0x00, 0x00,
  0x01, 0x00, 0x00, 0x00, 0x07, 0x00, 0x00, 0x00, 0xb2, 0x96, 0xff, 0xff,
  0x00, 0x00, 0x00, 0x01, 0x14, 0x00, 0x00, 0x00, 0x30, 0x00, 0x00, 0x00,
  0x96, 0x00, 0x00, 0x00, 0x00, 0x00, 0x00, 0x09, 0x8c, 0x00, 0x00, 0x00,
  0x9c, 0x96, 0xff, 0xff, 0x08, 0x00, 0x00, 0x00, 0x10, 0x00, 0x00, 0x00,
  0x01, 0x00, 0x00, 0x00, 0x80, 0xff, 0xff, 0xff, 0xff, 0xff, 0xff, 0xff,
  0x01, 0x00, 0x00, 0x00, 0x9c, 0x5f, 0x8e, 0x3c, 0x61, 0x00, 0x00, 0x00,
  0x66, 0x75, 0x6e, 0x63, 0x74, 0x69, 0x6f, 0x6e, 0x61, 0x6c, 0x5f, 0x31,
  0x36, 0x5f, 0x31, 0x2f, 0x64, 0x65, 0x6e, 0x73, 0x65, 0x5f, 0x32, 0x5f,
  0x31, 0x2f, 0x4d, 0x61, 0x74, 0x4d, 0x75, 0x6c, 0x3b, 0x66, 0x75, 0x6e,
  0x63, 0x74, 0x69, 0x6f, 0x6e, 0x61, 0x6c, 0x5f, 0x31, 0x36, 0x5f, 0x31,
  0x2f, 0x64, 0x65, 0x6e, 0x73, 0x65, 0x5f, 0x32, 0x5f, 0x31, 0x2f, 0x52,
  0x65, 0x6c, 0x75, 0x3b, 0x66, 0x75, 0x6e, 0x63, 0x74, 0x69, 0x6f, 0x6e,
  0x61, 0x6c, 0x5f, 0x31, 0x36, 0x5f, 0x31, 0x2f, 0x64, 0x65, 0x6e, 0x73,
  0x65, 0x5f, 0x32, 0x5f, 0x31, 0x2f, 0x42, 0x69, 0x61, 0x73, 0x41, 0x64,
  0x64, 0x00, 0x00, 0x00, 0x02, 0x00, 0x00, 0x00, 0x01, 0x00, 0x00, 0x00,
  0x14, 0x00, 0x00, 0x00, 0x62, 0x97, 0xff, 0xff, 0x00, 0x00, 0x00, 0x01,
  0x14, 0x00, 0x00, 0x00, 0x30, 0x00, 0x00, 0x00, 0x95, 0x00, 0x00, 0x00,
  0x00, 0x00, 0x00, 0x09, 0x54, 0x00, 0x00, 0x00, 0x4c, 0x97, 0xff, 0xff,
  0x08, 0x00, 0x00, 0x00, 0x10, 0x00, 0x00, 0x00, 0x01, 0x00, 0x00, 0x00,
  0x3e, 0x00, 0x00, 0x00, 0x00, 0x00, 0x00, 0x00, 0x01, 0x00, 0x00, 0x00,
  0xde, 0xb3, 0xac, 0x3b, 0x2b, 0x00, 0x00, 0x00, 0x66, 0x75, 0x6e, 0x63,
  0x74, 0x69, 0x6f, 0x6e, 0x61, 0x6c, 0x5f, 0x31, 0x36, 0x5f, 0x31, 0x2f,
  0x6c, 0x73, 0x74, 0x6d, 0x5f, 0x31, 0x5f, 0x31, 0x2f, 0x6c, 0x73, 0x74,
  0x6d, 0x5f, 0x63, 0x65, 0x6c, 0x6c, 0x5f, 0x31, 0x33, 0x2f, 0x6d, 0x75,
  0x6c, 0x5f, 0x32, 0x00, 0x02, 0x00, 0x00, 0x00, 0x01, 0x00, 0x00, 0x00,
  0x04, 0x00, 0x00, 0x00, 0xda, 0x97, 0xff, 0xff, 0x00, 0x00, 0x00, 0x01,
  0x14, 0x00, 0x00, 0x00, 0x34, 0x00, 0x00, 0x00, 0x94, 0x00, 0x00, 0x00,
  0x00, 0x00, 0x00, 0x09, 0x5c, 0x00, 0x00, 0x00, 0xc4, 0x97, 0xff, 0xff,
  0x08, 0x00, 0x00, 0x00, 0x14, 0x00, 0x00, 0x00, 0x01, 0x00, 0x00, 0x00,
  0x00, 0x00, 0x00, 0x00, 0x00, 0x00, 0x00, 0x00, 0x00, 0x00, 0x00, 0x00,
  0x01, 0x00, 0x00, 0x00, 0x00, 0x00, 0x00, 0x3c, 0x2c, 0x00, 0x00, 0x00,
  0x66, 0x75, 0x6e, 0x63, 0x74, 0x69, 0x6f, 0x6e, 0x61, 0x6c, 0x5f, 0x31,
  0x36, 0x5f, 0x31, 0x2f, 0x6c, 0x73, 0x74, 0x6d, 0x5f, 0x31, 0x5f, 0x31,
  0x2f, 0x6c, 0x73, 0x74, 0x6d, 0x5f, 0x63, 0x65, 0x6c, 0x6c, 0x5f, 0x31,
  0x33, 0x2f, 0x54, 0x61, 0x6e, 0x68, 0x5f, 0x31, 0x00, 0x00, 0x00, 0x00,
  0x02, 0x00, 0x00, 0x00, 0x01, 0x00, 0x00, 0x00, 0x04, 0x00, 0x00, 0x00,
  0x5a, 0x98, 0xff, 0xff, 0x00, 0x00, 0x00, 0x01, 0x14, 0x00, 0x00, 0x00,
  0x30, 0x00, 0x00, 0x00, 0x93, 0x00, 0x00, 0x00, 0x00, 0x00, 0x00, 0x09,
  0x54, 0x00, 0x00, 0x00, 0x44, 0x98, 0xff, 0xff, 0x08, 0x00, 0x00, 0x00,
  0x10, 0x00, 0x00, 0x00, 0x01, 0x00, 0x00, 0x00, 0xff, 0xff, 0xff, 0xff,
  0xff, 0xff, 0xff, 0xff, 0x01, 0x00, 0x00, 0x00, 0xe1, 0xe0, 0x60, 0x3d,
  0x29, 0x00, 0x00, 0x00, 0x66, 0x75, 0x6e, 0x63, 0x74, 0x69, 0x6f, 0x6e,
  0x61, 0x6c, 0x5f, 0x31, 0x36, 0x5f, 0x31, 0x2f, 0x6c, 0x73, 0x74, 0x6d,
  0x5f, 0x31, 0x5f, 0x31, 0x2f, 0x6c, 0x73, 0x74, 0x6d, 0x5f, 0x63, 0x65,
  0x6c, 0x6c, 0x5f, 0x31, 0x33, 0x2f, 0x61, 0x64, 0x64, 0x00, 0x00, 0x00,
  0x02, 0x00, 0x00, 0x00, 0x01, 0x00, 0x00, 0x00, 0x04, 0x00, 0x00, 0x00,
  0xd2, 0x98, 0xff, 0xff, 0x00, 0x00, 0x00, 0x01, 0x14, 0x00, 0x00, 0x00,
  0x30, 0x00, 0x00, 0x00, 0x92, 0x00, 0x00, 0x00, 0x00, 0x00, 0x00, 0x09,
  0x54, 0x00, 0x00, 0x00, 0xbc, 0x98, 0xff, 0xff, 0x08, 0x00, 0x00, 0x00,
  0x10, 0x00, 0x00, 0x00, 0x01, 0x00, 0x00, 0x00, 0xff, 0xff, 0xff, 0xff,
  0xff, 0xff, 0xff, 0xff, 0x01, 0x00, 0x00, 0x00, 0x81, 0x80, 0x00, 0x3c,
  0x2b, 0x00, 0x00, 0x00, 0x66, 0x75, 0x6e, 0x63, 0x74, 0x69, 0x6f, 0x6e,
  0x61, 0x6c, 0x5f, 0x31, 0x36, 0x5f, 0x31, 0x2f, 0x6c, 0x73, 0x74, 0x6d,
  0x5f, 0x31, 0x5f, 0x31, 0x2f, 0x6c, 0x73, 0x74, 0x6d, 0x5f, 0x63, 0x65,
  0x6c, 0x6c, 0x5f, 0x31, 0x33, 0x2f, 0x6d, 0x75, 0x6c, 0x5f, 0x31, 0x00,
  0x02, 0x00, 0x00, 0x00, 0x01, 0x00, 0x00, 0x00, 0x04, 0x00, 0x00, 0x00,
  0x4a, 0x99, 0xff, 0xff, 0x00, 0x00, 0x00, 0x01, 0x14, 0x00, 0x00, 0x00,
  0x30, 0x00, 0x00, 0x00, 0x91, 0x00, 0x00, 0x00, 0x00, 0x00, 0x00, 0x09,
  0x54, 0x00, 0x00, 0x00, 0x34, 0x99, 0xff, 0xff, 0x08, 0x00, 0x00, 0x00,
  0x10, 0x00, 0x00, 0x00, 0x01, 0x00, 0x00, 0x00, 0x00, 0x00, 0x00, 0x00,
  0x00, 0x00, 0x00, 0x00, 0x01, 0x00, 0x00, 0x00, 0x00, 0x00, 0x00, 0x3c,
  0x2a, 0x00, 0x00, 0x00, 0x66, 0x75, 0x6e, 0x63, 0x74, 0x69, 0x6f, 0x6e,
  0x61, 0x6c, 0x5f, 0x31, 0x36, 0x5f, 0x31, 0x2f, 0x6c, 0x73, 0x74, 0x6d,
  0x5f, 0x31, 0x5f, 0x31, 0x2f, 0x6c, 0x73, 0x74, 0x6d, 0x5f, 0x63, 0x65,
  0x6c, 0x6c, 0x5f, 0x31, 0x33, 0x2f, 0x54, 0x61, 0x6e, 0x68, 0x00, 0x00,
  0x02, 0x00, 0x00, 0x00, 0x01, 0x00, 0x00, 0x00, 0x04, 0x00, 0x00, 0x00,
  0xc2, 0x99, 0xff, 0xff, 0x00, 0x00, 0x00, 0x01, 0x14, 0x00, 0x00, 0x00,
  0x34, 0x00, 0x00, 0x00, 0x90, 0x00, 0x00, 0x00, 0x00, 0x00, 0x00, 0x09,
  0x5c, 0x00, 0x00, 0x00, 0xac, 0x99, 0xff, 0xff, 0x08, 0x00, 0x00, 0x00,
  0x14, 0x00, 0x00, 0x00, 0x01, 0x00, 0x00, 0x00, 0x80, 0xff, 0xff, 0xff,
  0xff, 0xff, 0xff, 0xff, 0x00, 0x00, 0x00, 0x00, 0x01, 0x00, 0x00, 0x00,
  0x00, 0x00, 0x80, 0x3b, 0x2f, 0x00, 0x00, 0x00, 0x66, 0x75, 0x6e, 0x63,
  0x74, 0x69, 0x6f, 0x6e, 0x61, 0x6c, 0x5f, 0x31, 0x36, 0x5f, 0x31, 0x2f,
  0x6c, 0x73, 0x74, 0x6d, 0x5f, 0x31, 0x5f, 0x31, 0x2f, 0x6c, 0x73, 0x74,
  0x6d, 0x5f, 0x63, 0x65, 0x6c, 0x6c, 0x5f, 0x31, 0x33, 0x2f, 0x53, 0x69,
  0x67, 0x6d, 0x6f, 0x69, 0x64, 0x5f, 0x32, 0x00, 0x02, 0x00, 0x00, 0x00,
  0x01, 0x00, 0x00, 0x00, 0x04, 0x00, 0x00, 0x00, 0x42, 0x9a, 0xff, 0xff,
  0x00, 0x00, 0x00, 0x01, 0x14, 0x00, 0x00, 0x00, 0x30, 0x00, 0x00, 0x00,
  0x8f, 0x00, 0x00, 0x00, 0x00, 0x00, 0x00, 0x09, 0x54, 0x00, 0x00, 0x00,
  0x2c, 0x9a, 0xff, 0xff, 0x08, 0x00, 0x00, 0x00, 0x10, 0x00, 0x00, 0x00,
  0x01, 0x00, 0x00, 0x00, 0xff, 0xff, 0xff, 0xff, 0xff, 0xff, 0xff, 0xff,
  0x01, 0x00, 0x00, 0x00, 0xe1, 0xe0, 0x60, 0x3d, 0x29, 0x00, 0x00, 0x00,
  0x66, 0x75, 0x6e, 0x63, 0x74, 0x69, 0x6f, 0x6e, 0x61, 0x6c, 0x5f, 0x31,
  0x36, 0x5f, 0x31, 0x2f, 0x6c, 0x73, 0x74, 0x6d, 0x5f, 0x31, 0x5f, 0x31,
  0x2f, 0x6c, 0x73, 0x74, 0x6d, 0x5f, 0x63, 0x65, 0x6c, 0x6c, 0x5f, 0x31,
  0x33, 0x2f, 0x6d, 0x75, 0x6c, 0x00, 0x00, 0x00, 0x02, 0x00, 0x00, 0x00,
  0x01, 0x00, 0x00, 0x00, 0x04, 0x00, 0x00, 0x00, 0xba, 0x9a, 0xff, 0xff,
  0x00, 0x00, 0x00, 0x01, 0x14, 0x00, 0x00, 0x00, 0x34, 0x00, 0x00, 0x00,
  0x8e, 0x00, 0x00, 0x00, 0x00, 0x00, 0x00, 0x09, 0x5c, 0x00, 0x00, 0x00,
  0xa4, 0x9a, 0xff, 0xff, 0x08, 0x00, 0x00, 0x00, 0x14, 0x00, 0x00, 0x00,
  0x01, 0x00, 0x00, 0x00, 0x80, 0xff, 0xff, 0xff, 0xff, 0xff, 0xff, 0xff,
  0x00, 0x00, 0x00, 0x00, 0x01, 0x00, 0x00, 0x00, 0x00, 0x00, 0x80, 0x3b,
  0x2f, 0x00, 0x00, 0x00, 0x66, 0x75, 0x6e, 0x63, 0x74, 0x69, 0x6f, 0x6e,
  0x61, 0x6c, 0x5f, 0x31, 0x36, 0x5f, 0x31, 0x2f, 0x6c, 0x73, 0x74, 0x6d,
  0x5f, 0x31, 0x5f, 0x31, 0x2f, 0x6c, 0x73, 0x74, 0x6d, 0x5f, 0x63, 0x65,
  0x6c, 0x6c, 0x5f, 0x31, 0x33, 0x2f, 0x53, 0x69, 0x67, 0x6d, 0x6f, 0x69,
  0x64, 0x5f, 0x31, 0x00, 0x02, 0x00, 0x00, 0x00, 0x01, 0x00, 0x00, 0x00,
  0x04, 0x00, 0x00, 0x00, 0x3a, 0x9b, 0xff, 0xff, 0x00, 0x00, 0x00, 0x01,
  0x14, 0x00, 0x00, 0x00, 0x34, 0x00, 0x00, 0x00, 0x8d, 0x00, 0x00, 0x00,
  0x00, 0x00, 0x00, 0x09, 0x5c, 0x00, 0x00, 0x00, 0x24, 0x9b, 0xff, 0xff,
  0x08, 0x00, 0x00, 0x00, 0x14, 0x00, 0x00, 0x00, 0x01, 0x00, 0x00, 0x00,
  0x80, 0xff, 0xff, 0xff, 0xff, 0xff, 0xff, 0xff, 0x00, 0x00, 0x00, 0x00,
  0x01, 0x00, 0x00, 0x00, 0x00, 0x00, 0x80, 0x3b, 0x2d, 0x00, 0x00, 0x00,
  0x66, 0x75, 0x6e, 0x63, 0x74, 0x69, 0x6f, 0x6e, 0x61, 0x6c, 0x5f, 0x31,
  0x36, 0x5f, 0x31, 0x2f, 0x6c, 0x73, 0x74, 0x6d, 0x5f, 0x31, 0x5f, 0x31,
  0x2f, 0x6c, 0x73, 0x74, 0x6d, 0x5f, 0x63, 0x65, 0x6c, 0x6c, 0x5f, 0x31,
  0x33, 0x2f, 0x53, 0x69, 0x67, 0x6d, 0x6f, 0x69, 0x64, 0x00, 0x00, 0x00,
  0x02, 0x00, 0x00, 0x00, 0x01, 0x00, 0x00, 0x00, 0x04, 0x00, 0x00, 0x00,
  0xba, 0x9b, 0xff, 0xff, 0x00, 0x00, 0x00, 0x01, 0x14, 0x00, 0x00, 0x00,
  0x30, 0x00, 0x00, 0x00, 0x8c, 0x00, 0x00, 0x00, 0x00, 0x00, 0x00, 0x09,
  0xdc, 0x00, 0x00, 0x00, 0xa4, 0x9b, 0xff, 0xff, 0x08, 0x00, 0x00, 0x00,
  0x10, 0x00, 0x00, 0x00, 0x01, 0x00, 0x00, 0x00, 0x06, 0x00, 0x00, 0x00,
  0x00, 0x00, 0x00, 0x00, 0x01, 0x00, 0x00, 0x00, 0x55, 0x85, 0xa7, 0x3f,
  0xb3, 0x00, 0x00, 0x00, 0x66, 0x75, 0x6e, 0x63, 0x74, 0x69, 0x6f, 0x6e,
  0x61, 0x6c, 0x5f, 0x31, 0x36, 0x5f, 0x31, 0x2f, 0x6c, 0x73, 0x74, 0x6d,
  0x5f, 0x31, 0x5f, 0x31, 0x2f, 0x6c, 0x73, 0x74, 0x6d, 0x5f, 0x63, 0x65,
  0x6c, 0x6c, 0x5f, 0x31, 0x33, 0x2f, 0x73, 0x70, 0x6c, 0x69, 0x74, 0x3b,
  0x66, 0x75, 0x6e, 0x63, 0x74, 0x69, 0x6f, 0x6e, 0x61, 0x6c, 0x5f, 0x31,
  0x36, 0x5f, 0x31, 0x2f, 0x6c, 0x73, 0x74, 0x6d, 0x5f, 0x31, 0x5f, 0x31,
  0x2f, 0x6c, 0x73, 0x74, 0x6d, 0x5f, 0x63, 0x65, 0x6c, 0x6c, 0x5f, 0x31,
  0x33, 0x2f, 0x73, 0x70, 0x6c, 0x69, 0x74, 0x31, 0x3b, 0x66, 0x75, 0x6e,
  0x63, 0x74, 0x69, 0x6f, 0x6e, 0x61, 0x6c, 0x5f, 0x31, 0x36, 0x5f, 0x31,
  0x2f, 0x6c, 0x73, 0x74, 0x6d, 0x5f, 0x31, 0x5f, 0x31, 0x2f, 0x6c, 0x73,
  0x74, 0x6d, 0x5f, 0x63, 0x65, 0x6c, 0x6c, 0x5f, 0x31, 0x33, 0x2f, 0x73,
  0x70, 0x6c, 0x69, 0x74, 0x32, 0x3b, 0x66, 0x75, 0x6e, 0x63, 0x74, 0x69,
  0x6f, 0x6e, 0x61, 0x6c, 0x5f, 0x31, 0x36, 0x5f, 0x31, 0x2f, 0x6c, 0x73,
  0x74, 0x6d, 0x5f, 0x31, 0x5f, 0x31, 0x2f, 0x6c, 0x73, 0x74, 0x6d, 0x5f,
  0x63, 0x65, 0x6c, 0x6c, 0x5f, 0x31, 0x33, 0x2f, 0x73, 0x70, 0x6c, 0x69,
  0x74, 0x33, 0x33, 0x00, 0x02, 0x00, 0x00, 0x00, 0x01, 0x00, 0x00, 0x00,
  0x04, 0x00, 0x00, 0x00, 0xba, 0x9c, 0xff, 0xff, 0x00, 0x00, 0x00, 0x01,
  0x14, 0x00, 0x00, 0x00, 0x30, 0x00, 0x00, 0x00, 0x8b, 0x00, 0x00, 0x00,
  0x00, 0x00, 0x00, 0x09, 0xdc, 0x00, 0x00, 0x00, 0xa4, 0x9c, 0xff, 0xff,
  0x08, 0x00, 0x00, 0x00, 0x10, 0x00, 0x00, 0x00, 0x01, 0x00, 0x00, 0x00,
  0x06, 0x00, 0x00, 0x00, 0x00, 0x00, 0x00, 0x00, 0x01, 0x00, 0x00, 0x00,
  0x55, 0x85, 0xa7, 0x3f, 0xb3, 0x00, 0x00, 0x00, 0x66, 0x75, 0x6e, 0x63,
  0x74, 0x69, 0x6f, 0x6e, 0x61, 0x6c, 0x5f, 0x31, 0x36, 0x5f, 0x31, 0x2f,
  0x6c, 0x73, 0x74, 0x6d, 0x5f, 0x31, 0x5f, 0x31, 0x2f, 0x6c, 0x73, 0x74,
  0x6d, 0x5f, 0x63, 0x65, 0x6c, 0x6c, 0x5f, 0x31, 0x33, 0x2f, 0x73, 0x70,
  0x6c, 0x69, 0x74, 0x3b, 0x66, 0x75, 0x6e, 0x63, 0x74, 0x69, 0x6f, 0x6e,
  0x61, 0x6c, 0x5f, 0x31, 0x36, 0x5f, 0x31, 0x2f, 0x6c, 0x73, 0x74, 0x6d,
  0x5f, 0x31, 0x5f, 0x31, 0x2f, 0x6c, 0x73, 0x74, 0x6d, 0x5f, 0x63, 0x65,
  0x6c, 0x6c, 0x5f, 0x31, 0x33, 0x2f, 0x73, 0x70, 0x6c, 0x69, 0x74, 0x31,
  0x3b, 0x66, 0x75, 0x6e, 0x63, 0x74, 0x69, 0x6f, 0x6e, 0x61, 0x6c, 0x5f,
  0x31, 0x36, 0x5f, 0x31, 0x2f, 0x6c, 0x73, 0x74, 0x6d, 0x5f, 0x31, 0x5f,
  0x31, 0x2f, 0x6c, 0x73, 0x74, 0x6d, 0x5f, 0x63, 0x65, 0x6c, 0x6c, 0x5f,
  0x31, 0x33, 0x2f, 0x73, 0x70, 0x6c, 0x69, 0x74, 0x32, 0x3b, 0x66, 0x75,
  0x6e, 0x63, 0x74, 0x69, 0x6f, 0x6e, 0x61, 0x6c, 0x5f, 0x31, 0x36, 0x5f,
  0x31, 0x2f, 0x6c, 0x73, 0x74, 0x6d, 0x5f, 0x31, 0x5f, 0x31, 0x2f, 0x6c,
  0x73, 0x74, 0x6d, 0x5f, 0x63, 0x65, 0x6c, 0x6c, 0x5f, 0x31, 0x33, 0x2f,
  0x73, 0x70, 0x6c, 0x69, 0x74, 0x33, 0x32, 0x00, 0x02, 0x00, 0x00, 0x00,
  0x01, 0x00, 0x00, 0x00, 0x04, 0x00, 0x00, 0x00, 0xba, 0x9d, 0xff, 0xff,
  0x00, 0x00, 0x00, 0x01, 0x14, 0x00, 0x00, 0x00, 0x30, 0x00, 0x00, 0x00,
  0x8a, 0x00, 0x00, 0x00, 0x00, 0x00, 0x00, 0x09, 0xdc, 0x00, 0x00, 0x00,
  0xa4, 0x9d, 0xff, 0xff, 0x08, 0x00, 0x00, 0x00, 0x10, 0x00, 0x00, 0x00,
  0x01, 0x00, 0x00, 0x00, 0x06, 0x00, 0x00, 0x00, 0x00, 0x00, 0x00, 0x00,
  0x01, 0x00, 0x00, 0x00, 0x55, 0x85, 0xa7, 0x3f, 0xb3, 0x00, 0x00, 0x00,
  0x66, 0x75, 0x6e, 0x63, 0x74, 0x69, 0x6f, 0x6e, 0x61, 0x6c, 0x5f, 0x31,
  0x36, 0x5f, 0x31, 0x2f, 0x6c, 0x73, 0x74, 0x6d, 0x5f, 0x31, 0x5f, 0x31,
  0x2f, 0x6c, 0x73, 0x74, 0x6d, 0x5f, 0x63, 0x65, 0x6c, 0x6c, 0x5f, 0x31,
  0x33, 0x2f, 0x73, 0x70, 0x6c, 0x69, 0x74, 0x3b, 0x66, 0x75, 0x6e, 0x63,
  0x74, 0x69, 0x6f, 0x6e, 0x61, 0x6c, 0x5f, 0x31, 0x36, 0x5f, 0x31, 0x2f,
  0x6c, 0x73, 0x74, 0x6d, 0x5f, 0x31, 0x5f, 0x31, 0x2f, 0x6c, 0x73, 0x74,
  0x6d, 0x5f, 0x63, 0x65, 0x6c, 0x6c, 0x5f, 0x31, 0x33, 0x2f, 0x73, 0x70,
  0x6c, 0x69, 0x74, 0x31, 0x3b, 0x66, 0x75, 0x6e, 0x63, 0x74, 0x69, 0x6f,
  0x6e, 0x61, 0x6c, 0x5f, 0x31, 0x36, 0x5f, 0x31, 0x2f, 0x6c, 0x73, 0x74,
  0x6d, 0x5f, 0x31, 0x5f, 0x31, 0x2f, 0x6c, 0x73, 0x74, 0x6d, 0x5f, 0x63,
  0x65, 0x6c, 0x6c, 0x5f, 0x31, 0x33, 0x2f, 0x73, 0x70, 0x6c, 0x69, 0x74,
  0x32, 0x3b, 0x66, 0x75, 0x6e, 0x63, 0x74, 0x69, 0x6f, 0x6e, 0x61, 0x6c,
  0x5f, 0x31, 0x36, 0x5f, 0x31, 0x2f, 0x6c, 0x73, 0x74, 0x6d, 0x5f, 0x31,
  0x5f, 0x31, 0x2f, 0x6c, 0x73, 0x74, 0x6d, 0x5f, 0x63, 0x65, 0x6c, 0x6c,
  0x5f, 0x31, 0x33, 0x2f, 0x73, 0x70, 0x6c, 0x69, 0x74, 0x33, 0x31, 0x00,
  0x02, 0x00, 0x00, 0x00, 0x01, 0x00, 0x00, 0x00, 0x04, 0x00, 0x00, 0x00,
  0xba, 0x9e, 0xff, 0xff, 0x00, 0x00, 0x00, 0x01, 0x14, 0x00, 0x00, 0x00,
  0x30, 0x00, 0x00, 0x00, 0x89, 0x00, 0x00, 0x00, 0x00, 0x00, 0x00, 0x09,
  0xdc, 0x00, 0x00, 0x00, 0xa4, 0x9e, 0xff, 0xff, 0x08, 0x00, 0x00, 0x00,
  0x10, 0x00, 0x00, 0x00, 0x01, 0x00, 0x00, 0x00, 0x06, 0x00, 0x00, 0x00,
  0x00, 0x00, 0x00, 0x00, 0x01, 0x00, 0x00, 0x00, 0x55, 0x85, 0xa7, 0x3f,
  0xb2, 0x00, 0x00, 0x00, 0x66, 0x75, 0x6e, 0x63, 0x74, 0x69, 0x6f, 0x6e,
  0x61, 0x6c, 0x5f, 0x31, 0x36, 0x5f, 0x31, 0x2f, 0x6c, 0x73, 0x74, 0x6d,
  0x5f, 0x31, 0x5f, 0x31, 0x2f, 0x6c, 0x73, 0x74, 0x6d, 0x5f, 0x63, 0x65,
  0x6c, 0x6c, 0x5f, 0x31, 0x33, 0x2f, 0x73, 0x70, 0x6c, 0x69, 0x74, 0x3b,
  0x66, 0x75, 0x6e, 0x63, 0x74, 0x69, 0x6f, 0x6e, 0x61, 0x6c, 0x5f, 0x31,
  0x36, 0x5f, 0x31, 0x2f, 0x6c, 0x73, 0x74, 0x6d, 0x5f, 0x31, 0x5f, 0x31,
  0x2f, 0x6c, 0x73, 0x74, 0x6d, 0x5f, 0x63, 0x65, 0x6c, 0x6c, 0x5f, 0x31,
  0x33, 0x2f, 0x73, 0x70, 0x6c, 0x69, 0x74, 0x31, 0x3b, 0x66, 0x75, 0x6e,
  0x63, 0x74, 0x69, 0x6f, 0x6e, 0x61, 0x6c, 0x5f, 0x31, 0x36, 0x5f, 0x31,
  0x2f, 0x6c, 0x73, 0x74, 0x6d, 0x5f, 0x31, 0x5f, 0x31, 0x2f, 0x6c, 0x73,
  0x74, 0x6d, 0x5f, 0x63, 0x65, 0x6c, 0x6c, 0x5f, 0x31, 0x33, 0x2f, 0x73,
  0x70, 0x6c, 0x69, 0x74, 0x32, 0x3b, 0x66, 0x75, 0x6e, 0x63, 0x74, 0x69,
  0x6f, 0x6e, 0x61, 0x6c, 0x5f, 0x31, 0x36, 0x5f, 0x31, 0x2f, 0x6c, 0x73,
  0x74, 0x6d, 0x5f, 0x31, 0x5f, 0x31, 0x2f, 0x6c, 0x73, 0x74, 0x6d, 0x5f,
  0x63, 0x65, 0x6c, 0x6c, 0x5f, 0x31, 0x33, 0x2f, 0x73, 0x70, 0x6c, 0x69,
  0x74, 0x33, 0x00, 0x00, 0x02, 0x00, 0x00, 0x00, 0x01, 0x00, 0x00, 0x00,
  0x04, 0x00, 0x00, 0x00, 0xba, 0x9f, 0xff, 0xff, 0x00, 0x00, 0x00, 0x01,
  0x14, 0x00, 0x00, 0x00, 0x34, 0x00, 0x00, 0x00, 0x88, 0x00, 0x00, 0x00,
  0x00, 0x00, 0x00, 0x09, 0x5c, 0x00, 0x00, 0x00, 0xa4, 0x9f, 0xff, 0xff,
  0x08, 0x00, 0x00, 0x00, 0x14, 0x00, 0x00, 0x00, 0x01, 0x00, 0x00, 0x00,
  0x06, 0x00, 0x00, 0x00, 0x00, 0x00, 0x00, 0x00, 0x00, 0x00, 0x00, 0x00,
  0x01, 0x00, 0x00, 0x00, 0x55, 0x85, 0xa7, 0x3f, 0x2f, 0x00, 0x00, 0x00,
  0x66, 0x75, 0x6e, 0x63, 0x74, 0x69, 0x6f, 0x6e, 0x61, 0x6c, 0x5f, 0x31,
  0x36, 0x5f, 0x31, 0x2f, 0x6c, 0x73, 0x74, 0x6d, 0x5f, 0x31, 0x5f, 0x31,
  0x2f, 0x6c, 0x73, 0x74, 0x6d, 0x5f, 0x63, 0x65, 0x6c, 0x6c, 0x5f, 0x31,
  0x33, 0x2f, 0x42, 0x69, 0x61, 0x73, 0x41, 0x64, 0x64, 0x5f, 0x31, 0x00,
  0x02, 0x00, 0x00, 0x00, 0x01, 0x00, 0x00, 0x00, 0x10, 0x00, 0x00, 0x00,
  0x3a, 0xa0, 0xff, 0xff, 0x00, 0x00, 0x00, 0x01, 0x14, 0x00, 0x00, 0x00,
  0x34, 0x00, 0x00, 0x00, 0x87, 0x00, 0x00, 0x00, 0x00, 0x00, 0x00, 0x09,
  0x5c, 0x00, 0x00, 0x00, 0x24, 0xa0, 0xff, 0xff, 0x08, 0x00, 0x00, 0x00,
  0x14, 0x00, 0x00, 0x00, 0x01, 0x00, 0x00, 0x00, 0x06, 0x00, 0x00, 0x00,
  0x00, 0x00, 0x00, 0x00, 0x00, 0x00, 0x00, 0x00, 0x01, 0x00, 0x00, 0x00,
  0x55, 0x85, 0xa7, 0x3f, 0x2d, 0x00, 0x00, 0x00, 0x66, 0x75, 0x6e, 0x63,
  0x74, 0x69, 0x6f, 0x6e, 0x61, 0x6c, 0x5f, 0x31, 0x36, 0x5f, 0x31, 0x2f,
  0x6c, 0x73, 0x74, 0x6d, 0x5f, 0x31, 0x5f, 0x31, 0x2f, 0x6c, 0x73, 0x74,
  0x6d, 0x5f, 0x63, 0x65, 0x6c, 0x6c, 0x5f, 0x31, 0x33, 0x2f, 0x42, 0x69,
  0x61, 0x73, 0x41, 0x64, 0x64, 0x00, 0x00, 0x00, 0x02, 0x00, 0x00, 0x00,
  0x01, 0x00, 0x00, 0x00, 0x10, 0x00, 0x00, 0x00, 0xba, 0xa0, 0xff, 0xff,
  0x00, 0x00, 0x00, 0x01, 0x14, 0x00, 0x00, 0x00, 0x30, 0x00, 0x00, 0x00,
  0x86, 0x00, 0x00, 0x00, 0x00, 0x00, 0x00, 0x09, 0x58, 0x00, 0x00, 0x00,
  0xa4, 0xa0, 0xff, 0xff, 0x08, 0x00, 0x00, 0x00, 0x10, 0x00, 0x00, 0x00,
  0x01, 0x00, 0x00, 0x00, 0xe6, 0xff, 0xff, 0xff, 0xff, 0xff, 0xff, 0xff,
  0x01, 0x00, 0x00, 0x00, 0x46, 0x1b, 0xcf, 0x3b, 0x2d, 0x00, 0x00, 0x00,
  0x66, 0x75, 0x6e, 0x63, 0x74, 0x69, 0x6f, 0x6e, 0x61, 0x6c, 0x5f, 0x31,
  0x36, 0x5f, 0x31, 0x2f, 0x6c, 0x73, 0x74, 0x6d, 0x5f, 0x31, 0x5f, 0x31,
  0x2f, 0x6c, 0x73, 0x74, 0x6d, 0x5f, 0x63, 0x65, 0x6c, 0x6c, 0x5f, 0x31,
  0x33, 0x2f, 0x53, 0x71, 0x75, 0x65, 0x65, 0x7a, 0x65, 0x00, 0x00, 0x00,
  0x01, 0x00, 0x00, 0x00, 0x10, 0x00, 0x00, 0x00, 0x32, 0xa1, 0xff, 0xff,
  0x00, 0x00, 0x00, 0x01, 0x14, 0x00, 0x00, 0x00, 0x34, 0x00, 0x00, 0x00,
  0x85, 0x00, 0x00, 0x00, 0x00, 0x00, 0x00, 0x09, 0x5c, 0x00, 0x00, 0x00,
  0x1c, 0xa1, 0xff, 0xff, 0x08, 0x00, 0x00, 0x00, 0x14, 0x00, 0x00, 0x00,
  0x01, 0x00, 0x00, 0x00, 0xe6, 0xff, 0xff, 0xff, 0xff, 0xff, 0xff, 0xff,
  0x00, 0x00, 0x00, 0x00, 0x01, 0x00, 0x00, 0x00, 0x46, 0x1b, 0xcf, 0x3b,
  0x2e, 0x00, 0x00, 0x00, 0x66, 0x75, 0x6e, 0x63, 0x74, 0x69, 0x6f, 0x6e,
  0x61, 0x6c, 0x5f, 0x31, 0x36, 0x5f, 0x31, 0x2f, 0x6c, 0x73, 0x74, 0x6d,
  0x5f, 0x31, 0x5f, 0x31, 0x2f, 0x6c, 0x73, 0x74, 0x6d, 0x5f, 0x63, 0x65,
  0x6c, 0x6c, 0x5f, 0x31, 0x33, 0x2f, 0x4d, 0x61, 0x74, 0x4d, 0x75, 0x6c,
  0x5f, 0x31, 0x00, 0x00, 0x02, 0x00, 0x00, 0x00, 0x01, 0x00, 0x00, 0x00,
  0x10, 0x00, 0x00, 0x00, 0xb2, 0xa1, 0xff, 0xff, 0x00, 0x00, 0x00, 0x01,
  0x14, 0x00, 0x00, 0x00, 0x30, 0x00, 0x00, 0x00, 0x84, 0x00, 0x00, 0x00,
  0x00, 0x00, 0x00, 0x09, 0x54, 0x00, 0x00, 0x00, 0x9c, 0xa1, 0xff, 0xff,
  0x08, 0x00, 0x00, 0x00, 0x10, 0x00, 0x00, 0x00, 0x01, 0x00, 0x00, 0x00,
  0x52, 0x00, 0x00, 0x00, 0x00, 0x00, 0x00, 0x00, 0x01, 0x00, 0x00, 0x00,
  0x99, 0x2e, 0x9c, 0x3b, 0x2b, 0x00, 0x00, 0x00, 0x66, 0x75, 0x6e, 0x63,
  0x74, 0x69, 0x6f, 0x6e, 0x61, 0x6c, 0x5f, 0x31, 0x36, 0x5f, 0x31, 0x2f,
  0x6c, 0x73, 0x74, 0x6d, 0x5f, 0x31, 0x5f, 0x31, 0x2f, 0x6c, 0x73, 0x74,
  0x6d, 0x5f, 0x63, 0x65, 0x6c, 0x6c, 0x5f, 0x31, 0x31, 0x2f, 0x6d, 0x75,
  0x6c, 0x5f, 0x32, 0x00, 0x02, 0x00, 0x00, 0x00, 0x01, 0x00, 0x00, 0x00,
  0x04, 0x00, 0x00, 0x00, 0x2a, 0xa2, 0xff, 0xff, 0x00, 0x00, 0x00, 0x01,
  0x14, 0x00, 0x00, 0x00, 0x34, 0x00, 0x00, 0x00, 0x83, 0x00, 0x00, 0x00,
  0x00, 0x00, 0x00, 0x09, 0x5c, 0x00, 0x00, 0x00, 0x14, 0xa2, 0xff, 0xff,
  0x08, 0x00, 0x00, 0x00, 0x14, 0x00, 0x00, 0x00, 0x01, 0x00, 0x00, 0x00,
  0x00, 0x00, 0x00, 0x00, 0x00, 0x00, 0x00, 0x00, 0x00, 0x00, 0x00, 0x00,
  0x01, 0x00, 0x00, 0x00, 0x00, 0x00, 0x00, 0x3c, 0x2c, 0x00, 0x00, 0x00,
  0x66, 0x75, 0x6e, 0x63, 0x74, 0x69, 0x6f, 0x6e, 0x61, 0x6c, 0x5f, 0x31,
  0x36, 0x5f, 0x31, 0x2f, 0x6c, 0x73, 0x74, 0x6d, 0x5f, 0x31, 0x5f, 0x31,
  0x2f, 0x6c, 0x73, 0x74, 0x6d, 0x5f, 0x63, 0x65, 0x6c, 0x6c, 0x5f, 0x31,
  0x31, 0x2f, 0x54, 0x61, 0x6e, 0x68, 0x5f, 0x31, 0x00, 0x00, 0x00, 0x00,
  0x02, 0x00, 0x00, 0x00, 0x01, 0x00, 0x00, 0x00, 0x04, 0x00, 0x00, 0x00,
  0xaa, 0xa2, 0xff, 0xff, 0x00, 0x00, 0x00, 0x01, 0x14, 0x00, 0x00, 0x00,
  0x30, 0x00, 0x00, 0x00, 0x82, 0x00, 0x00, 0x00, 0x00, 0x00, 0x00, 0x09,
  0x54, 0x00, 0x00, 0x00, 0x94, 0xa2, 0xff, 0xff, 0x08, 0x00, 0x00, 0x00,
  0x10, 0x00, 0x00, 0x00, 0x01, 0x00, 0x00, 0x00, 0xff, 0xff, 0xff, 0xff,
  0xff, 0xff, 0xff, 0xff, 0x01, 0x00, 0x00, 0x00, 0xc1, 0xc0, 0x40, 0x3d,
  0x29, 0x00, 0x00, 0x00, 0x66, 0x75, 0x6e, 0x63, 0x74, 0x69, 0x6f, 0x6e,
  0x61, 0x6c, 0x5f, 0x31, 0x36, 0x5f, 0x31, 0x2f, 0x6c, 0x73, 0x74, 0x6d,
  0x5f, 0x31, 0x5f, 0x31, 0x2f, 0x6c, 0x73, 0x74, 0x6d, 0x5f, 0x63, 0x65,
  0x6c, 0x6c, 0x5f, 0x31, 0x31, 0x2f, 0x61, 0x64, 0x64, 0x00, 0x00, 0x00,
  0x02, 0x00, 0x00, 0x00, 0x01, 0x00, 0x00, 0x00, 0x04, 0x00, 0x00, 0x00,
  0x22, 0xa3, 0xff, 0xff, 0x00, 0x00, 0x00, 0x01, 0x14, 0x00, 0x00, 0x00,
  0x30, 0x00, 0x00, 0x00, 0x81, 0x00, 0x00, 0x00, 0x00, 0x00, 0x00, 0x09,
  0x54, 0x00, 0x00, 0x00, 0x0c, 0xa3, 0xff, 0xff, 0x08, 0x00, 0x00, 0x00,
  0x10, 0x00, 0x00, 0x00, 0x01, 0x00, 0x00, 0x00, 0xff, 0xff, 0xff, 0xff,
  0xff, 0xff, 0xff, 0xff, 0x01, 0x00, 0x00, 0x00, 0x81, 0x80, 0x00, 0x3c,
  0x2b, 0x00, 0x00, 0x00, 0x66, 0x75, 0x6e, 0x63, 0x74, 0x69, 0x6f, 0x6e,
  0x61, 0x6c, 0x5f, 0x31, 0x36, 0x5f, 0x31, 0x2f, 0x6c, 0x73, 0x74, 0x6d,
  0x5f, 0x31, 0x5f, 0x31, 0x2f, 0x6c, 0x73, 0x74, 0x6d, 0x5f, 0x63, 0x65,
  0x6c, 0x6c, 0x5f, 0x31, 0x31, 0x2f, 0x6d, 0x75, 0x6c, 0x5f, 0x31, 0x00,
  0x02, 0x00, 0x00, 0x00, 0x01, 0x00, 0x00, 0x00, 0x04, 0x00, 0x00, 0x00,
  0x9a, 0xa3, 0xff, 0xff, 0x00, 0x00, 0x00, 0x01, 0x14, 0x00, 0x00, 0x00,
  0x30, 0x00, 0x00, 0x00, 0x80, 0x00, 0x00, 0x00, 0x00, 0x00, 0x00, 0x09,
  0x54, 0x00, 0x00, 0x00, 0x84, 0xa3, 0xff, 0xff, 0x08, 0x00, 0x00, 0x00,
  0x10, 0x00, 0x00, 0x00, 0x01, 0x00, 0x00, 0x00, 0x00, 0x00, 0x00, 0x00,
  0x00, 0x00, 0x00, 0x00, 0x01, 0x00, 0x00, 0x00, 0x00, 0x00, 0x00, 0x3c,
  0x2a, 0x00, 0x00, 0x00, 0x66, 0x75, 0x6e, 0x63, 0x74, 0x69, 0x6f, 0x6e,
  0x61, 0x6c, 0x5f, 0x31, 0x36, 0x5f, 0x31, 0x2f, 0x6c, 0x73, 0x74, 0x6d,
  0x5f, 0x31, 0x5f, 0x31, 0x2f, 0x6c, 0x73, 0x74, 0x6d, 0x5f, 0x63, 0x65,
  0x6c, 0x6c, 0x5f, 0x31, 0x31, 0x2f, 0x54, 0x61, 0x6e, 0x68, 0x00, 0x00,
  0x02, 0x00, 0x00, 0x00, 0x01, 0x00, 0x00, 0x00, 0x04, 0x00, 0x00, 0x00,
  0x12, 0xa4, 0xff, 0xff, 0x00, 0x00, 0x00, 0x01, 0x14, 0x00, 0x00, 0x00,
  0x34, 0x00, 0x00, 0x00, 0x7f, 0x00, 0x00, 0x00, 0x00, 0x00, 0x00, 0x09,
  0x5c, 0x00, 0x00, 0x00, 0xfc, 0xa3, 0xff, 0xff, 0x08, 0x00, 0x00, 0x00,
  0x14, 0x00, 0x00, 0x00, 0x01, 0x00, 0x00, 0x00, 0x80, 0xff, 0xff, 0xff,
  0xff, 0xff, 0xff, 0xff, 0x00, 0x00, 0x00, 0x00, 0x01, 0x00, 0x00, 0x00,
  0x00, 0x00, 0x80, 0x3b, 0x2f, 0x00, 0x00, 0x00, 0x66, 0x75, 0x6e, 0x63,
  0x74, 0x69, 0x6f, 0x6e, 0x61, 0x6c, 0x5f, 0x31, 0x36, 0x5f, 0x31, 0x2f,
  0x6c, 0x73, 0x74, 0x6d, 0x5f, 0x31, 0x5f, 0x31, 0x2f, 0x6c, 0x73, 0x74,
  0x6d, 0x5f, 0x63, 0x65, 0x6c, 0x6c, 0x5f, 0x31, 0x31, 0x2f, 0x53, 0x69,
  0x67, 0x6d, 0x6f, 0x69, 0x64, 0x5f, 0x32, 0x00, 0x02, 0x00, 0x00, 0x00,
  0x01, 0x00, 0x00, 0x00, 0x04, 0x00, 0x00, 0x00, 0x92, 0xa4, 0xff, 0xff,
  0x00, 0x00, 0x00, 0x01, 0x14, 0x00, 0x00, 0x00, 0x30, 0x00, 0x00, 0x00,
  0x7e, 0x00, 0x00, 0x00, 0x00, 0x00, 0x00, 0x09, 0x54, 0x00, 0x00, 0x00,
  0x7c, 0xa4, 0xff, 0xff, 0x08, 0x00, 0x00, 0x00, 0x10, 0x00, 0x00, 0x00,
  0x01, 0x00, 0x00, 0x00, 0xff, 0xff, 0xff, 0xff, 0xff, 0xff, 0xff, 0xff,
  0x01, 0x00, 0x00, 0x00, 0xc1, 0xc0, 0x40, 0x3d, 0x29, 0x00, 0x00, 0x00,
  0x66, 0x75, 0x6e, 0x63, 0x74, 0x69, 0x6f, 0x6e, 0x61, 0x6c, 0x5f, 0x31,
  0x36, 0x5f, 0x31, 0x2f, 0x6c, 0x73, 0x74, 0x6d, 0x5f, 0x31, 0x5f, 0x31,
  0x2f, 0x6c, 0x73, 0x74, 0x6d, 0x5f, 0x63, 0x65, 0x6c, 0x6c, 0x5f, 0x31,
  0x31, 0x2f, 0x6d, 0x75, 0x6c, 0x00, 0x00, 0x00, 0x02, 0x00, 0x00, 0x00,
  0x01, 0x00, 0x00, 0x00, 0x04, 0x00, 0x00, 0x00, 0x0a, 0xa5, 0xff, 0xff,
  0x00, 0x00, 0x00, 0x01, 0x14, 0x00, 0x00, 0x00, 0x34, 0x00, 0x00, 0x00,
  0x7d, 0x00, 0x00, 0x00, 0x00, 0x00, 0x00, 0x09, 0x5c, 0x00, 0x00, 0x00,
  0xf4, 0xa4, 0xff, 0xff, 0x08, 0x00, 0x00, 0x00, 0x14, 0x00, 0x00, 0x00,
  0x01, 0x00, 0x00, 0x00, 0x80, 0xff, 0xff, 0xff, 0xff, 0xff, 0xff, 0xff,
  0x00, 0x00, 0x00, 0x00, 0x01, 0x00, 0x00, 0x00, 0x00, 0x00, 0x80, 0x3b,
  0x2f, 0x00, 0x00, 0x00, 0x66, 0x75, 0x6e, 0x63, 0x74, 0x69, 0x6f, 0x6e,
  0x61, 0x6c, 0x5f, 0x31, 0x36, 0x5f, 0x31, 0x2f, 0x6c, 0x73, 0x74, 0x6d,
  0x5f, 0x31, 0x5f, 0x31, 0x2f, 0x6c, 0x73, 0x74, 0x6d, 0x5f, 0x63, 0x65,
  0x6c, 0x6c, 0x5f, 0x31, 0x31, 0x2f, 0x53, 0x69, 0x67, 0x6d, 0x6f, 0x69,
  0x64, 0x5f, 0x31, 0x00, 0x02, 0x00, 0x00, 0x00, 0x01, 0x00, 0x00, 0x00,
  0x04, 0x00, 0x00, 0x00, 0x8a, 0xa5, 0xff, 0xff, 0x00, 0x00, 0x00, 0x01,
  0x14, 0x00, 0x00, 0x00, 0x34, 0x00, 0x00, 0x00, 0x7c, 0x00, 0x00, 0x00,
  0x00, 0x00, 0x00, 0x09, 0x5c, 0x00, 0x00, 0x00, 0x74, 0xa5, 0xff, 0xff,
  0x08, 0x00, 0x00, 0x00, 0x14, 0x00, 0x00, 0x00, 0x01, 0x00, 0x00, 0x00,
  0x80, 0xff, 0xff, 0xff, 0xff, 0xff, 0xff, 0xff, 0x00, 0x00, 0x00, 0x00,
  0x01, 0x00, 0x00, 0x00, 0x00, 0x00, 0x80, 0x3b, 0x2d, 0x00, 0x00, 0x00,
  0x66, 0x75, 0x6e, 0x63, 0x74, 0x69, 0x6f, 0x6e, 0x61, 0x6c, 0x5f, 0x31,
  0x36, 0x5f, 0x31, 0x2f, 0x6c, 0x73, 0x74, 0x6d, 0x5f, 0x31, 0x5f, 0x31,
  0x2f, 0x6c, 0x73, 0x74, 0x6d, 0x5f, 0x63, 0x65, 0x6c, 0x6c, 0x5f, 0x31,
  0x31, 0x2f, 0x53, 0x69, 0x67, 0x6d, 0x6f, 0x69, 0x64, 0x00, 0x00, 0x00,
  0x02, 0x00, 0x00, 0x00, 0x01, 0x00, 0x00, 0x00, 0x04, 0x00, 0x00, 0x00,
  0x0a, 0xa6, 0xff, 0xff, 0x00, 0x00, 0x00, 0x01, 0x14, 0x00, 0x00, 0x00,
  0x30, 0x00, 0x00, 0x00, 0x7b, 0x00, 0x00, 0x00, 0x00, 0x00, 0x00, 0x09,
  0xdc, 0x00, 0x00, 0x00, 0xf4, 0xa5, 0xff, 0xff, 0x08, 0x00, 0x00, 0x00,
  0x10, 0x00, 0x00, 0x00, 0x01, 0x00, 0x00, 0x00, 0x06, 0x00, 0x00, 0x00,
  0x00, 0x00, 0x00, 0x00, 0x01, 0x00, 0x00, 0x00, 0x57, 0x85, 0xa7, 0x3f,
  0xb3, 0x00, 0x00, 0x00, 0x66, 0x75, 0x6e, 0x63, 0x74, 0x69, 0x6f, 0x6e,
  0x61, 0x6c, 0x5f, 0x31, 0x36, 0x5f, 0x31, 0x2f, 0x6c, 0x73, 0x74, 0x6d,
  0x5f, 0x31, 0x5f, 0x31, 0x2f, 0x6c, 0x73, 0x74, 0x6d, 0x5f, 0x63, 0x65,
  0x6c, 0x6c, 0x5f, 0x31, 0x31, 0x2f, 0x73, 0x70, 0x6c, 0x69, 0x74, 0x3b,
  0x66, 0x75, 0x6e, 0x63, 0x74, 0x69, 0x6f, 0x6e, 0x61, 0x6c, 0x5f, 0x31,
  0x36, 0x5f, 0x31, 0x2f, 0x6c, 0x73, 0x74, 0x6d, 0x5f, 0x31, 0x5f, 0x31,
  0x2f, 0x6c, 0x73, 0x74, 0x6d, 0x5f, 0x63, 0x65, 0x6c, 0x6c, 0x5f, 0x31,
  0x31, 0x2f, 0x73, 0x70, 0x6c, 0x69, 0x74, 0x31, 0x3b, 0x66, 0x75, 0x6e,
  0x63, 0x74, 0x69, 0x6f, 0x6e, 0x61, 0x6c, 0x5f, 0x31, 0x36, 0x5f, 0x31,
  0x2f, 0x6c, 0x73, 0x74, 0x6d, 0x5f, 0x31, 0x5f, 0x31, 0x2f, 0x6c, 0x73,
  0x74, 0x6d, 0x5f, 0x63, 0x65, 0x6c, 0x6c, 0x5f, 0x31, 0x31, 0x2f, 0x73,
  0x70, 0x6c, 0x69, 0x74, 0x32, 0x3b, 0x66, 0x75, 0x6e, 0x63, 0x74, 0x69,
  0x6f, 0x6e, 0x61, 0x6c, 0x5f, 0x31, 0x36, 0x5f, 0x31, 0x2f, 0x6c, 0x73,
  0x74, 0x6d, 0x5f, 0x31, 0x5f, 0x31, 0x2f, 0x6c, 0x73, 0x74, 0x6d, 0x5f,
  0x63, 0x65, 0x6c, 0x6c, 0x5f, 0x31, 0x31, 0x2f, 0x73, 0x70, 0x6c, 0x69,
  0x74, 0x33, 0x33, 0x00, 0x02, 0x00, 0x00, 0x00, 0x01, 0x00, 0x00, 0x00,
  0x04, 0x00, 0x00, 0x00, 0x0a, 0xa7, 0xff, 0xff, 0x00, 0x00, 0x00, 0x01,
  0x14, 0x00, 0x00, 0x00, 0x30, 0x00, 0x00, 0x00, 0x7a, 0x00, 0x00, 0x00,
  0x00, 0x00, 0x00, 0x09, 0xdc, 0x00, 0x00, 0x00, 0xf4, 0xa6, 0xff, 0xff,
  0x08, 0x00, 0x00, 0x00, 0x10, 0x00, 0x00, 0x00, 0x01, 0x00, 0x00, 0x00,
  0x06, 0x00, 0x00, 0x00, 0x00, 0x00, 0x00, 0x00, 0x01, 0x00, 0x00, 0x00,
  0x57, 0x85, 0xa7, 0x3f, 0xb3, 0x00, 0x00, 0x00, 0x66, 0x75, 0x6e, 0x63,
  0x74, 0x69, 0x6f, 0x6e, 0x61, 0x6c, 0x5f, 0x31, 0x36, 0x5f, 0x31, 0x2f,
  0x6c, 0x73, 0x74, 0x6d, 0x5f, 0x31, 0x5f, 0x31, 0x2f, 0x6c, 0x73, 0x74,
  0x6d, 0x5f, 0x63, 0x65, 0x6c, 0x6c, 0x5f, 0x31, 0x31, 0x2f, 0x73, 0x70,
  0x6c, 0x69, 0x74, 0x3b, 0x66, 0x75, 0x6e, 0x63, 0x74, 0x69, 0x6f, 0x6e,
  0x61, 0x6c, 0x5f, 0x31, 0x36, 0x5f, 0x31, 0x2f, 0x6c, 0x73, 0x74, 0x6d,
  0x5f, 0x31, 0x5f, 0x31, 0x2f, 0x6c, 0x73, 0x74, 0x6d, 0x5f, 0x63, 0x65,
  0x6c, 0x6c, 0x5f, 0x31, 0x31, 0x2f, 0x73, 0x70, 0x6c, 0x69, 0x74, 0x31,
  0x3b, 0x66, 0x75, 0x6e, 0x63, 0x74, 0x69, 0x6f, 0x6e, 0x61, 0x6c, 0x5f,
  0x31, 0x36, 0x5f, 0x31, 0x2f, 0x6c, 0x73, 0x74, 0x6d, 0x5f, 0x31, 0x5f,
  0x31, 0x2f, 0x6c, 0x73, 0x74, 0x6d, 0x5f, 0x63, 0x65, 0x6c, 0x6c, 0x5f,
  0x31, 0x31, 0x2f, 0x73, 0x70, 0x6c, 0x69, 0x74, 0x32, 0x3b, 0x66, 0x75,
  0x6e, 0x63, 0x74, 0x69, 0x6f, 0x6e, 0x61, 0x6c, 0x5f, 0x31, 0x36, 0x5f,
  0x31, 0x2f, 0x6c, 0x73, 0x74, 0x6d, 0x5f, 0x31, 0x5f, 0x31, 0x2f, 0x6c,
  0x73, 0x74, 0x6d, 0x5f, 0x63, 0x65, 0x6c, 0x6c, 0x5f, 0x31, 0x31, 0x2f,
  0x73, 0x70, 0x6c, 0x69, 0x74, 0x33, 0x32, 0x00, 0x02, 0x00, 0x00, 0x00,
  0x01, 0x00, 0x00, 0x00, 0x04, 0x00, 0x00, 0x00, 0x0a, 0xa8, 0xff, 0xff,
  0x00, 0x00, 0x00, 0x01, 0x14, 0x00, 0x00, 0x00, 0x30, 0x00, 0x00, 0x00,
  0x79, 0x00, 0x00, 0x00, 0x00, 0x00, 0x00, 0x09, 0xdc, 0x00, 0x00, 0x00,
