unsigned char tflite_models_residual_conv_lstm_lr0_0001_bs32_float16_tflite[] = {
  0x1c, 0x00, 0x00, 0x00, 0x54, 0x46, 0x4c, 0x33, 0x14, 0x00, 0x20, 0x00,
  0x1c, 0x00, 0x18, 0x00, 0x14, 0x00, 0x10, 0x00, 0x0c, 0x00, 0x00, 0x00,
  0x08, 0x00, 0x04, 0x00, 0x14, 0x00, 0x00, 0x00, 0x1c, 0x00, 0x00, 0x00,
  0x8c, 0x00, 0x00, 0x00, 0x14, 0x01, 0x00, 0x00, 0x04, 0x23, 0x00, 0x00,
  0x14, 0x23, 0x00, 0x00, 0x1c, 0x78, 0x00, 0x00, 0x03, 0x00, 0x00, 0x00,
  0x01, 0x00, 0x00, 0x00, 0x04, 0x00, 0x00, 0x00, 0x72, 0xc9, 0xff, 0xff,
  0x0c, 0x00, 0x00, 0x00, 0x1c, 0x00, 0x00, 0x00, 0x3c, 0x00, 0x00, 0x00,
  0x0f, 0x00, 0x00, 0x00, 0x73, 0x65, 0x72, 0x76, 0x69, 0x6e, 0x67, 0x5f,
  0x64, 0x65, 0x66, 0x61, 0x75, 0x6c, 0x74, 0x00, 0x01, 0x00, 0x00, 0x00,
  0x04, 0x00, 0x00, 0x00, 0x60, 0xff, 0xff, 0xff, 0xa2, 0x00, 0x00, 0x00,
  0x04, 0x00, 0x00, 0x00, 0x08, 0x00, 0x00, 0x00, 0x6f, 0x75, 0x74, 0x70,
  0x75, 0x74, 0x5f, 0x30, 0x00, 0x00, 0x00, 0x00, 0x01, 0x00, 0x00, 0x00,
  0x04, 0x00, 0x00, 0x00, 0xfa, 0xc9, 0xff, 0xff, 0x04, 0x00, 0x00, 0x00,
  0x0f, 0x00, 0x00, 0x00, 0x6b, 0x65, 0x72, 0x61, 0x73, 0x5f, 0x74, 0x65,
  0x6e, 0x73, 0x6f, 0x72, 0x5f, 0x35, 0x39, 0x00, 0x03, 0x00, 0x00, 0x00,
  0x64, 0x00, 0x00, 0x00, 0x2c, 0x00, 0x00, 0x00, 0x04, 0x00, 0x00, 0x00,
  0xb0, 0xff, 0xff, 0xff, 0xa6, 0x00, 0x00, 0x00, 0x04, 0x00, 0x00, 0x00,
  0x13, 0x00, 0x00, 0x00, 0x43, 0x4f, 0x4e, 0x56, 0x45, 0x52, 0x53, 0x49,
  0x4f, 0x4e, 0x5f, 0x4d, 0x45, 0x54, 0x41, 0x44, 0x41, 0x54, 0x41, 0x00,
  0xd4, 0xff, 0xff, 0xff, 0xa5, 0x00, 0x00, 0x00, 0x04, 0x00, 0x00, 0x00,
  0x19, 0x00, 0x00, 0x00, 0x72, 0x65, 0x64, 0x75, 0x63, 0x65, 0x64, 0x5f,
  0x70, 0x72, 0x65, 0x63, 0x69, 0x73, 0x69, 0x6f, 0x6e, 0x5f, 0x73, 0x75,
  0x70, 0x70, 0x6f, 0x72, 0x74, 0x00, 0x00, 0x00, 0x08, 0x00, 0x0c, 0x00,
  0x08, 0x00, 0x04, 0x00, 0x08, 0x00, 0x00, 0x00, 0xa4, 0x00, 0x00, 0x00,
  0x04, 0x00, 0x00, 0x00, 0x13, 0x00, 0x00, 0x00, 0x6d, 0x69, 0x6e, 0x5f,
  0x72, 0x75, 0x6e, 0x74, 0x69, 0x6d, 0x65, 0x5f, 0x76, 0x65, 0x72, 0x73,
  0x69, 0x6f, 0x6e, 0x00, 0xa7, 0x00, 0x00, 0x00, 0xec, 0x21, 0x00, 0x00,
  0xe4, 0x21, 0x00, 0x00, 0xb4, 0x21, 0x00, 0x00, 0x44, 0x1e, 0x00, 0x00,
  0x30, 0x1e, 0x00, 0x00, 0x00, 0x1e, 0x00, 0x00, 0xf0, 0x19, 0x00, 0x00,
  0x60, 0x19, 0x00, 0x00, 0xb0, 0x18, 0x00, 0x00, 0x88, 0x17, 0x00, 0x00,
  0x78, 0x0f, 0x00, 0x00, 0x68, 0x06, 0x00, 0x00, 0x4c, 0x06, 0x00, 0x00,
  0x38, 0x06, 0x00, 0x00, 0x18, 0x06, 0x00, 0x00, 0xc8, 0x05, 0x00, 0x00,
  0x78, 0x05, 0x00, 0x00, 0x40, 0x05, 0x00, 0x00, 0x38, 0x05, 0x00, 0x00,
  0x30, 0x05, 0x00, 0x00, 0x28, 0x05, 0x00, 0x00, 0x20, 0x05, 0x00, 0x00,
  0x18, 0x05, 0x00, 0x00, 0x10, 0x05, 0x00, 0x00, 0x08, 0x05, 0x00, 0x00,
  0x00, 0x05, 0x00, 0x00, 0xf8, 0x04, 0x00, 0x00, 0xf0, 0x04, 0x00, 0x00,
  0xe8, 0x04, 0x00, 0x00, 0xe0, 0x04, 0x00, 0x00, 0xd8, 0x04, 0x00, 0x00,
  0xd0, 0x04, 0x00, 0x00, 0xc8, 0x04, 0x00, 0x00, 0xc0, 0x04, 0x00, 0x00,
  0xb8, 0x04, 0x00, 0x00, 0xb0, 0x04, 0x00, 0x00, 0xa8, 0x04, 0x00, 0x00,
  0xa0, 0x04, 0x00, 0x00, 0x98, 0x04, 0x00, 0x00, 0x90, 0x04, 0x00, 0x00,
  0x88, 0x04, 0x00, 0x00, 0x80, 0x04, 0x00, 0x00, 0x78, 0x04, 0x00, 0x00,
  0x70, 0x04, 0x00, 0x00, 0x68, 0x04, 0x00, 0x00, 0x60, 0x04, 0x00, 0x00,
  0x58, 0x04, 0x00, 0x00, 0x50, 0x04, 0x00, 0x00, 0x48, 0x04, 0x00, 0x00,
  0x40, 0x04, 0x00, 0x00, 0x38, 0x04, 0x00, 0x00, 0x30, 0x04, 0x00, 0x00,
  0x28, 0x04, 0x00, 0x00, 0x20, 0x04, 0x00, 0x00, 0x18, 0x04, 0x00, 0x00,
  0x10, 0x04, 0x00, 0x00, 0x08, 0x04, 0x00, 0x00, 0x00, 0x04, 0x00, 0x00,
  0xf8, 0x03, 0x00, 0x00, 0xf0, 0x03, 0x00, 0x00, 0xe8, 0x03, 0x00, 0x00,
  0xe0, 0x03, 0x00, 0x00, 0xd8, 0x03, 0x00, 0x00, 0xd0, 0x03, 0x00, 0x00,
  0xc8, 0x03, 0x00, 0x00, 0xc0, 0x03, 0x00, 0x00, 0xb8, 0x03, 0x00, 0x00,
  0xb0, 0x03, 0x00, 0x00, 0xa8, 0x03, 0x00, 0x00, 0xa0, 0x03, 0x00, 0x00,
  0x98, 0x03, 0x00, 0x00, 0x90, 0x03, 0x00, 0x00, 0x88, 0x03, 0x00, 0x00,
  0x80, 0x03, 0x00, 0x00, 0x78, 0x03, 0x00, 0x00, 0x70, 0x03, 0x00, 0x00,
  0x68, 0x03, 0x00, 0x00, 0x60, 0x03, 0x00, 0x00, 0x58, 0x03, 0x00, 0x00,
  0x50, 0x03, 0x00, 0x00, 0x48, 0x03, 0x00, 0x00, 0x40, 0x03, 0x00, 0x00,
  0x38, 0x03, 0x00, 0x00, 0x30, 0x03, 0x00, 0x00, 0x28, 0x03, 0x00, 0x00,
  0x20, 0x03, 0x00, 0x00, 0x18, 0x03, 0x00, 0x00, 0x10, 0x03, 0x00, 0x00,
  0x08, 0x03, 0x00, 0x00, 0x00, 0x03, 0x00, 0x00, 0xf8, 0x02, 0x00, 0x00,
  0xf0, 0x02, 0x00, 0x00, 0xe8, 0x02, 0x00, 0x00, 0xe0, 0x02, 0x00, 0x00,
  0xd8, 0x02, 0x00, 0x00, 0xd0, 0x02, 0x00, 0x00, 0xc8, 0x02, 0x00, 0x00,
  0xc0, 0x02, 0x00, 0x00, 0xb8, 0x02, 0x00, 0x00, 0xb0, 0x02, 0x00, 0x00,
  0xa8, 0x02, 0x00, 0x00, 0xa0, 0x02, 0x00, 0x00, 0x98, 0x02, 0x00, 0x00,
  0x90, 0x02, 0x00, 0x00, 0x88, 0x02, 0x00, 0x00, 0x80, 0x02, 0x00, 0x00,
  0x78, 0x02, 0x00, 0x00, 0x70, 0x02, 0x00, 0x00, 0x68, 0x02, 0x00, 0x00,
  0x60, 0x02, 0x00, 0x00, 0x58, 0x02, 0x00, 0x00, 0x50, 0x02, 0x00, 0x00,
  0x48, 0x02, 0x00, 0x00, 0x40, 0x02, 0x00, 0x00, 0x38, 0x02, 0x00, 0x00,
  0x30, 0x02, 0x00, 0x00, 0x28, 0x02, 0x00, 0x00, 0x20, 0x02, 0x00, 0x00,
  0x18, 0x02, 0x00, 0x00, 0x10, 0x02, 0x00, 0x00, 0x08, 0x02, 0x00, 0x00,
  0x00, 0x02, 0x00, 0x00, 0xf8, 0x01, 0x00, 0x00, 0xf0, 0x01, 0x00, 0x00,
  0xe8, 0x01, 0x00, 0x00, 0xe0, 0x01, 0x00, 0x00, 0xd8, 0x01, 0x00, 0x00,
  0xd0, 0x01, 0x00, 0x00, 0xc8, 0x01, 0x00, 0x00, 0xc0, 0x01, 0x00, 0x00,
  0xb8, 0x01, 0x00, 0x00, 0xb0, 0x01, 0x00, 0x00, 0xa8, 0x01, 0x00, 0x00,
  0xa0, 0x01, 0x00, 0x00, 0x98, 0x01, 0x00, 0x00, 0x90, 0x01, 0x00, 0x00,
  0x88, 0x01, 0x00, 0x00, 0x80, 0x01, 0x00, 0x00, 0x78, 0x01, 0x00, 0x00,
  0x70, 0x01, 0x00, 0x00, 0x68, 0x01, 0x00, 0x00, 0x60, 0x01, 0x00, 0x00,
  0x58, 0x01, 0x00, 0x00, 0x50, 0x01, 0x00, 0x00, 0x48, 0x01, 0x00, 0x00,
  0x40, 0x01, 0x00, 0x00, 0x38, 0x01, 0x00, 0x00, 0x30, 0x01, 0x00, 0x00,
  0x28, 0x01, 0x00, 0x00, 0x20, 0x01, 0x00, 0x00, 0x18, 0x01, 0x00, 0x00,
  0x10, 0x01, 0x00, 0x00, 0x08, 0x01, 0x00, 0x00, 0x00, 0x01, 0x00, 0x00,
  0xf8, 0x00, 0x00, 0x00, 0xf0, 0x00, 0x00, 0x00, 0xe8, 0x00, 0x00, 0x00,
  0xe0, 0x00, 0x00, 0x00, 0xd8, 0x00, 0x00, 0x00, 0xd0, 0x00, 0x00, 0x00,
  0xc8, 0x00, 0x00, 0x00, 0xc0, 0x00, 0x00, 0x00, 0xb8, 0x00, 0x00, 0x00,
  0xb0, 0x00, 0x00, 0x00, 0x90, 0x00, 0x00, 0x00, 0x74, 0x00, 0x00, 0x00,
  0x04, 0x00, 0x00, 0x00, 0x42, 0xcd, 0xff, 0xff, 0x04, 0x00, 0x00, 0x00,
  0x60, 0x00, 0x00, 0x00, 0x0c, 0x00, 0x00, 0x00, 0x08, 0x00, 0x0e, 0x00,
  0x08, 0x00, 0x04, 0x00, 0x08, 0x00, 0x00, 0x00, 0x10, 0x00, 0x00, 0x00,
  0x28, 0x00, 0x00, 0x00, 0x00, 0x00, 0x06, 0x00, 0x08, 0x00, 0x04, 0x00,
  0x06, 0x00, 0x00, 0x00, 0x04, 0x00, 0x00, 0x00, 0x01, 0x00, 0x00, 0x00,
  0xe9, 0x03, 0x00, 0x00, 0x0c, 0x00, 0x18, 0x00, 0x14, 0x00, 0x10, 0x00,
  0x0c, 0x00, 0x04, 0x00, 0x0c, 0x00, 0x00, 0x00, 0x8f, 0xda, 0xa3, 0x6b,
  0x41, 0x01, 0x2a, 0x3e, 0x02, 0x00, 0x00, 0x00, 0x02, 0x00, 0x00, 0x00,
  0x04, 0x00, 0x00, 0x00, 0x06, 0x00, 0x00, 0x00, 0x32, 0x2e, 0x32, 0x31,
  0x2e, 0x30, 0x00, 0x00, 0xae, 0xcd, 0xff, 0xff, 0x04, 0x00, 0x00, 0x00,
  0x0b, 0x00, 0x00, 0x00, 0x66, 0x70, 0x31, 0x36, 0x61, 0x63, 0x63, 0x66,
  0x70, 0x33, 0x32, 0x00, 0xc6, 0xcd, 0xff, 0xff, 0x04, 0x00, 0x00, 0x00,
  0x10, 0x00, 0x00, 0x00, 0x31, 0x2e, 0x31, 0x35, 0x2e, 0x30, 0x00, 0x00,
  0x00, 0x00, 0x00, 0x00, 0x00, 0x00, 0x00, 0x00, 0xac, 0x8b, 0xff, 0xff,
  0xb0, 0x8b, 0xff, 0xff, 0xb4, 0x8b, 0xff, 0xff, 0xb8, 0x8b, 0xff, 0xff,
  0xbc, 0x8b, 0xff, 0xff, 0xc0, 0x8b, 0xff, 0xff, 0xc4, 0x8b, 0xff, 0xff,
  0xc8, 0x8b, 0xff, 0xff, 0xcc, 0x8b, 0xff, 0xff, 0xd0, 0x8b, 0xff, 0xff,
  0xd4, 0x8b, 0xff, 0xff, 0xd8, 0x8b, 0xff, 0xff, 0xdc, 0x8b, 0xff, 0xff,
  0xe0, 0x8b, 0xff, 0xff, 0xe4, 0x8b, 0xff, 0xff, 0xe8, 0x8b, 0xff, 0xff,
  0xec, 0x8b, 0xff, 0xff, 0xf0, 0x8b, 0xff, 0xff, 0xf4, 0x8b, 0xff, 0xff,
  0xf8, 0x8b, 0xff, 0xff, 0xfc, 0x8b, 0xff, 0xff, 0x00, 0x8c, 0xff, 0xff,
  0x04, 0x8c, 0xff, 0xff, 0x08, 0x8c, 0xff, 0xff, 0x0c, 0x8c, 0xff, 0xff,
  0x10, 0x8c, 0xff, 0xff, 0x14, 0x8c, 0xff, 0xff, 0x18, 0x8c, 0xff, 0xff,
  0x1c, 0x8c, 0xff, 0xff, 0x20, 0x8c, 0xff, 0xff, 0x24, 0x8c, 0xff, 0xff,
  0x28, 0x8c, 0xff, 0xff, 0x2c, 0x8c, 0xff, 0xff, 0x30, 0x8c, 0xff, 0xff,
  0x34, 0x8c, 0xff, 0xff, 0x38, 0x8c, 0xff, 0xff, 0x3c, 0x8c, 0xff, 0xff,
  0x40, 0x8c, 0xff, 0xff, 0x44, 0x8c, 0xff, 0xff, 0x48, 0x8c, 0xff, 0xff,
  0x4c, 0x8c, 0xff, 0xff, 0x50, 0x8c, 0xff, 0xff, 0x54, 0x8c, 0xff, 0xff,
  0x58, 0x8c, 0xff, 0xff, 0x5c, 0x8c, 0xff, 0xff, 0x60, 0x8c, 0xff, 0xff,
  0x64, 0x8c, 0xff, 0xff, 0x68, 0x8c, 0xff, 0xff, 0x6c, 0x8c, 0xff, 0xff,
  0x70, 0x8c, 0xff, 0xff, 0x74, 0x8c, 0xff, 0xff, 0x78, 0x8c, 0xff, 0xff,
  0x7c, 0x8c, 0xff, 0xff, 0x80, 0x8c, 0xff, 0xff, 0x84, 0x8c, 0xff, 0xff,
  0x88, 0x8c, 0xff, 0xff, 0x8c, 0x8c, 0xff, 0xff, 0x90, 0x8c, 0xff, 0xff,
  0x94, 0x8c, 0xff, 0xff, 0x98, 0x8c, 0xff, 0xff, 0x9c, 0x8c, 0xff, 0xff,
  0xa0, 0x8c, 0xff, 0xff, 0xa4, 0x8c, 0xff, 0xff, 0xa8, 0x8c, 0xff, 0xff,
  0xac, 0x8c, 0xff, 0xff, 0xb0, 0x8c, 0xff, 0xff, 0xb4, 0x8c, 0xff, 0xff,
  0xb8, 0x8c, 0xff, 0xff, 0xbc, 0x8c, 0xff, 0xff, 0xc0, 0x8c, 0xff, 0xff,
  0xc4, 0x8c, 0xff, 0xff, 0xc8, 0x8c, 0xff, 0xff, 0xcc, 0x8c, 0xff, 0xff,
  0xd0, 0x8c, 0xff, 0xff, 0xd4, 0x8c, 0xff, 0xff, 0xd8, 0x8c, 0xff, 0xff,
  0xdc, 0x8c, 0xff, 0xff, 0xe0, 0x8c, 0xff, 0xff, 0xe4, 0x8c, 0xff, 0xff,
  0xe8, 0x8c, 0xff, 0xff, 0xec, 0x8c, 0xff, 0xff, 0xf0, 0x8c, 0xff, 0xff,
  0xf4, 0x8c, 0xff, 0xff, 0xf8, 0x8c, 0xff, 0xff, 0xfc, 0x8c, 0xff, 0xff,
  0x00, 0x8d, 0xff, 0xff, 0x04, 0x8d, 0xff, 0xff, 0x08, 0x8d, 0xff, 0xff,
  0x0c, 0x8d, 0xff, 0xff, 0x10, 0x8d, 0xff, 0xff, 0x14, 0x8d, 0xff, 0xff,
  0x18, 0x8d, 0xff, 0xff, 0x1c, 0x8d, 0xff, 0xff, 0x20, 0x8d, 0xff, 0xff,
  0x24, 0x8d, 0xff, 0xff, 0x28, 0x8d, 0xff, 0xff, 0x2c, 0x8d, 0xff, 0xff,
  0x30, 0x8d, 0xff, 0xff, 0x34, 0x8d, 0xff, 0xff, 0x38, 0x8d, 0xff, 0xff,
  0x3c, 0x8d, 0xff, 0xff, 0x40, 0x8d, 0xff, 0xff, 0x44, 0x8d, 0xff, 0xff,
  0x48, 0x8d, 0xff, 0xff, 0x4c, 0x8d, 0xff, 0xff, 0x50, 0x8d, 0xff, 0xff,
  0x54, 0x8d, 0xff, 0xff, 0x58, 0x8d, 0xff, 0xff, 0x5c, 0x8d, 0xff, 0xff,
  0x60, 0x8d, 0xff, 0xff, 0x64, 0x8d, 0xff, 0xff, 0x68, 0x8d, 0xff, 0xff,
  0x6c, 0x8d, 0xff, 0xff, 0x70, 0x8d, 0xff, 0xff, 0x74, 0x8d, 0xff, 0xff,
  0x78, 0x8d, 0xff, 0xff, 0x7c, 0x8d, 0xff, 0xff, 0x80, 0x8d, 0xff, 0xff,
  0x84, 0x8d, 0xff, 0xff, 0x88, 0x8d, 0xff, 0xff, 0x8c, 0x8d, 0xff, 0xff,
  0x90, 0x8d, 0xff, 0xff, 0x94, 0x8d, 0xff, 0xff, 0x98, 0x8d, 0xff, 0xff,
  0x9c, 0x8d, 0xff, 0xff, 0xa0, 0x8d, 0xff, 0xff, 0xa4, 0x8d, 0xff, 0xff,
  0xa8, 0x8d, 0xff, 0xff, 0xac, 0x8d, 0xff, 0xff, 0xb0, 0x8d, 0xff, 0xff,
  0xb4, 0x8d, 0xff, 0xff, 0xb8, 0x8d, 0xff, 0xff, 0xbc, 0x8d, 0xff, 0xff,
  0xc0, 0x8d, 0xff, 0xff, 0xc4, 0x8d, 0xff, 0xff, 0xc8, 0x8d, 0xff, 0xff,
  0xcc, 0x8d, 0xff, 0xff, 0xd0, 0x8d, 0xff, 0xff, 0xd4, 0x8d, 0xff, 0xff,
  0xd8, 0x8d, 0xff, 0xff, 0xdc, 0x8d, 0xff, 0xff, 0xe0, 0x8d, 0xff, 0xff,
  0xe4, 0x8d, 0xff, 0xff, 0xe8, 0x8d, 0xff, 0xff, 0xec, 0x8d, 0xff, 0xff,
  0xf0, 0x8d, 0xff, 0xff, 0x2a, 0xd0, 0xff, 0xff, 0x04, 0x00, 0x00, 0x00,
  0x28, 0x00, 0x00, 0x00, 0xa8, 0xb1, 0x65, 0x3f, 0x9d, 0xb1, 0x41, 0xb5,
  0x8f, 0xae, 0x8d, 0xac, 0x9f, 0xa4, 0x47, 0xaa, 0x53, 0x3a, 0x17, 0x3f,
  0x98, 0x3b, 0xa2, 0x38, 0x4c, 0x9d, 0x4e, 0x3f, 0xd0, 0xb1, 0x28, 0xb3,
  0x87, 0x3b, 0x94, 0xa8, 0x2b, 0x9b, 0xeb, 0x3e, 0x5e, 0xd0, 0xff, 0xff,
  0x04, 0x00, 0x00, 0x00, 0x40, 0x00, 0x00, 0x00, 0xb1, 0x27, 0x4f, 0x2a,
  0x34, 0x28, 0x18, 0x9e, 0xab, 0x28, 0x30, 0xa9, 0xff, 0xad, 0xea, 0x28,
  0xf4, 0xab, 0x44, 0x2a, 0xe9, 0x17, 0x45, 0x9a, 0xe0, 0x25, 0xfc, 0xa4,
  0x4c, 0x29, 0x28, 0xa8, 0xe1, 0x99, 0xfb, 0x2c, 0xc1, 0x29, 0xb4, 0xaa,
  0x88, 0x28, 0x53, 0xa0, 0x8d, 0xa7, 0xe1, 0xac, 0x7d, 0x20, 0x59, 0x23,
  0x10, 0x29, 0x8a, 0xa7, 0x33, 0xa8, 0xcd, 0xa4, 0x02, 0x22, 0x64, 0xa9,
  0xaa, 0xd0, 0xff, 0xff, 0x04, 0x00, 0x00, 0x00, 0x40, 0x00, 0x00, 0x00,
  0xc3, 0x26, 0x5b, 0x2c, 0x55, 0x28, 0x38, 0xa4, 0x0a, 0x2b, 0x5e, 0x20,
  0xef, 0xa8, 0x1a, 0x9a, 0xa1, 0xaa, 0xaf, 0x29, 0x70, 0x25, 0xef, 0x1a,
  0xc9, 0x2a, 0x64, 0x24, 0x62, 0x23, 0x7c, 0xa8, 0x59, 0xa0, 0x7a, 0x2f,
  0x87, 0x2b, 0x18, 0x1e, 0x8f, 0x2a, 0x11, 0x15, 0x45, 0xac, 0x50, 0xac,
  0x97, 0x25, 0x2b, 0x28, 0x46, 0x27, 0x62, 0xa6, 0xc7, 0xa5, 0xdc, 0xa0,
  0x91, 0xa5, 0xc4, 0x23, 0xf6, 0xd0, 0xff, 0xff, 0x04, 0x00, 0x00, 0x00,
  0x0e, 0x00, 0x00, 0x00, 0xcd, 0x2c, 0x1a, 0xae, 0x97, 0x3e, 0xf0, 0x29,
  0x89, 0xa9, 0x4b, 0x2c, 0x46, 0xaa, 0x00, 0x00, 0x12, 0xd1, 0xff, 0xff,
  0x04, 0x00, 0x00, 0x00, 0x04, 0x00, 0x00, 0x00, 0x10, 0x00, 0x00, 0x00,
  0x22, 0xd1, 0xff, 0xff, 0x04, 0x00, 0x00, 0x00, 0x0c, 0x00, 0x00, 0x00,
  0x07, 0x00, 0x00, 0x00, 0x01, 0x00, 0x00, 0x00, 0x20, 0x00, 0x00, 0x00,
  0x3a, 0xd1, 0xff, 0xff, 0x04, 0x00, 0x00, 0x00, 0x00, 0x09, 0x00, 0x00,
  0x56, 0x31, 0x91, 0x2c, 0x33, 0xac, 0x79, 0x95, 0x75, 0x2f, 0xdb, 0x30,
  0xab, 0xb0, 0x0d, 0xad, 0x95, 0x30, 0xfb, 0x27, 0x01, 0x2e, 0xce, 0x2f,
  0xea, 0x27, 0x17, 0x2c, 0x14, 0xa1, 0xe3, 0xb2, 0x99, 0x30, 0x2f, 0x2d,
  0x54, 0x30, 0xac, 0xaa, 0x70, 0x2d, 0x35, 0x27, 0x80, 0xa8, 0xdc, 0x30,
  0xb2, 0xb2, 0x38, 0x2c, 0x42, 0x30, 0xfb, 0x30, 0x75, 0x2c, 0x77, 0x2f,
  0xde, 0x28, 0x66, 0xab, 0x1e, 0xa8, 0x5b, 0x28, 0x18, 0x2f, 0x93, 0xb2,
  0x99, 0xb3, 0x40, 0x30, 0x69, 0xaf, 0x6a, 0x30, 0xc4, 0x2c, 0xd5, 0xa9,
  0x17, 0x30, 0xc7, 0xac, 0xde, 0xaf, 0x46, 0xb3, 0x21, 0xa9, 0x4c, 0x2b,
  0x6c, 0x2f, 0x7a, 0x27, 0xf0, 0x23, 0xf9, 0x2d, 0x0f, 0xaa, 0x74, 0x31,
  0x68, 0x30, 0x54, 0x30, 0x1f, 0xb1, 0x3a, 0xad, 0xbd, 0x2f, 0xad, 0xac,
  0x40, 0x2b, 0xa5, 0x30, 0x09, 0xb2, 0x59, 0xa0, 0x91, 0x9b, 0x41, 0xad,
  0x17, 0x2f, 0x93, 0xa4, 0x6b, 0x9f, 0xec, 0x2d, 0xd7, 0x2a, 0x17, 0xa5,
  0xdb, 0xa4, 0xc2, 0xa2, 0xe5, 0xb0, 0x3b, 0x30, 0x7f, 0x22, 0x32, 0x1f,
  0x91, 0x2f, 0x42, 0x29, 0x31, 0xab, 0x5e, 0x31, 0x4f, 0x2d, 0xec, 0xac,
  0x3a, 0xaf, 0x94, 0x23, 0x17, 0x32, 0xe6, 0xb0, 0x07, 0xb2, 0x54, 0xb1,
  0x44, 0xa5, 0x55, 0xb2, 0xcb, 0x31, 0xdd, 0xb1, 0xee, 0xab, 0xa8, 0xaf,
  0x8b, 0x9e, 0x4c, 0xb1, 0xed, 0xaf, 0x33, 0x31, 0x2a, 0x26, 0xc5, 0xac,
  0xaa, 0xa5, 0x39, 0x2e, 0xb9, 0x31, 0x13, 0xb0, 0xb1, 0xab, 0x72, 0x2d,
  0xfc, 0xa2, 0x67, 0x31, 0xee, 0xac, 0x82, 0x31, 0x82, 0xb2, 0xb5, 0x2e,
  0x43, 0xac, 0xcb, 0x9f, 0xb2, 0xa4, 0xb1, 0x23, 0x3a, 0x2c, 0x8d, 0x31,
  0x48, 0x2e, 0x79, 0x1d, 0x90, 0x32, 0x77, 0xb0, 0x81, 0x2b, 0x9f, 0xab,
  0x47, 0x31, 0x34, 0x29, 0x02, 0x27, 0xcc, 0x30, 0x7e, 0xac, 0x87, 0x10,
  0x7d, 0x30, 0x0e, 0x29, 0x33, 0x31, 0x2f, 0x2c, 0xbf, 0xae, 0x04, 0x30,
  0x86, 0xae, 0x82, 0xb0, 0x6c, 0x31, 0xcc, 0xa1, 0x73, 0xa5, 0x31, 0xab,
  0x88, 0x29, 0x8e, 0xb2, 0x6a, 0x2c, 0xcc, 0x2c, 0xb9, 0x2a, 0x1b, 0x30,
  0x87, 0x32, 0xec, 0x1b, 0x59, 0x2c, 0xb4, 0x2f, 0x76, 0xb0, 0xcc, 0xb2,
  0x20, 0x2b, 0x89, 0xae, 0xe1, 0x30, 0x92, 0x2f, 0x44, 0xaf, 0x9d, 0xb1,
  0x58, 0x2c, 0x2b, 0xb0, 0x5a, 0xb0, 0x60, 0x22, 0x70, 0xb2, 0x7a, 0x2f,
  0xa1, 0xae, 0x42, 0xab, 0x54, 0x2f, 0xd4, 0x30, 0x04, 0x2e, 0x54, 0xa4,
  0x8b, 0xb0, 0x63, 0xb0, 0xb2, 0xac, 0x6f, 0xae, 0xd7, 0xae, 0x81, 0x25,
  0x9c, 0xae, 0x80, 0xac, 0x6f, 0x16, 0x7b, 0x2e, 0x25, 0x2e, 0x12, 0x30,
  0x07, 0xb0, 0x2f, 0x30, 0x0c, 0xa8, 0x68, 0xb1, 0x78, 0xb1, 0x09, 0x27,
  0x55, 0xb3, 0xc3, 0x2e, 0x92, 0x2d, 0x5e, 0x2c, 0xdf, 0x32, 0xf2, 0x2a,
  0x24, 0xad, 0x45, 0x29, 0x02, 0xb0, 0x01, 0x29, 0xad, 0xaf, 0xff, 0x24,
  0x4f, 0xb0, 0x48, 0x28, 0xde, 0x9d, 0x62, 0x30, 0xad, 0x30, 0x98, 0xaa,
  0x53, 0x2c, 0x0a, 0xa0, 0x73, 0xae, 0xe4, 0x31, 0x4a, 0xb0, 0x6b, 0xb0,
  0x1a, 0x1c, 0xd0, 0x2b, 0x17, 0x2e, 0x02, 0x17, 0xa2, 0xb2, 0x82, 0x2a,
  0xb1, 0xb0, 0xfa, 0xaf, 0xd9, 0xa5, 0x40, 0xb0, 0xbf, 0xae, 0xdf, 0x2e,
  0x29, 0x30, 0x4f, 0xb0, 0xd7, 0x30, 0xb0, 0xac, 0xa5, 0x2e, 0x22, 0xb0,
  0xc0, 0x2d, 0x10, 0x31, 0x9c, 0xae, 0x3f, 0x2c, 0x8c, 0x25, 0x32, 0x9b,
  0xb3, 0xac, 0xf8, 0x25, 0xa9, 0x32, 0xc7, 0x2f, 0x91, 0xae, 0xb6, 0xae,
  0xe2, 0x29, 0x39, 0xaf, 0x68, 0xae, 0xc2, 0x29, 0x6c, 0x30, 0x21, 0xad,
  0xc2, 0x25, 0x6c, 0xaf, 0x94, 0x31, 0xea, 0x30, 0x92, 0x20, 0x76, 0xac,
  0xbc, 0x30, 0xb2, 0x2c, 0x22, 0xaf, 0x1e, 0xae, 0x01, 0x31, 0x2f, 0xae,
  0xc6, 0x2c, 0x3d, 0x32, 0xde, 0x9d, 0x5f, 0x2c, 0x65, 0xb0, 0xab, 0x30,
  0xe5, 0xac, 0x8e, 0x31, 0x0d, 0xa8, 0xf2, 0xac, 0xcb, 0x28, 0xbd, 0x2f,
  0x27, 0x2b, 0x5a, 0xac, 0xf1, 0x2b, 0x95, 0x27, 0x33, 0x21, 0xa0, 0x19,
  0xd6, 0xa8, 0x85, 0x21, 0xfb, 0x2f, 0x1d, 0x2f, 0xcd, 0x2b, 0x85, 0xab,
  0x29, 0xb0, 0xcd, 0xa9, 0xd4, 0xa7, 0xe1, 0x30, 0x89, 0xae, 0xa5, 0x2c,
  0x38, 0xa8, 0x94, 0x26, 0xe0, 0x2d, 0x89, 0xae, 0xbe, 0xaf, 0xdf, 0xb2,
  0xdf, 0x32, 0x73, 0xaf, 0x6c, 0x30, 0xd7, 0x29, 0xe2, 0x25, 0xd8, 0x1c,
  0x14, 0xa9, 0x50, 0x24, 0x30, 0x31, 0xb4, 0xb0, 0xe0, 0x2f, 0x5c, 0xa7,
  0x57, 0x2e, 0xa0, 0xad, 0x23, 0x2d, 0x3b, 0x33, 0xcc, 0x2d, 0x60, 0x2f,
  0x23, 0xa9, 0x57, 0x2a, 0x3e, 0x30, 0x25, 0xb2, 0x2b, 0x2e, 0xa8, 0x2d,
  0x5b, 0x25, 0x70, 0x24, 0xac, 0x31, 0x93, 0x28, 0x42, 0xb0, 0xc0, 0xac,
  0x68, 0x2d, 0x8e, 0x30, 0x30, 0x2a, 0xb4, 0x32, 0xf5, 0x2e, 0x15, 0xa9,
  0x4b, 0xb0, 0x88, 0x2c, 0x93, 0xb0, 0xd3, 0x2a, 0xa3, 0x30, 0x46, 0x1f,
  0x3c, 0x32, 0x87, 0xa6, 0x08, 0x18, 0xcd, 0xa5, 0x2e, 0x98, 0xca, 0xa9,
  0xe7, 0xac, 0xa0, 0x2c, 0x62, 0xa9, 0x80, 0x2a, 0x93, 0xad, 0xab, 0xb1,
  0x21, 0xa6, 0x05, 0x2b, 0x24, 0xb1, 0x14, 0x2e, 0x06, 0x2c, 0xd2, 0xa7,
  0x01, 0xb0, 0xac, 0x2a, 0x26, 0xa6, 0x87, 0xae, 0x7d, 0xb1, 0x27, 0x30,
  0x66, 0x2c, 0xee, 0x2c, 0x5a, 0x28, 0xac, 0xb1, 0x7d, 0x2f, 0x43, 0x30,
  0x0b, 0xae, 0xae, 0x2c, 0x80, 0x2a, 0xe7, 0x98, 0x41, 0xa8, 0x00, 0xa8,
  0x03, 0xb1, 0xe8, 0x30, 0x88, 0xb0, 0x69, 0x2f, 0x99, 0xb0, 0x0a, 0x30,
  0xe8, 0xaf, 0xa3, 0xaf, 0x69, 0x26, 0x67, 0x31, 0x98, 0x2e, 0x0a, 0xb0,
  0x66, 0xae, 0x12, 0x2c, 0x1a, 0xb1, 0xbc, 0x2c, 0x32, 0x32, 0x71, 0x30,
  0xf1, 0x31, 0x61, 0xa5, 0x97, 0x13, 0x8f, 0xac, 0xa6, 0xb1, 0xbc, 0x2d,
  0xbb, 0x31, 0xc4, 0xad, 0xfc, 0x2a, 0x4d, 0xac, 0x87, 0xab, 0xb0, 0x31,
  0x45, 0xb1, 0x72, 0xb1, 0x7f, 0x2c, 0x46, 0x2b, 0xa8, 0x2f, 0xe1, 0x30,
  0x5a, 0x28, 0x9a, 0x31, 0xdd, 0x2a, 0xc4, 0xb0, 0x52, 0x31, 0xf0, 0x30,
  0x76, 0x30, 0xe4, 0xab, 0x8b, 0x1c, 0xf0, 0x2f, 0xf4, 0x22, 0xc8, 0x26,
  0xba, 0x22, 0x25, 0xaa, 0xa8, 0x2e, 0x31, 0x2f, 0x04, 0xaf, 0x93, 0xad,
  0xbf, 0x32, 0xc4, 0x32, 0xaf, 0xa7, 0xb6, 0xac, 0xbd, 0x2c, 0x3a, 0x2c,
  0x41, 0x32, 0xf9, 0xa6, 0x1e, 0x32, 0x2c, 0x2d, 0x17, 0xad, 0x89, 0x2f,
  0xf3, 0x30, 0xfb, 0x2c, 0x7f, 0x30, 0x97, 0x32, 0xc9, 0x31, 0x30, 0xb1,
  0x50, 0x32, 0xa2, 0x2c, 0xcf, 0x28, 0x7f, 0xaf, 0xaa, 0x30, 0x52, 0xa1,
  0xcb, 0xaf, 0xc1, 0x2c, 0x0c, 0x27, 0x81, 0xb0, 0x52, 0x27, 0x98, 0x30,
  0x4f, 0x2c, 0x46, 0xa6, 0xa0, 0xa8, 0x02, 0xaf, 0xfe, 0xb0, 0x10, 0xb1,
  0xf6, 0x2c, 0x0f, 0x32, 0x08, 0xb0, 0x88, 0xa9, 0x76, 0xb1, 0x58, 0x9f,
  0x37, 0x19, 0x4f, 0xb0, 0xab, 0x30, 0x08, 0x2b, 0x71, 0x2e, 0x27, 0x2c,
  0xee, 0xb0, 0xb2, 0x2c, 0x05, 0xb0, 0x68, 0xb0, 0xf4, 0x30, 0x9c, 0xb1,
  0xca, 0x2c, 0x8c, 0xb1, 0x81, 0x30, 0x99, 0xab, 0x0c, 0xb0, 0xc0, 0xad,
  0x59, 0xb0, 0x52, 0x2c, 0x74, 0x31, 0x4f, 0x30, 0x76, 0xaf, 0xc5, 0x2f,
  0x20, 0x31, 0xbd, 0xad, 0x91, 0x29, 0x89, 0x21, 0x66, 0x31, 0x82, 0x2f,
  0xae, 0x26, 0x51, 0xa6, 0x37, 0x28, 0x51, 0xb0, 0xf2, 0x2c, 0xa8, 0x29,
  0x35, 0x30, 0x41, 0x31, 0x51, 0xb0, 0x20, 0xa2, 0xd4, 0xb1, 0xa8, 0xab,
  0xe8, 0x2a, 0x50, 0x32, 0x8d, 0xb0, 0xf3, 0xa7, 0xe1, 0x30, 0x45, 0xa5,
  0x61, 0xaf, 0x0e, 0x30, 0xd7, 0xad, 0xc0, 0x2b, 0x5a, 0x16, 0x68, 0xae,
  0xf2, 0xb2, 0xa3, 0x2e, 0x5a, 0x30, 0xbe, 0x2e, 0x03, 0xb1, 0x33, 0x31,
  0xaf, 0xb0, 0xc7, 0xb0, 0xa6, 0xae, 0x64, 0xb1, 0xfe, 0xb0, 0x10, 0xac,
  0x59, 0xa9, 0xa0, 0xaf, 0x3f, 0x30, 0x35, 0x30, 0x3d, 0x2c, 0x9d, 0x30,
  0xf7, 0x25, 0xcb, 0x27, 0xe3, 0x2c, 0x86, 0xab, 0xf5, 0xb0, 0x63, 0xb0,
  0xd1, 0xae, 0x26, 0x2f, 0x47, 0xae, 0x82, 0xaf, 0x6b, 0x30, 0x9c, 0xb1,
  0x26, 0x2d, 0x14, 0xa8, 0x8a, 0x26, 0x1e, 0x2f, 0x48, 0xb1, 0xfb, 0x31,
  0xbf, 0xaa, 0x32, 0xad, 0x65, 0x31, 0x1c, 0xaa, 0xab, 0x32, 0x32, 0x9f,
  0x5a, 0xa5, 0x5a, 0xb3, 0xd0, 0xaa, 0x23, 0x30, 0x0b, 0xb2, 0x0b, 0x24,
  0x0a, 0x2f, 0xe9, 0xb1, 0xcb, 0x30, 0x24, 0x29, 0xe8, 0x2d, 0x76, 0x29,
  0x3e, 0xa8, 0x3f, 0x31, 0x2a, 0xa6, 0x17, 0xad, 0x4e, 0x2b, 0xb1, 0x1f,
  0xd3, 0xac, 0x59, 0x30, 0x4f, 0x2c, 0x4e, 0x2a, 0x02, 0x2c, 0xc5, 0xb1,
  0x45, 0xb0, 0x81, 0xae, 0x7a, 0x10, 0x86, 0x2b, 0x07, 0x32, 0xdc, 0x1f,
  0xb0, 0xb0, 0xf5, 0x29, 0x31, 0xab, 0xab, 0xac, 0xd4, 0x2e, 0x92, 0xb0,
  0xff, 0xae, 0xb0, 0xaf, 0xff, 0xae, 0x5f, 0x24, 0x9e, 0xa3, 0x0b, 0xab,
  0x97, 0x31, 0xb9, 0x30, 0x71, 0xa2, 0x9f, 0x2a, 0xe5, 0xaa, 0x2f, 0x2e,
  0x25, 0x32, 0x5f, 0xaf, 0x3e, 0xaa, 0x1d, 0xaf, 0x8c, 0x22, 0x3a, 0x29,
  0xe8, 0x2e, 0x7e, 0xb0, 0x54, 0xac, 0xf9, 0x2a, 0x25, 0xa8, 0xe3, 0x2f,
  0xfd, 0xaa, 0xf0, 0x2e, 0x64, 0x32, 0xab, 0xb0, 0x07, 0x32, 0x94, 0xab,
  0x40, 0xa8, 0xab, 0x2c, 0xdd, 0x2e, 0x22, 0x32, 0x9a, 0xa1, 0x4d, 0xa7,
  0xc5, 0xb0, 0x74, 0x2d, 0x2f, 0xb0, 0x98, 0x25, 0xe2, 0x9f, 0xe7, 0x2e,
  0x4b, 0x2d, 0x4b, 0x2c, 0xe9, 0x30, 0x2c, 0x2c, 0x32, 0xb1, 0x91, 0x30,
  0x4b, 0xaf, 0x8d, 0xaf, 0x5a, 0xac, 0x42, 0x2c, 0x19, 0x31, 0x2b, 0xae,
  0xb8, 0x19, 0x28, 0x2d, 0x9a, 0xae, 0x0f, 0x32, 0xca, 0x2d, 0x77, 0xb1,
  0xd8, 0xb1, 0x57, 0xaa, 0xb9, 0x2e, 0xce, 0xae, 0x99, 0x28, 0xee, 0x30,
  0x26, 0x2b, 0x8b, 0x26, 0xff, 0x28, 0xd4, 0xa8, 0x05, 0xaa, 0xb1, 0x2d,
  0x63, 0xa4, 0xe2, 0x28, 0x96, 0xb1, 0xc8, 0xb0, 0x9a, 0x2c, 0xb5, 0x30,
  0xe8, 0xae, 0x47, 0xb0, 0x80, 0xa9, 0x6e, 0xb0, 0xbc, 0x2e, 0x99, 0x30,
  0x20, 0xaf, 0x09, 0xad, 0x37, 0xad, 0xe1, 0xaa, 0x6d, 0xac, 0x8e, 0x28,
  0x0a, 0x31, 0x86, 0x21, 0x86, 0xb1, 0x2e, 0x2d, 0x18, 0x9e, 0x3d, 0xab,
  0xbb, 0x31, 0x55, 0xb1, 0xa8, 0x30, 0x49, 0x31, 0x3b, 0x25, 0xdd, 0xb1,
  0x94, 0x29, 0x29, 0xa8, 0x72, 0xad, 0xa6, 0x21, 0xc7, 0x1c, 0x4a, 0xad,
  0x71, 0xb1, 0xd6, 0x30, 0xe5, 0xad, 0xd6, 0x2f, 0x78, 0xac, 0x01, 0xae,
  0xb0, 0xaf, 0xa4, 0x32, 0x92, 0x28, 0xca, 0xa6, 0x74, 0xaa, 0x14, 0x2a,
  0xea, 0xaf, 0xdc, 0x2b, 0x3c, 0x29, 0x86, 0xb0, 0x6c, 0x2b, 0x2a, 0x31,
  0x25, 0xa7, 0x2a, 0x2c, 0xbe, 0xb1, 0x04, 0x14, 0xfb, 0x25, 0x1b, 0xad,
  0x47, 0xb0, 0x5a, 0xae, 0xe7, 0xad, 0x1b, 0x1e, 0xa4, 0xaf, 0x04, 0x2a,
  0xe8, 0xaa, 0x5c, 0xb1, 0x81, 0x30, 0x3b, 0x2d, 0xa7, 0x2f, 0x5c, 0xad,
  0xce, 0x25, 0x89, 0x2e, 0x3e, 0x20, 0xcb, 0xb1, 0x81, 0xab, 0x4c, 0xa4,
  0x1f, 0xa8, 0x01, 0x2e, 0x47, 0xa6, 0x12, 0x17, 0xd8, 0xb0, 0x0a, 0xb1,
  0x39, 0xb0, 0xce, 0x31, 0xfb, 0x2f, 0x7e, 0x30, 0xa9, 0xaa, 0x10, 0x2c,
  0x47, 0x31, 0x62, 0x2b, 0x18, 0x2e, 0xf7, 0xb1, 0xc9, 0x2d, 0x8f, 0x2a,
  0x93, 0x27, 0xed, 0x30, 0x58, 0x30, 0xe7, 0x2a, 0xe9, 0xa4, 0x21, 0x27,
  0x8c, 0x23, 0xea, 0x32, 0x6e, 0x27, 0xd9, 0x29, 0xc0, 0x97, 0x0c, 0xac,
  0x27, 0x31, 0xe1, 0x2e, 0x8c, 0x32, 0x34, 0xa7, 0x33, 0xa9, 0x29, 0x2b,
  0xe5, 0xaa, 0xe5, 0x2a, 0x36, 0xb2, 0x1f, 0xa3, 0xd4, 0x26, 0x60, 0x9f,
  0x5c, 0xab, 0x98, 0x1e, 0x6e, 0x24, 0x6e, 0x30, 0x3a, 0x31, 0x7f, 0x29,
  0x5e, 0x1f, 0x88, 0x30, 0x55, 0xac, 0xa5, 0x30, 0xda, 0xb0, 0x5c, 0x2d,
  0xdd, 0x2f, 0x7e, 0xb1, 0xdf, 0xac, 0x02, 0xae, 0x6c, 0xaf, 0x77, 0xac,
  0xf2, 0x9e, 0x02, 0xb0, 0x7a, 0xae, 0x19, 0x28, 0xdb, 0x9f, 0x42, 0x2a,
  0xd2, 0x30, 0x81, 0xad, 0x3e, 0x2f, 0x24, 0x28, 0xe8, 0xb1, 0xfe, 0xb0,
  0x83, 0x2e, 0x73, 0xad, 0x9d, 0x2b, 0xd4, 0xb0, 0x6e, 0x2f, 0x4d, 0x31,
  0x60, 0xa5, 0x57, 0x2b, 0xfe, 0x26, 0x9b, 0x2f, 0xd8, 0xb0, 0xc7, 0xa8,
  0xa8, 0xaf, 0x33, 0x1d, 0xd5, 0xb0, 0x64, 0xa7, 0x44, 0xac, 0x98, 0x9d,
  0x75, 0xb0, 0xc5, 0x2f, 0xb9, 0x2f, 0xdd, 0xa2, 0xff, 0x2c, 0x38, 0x30,
  0xca, 0x2d, 0x61, 0x32, 0xd4, 0xa3, 0xed, 0x2f, 0x54, 0x2c, 0x1c, 0xad,
  0x84, 0x25, 0xa1, 0xac, 0x5a, 0x2e, 0x23, 0x1b, 0x51, 0x2e, 0x85, 0x30,
  0xd6, 0xaf, 0xb1, 0xa5, 0x20, 0xb1, 0xaa, 0x2d, 0x46, 0x30, 0xa8, 0xa9,
  0x52, 0xb1, 0xeb, 0xac, 0xcf, 0x30, 0xf6, 0xaf, 0x60, 0x2d, 0x1f, 0x2e,
  0x95, 0xab, 0x98, 0xa9, 0xb5, 0xa4, 0x4d, 0xa8, 0x9b, 0x27, 0x34, 0xae,
  0xb8, 0xab, 0x3b, 0xb1, 0xe6, 0xae, 0x34, 0x9c, 0xef, 0x2e, 0x85, 0x30,
  0x7f, 0x2e, 0x5f, 0xaf, 0x06, 0xad, 0xbd, 0x2f, 0x2e, 0x2d, 0xf2, 0x2c,
  0xdb, 0x2d, 0x2a, 0xa9, 0x0e, 0x2c, 0x94, 0xae, 0x44, 0x2b, 0x13, 0xb1,
  0x63, 0x2b, 0x36, 0x2e, 0x19, 0x29, 0x21, 0x31, 0x3c, 0x17, 0x9f, 0xae,
  0xa0, 0xb0, 0xd3, 0x2f, 0x5a, 0x24, 0x0c, 0xb1, 0xdc, 0xa2, 0xb6, 0x31,
  0x50, 0xb0, 0x79, 0xaf, 0x16, 0x2c, 0x2a, 0xb2, 0x30, 0xa2, 0xff, 0x9c,
  0x13, 0xb1, 0x28, 0xaf, 0x67, 0x24, 0x41, 0xa8, 0xdc, 0x31, 0xd6, 0x2e,
  0xad, 0xb1, 0xec, 0x2c, 0x7e, 0xad, 0xa8, 0xaf, 0x0b, 0x30, 0x15, 0xa9,
  0x5b, 0x30, 0x78, 0x30, 0xe7, 0xa3, 0xa2, 0x1e, 0xc5, 0x2f, 0xec, 0x2e,
  0x6d, 0x2e, 0x6c, 0x31, 0x37, 0x2c, 0xa9, 0xb0, 0x46, 0xa1, 0x8f, 0xaf,
  0x09, 0x2e, 0x0a, 0xae, 0x80, 0x2e, 0xfc, 0xa9, 0x42, 0x30, 0x98, 0x32,
  0xbe, 0x2e, 0x94, 0x9e, 0xdb, 0x31, 0x41, 0x2f, 0x14, 0x2f, 0x3a, 0xad,
  0x1c, 0x28, 0x88, 0xb1, 0x20, 0xaf, 0x85, 0xa5, 0x05, 0x30, 0x03, 0x2b,
  0x48, 0x2d, 0x54, 0xa8, 0x96, 0x9c, 0x68, 0xb1, 0x86, 0x2b, 0x6a, 0x2e,
  0x9c, 0xad, 0x2d, 0xaf, 0xf2, 0xae, 0xf1, 0x31, 0x19, 0x2f, 0x30, 0xac,
  0x63, 0x30, 0x39, 0x2a, 0xf6, 0x2c, 0x13, 0xa9, 0xf2, 0x30, 0x2c, 0xac,
  0x79, 0xad, 0x7a, 0x32, 0x4f, 0xaf, 0x72, 0x26, 0x02, 0xaf, 0x06, 0x25,
  0x20, 0x26, 0x35, 0xaf, 0xf9, 0x20, 0xe1, 0x30, 0x1c, 0xb1, 0x1e, 0xa0,
  0x24, 0x30, 0x4b, 0x2e, 0x0d, 0xb0, 0x64, 0xac, 0x5c, 0x24, 0x97, 0x2f,
  0x3e, 0x30, 0xa1, 0x28, 0x95, 0x31, 0x4e, 0xb0, 0xe4, 0xaa, 0x81, 0x28,
  0x1b, 0x2c, 0x2f, 0xb0, 0x38, 0xb0, 0x0e, 0x95, 0xc3, 0x27, 0xf7, 0x31,
  0x62, 0x31, 0x95, 0xb0, 0x1d, 0xad, 0x5f, 0xb0, 0xd7, 0x2d, 0x86, 0x20,
  0xa7, 0x31, 0xce, 0x30, 0x17, 0xb0, 0x6a, 0x2d, 0x89, 0x31, 0x0e, 0x30,
  0x06, 0xaf, 0xb3, 0x2a, 0x35, 0xb2, 0x4e, 0xb0, 0x8f, 0x30, 0x3e, 0xa9,
  0x04, 0x2c, 0x00, 0x32, 0x50, 0xad, 0xde, 0x22, 0x46, 0xa4, 0x1f, 0x2e,
  0x94, 0xb0, 0x27, 0x30, 0xc7, 0xa9, 0xe8, 0xad, 0x7c, 0xb1, 0x25, 0x23,
  0x61, 0x2d, 0xa3, 0xb0, 0x5a, 0xb1, 0x58, 0x27, 0x96, 0x31, 0x4d, 0x32,
  0x64, 0x2d, 0x90, 0xac, 0x43, 0x2c, 0xd9, 0x2c, 0x06, 0x24, 0x19, 0x29,
  0xfd, 0x30, 0x5d, 0xb2, 0x15, 0xae, 0x3a, 0x2e, 0x0f, 0x2d, 0xb6, 0xaa,
  0x10, 0xaf, 0x85, 0x2d, 0x62, 0x2d, 0x06, 0xaf, 0x62, 0xb1, 0x76, 0xab,
  0xbf, 0x2e, 0x06, 0xaf, 0x07, 0x2b, 0xbd, 0xb0, 0xdc, 0x31, 0xb9, 0x2e,
  0xa2, 0xb1, 0x7b, 0x30, 0x5e, 0x2e, 0xab, 0x27, 0xb6, 0xae, 0x88, 0x2d,
  0x94, 0xb0, 0x4d, 0x31, 0x52, 0xae, 0x05, 0xb0, 0x9d, 0x2c, 0x03, 0xab,
  0x44, 0xa8, 0xc2, 0xb2, 0x01, 0x30, 0x81, 0xb1, 0xe1, 0xaa, 0x7c, 0x2f,
  0xc7, 0x29, 0xbe, 0xaf, 0x58, 0x28, 0x15, 0x2b, 0xb3, 0xab, 0x96, 0xb0,
  0x60, 0xb2, 0xe7, 0x32, 0x74, 0xb1, 0xbe, 0xb1, 0x92, 0xb0, 0xf3, 0x2d,
  0xa8, 0x2e, 0xb9, 0x2c, 0x31, 0x2c, 0x28, 0x2c, 0x39, 0xac, 0xb9, 0x25,
  0x0d, 0x2f, 0x5e, 0xb1, 0xd2, 0xb2, 0x36, 0x28, 0x09, 0x2d, 0x6e, 0xa7,
  0x18, 0xa8, 0xf5, 0x2c, 0x76, 0xaa, 0x41, 0x2e, 0xf1, 0x93, 0x76, 0xb2,
  0xba, 0xaf, 0x9d, 0xb1, 0xcd, 0x2f, 0x6a, 0x30, 0x27, 0xa9, 0x52, 0x31,
  0x44, 0xac, 0x3a, 0x2b, 0x0c, 0xaf, 0x96, 0x2e, 0x58, 0x31, 0x2a, 0xa4,
  0x41, 0xac, 0x0d, 0xb1, 0xf1, 0x30, 0xe7, 0x2d, 0x58, 0x1d, 0xe4, 0xa7,
  0x31, 0x31, 0x26, 0x2e, 0xd1, 0x24, 0xb0, 0x29, 0x82, 0x2c, 0x46, 0xac,
  0x48, 0x2d, 0xa4, 0x2e, 0xa6, 0x27, 0x44, 0x2b, 0x1c, 0xb1, 0x7d, 0x2e,
  0x75, 0xb1, 0x9b, 0x2c, 0x73, 0x2d, 0xc9, 0x31, 0x7e, 0x32, 0xae, 0x2c,
  0x46, 0xda, 0xff, 0xff, 0x04, 0x00, 0x00, 0x00, 0x00, 0x08, 0x00, 0x00,
  0x9c, 0xab, 0x15, 0xac, 0x72, 0xac, 0xe1, 0x2f, 0xa9, 0x2f, 0x5c, 0x2e,
  0x26, 0x2e, 0x9d, 0x31, 0x7d, 0x29, 0xb7, 0xa9, 0x44, 0xaf, 0x30, 0xb0,
  0x2b, 0xac, 0xbb, 0x1b, 0x28, 0x32, 0x6e, 0x28, 0x04, 0xb3, 0x7a, 0x2c,
  0x39, 0xae, 0x80, 0x2b, 0xb9, 0xaf, 0x02, 0x2e, 0xf6, 0xb0, 0x4c, 0xb3,
  0x13, 0x30, 0xcd, 0xb1, 0xd6, 0xb1, 0x8b, 0x2b, 0xdc, 0x32, 0x3e, 0x2e,
  0xa7, 0xac, 0xee, 0xaf, 0xb7, 0x32, 0xb9, 0xb0, 0xd5, 0xa4, 0xa0, 0xa2,
  0x5b, 0x34, 0x5c, 0xad, 0x9b, 0x34, 0xde, 0xa8, 0x31, 0xac, 0x23, 0x1f,
  0x9b, 0x30, 0x2a, 0x34, 0x87, 0x2c, 0x16, 0x34, 0x50, 0x2e, 0x5b, 0x31,
  0xa7, 0x33, 0xf3, 0xac, 0xfc, 0xae, 0xa6, 0x32, 0xaf, 0x32, 0x02, 0xb1,
  0x8e, 0x2d, 0xbf, 0xae, 0xcc, 0x2f, 0xe4, 0x33, 0x65, 0x30, 0xa8, 0xb0,
  0xa7, 0x34, 0x97, 0x33, 0x85, 0x33, 0x7c, 0x34, 0xe2, 0x32, 0x40, 0xb2,
  0xd1, 0xa1, 0x25, 0xaa, 0x14, 0x32, 0x70, 0xa8, 0xc0, 0x2f, 0x0b, 0x34,
  0x08, 0xb1, 0xc6, 0xaf, 0x6a, 0x9a, 0x2c, 0xac, 0x36, 0x34, 0x0f, 0x34,
  0xdd, 0x30, 0x10, 0x32, 0x77, 0x33, 0xe9, 0xa5, 0x39, 0xb0, 0xe7, 0x30,
  0xc1, 0xb1, 0x62, 0x33, 0x5f, 0xb1, 0x3d, 0xaa, 0xe0, 0x26, 0xf1, 0xb1,
  0x3f, 0x32, 0x83, 0x34, 0xc3, 0xac, 0x38, 0x2b, 0x77, 0xb1, 0x23, 0x2b,
  0x4b, 0x33, 0x54, 0x31, 0x3d, 0xb3, 0xa1, 0xb1, 0xc5, 0xae, 0xa2, 0x30,
  0x01, 0x2c, 0xff, 0xae, 0x6a, 0xae, 0x34, 0xae, 0x50, 0x32, 0x62, 0x28,
  0xfa, 0xb2, 0x07, 0xaf, 0x73, 0xa5, 0xdb, 0xb0, 0x77, 0x30, 0xef, 0x33,
  0x79, 0xb3, 0x2a, 0xb1, 0xa9, 0x30, 0x7c, 0x32, 0x4a, 0x2c, 0xd7, 0x31,
  0xaf, 0xaf, 0xa4, 0xa8, 0x2c, 0xb1, 0x74, 0xb3, 0x5f, 0x33, 0x4f, 0xb2,
  0xbe, 0x31, 0xec, 0xa9, 0xd1, 0xaa, 0x61, 0xb2, 0x1e, 0xad, 0x13, 0x20,
  0x9c, 0x30, 0x7b, 0x29, 0x5c, 0x30, 0xee, 0x2d, 0x84, 0xa8, 0x8a, 0xab,
  0xad, 0xa9, 0x6f, 0xad, 0x75, 0xb0, 0xd8, 0x27, 0x45, 0x2e, 0x1d, 0x2e,
  0x80, 0xa4, 0xa7, 0x99, 0x48, 0x2b, 0x0a, 0xb2, 0x1d, 0xad, 0x65, 0x32,
  0xb1, 0x34, 0xbe, 0xa8, 0x01, 0x28, 0xd5, 0x21, 0x3b, 0xb1, 0x9d, 0xb1,
  0xff, 0x2d, 0x70, 0x2c, 0x54, 0x34, 0xd5, 0xad, 0xe6, 0x2e, 0xed, 0x2b,
  0xf2, 0xb0, 0x5c, 0x2a, 0x65, 0xb0, 0x01, 0x2d, 0x6b, 0x32, 0x0e, 0xb3,
  0x60, 0x33, 0x31, 0xb2, 0x96, 0xb3, 0x2d, 0xb1, 0x13, 0xb1, 0xc7, 0x2a,
  0x88, 0xac, 0x77, 0xb0, 0x95, 0xaf, 0xd6, 0x2a, 0x19, 0x34, 0x55, 0xb1,
  0xe3, 0x21, 0xa3, 0x2f, 0xe6, 0x30, 0xb3, 0x2c, 0x62, 0xaa, 0x3e, 0xb3,
  0x46, 0xb2, 0xb2, 0x32, 0xc8, 0x2b, 0xbc, 0x2f, 0xea, 0x2c, 0xe5, 0xae,
  0x03, 0xb2, 0x00, 0x30, 0xdb, 0xb3, 0xb3, 0xb0, 0x1d, 0xb4, 0xd0, 0xa8,
  0x91, 0x26, 0x78, 0x2a, 0x0d, 0x2a, 0x6c, 0x24, 0xe8, 0xb1, 0xac, 0x31,
  0x0a, 0xae, 0x4f, 0xad, 0xa4, 0xb3, 0x10, 0x22, 0x44, 0x2f, 0x5e, 0xa7,
  0xf2, 0x25, 0x3e, 0xad, 0xd9, 0xb3, 0xa1, 0xb0, 0x2d, 0xb1, 0x71, 0xa5,
  0x49, 0x2e, 0xf7, 0xb1, 0x01, 0x33, 0x00, 0x1e, 0xe3, 0x2e, 0x3f, 0xac,
  0x96, 0xb0, 0xb0, 0x2e, 0xf9, 0xa5, 0xa6, 0x2a, 0x48, 0x14, 0xde, 0x20,
  0xc9, 0xad, 0x5d, 0x23, 0x1c, 0xac, 0x83, 0x31, 0xfd, 0xb3, 0x4a, 0xb0,
  0xcb, 0xb2, 0xcd, 0xa1, 0xc2, 0x31, 0xb7, 0x2f, 0xb1, 0x9f, 0xd0, 0x31,
  0xf7, 0x2c, 0xbd, 0xb2, 0xde, 0x26, 0x0a, 0x33, 0x1b, 0xac, 0x04, 0x23,
  0x04, 0xb3, 0x58, 0x2b, 0x12, 0x22, 0x81, 0xaa, 0x83, 0x2c, 0x44, 0x31,
  0xa6, 0xaf, 0xad, 0x33, 0xa9, 0x2c, 0x8e, 0xb0, 0x5e, 0x31, 0x71, 0x32,
  0x45, 0xae, 0x02, 0x24, 0x01, 0x20, 0x01, 0xb2, 0xfe, 0x2d, 0xa8, 0xb2,
  0xe3, 0xac, 0x4f, 0x30, 0x18, 0x32, 0x7c, 0x2e, 0xb8, 0xaf, 0x20, 0xad,
  0x2d, 0xb4, 0xee, 0x2d, 0xa9, 0xb3, 0x70, 0x30, 0xf7, 0xaf, 0x15, 0xb4,
  0x78, 0x2e, 0xf0, 0xa6, 0xea, 0x29, 0x6d, 0xaa, 0x8a, 0x2c, 0x8a, 0x2d,
  0x91, 0xa8, 0x77, 0x31, 0x58, 0x2e, 0x3c, 0xb1, 0xb2, 0x29, 0x0a, 0x2b,
  0x56, 0x04, 0x6d, 0xaf, 0x46, 0x33, 0xc0, 0x33, 0xef, 0x32, 0x77, 0x34,
  0x57, 0x27, 0x86, 0x2d, 0xbc, 0x29, 0x09, 0xb1, 0x08, 0x31, 0xbd, 0xa9,
  0x6f, 0x2a, 0x3e, 0x30, 0xa5, 0x2d, 0xdd, 0xb0, 0x9e, 0xb1, 0x07, 0xae,
  0x92, 0x31, 0xb5, 0xaa, 0xc7, 0x32, 0xa6, 0xaf, 0x11, 0x2f, 0x36, 0x32,
  0xb9, 0xa4, 0x52, 0xb1, 0xe3, 0xa8, 0x0d, 0x2b, 0x5c, 0xb0, 0x46, 0xad,
  0x3f, 0x22, 0xc6, 0x32, 0xcc, 0x33, 0x8c, 0xb2, 0xc5, 0x31, 0x7a, 0x9d,
  0xd5, 0x2d, 0x36, 0xb0, 0x7b, 0xad, 0x18, 0xb0, 0xec, 0xb0, 0xb8, 0xb2,
  0xab, 0xae, 0x55, 0x30, 0x02, 0xaf, 0x7d, 0xb0, 0xba, 0x32, 0x80, 0x30,
  0xcb, 0x2c, 0x14, 0x33, 0x00, 0x1c, 0x33, 0xb3, 0x35, 0xad, 0x50, 0xaf,
  0x97, 0xb1, 0x90, 0x2c, 0xa3, 0xae, 0x76, 0x2e, 0x9b, 0xb0, 0x43, 0x25,
  0x17, 0xa5, 0x87, 0x2f, 0x01, 0x31, 0x1e, 0xb3, 0xbe, 0x2c, 0xe4, 0xb2,
  0xc5, 0xb0, 0x9a, 0xb2, 0x9a, 0xaf, 0x15, 0x31, 0x4c, 0xac, 0xd5, 0xb0,
  0x82, 0x2d, 0x61, 0x2f, 0x5e, 0xb3, 0xfb, 0xaf, 0xe1, 0x1b, 0x02, 0xb2,
  0x96, 0xb0, 0xb7, 0x2e, 0x42, 0xa8, 0x4a, 0xa9, 0x16, 0x34, 0xee, 0x29,
  0x1d, 0x2c, 0x2b, 0x2d, 0x38, 0x21, 0x34, 0xb1, 0x18, 0xb0, 0x72, 0x2e,
  0xa0, 0x30, 0xbd, 0xa7, 0x10, 0xa6, 0x82, 0xb2, 0xa8, 0xb0, 0xfb, 0xb2,
  0x3a, 0x32, 0x44, 0x31, 0xe7, 0xb1, 0x74, 0x34, 0x6e, 0xb1, 0xe2, 0xb1,
  0xe8, 0xb1, 0xae, 0x34, 0xa2, 0x2a, 0x12, 0x30, 0xc7, 0xa7, 0x49, 0x32,
  0xd4, 0x2e, 0x0d, 0x32, 0xa8, 0xac, 0x06, 0x34, 0xa6, 0x30, 0xcf, 0x32,
  0x3c, 0x27, 0xd8, 0x2b, 0x10, 0x2a, 0xb7, 0xa4, 0xc8, 0x33, 0xf0, 0x33,
  0x62, 0xad, 0x97, 0xae, 0xb0, 0x34, 0x7f, 0x25, 0x31, 0x8c, 0xa9, 0x28,
  0x97, 0x2b, 0x11, 0xa4, 0xed, 0x33, 0xce, 0x32, 0x3a, 0xac, 0x6c, 0x25,
  0x3e, 0x29, 0xa4, 0x30, 0xdd, 0xb2, 0x0a, 0xae, 0x19, 0x9f, 0x63, 0xaf,
  0x0f, 0x31, 0x4c, 0xae, 0xa7, 0xb2, 0x7b, 0xad, 0xf3, 0x2b, 0xca, 0x30,
  0xf1, 0x2b, 0x87, 0xb2, 0xcd, 0xad, 0x72, 0xaf, 0xa1, 0xb0, 0x78, 0x2d,
  0x67, 0xa7, 0x2c, 0x2e, 0xf9, 0x15, 0xd8, 0xaf, 0x59, 0x32, 0x6e, 0x32,
  0x1c, 0xb2, 0x10, 0x1c, 0x41, 0x32, 0x6b, 0x1f, 0x99, 0x32, 0x43, 0x30,
  0x6b, 0x2c, 0x97, 0xac, 0x94, 0xaf, 0x77, 0x2f, 0x68, 0x28, 0x52, 0x31,
  0xfe, 0xb1, 0x1b, 0xb0, 0x3b, 0xb2, 0xb0, 0xb0, 0x59, 0xaf, 0xae, 0x31,
  0x3b, 0xb3, 0x1b, 0xb1, 0xe7, 0xb1, 0x48, 0x30, 0x2f, 0x31, 0x9d, 0xaf,
  0x3d, 0xb1, 0xe2, 0xb2, 0x38, 0x2e, 0xfa, 0x30, 0x5f, 0xb1, 0x1c, 0xad,
  0x8d, 0xad, 0x7c, 0xb2, 0x6c, 0xaf, 0x2d, 0x30, 0xa4, 0x2e, 0x24, 0x2f,
  0x5e, 0x32, 0x89, 0x2e, 0x09, 0xb4, 0x1d, 0x31, 0x52, 0x30, 0xef, 0xa8,
  0xb1, 0x28, 0x77, 0x30, 0x2c, 0xb2, 0x39, 0xb4, 0xe9, 0xad, 0x4d, 0xad,
  0xa0, 0x30, 0x61, 0xa5, 0x5d, 0x2d, 0xe0, 0x2d, 0xe1, 0x9a, 0x34, 0xb1,
  0x71, 0x2c, 0x20, 0x31, 0x75, 0xac, 0xb2, 0x24, 0x59, 0xb4, 0x15, 0x2f,
  0x6c, 0xb2, 0x35, 0xb4, 0x37, 0x2d, 0xd9, 0x22, 0x2e, 0xaa, 0x12, 0x23,
  0x43, 0xb0, 0xa3, 0xae, 0x40, 0x31, 0x0e, 0x30, 0xfc, 0x2c, 0xc2, 0x29,
  0x96, 0x30, 0x21, 0x30, 0xab, 0x2c, 0xf1, 0x32, 0x3b, 0xb2, 0xc7, 0x2b,
  0x27, 0xb2, 0xfe, 0x30, 0x4f, 0x32, 0xbc, 0x2d, 0x99, 0x2e, 0x76, 0x2f,
  0x3b, 0xaf, 0x57, 0x31, 0x55, 0x32, 0x35, 0xb2, 0x42, 0xb1, 0x37, 0x2f,
  0x23, 0x33, 0x92, 0xb1, 0x9e, 0xb2, 0x3a, 0x21, 0x09, 0xa6, 0x20, 0x32,
  0x02, 0x2e, 0x23, 0xb1, 0xed, 0x31, 0xd7, 0x2d, 0x60, 0x33, 0x46, 0xae,
  0xe0, 0x2d, 0x0d, 0x2b, 0x4f, 0x34, 0x7c, 0xa3, 0xaa, 0x2a, 0x8e, 0xb0,
  0x1a, 0x33, 0x6a, 0x24, 0x55, 0x33, 0x97, 0xad, 0xa0, 0x32, 0x09, 0x33,
  0xbd, 0x34, 0x97, 0x2d, 0x76, 0xae, 0xad, 0xac, 0x4e, 0x27, 0xa2, 0x2d,
  0x23, 0x34, 0x1d, 0xb0, 0x5f, 0xb0, 0xd8, 0x33, 0x7d, 0xab, 0xe3, 0x34,
  0x61, 0x2f, 0xa7, 0x32, 0x21, 0x33, 0xe6, 0x31, 0x04, 0x32, 0x92, 0x32,
  0x36, 0x2d, 0xaa, 0x2c, 0x52, 0x26, 0xaf, 0x28, 0xde, 0xa4, 0x1f, 0xad,
  0x71, 0x31, 0xd6, 0x2b, 0xd9, 0xaa, 0xf4, 0x31, 0x0c, 0xa9, 0x23, 0x28,
  0x65, 0x31, 0x4d, 0xab, 0x8e, 0x33, 0x0b, 0x27, 0x57, 0x34, 0x7d, 0x8c,
  0x01, 0x2e, 0xe9, 0xa9, 0xa0, 0xaa, 0x3f, 0xb0, 0x19, 0x1f, 0x87, 0x2e,
  0x81, 0x32, 0xcc, 0x27, 0xe0, 0x2d, 0x27, 0xae, 0x6f, 0x32, 0x3a, 0x28,
  0x3e, 0x25, 0x0c, 0xa9, 0x3e, 0x30, 0xa4, 0x2c, 0x08, 0x2c, 0xa0, 0x2c,
  0xcf, 0x28, 0x7b, 0xb2, 0x40, 0xa6, 0x75, 0x2a, 0x84, 0x24, 0xd0, 0xa8,
  0x96, 0x32, 0x35, 0xab, 0x4a, 0x2c, 0x60, 0xac, 0xa7, 0x2d, 0x0b, 0xb0,
  0xfb, 0xab, 0x4b, 0xb1, 0x93, 0x30, 0x79, 0xae, 0x90, 0x32, 0x31, 0x2c,
  0xbd, 0xa6, 0xe4, 0x2f, 0x93, 0x30, 0xa8, 0x32, 0x10, 0xb2, 0x73, 0xad,
  0x0d, 0xac, 0x81, 0xa6, 0x52, 0xb2, 0x73, 0xac, 0xc5, 0x30, 0xfc, 0xb0,
  0xed, 0xac, 0x82, 0xb1, 0x7c, 0xa9, 0x91, 0x2f, 0x29, 0x34, 0x49, 0x27,
  0x9e, 0x29, 0x97, 0x33, 0xb3, 0x34, 0x1a, 0x23, 0x23, 0x32, 0x1a, 0x28,
  0xf7, 0x34, 0x07, 0xb1, 0xee, 0x25, 0x08, 0x28, 0xa8, 0x2a, 0xbb, 0x31,
  0x0a, 0x33, 0xa1, 0xad, 0xb5, 0x22, 0xa9, 0x31, 0xa9, 0x34, 0x15, 0xab,
  0xec, 0x25, 0x6e, 0x2f, 0x9c, 0x2b, 0xf6, 0x32, 0x7c, 0x32, 0xaa, 0x2d,
  0x80, 0xad, 0x86, 0x33, 0x2e, 0x32, 0x30, 0x2d, 0x7a, 0xaf, 0x65, 0xad,
  0x90, 0xb0, 0x83, 0xaa, 0xf5, 0xb1, 0x02, 0x32, 0x80, 0x31, 0x10, 0xad,
  0x69, 0x2f, 0xa8, 0xa4, 0x87, 0xad, 0xd9, 0xae, 0x44, 0x30, 0xad, 0x31,
  0x72, 0x31, 0x88, 0x9e, 0x73, 0x2d, 0x39, 0x28, 0x2b, 0x26, 0xa3, 0xac,
  0xf4, 0xa9, 0xcc, 0x2f, 0xd2, 0xaa, 0xa9, 0x2d, 0x30, 0x29, 0x88, 0x28,
  0xb4, 0x30, 0x2c, 0xb4, 0xf8, 0x1d, 0x14, 0xb3, 0xce, 0xab, 0x51, 0xb4,
  0x1d, 0xac, 0xea, 0x2f, 0xe7, 0xb0, 0x07, 0xa9, 0x0e, 0x31, 0x2a, 0xb1,
  0x04, 0xb1, 0x3f, 0x30, 0xb1, 0xae, 0x02, 0x2a, 0x40, 0x1f, 0xf6, 0x2f,
  0x27, 0x2f, 0x5c, 0x30, 0xb6, 0x2f, 0x6b, 0xb1, 0xe6, 0xb3, 0x7d, 0x2d,
  0x6a, 0x31, 0xae, 0x30, 0x25, 0xb3, 0x58, 0xb2, 0x21, 0x32, 0x59, 0xb4,
  0x19, 0xb4, 0xb2, 0x27, 0x2c, 0xb3, 0xfc, 0x31, 0x6e, 0xb4, 0x17, 0x2b,
  0xd7, 0x2c, 0x38, 0xad, 0x24, 0x1c, 0xb9, 0xb1, 0x2f, 0xb0, 0xb3, 0xb3,
  0xdb, 0x2c, 0xb9, 0x2c, 0x66, 0x2c, 0xac, 0xb0, 0x04, 0xae, 0xf3, 0xa8,
  0x0b, 0x30, 0x00, 0x2e, 0x29, 0x2e, 0xdf, 0x26, 0x86, 0xad, 0xf3, 0xa9,
  0x33, 0xb3, 0xae, 0xae, 0xb1, 0x32, 0x31, 0xb2, 0xc9, 0x30, 0x0a, 0xb4,
  0x46, 0xaf, 0x37, 0x30, 0x48, 0x29, 0x26, 0x23, 0x07, 0xb2, 0xb0, 0x31,
  0x6d, 0xb0, 0x40, 0x31, 0x47, 0x2c, 0xab, 0x18, 0xc3, 0xae, 0xd1, 0x34,
  0xda, 0x33, 0x35, 0x34, 0x64, 0xb1, 0x26, 0xab, 0x2f, 0x31, 0xd9, 0x2f,
  0x24, 0xb2, 0x57, 0x32, 0x4f, 0x34, 0xdb, 0x31, 0xe4, 0x30, 0xd4, 0xad,
  0x4a, 0x2d, 0xae, 0x27, 0x95, 0xb0, 0x78, 0x32, 0xd2, 0x2d, 0x9a, 0xb0,
  0x29, 0x32, 0x66, 0x9d, 0x3d, 0x34, 0x6d, 0xb1, 0xd0, 0xae, 0xb2, 0x31,
  0x56, 0x2f, 0xa3, 0x19, 0x80, 0x32, 0x78, 0x2c, 0x3f, 0xb2, 0xde, 0xaf,
  0xa9, 0xb0, 0x11, 0x21, 0xbc, 0xb3, 0x55, 0x31, 0x07, 0xb0, 0x5b, 0x33,
  0x78, 0x20, 0x55, 0x20, 0x0a, 0x2f, 0x41, 0xad, 0xe1, 0x31, 0x0f, 0x2f,
  0x6b, 0xb3, 0xc1, 0xaa, 0xa3, 0x29, 0xd0, 0x2e, 0x04, 0xac, 0xac, 0x24,
  0xa1, 0xb1, 0xe3, 0xb2, 0x21, 0x2b, 0xb9, 0x32, 0x0e, 0x30, 0x1b, 0x33,
  0xc5, 0x2d, 0xa1, 0xb1, 0x24, 0x31, 0xa9, 0x2b, 0x59, 0x30, 0x37, 0xac,
  0x8f, 0x28, 0xc3, 0xad, 0x7f, 0xb2, 0x3c, 0xa0, 0xb4, 0x33, 0xec, 0x32,
  0x48, 0x31, 0xec, 0x31, 0x23, 0x30, 0x66, 0x2c, 0x53, 0xb0, 0xf0, 0xb0,
  0xf8, 0x30, 0x03, 0x30, 0x5d, 0xb2, 0x79, 0x31, 0x0b, 0x30, 0x50, 0xac,
  0xde, 0xa4, 0x89, 0x33, 0x3d, 0xb2, 0x15, 0xae, 0x99, 0x30, 0x63, 0x2e,
  0x7d, 0x2f, 0x7a, 0xb2, 0x7e, 0xb0, 0x40, 0xb0, 0x3d, 0x31, 0x97, 0xb2,
  0xcb, 0xaa, 0xcd, 0xac, 0x41, 0x2c, 0x08, 0x1c, 0xc3, 0x33, 0x80, 0xb1,
  0x14, 0x29, 0x06, 0x2d, 0x18, 0xb1, 0xea, 0x31, 0x01, 0xb4, 0x13, 0x32,
  0x6e, 0xb0, 0x82, 0x32, 0xb7, 0x1c, 0xbc, 0x2f, 0x03, 0xb4, 0x2d, 0x2f,
  0x06, 0xa5, 0x4a, 0xb3, 0xbb, 0xb0, 0xb3, 0x32, 0x88, 0xad, 0x45, 0x33,
  0x74, 0xad, 0x55, 0x32, 0x72, 0x2d, 0x85, 0x2f, 0x00, 0x2b, 0x1e, 0x32,
  0xbc, 0xad, 0xfa, 0x2d, 0xae, 0xa8, 0xea, 0xab, 0xdd, 0xb1, 0xba, 0x2f,
  0x5c, 0xb4, 0x5f, 0x2c, 0x42, 0x27, 0x91, 0xad, 0x97, 0xa9, 0x19, 0x2b,
  0x65, 0x31, 0x17, 0x26, 0x98, 0x2d, 0x0d, 0x31, 0xa9, 0xb1, 0xd3, 0x31,
  0x20, 0x30, 0x79, 0x1b, 0x62, 0xb3, 0x8a, 0xaa, 0x81, 0x2c, 0xef, 0xae,
  0x71, 0xad, 0x5b, 0xb3, 0x1c, 0xb4, 0xb0, 0x31, 0xb0, 0xaf, 0x3a, 0xa4,
  0x3b, 0xaf, 0x0e, 0x2c, 0x5e, 0xb1, 0xc2, 0xb1, 0x31, 0xb1, 0xb5, 0x33,
  0x2b, 0xb3, 0xc1, 0xb1, 0xbc, 0x31, 0x37, 0xb4, 0x70, 0xac, 0x68, 0xb0,
  0xf8, 0xb3, 0x98, 0x31, 0xac, 0xb1, 0xe5, 0xb1, 0x63, 0x30, 0xe7, 0xb3,
  0x0e, 0x2d, 0xfe, 0x22, 0x69, 0x2d, 0xbd, 0x33, 0x40, 0x2c, 0xfa, 0xa8,
  0x06, 0xb4, 0x26, 0x24, 0x6b, 0xb3, 0xd1, 0x26, 0xa6, 0x2c, 0x1b, 0xa7,
  0x5d, 0xb2, 0x44, 0x2c, 0x15, 0xb4, 0x15, 0x25, 0x65, 0x31, 0xe8, 0xb2,
  0x62, 0x2d, 0xb4, 0x1e, 0x95, 0x29, 0x4d, 0xa3, 0xf1, 0xae, 0xf0, 0x1c,
  0xd2, 0xb2, 0x90, 0xb2, 0x83, 0x32, 0x3e, 0x32, 0x08, 0xb3, 0x84, 0xb2,
  0xdf, 0xaa, 0x43, 0x32, 0x04, 0x33, 0xe9, 0xb3, 0x63, 0xaa, 0x16, 0xb2,
  0x3a, 0xac, 0xc3, 0x31, 0x8e, 0xac, 0x11, 0x32, 0x31, 0xb3, 0x79, 0xac,
  0x76, 0x27, 0xea, 0xb2, 0x59, 0xae, 0x70, 0x2a, 0x25, 0xa2, 0x1b, 0x33,
  0xe0, 0xae, 0xec, 0xa9, 0xd9, 0xb1, 0x7d, 0xb1, 0xd6, 0x33, 0x35, 0x9a,
  0xee, 0x2a, 0x3a, 0x9d, 0x7b, 0x2f, 0x06, 0xac, 0x71, 0x33, 0xe6, 0x2f,
  0xb0, 0xaa, 0xa2, 0xaf, 0x72, 0x32, 0xed, 0x2e, 0xa7, 0xaa, 0x40, 0x2b,
  0xfb, 0x32, 0x3b, 0x28, 0x11, 0x2f, 0x52, 0x2d, 0x5b, 0x33, 0x54, 0xb0,
  0x38, 0x33, 0x3c, 0x15, 0x10, 0xb1, 0x53, 0x2e, 0x5c, 0x28, 0x92, 0xb0,
  0x47, 0xb1, 0x71, 0xa0, 0x42, 0xb1, 0x88, 0x31, 0x52, 0xe2, 0xff, 0xff,
  0x04, 0x00, 0x00, 0x00, 0x18, 0x01, 0x00, 0x00, 0x59, 0xa8, 0x62, 0x2d,
  0xda, 0xaa, 0x70, 0xb1, 0x07, 0x30, 0x53, 0x32, 0xb1, 0xb5, 0xc3, 0x35,
  0x92, 0xb4, 0x2e, 0x37, 0x2e, 0x37, 0x4e, 0xb4, 0xc9, 0xb5, 0x55, 0x92,
  0x45, 0x36, 0x13, 0x31, 0x07, 0x29, 0x11, 0x30, 0x44, 0xb4, 0x55, 0xb5,
  0x2e, 0x37, 0xc1, 0x93, 0x33, 0xac, 0xba, 0xad, 0x96, 0x34, 0x05, 0xac,
  0xf4, 0xb4, 0x85, 0x34, 0x36, 0xb1, 0xf7, 0xb2, 0x6e, 0xb5, 0x3f, 0x33,
  0xdd, 0xb5, 0xe4, 0x28, 0xb4, 0x35, 0xff, 0xb3, 0x5b, 0x35, 0x65, 0x2d,
  0x77, 0xb5, 0x7c, 0xb8, 0x4f, 0xb5, 0x17, 0x40, 0x19, 0xb4, 0x58, 0xb1,
  0xa8, 0xb0, 0x65, 0xb4, 0x3e, 0xb3, 0x68, 0xb4, 0x61, 0x3c, 0x9c, 0x40,
  0x9c, 0x3c, 0xce, 0x3b, 0x7c, 0xb0, 0x28, 0x40, 0xda, 0xb3, 0xd9, 0xb3,
  0x65, 0x3c, 0x28, 0xb5, 0xaf, 0x35, 0x28, 0x40, 0x00, 0x37, 0x52, 0xb2,
  0x3f, 0x35, 0x06, 0xaf, 0x43, 0xa7, 0xa5, 0xb6, 0x79, 0xb4, 0xa8, 0x36,
  0xf3, 0x2c, 0xb3, 0x2f, 0x97, 0x2c, 0x9c, 0x35, 0x6e, 0xb7, 0x44, 0x34,
  0x65, 0xb1, 0x39, 0x30, 0xa8, 0xb0, 0x92, 0xb4, 0x17, 0xb7, 0x8b, 0xb3,
  0xc1, 0x34, 0x02, 0x30, 0x80, 0xb5, 0x66, 0xb5, 0x90, 0x9e, 0xa2, 0x31,
  0x7e, 0x35, 0x62, 0x34, 0xc3, 0xad, 0x28, 0xa9, 0xe9, 0x28, 0xa3, 0xb2,
  0x10, 0x32, 0xe9, 0xb7, 0x3e, 0xb6, 0x06, 0xb6, 0xfe, 0x35, 0x9e, 0xb6,
  0x71, 0x25, 0x6a, 0x32, 0x77, 0xb0, 0x1e, 0xb1, 0xb8, 0x34, 0xa5, 0x2f,
  0xad, 0xb5, 0x67, 0xb0, 0xed, 0xb1, 0x8d, 0x31, 0x64, 0x20, 0x0d, 0xac,
  0xfb, 0xaf, 0x0c, 0xab, 0xaa, 0xb7, 0xe1, 0xab, 0x1d, 0xab, 0x64, 0x35,
  0xfa, 0x31, 0x46, 0x2e, 0x53, 0x35, 0x41, 0x2f, 0x04, 0xb2, 0x86, 0x2e,
  0x7c, 0x36, 0x9f, 0xa8, 0x0a, 0x34, 0x09, 0x35, 0xd6, 0xb3, 0x2a, 0x9d,
  0x16, 0x34, 0x02, 0xb5, 0xf2, 0x33, 0xe6, 0xb4, 0x7a, 0xad, 0x91, 0xaf,
  0x99, 0xb2, 0x0d, 0xb8, 0xfd, 0x32, 0x5b, 0x34, 0x64, 0x31, 0xa8, 0xaf,
  0x76, 0xe3, 0xff, 0xff, 0x04, 0x00, 0x00, 0x00, 0xa0, 0x00, 0x00, 0x00,
  0x83, 0xb1, 0x39, 0xb0, 0x36, 0xaf, 0x3a, 0x35, 0x6b, 0xbe, 0xc0, 0xb1,
  0x44, 0xb8, 0x3e, 0xb7, 0x0e, 0x30, 0xa0, 0x31, 0x8e, 0xb6, 0xcf, 0xb3,
  0x3e, 0xb0, 0xaa, 0xb1, 0x0f, 0xb3, 0x87, 0xb0, 0x43, 0x37, 0xbd, 0x32,
  0x93, 0xb2, 0x15, 0xb5, 0xc7, 0x35, 0x08, 0xac, 0x85, 0x35, 0x55, 0xb6,
  0xdc, 0x36, 0xea, 0x11, 0x97, 0x2d, 0x35, 0xb6, 0x31, 0x36, 0x77, 0xa8,
  0x7f, 0x35, 0x24, 0xb3, 0x44, 0xbc, 0xc6, 0xa9, 0x68, 0xb6, 0x9c, 0xba,
  0xaf, 0xba, 0xde, 0xb3, 0xb8, 0xaa, 0x40, 0xb9, 0x79, 0xbd, 0x88, 0xb6,
  0x5c, 0x30, 0x09, 0xb7, 0xaf, 0xbb, 0xbb, 0xac, 0x78, 0x36, 0xff, 0xba,
  0x72, 0x85, 0x18, 0x31, 0x8d, 0xb0, 0x45, 0x35, 0xd7, 0xbd, 0x50, 0xb0,
  0x02, 0x31, 0xcc, 0xaa, 0xc1, 0x2d, 0x34, 0xb2, 0xfd, 0x35, 0x51, 0xb4,
  0xee, 0xb0, 0xfe, 0xb4, 0x84, 0xb5, 0x5e, 0x32, 0xad, 0xbd, 0xf7, 0xad,
  0xd9, 0xb6, 0xc1, 0xba, 0x99, 0x35, 0xf9, 0xa6, 0x56, 0x2d, 0x5b, 0xa0,
  0xd5, 0xb6, 0x0f, 0x37, 0x49, 0xb2, 0x3a, 0xb9, 0x28, 0xbd, 0xa0, 0x38,
  0x53, 0xb5, 0x82, 0xb9, 0x22, 0xe4, 0xff, 0xff, 0x04, 0x00, 0x00, 0x00,
  0x80, 0x00, 0x00, 0x00, 0xb5, 0x9f, 0xc9, 0xb5, 0x80, 0x32, 0x2f, 0xb0,
  0xc2, 0x34, 0xe6, 0x36, 0xdb, 0xb0, 0x63, 0x2b, 0x23, 0x34, 0xb4, 0x30,
  0xf0, 0x34, 0x68, 0x2d, 0x09, 0x2c, 0x63, 0x32, 0x68, 0x2b, 0x35, 0x29,
  0x02, 0x9d, 0x78, 0xac, 0xc8, 0x2b, 0x9e, 0xb5, 0xf3, 0xb2, 0x2a, 0xb4,
  0xd4, 0xb2, 0x94, 0x2a, 0x3d, 0x2c, 0x2e, 0x35, 0xf7, 0xb2, 0x2d, 0xb5,
  0x46, 0x30, 0x52, 0xac, 0xe9, 0xb5, 0x11, 0xb7, 0x29, 0x37, 0x77, 0xb0,
  0x1e, 0xae, 0xaf, 0x19, 0x82, 0x2e, 0xad, 0x31, 0x61, 0xac, 0xf3, 0xae,
  0x07, 0x98, 0x84, 0xaf, 0x55, 0xb2, 0xa6, 0x32, 0xa4, 0xb5, 0x19, 0x2a,
  0x01, 0xa8, 0xa6, 0xb8, 0xd9, 0xa8, 0x12, 0xb4, 0x9e, 0xb2, 0x23, 0xb5,
  0x57, 0xb8, 0x49, 0x38, 0x85, 0xb0, 0x9a, 0x2f, 0x84, 0x22, 0x38, 0x33,
  0x74, 0x38, 0x92, 0xb6, 0xd1, 0x31, 0x01, 0x32, 0x1c, 0xb6, 0x85, 0xae,
  0xae, 0xe4, 0xff, 0xff, 0x04, 0x00, 0x00, 0x00, 0x00, 0x04, 0x00, 0x00,
  0xe0, 0x2c, 0x2c, 0x30, 0x84, 0x1f, 0xcf, 0xb4, 0xc5, 0x2b, 0xf0, 0xb1,
  0x87, 0xb0, 0x11, 0xb4, 0x3b, 0xb3, 0xd4, 0x33, 0xe2, 0xae, 0x16, 0x31,
  0xc6, 0x31, 0x35, 0xac, 0x37, 0xb0, 0x8e, 0xa9, 0x85, 0xb1, 0xfb, 0x30,
  0x9d, 0x35, 0x6f, 0xb4, 0x0d, 0x30, 0xd7, 0xb0, 0x09, 0xb0, 0xb1, 0xae,
  0xbc, 0x30, 0xf0, 0x35, 0xa3, 0xb1, 0x87, 0xb0, 0xc7, 0xb1, 0x72, 0xb1,
  0x0a, 0xaf, 0xea, 0xa7, 0x35, 0xae, 0x86, 0x32, 0x30, 0xad, 0x4e, 0xb6,
  0x61, 0xac, 0xad, 0x31, 0x6e, 0xb6, 0xe4, 0xb5, 0xdd, 0xb1, 0x32, 0xb5,
  0xec, 0x34, 0x02, 0x28, 0x80, 0xb0, 0xf2, 0xb1, 0x0f, 0x30, 0xc9, 0xb4,
  0x3b, 0xa9, 0x6f, 0xb1, 0xfa, 0xb0, 0x31, 0x2f, 0xa9, 0x31, 0xb6, 0x32,
  0xe2, 0x34, 0x1b, 0x34, 0x04, 0xb0, 0x8c, 0xb1, 0xb8, 0xb1, 0x45, 0x31,
  0xda, 0xae, 0xcd, 0x34, 0xde, 0x31, 0xf9, 0x2c, 0x77, 0xb0, 0xe7, 0x35,
  0x25, 0xb3, 0xeb, 0x25, 0x62, 0xaa, 0x01, 0xb3, 0x4a, 0xb4, 0xfb, 0x32,
  0xda, 0xb2, 0xca, 0xb1, 0xcf, 0x1c, 0x55, 0x2e, 0x55, 0x32, 0xe0, 0xa4,
  0x0a, 0xae, 0xac, 0x34, 0x5f, 0x32, 0x0f, 0xad, 0xec, 0xb0, 0x09, 0xb1,
  0xdf, 0xa0, 0xee, 0x29, 0x33, 0x2c, 0x1d, 0xb1, 0xa7, 0x34, 0xfd, 0xaf,
  0x1b, 0x35, 0x45, 0xa4, 0x1c, 0x31, 0x00, 0xa7, 0x84, 0x30, 0xf1, 0xb2,
  0x12, 0xb0, 0x87, 0x31, 0x6a, 0x33, 0x79, 0x32, 0xf4, 0x34, 0xd7, 0x33,
  0x54, 0xb4, 0x93, 0x1a, 0x76, 0xac, 0xb5, 0xb2, 0xe1, 0xb2, 0xb4, 0xa5,
  0xe2, 0x33, 0xc3, 0x32, 0x08, 0x32, 0xff, 0xb0, 0x9e, 0x30, 0x04, 0x97,
  0x96, 0xb1, 0x0f, 0x33, 0xe0, 0x28, 0x56, 0x0e, 0x5b, 0xa5, 0xe1, 0x33,
  0x50, 0xb2, 0x1f, 0xb0, 0x36, 0x34, 0x5f, 0xa9, 0x02, 0xb1, 0x1f, 0xb4,
  0x21, 0x33, 0x6a, 0x2e, 0x53, 0x34, 0x7d, 0x30, 0x13, 0x28, 0x1d, 0x2c,
  0xee, 0x31, 0x88, 0xb3, 0xb3, 0xb0, 0x74, 0xb3, 0xef, 0x2d, 0x66, 0x2e,
  0x3e, 0x36, 0xcc, 0xab, 0x74, 0x33, 0x43, 0xb0, 0xd8, 0x33, 0xc9, 0x28,
  0xcb, 0x28, 0xa6, 0x2c, 0x58, 0xb3, 0x67, 0xb2, 0xb0, 0x2c, 0x2d, 0xb3,
  0x18, 0xaf, 0xea, 0xb1, 0xd1, 0xad, 0xce, 0x2e, 0xdb, 0x30, 0x76, 0xb0,
  0x40, 0x25, 0x42, 0x34, 0x5a, 0x34, 0x9e, 0xb2, 0x4a, 0xb1, 0xce, 0xb1,
  0xe8, 0xb0, 0x18, 0x35, 0x65, 0xb2, 0x9e, 0x34, 0xe3, 0xb2, 0xb7, 0xb3,
  0x26, 0x31, 0x6f, 0xb1, 0xd7, 0xb1, 0x7f, 0xb4, 0x7b, 0x2b, 0xfb, 0x31,
  0x5b, 0xb1, 0x69, 0x35, 0x77, 0xaa, 0x2c, 0x34, 0x65, 0x34, 0x48, 0xb4,
  0x4f, 0x2f, 0x7f, 0xb4, 0x50, 0x35, 0xa7, 0x30, 0xd7, 0xb4, 0xb0, 0x32,
  0x2b, 0x32, 0x30, 0xb5, 0xd0, 0xb5, 0x15, 0x2f, 0xcc, 0xaf, 0xe2, 0x34,
  0x4e, 0xb3, 0xd6, 0xb3, 0x2c, 0x2d, 0xda, 0x18, 0xb0, 0xb0, 0x6c, 0x32,
  0x05, 0xb1, 0xa3, 0x31, 0xe4, 0xac, 0x20, 0x34, 0xb6, 0xad, 0x6c, 0xb4,
  0x37, 0xaa, 0xa6, 0x34, 0x71, 0xb1, 0xfb, 0x33, 0x3e, 0x35, 0x47, 0x34,
  0x72, 0xa8, 0x7d, 0x31, 0x2e, 0x33, 0x5b, 0xb4, 0x1d, 0x33, 0xbf, 0x34,
  0x97, 0xae, 0x36, 0xb3, 0x79, 0x34, 0xcf, 0x34, 0x5b, 0x2e, 0x04, 0x2d,
  0x9a, 0x2f, 0x1c, 0xb5, 0xdc, 0xae, 0x12, 0x31, 0x0a, 0x35, 0xbc, 0x92,
  0xed, 0xb3, 0x01, 0x2c, 0xe8, 0xb4, 0x26, 0xb0, 0x0a, 0x2d, 0x05, 0xb0,
  0x8f, 0xb4, 0x2c, 0xa9, 0xe6, 0xa9, 0x03, 0x2e, 0xec, 0x1a, 0x91, 0xb1,
  0x5b, 0xb3, 0x03, 0x2d, 0xcd, 0x32, 0xc1, 0xaf, 0xd4, 0x30, 0x28, 0x35,
  0x04, 0xa8, 0x16, 0xb4, 0x66, 0x35, 0x87, 0xaf, 0xe0, 0x32, 0x8c, 0x34,
  0x85, 0xa8, 0x7f, 0xb4, 0x1e, 0x34, 0x64, 0x2d, 0x55, 0xb2, 0xf4, 0xb4,
  0x0a, 0xb5, 0x85, 0x33, 0x69, 0x31, 0x6c, 0x32, 0xf6, 0x34, 0xeb, 0xb4,
  0xfe, 0x31, 0x68, 0x29, 0xa5, 0xaa, 0x63, 0x32, 0xfa, 0x34, 0x8e, 0xb1,
  0x33, 0xb1, 0xcf, 0xaf, 0x62, 0xb6, 0xb8, 0xb5, 0xd0, 0xb0, 0xbf, 0x32,
  0x09, 0x34, 0x42, 0xb2, 0x56, 0xab, 0xbb, 0x32, 0xb8, 0x33, 0xab, 0xae,
  0xd3, 0xb0, 0xc9, 0xa9, 0xb6, 0xb2, 0x96, 0xb5, 0xbd, 0xb3, 0x94, 0x2c,
  0x68, 0xaf, 0x62, 0xae, 0xce, 0x98, 0x2d, 0xb4, 0xbd, 0xa7, 0x98, 0x30,
  0x76, 0x1d, 0xdb, 0x2d, 0xbd, 0x33, 0x03, 0x2e, 0x0a, 0xad, 0x33, 0x2b,
  0x94, 0xae, 0x7b, 0xac, 0x4d, 0xb2, 0x70, 0x2d, 0x7c, 0xb2, 0x9f, 0x33,
  0xd8, 0xb2, 0x01, 0x32, 0xb1, 0x34, 0xc4, 0xab, 0x7d, 0xae, 0x4e, 0xb5,
  0xeb, 0x2e, 0xed, 0x2c, 0x55, 0x31, 0xf3, 0x31, 0xf7, 0xb4, 0x61, 0x34,
  0x46, 0x26, 0x23, 0x30, 0x9c, 0x2d, 0x94, 0xb4, 0x58, 0x34, 0x36, 0x30,
  0x55, 0x33, 0xe4, 0x32, 0x22, 0x26, 0x17, 0xb5, 0x6b, 0xb3, 0xdb, 0x30,
  0x41, 0xb1, 0xcd, 0xb1, 0x8a, 0x2e, 0x0e, 0xb5, 0xda, 0x31, 0x03, 0x2f,
  0xa9, 0x30, 0xdc, 0xb0, 0xad, 0xb3, 0xd5, 0xac, 0xb5, 0x30, 0x42, 0xb1,
  0x66, 0x0c, 0x91, 0xb3, 0x55, 0x34, 0x29, 0xb5, 0x29, 0x32, 0xfd, 0xb1,
  0x49, 0x32, 0xbf, 0xb5, 0xb6, 0xad, 0xab, 0xb1, 0xc3, 0xb2, 0x99, 0xb0,
  0x37, 0xb1, 0xb9, 0xb1, 0xbc, 0x22, 0xd6, 0xaa, 0x0f, 0xb4, 0x89, 0x26,
  0x02, 0xb5, 0xb6, 0xab, 0x19, 0x35, 0x37, 0xae, 0x1c, 0xaf, 0x30, 0xab,
  0x09, 0xb4, 0xbc, 0xaf, 0xb3, 0xb4, 0xa7, 0x2c, 0x79, 0xb2, 0x13, 0xb0,
  0x3c, 0xb2, 0x30, 0x2d, 0x0e, 0x31, 0x15, 0x33, 0xd8, 0xaf, 0x07, 0x31,
  0x1d, 0xa6, 0x84, 0x32, 0x0e, 0x35, 0xdf, 0xb3, 0x08, 0x35, 0xdb, 0xb4,
  0xe4, 0x34, 0x03, 0x35, 0x9b, 0xb4, 0x0f, 0xa9, 0xfa, 0xb3, 0x5e, 0x2f,
  0x64, 0xb5, 0x24, 0x31, 0x7f, 0x2d, 0x80, 0x32, 0x25, 0xb5, 0x8d, 0x34,
  0x54, 0xae, 0x36, 0x2b, 0xc0, 0x34, 0x99, 0x35, 0x3b, 0x2e, 0x7a, 0x2c,
  0xe6, 0x33, 0xf8, 0xa9, 0xc2, 0xab, 0xbe, 0x21, 0xb1, 0x33, 0x25, 0x34,
  0x58, 0x32, 0xf6, 0x32, 0xe3, 0xa3, 0x32, 0xb5, 0x50, 0xaa, 0xe1, 0xb3,
  0x74, 0x34, 0x00, 0x34, 0xad, 0x30, 0xd8, 0xb2, 0x98, 0x34, 0x4f, 0xad,
  0xbc, 0xb3, 0x3c, 0x34, 0x72, 0x28, 0xe6, 0x32, 0xe9, 0x2b, 0xe1, 0xb4,
  0xae, 0xb5, 0x78, 0xb0, 0xf5, 0xac, 0xa3, 0xb5, 0x2c, 0xb4, 0xaa, 0xb1,
  0x92, 0xa7, 0xc8, 0xb3, 0xc1, 0x31, 0x0b, 0xb0, 0x15, 0x30, 0x35, 0x2e,
  0x10, 0x9c, 0x91, 0x34, 0x9d, 0x30, 0x74, 0xb3, 0x84, 0xb0, 0x5a, 0xaf,
  0x2b, 0x35, 0x2a, 0xb1, 0xaf, 0x34, 0x89, 0x34, 0xfb, 0x32, 0xb4, 0xb2,
  0xb7, 0xae, 0x20, 0x35, 0x21, 0xb0, 0x3e, 0xb3, 0x73, 0x35, 0xd8, 0x2b,
  0x18, 0xaa, 0x01, 0xb1, 0xea, 0x33, 0x5b, 0x2d, 0x71, 0xb4, 0xc7, 0xa3,
  0x27, 0xb4, 0x58, 0x2e, 0xa8, 0xb3, 0x92, 0x31, 0x3e, 0xb0, 0x85, 0xb3,
  0xd6, 0x34, 0xb3, 0x2d, 0x54, 0xb0, 0x66, 0x31, 0x96, 0xb4, 0x34, 0xb4,
  0xe2, 0x34, 0x5b, 0x2e, 0xad, 0x35, 0x0f, 0xb1, 0xde, 0xa0, 0x29, 0x2f,
  0x5c, 0xb0, 0x13, 0xb4, 0xb9, 0xad, 0xc4, 0x1c, 0x76, 0x31, 0xb0, 0x2e,
  0xa4, 0xb1, 0x19, 0x36, 0xb4, 0x26, 0xd1, 0x32, 0x5e, 0x34, 0x3f, 0xb4,
  0x3f, 0x2d, 0x36, 0xaa, 0x96, 0x32, 0x2d, 0xa4, 0x76, 0xa9, 0x68, 0x2a,
  0x16, 0x31, 0xc9, 0x32, 0xc5, 0x2d, 0x18, 0x2b, 0x2d, 0x31, 0xef, 0xb4,
  0x19, 0x31, 0xd4, 0xb2, 0x39, 0x35, 0x4a, 0x34, 0xdc, 0x35, 0x31, 0x35,
  0xda, 0xb4, 0x0b, 0x32, 0xba, 0xe8, 0xff, 0xff, 0x04, 0x00, 0x00, 0x00,
  0x20, 0x00, 0x00, 0x00, 0x5d, 0x29, 0x7d, 0xa7, 0xcf, 0x20, 0xe8, 0x2b,
  0x47, 0x3c, 0xff, 0x3b, 0x13, 0x3c, 0x44, 0x3c, 0xbb, 0xa8, 0x24, 0x1d,
  0xbf, 0xa8, 0x42, 0xa3, 0x6b, 0x26, 0x9b, 0x1d, 0x21, 0x28, 0x1c, 0x2c,
  0xe6, 0xe8, 0xff, 0xff, 0x04, 0x00, 0x00, 0x00, 0x04, 0x00, 0x00, 0x00,
  0x01, 0x00, 0x00, 0x00, 0xf6, 0xe8, 0xff, 0xff, 0x04, 0x00, 0x00, 0x00,
  0x60, 0x03, 0x00, 0x00, 0x3c, 0x33, 0xf4, 0x30, 0x58, 0xb1, 0x9b, 0x25,
  0x2e, 0x33, 0x74, 0x32, 0x0f, 0xb3, 0x9d, 0xb0, 0xa6, 0x2c, 0xbe, 0xb4,
  0x4a, 0xb0, 0xe0, 0xb3, 0x57, 0xae, 0xc4, 0xb3, 0x54, 0xb1, 0x7f, 0xab,
  0x02, 0x30, 0x61, 0x34, 0xf4, 0x2f, 0x4f, 0xa9, 0x77, 0xa9, 0x53, 0x32,
  0x92, 0x2e, 0x11, 0x2d, 0x42, 0x29, 0x76, 0xb2, 0x69, 0x31, 0x13, 0x34,
  0xf7, 0x30, 0x99, 0x30, 0x05, 0xb2, 0x7e, 0xb3, 0xb2, 0xb2, 0x35, 0xb4,
  0x09, 0xb1, 0xef, 0xaa, 0xb6, 0xb3, 0xae, 0xb0, 0xf9, 0xac, 0xdb, 0xb3,
  0x88, 0x32, 0xcb, 0xb1, 0x0c, 0xb3, 0xbf, 0xaf, 0xa9, 0x1e, 0xce, 0xad,
  0x41, 0xb1, 0xee, 0x31, 0x92, 0xa9, 0xd5, 0xb4, 0x7f, 0x2e, 0x20, 0x32,
  0x03, 0xb4, 0x98, 0xb2, 0x3c, 0x33, 0x43, 0xaf, 0x06, 0xb1, 0x43, 0x2d,
  0x01, 0xb2, 0x11, 0x32, 0x24, 0xb0, 0x5a, 0xb0, 0xbe, 0xb2, 0xd1, 0xb3,
  0x18, 0xb3, 0xdf, 0x2a, 0x48, 0x32, 0x86, 0x32, 0xef, 0x28, 0xa3, 0xaf,
  0xc5, 0xae, 0x45, 0x24, 0x2b, 0xb1, 0x14, 0xaa, 0x12, 0xb0, 0xe0, 0xb3,
  0x9b, 0xae, 0x10, 0xb0, 0x24, 0xb0, 0xaa, 0x21, 0xb6, 0xb1, 0x92, 0x2c,
  0xd5, 0xb0, 0x15, 0xac, 0x9c, 0x2d, 0x8d, 0x25, 0x34, 0x31, 0x62, 0xb2,
  0x1f, 0x34, 0x45, 0xa5, 0x1a, 0xb0, 0xe4, 0x2f, 0x23, 0x31, 0xba, 0x34,
  0xdd, 0x32, 0x8f, 0xb2, 0x49, 0xb2, 0xdc, 0xb3, 0x11, 0x29, 0x64, 0xb4,
  0xc2, 0x2e, 0x1e, 0x33, 0xed, 0x2e, 0x14, 0xb0, 0x2f, 0x2b, 0x5d, 0x2d,
  0xc8, 0xb2, 0x39, 0xb4, 0x50, 0xb0, 0x96, 0x34, 0x1d, 0x9e, 0x56, 0x32,
  0x1c, 0xb2, 0xef, 0xa5, 0x8d, 0x30, 0xce, 0xaf, 0xb8, 0x2b, 0xed, 0x24,
  0x08, 0x35, 0x36, 0xab, 0xbb, 0xae, 0x0c, 0x2a, 0xf0, 0xb0, 0x03, 0xb2,
  0x9a, 0x31, 0x42, 0x30, 0x8e, 0x33, 0x51, 0xaf, 0x03, 0xb0, 0x5c, 0x2d,
  0x80, 0xb3, 0xb9, 0x28, 0x06, 0x34, 0xeb, 0x28, 0x3d, 0xb2, 0xb6, 0x33,
  0xdb, 0xb4, 0x1d, 0x2c, 0xfc, 0xb0, 0x2f, 0x34, 0x76, 0xb1, 0x00, 0x34,
  0x36, 0x2d, 0x95, 0x30, 0x54, 0xa4, 0x15, 0xb1, 0xb4, 0xad, 0x2a, 0x34,
  0x9c, 0xb2, 0x25, 0xae, 0x4c, 0xae, 0x25, 0xb2, 0xd0, 0x29, 0x4a, 0x30,
  0x7b, 0x33, 0x37, 0xb0, 0x25, 0xb1, 0x7d, 0x34, 0x61, 0xa5, 0x69, 0x32,
  0x5d, 0x34, 0xa5, 0x30, 0x39, 0xaf, 0x60, 0x25, 0x64, 0x31, 0x85, 0x25,
  0x79, 0x34, 0x03, 0x32, 0x37, 0x34, 0xd7, 0xb2, 0x41, 0x30, 0x73, 0x29,
  0xe1, 0xb4, 0x3e, 0xb0, 0x7b, 0x31, 0xef, 0x33, 0x8b, 0x33, 0x01, 0x30,
  0x02, 0xb3, 0xa8, 0xb3, 0x29, 0xae, 0x57, 0x20, 0xde, 0x30, 0xf9, 0x26,
  0xb0, 0xae, 0xdd, 0xb2, 0x08, 0xb2, 0x46, 0xa4, 0x33, 0x29, 0x2c, 0x33,
  0xf3, 0x2e, 0xe0, 0x32, 0xca, 0xb3, 0x30, 0xaf, 0x0d, 0x35, 0x67, 0xb1,
  0xf3, 0x2c, 0x2d, 0xb0, 0x47, 0xb2, 0x69, 0xab, 0xb5, 0xb1, 0x95, 0x2d,
  0xd8, 0xaf, 0x3a, 0x31, 0x3c, 0x29, 0x70, 0x33, 0xcf, 0xa6, 0xbd, 0xa1,
  0x86, 0x29, 0x18, 0xb0, 0xdd, 0xb3, 0x64, 0x30, 0xa6, 0x34, 0x26, 0xb1,
  0x9b, 0x2a, 0x0b, 0xb0, 0xeb, 0xb2, 0x26, 0x33, 0x6d, 0xa9, 0x05, 0xb5,
  0xd6, 0x30, 0x0c, 0x34, 0x00, 0x34, 0x1a, 0x31, 0xfb, 0xb1, 0x23, 0x34,
  0xe1, 0xae, 0x69, 0xb0, 0x4c, 0x32, 0x9a, 0xb1, 0x0e, 0xb0, 0x69, 0xad,
  0xaf, 0x31, 0xe2, 0x2d, 0x8f, 0xaf, 0xda, 0x21, 0x58, 0xb4, 0xd1, 0x2f,
  0xb5, 0xb3, 0xd4, 0xae, 0xb8, 0x2f, 0xf0, 0x26, 0x58, 0x99, 0x32, 0xae,
  0xc6, 0x1e, 0x49, 0xb1, 0x02, 0x27, 0xce, 0xa9, 0xad, 0xb0, 0xfe, 0xb0,
  0x2b, 0x30, 0xe4, 0x2f, 0x06, 0xa0, 0xc2, 0xaf, 0x59, 0x34, 0xf4, 0xb0,
  0x7d, 0xb4, 0xba, 0x1e, 0xe9, 0xb0, 0xfc, 0xa9, 0xe6, 0xb1, 0x1f, 0x2d,
  0x4a, 0xa9, 0xb7, 0xaf, 0x1a, 0xb4, 0xac, 0xb4, 0x15, 0xb3, 0x8c, 0x29,
  0x85, 0x2d, 0x9a, 0xaa, 0x27, 0x2d, 0x4c, 0x2c, 0x48, 0xb4, 0x01, 0xa7,
  0x69, 0xa6, 0x49, 0xb2, 0xf6, 0xa9, 0xbc, 0x2f, 0xff, 0xa6, 0x98, 0x34,
  0x1f, 0xad, 0x9d, 0x31, 0x6f, 0xb3, 0x66, 0x34, 0x3b, 0xaf, 0x1e, 0x27,
  0x6f, 0xa8, 0x94, 0x23, 0x35, 0x35, 0x44, 0xae, 0xda, 0x2d, 0xcf, 0x28,
  0xa0, 0xb0, 0xb0, 0x33, 0x83, 0x32, 0x78, 0xb4, 0xef, 0x30, 0x2a, 0xb3,
  0xde, 0x21, 0x54, 0xb4, 0x33, 0x2e, 0xbe, 0xac, 0xe2, 0x30, 0x31, 0xad,
  0xd1, 0xac, 0x7b, 0xaf, 0xee, 0xb3, 0x61, 0xb2, 0x16, 0x34, 0x2f, 0xb2,
  0x6c, 0xb2, 0xb6, 0xb1, 0xae, 0xb4, 0x21, 0x33, 0xf6, 0x1c, 0xad, 0xb0,
  0x33, 0x2c, 0x17, 0x34, 0x1a, 0xae, 0xf1, 0x29, 0x21, 0x24, 0x73, 0xad,
  0x70, 0x32, 0xf8, 0xb3, 0xe0, 0x30, 0x53, 0xb4, 0x53, 0xa2, 0x45, 0xb0,
  0xb5, 0x33, 0x00, 0x22, 0x23, 0xab, 0x47, 0xb3, 0x74, 0x32, 0x46, 0x31,
  0x4a, 0xb1, 0xb3, 0x31, 0xb0, 0xa8, 0xca, 0xb1, 0x29, 0xac, 0xd1, 0x2b,
  0xa5, 0x20, 0x34, 0xb0, 0x1a, 0xac, 0xa5, 0xaf, 0x69, 0x33, 0x30, 0x31,
  0xe7, 0xb1, 0x90, 0x2d, 0xda, 0x33, 0x47, 0x2a, 0x18, 0xad, 0xdd, 0x2e,
  0x7d, 0x34, 0x60, 0x32, 0xb7, 0x2f, 0x92, 0xa7, 0xfe, 0xb2, 0x3e, 0x34,
  0xa1, 0x29, 0x5f, 0x2f, 0x2a, 0xaf, 0x1f, 0x31, 0x6f, 0x2d, 0x5a, 0x34,
  0x0c, 0xae, 0xaa, 0x2e, 0xb9, 0x2a, 0xb3, 0xaf, 0xf2, 0xad, 0xa5, 0x32,
  0xa7, 0x31, 0x5d, 0x29, 0x1e, 0xaf, 0x12, 0xb3, 0x62, 0xab, 0x7b, 0x97,
  0x75, 0x30, 0x4d, 0x29, 0x01, 0x29, 0x2d, 0xb5, 0x74, 0x2a, 0x62, 0xad,
  0x5c, 0x34, 0x3c, 0x33, 0x52, 0x2f, 0x5e, 0x30, 0xe2, 0xb1, 0x99, 0x24,
  0x86, 0xb4, 0xd0, 0xaf, 0x6a, 0xb3, 0xe6, 0x30, 0x6f, 0x31, 0xfa, 0x33,
  0xa8, 0xae, 0xe6, 0x28, 0x40, 0xb1, 0x74, 0xb4, 0x23, 0xa6, 0xb1, 0x25,
  0x51, 0x2d, 0x48, 0x34, 0x3d, 0x34, 0x06, 0x34, 0xbd, 0xb2, 0x60, 0x2c,
  0x2c, 0xb4, 0xc4, 0xa5, 0xfa, 0xae, 0x52, 0xae, 0xae, 0x33, 0x19, 0xb3,
  0xbd, 0x2a, 0xfa, 0xb3, 0x5a, 0xac, 0xa6, 0x2f, 0xa9, 0xb1, 0x57, 0x34,
  0xb9, 0x30, 0xc2, 0xa8, 0x68, 0xb2, 0x64, 0xaa, 0x87, 0xb4, 0x45, 0xa4,
  0x12, 0xac, 0xca, 0x24, 0x1e, 0x32, 0x5f, 0xb4, 0x83, 0x32, 0xee, 0xb0,
  0xee, 0x33, 0x0f, 0x31, 0x62, 0xec, 0xff, 0xff, 0x04, 0x00, 0x00, 0x00,
  0x20, 0x00, 0x00, 0x00, 0xff, 0x26, 0x84, 0xaa, 0x19, 0xa0, 0x08, 0x2a,
  0x39, 0x2c, 0x04, 0xa8, 0x1d, 0x25, 0x14, 0x2b, 0x47, 0x25, 0xbc, 0x9d,
  0xb0, 0x2c, 0x20, 0x95, 0x73, 0x21, 0x74, 0x2a, 0xe6, 0x2d, 0xdb, 0x1d,
  0x58, 0xaa, 0xff, 0xff, 0x5c, 0xaa, 0xff, 0xff, 0x0f, 0x00, 0x00, 0x00,
  0x4d, 0x4c, 0x49, 0x52, 0x20, 0x43, 0x6f, 0x6e, 0x76, 0x65, 0x72, 0x74,
  0x65, 0x64, 0x2e, 0x00, 0x01, 0x00, 0x00, 0x00, 0x14, 0x00, 0x00, 0x00,
  0x00, 0x00, 0x0e, 0x00, 0x18, 0x00, 0x14, 0x00, 0x10, 0x00, 0x0c, 0x00,
  0x08, 0x00, 0x04, 0x00, 0x0e, 0x00, 0x00, 0x00, 0x14, 0x00, 0x00, 0x00,
  0x1c, 0x00, 0x00, 0x00, 0x28, 0x16, 0x00, 0x00, 0x2c, 0x16, 0x00, 0x00,
  0x30, 0x16, 0x00, 0x00, 0x04, 0x00, 0x00, 0x00, 0x6d, 0x61, 0x69, 0x6e,
  0x00, 0x00, 0x00, 0x00, 0x77, 0x00, 0x00, 0x00, 0xf0, 0x15, 0x00, 0x00,
  0xc4, 0x15, 0x00, 0x00, 0xa4, 0x15, 0x00, 0x00, 0x84, 0x15, 0x00, 0x00,
  0x64, 0x15, 0x00, 0x00, 0x44, 0x15, 0x00, 0x00, 0x24, 0x15, 0x00, 0x00,
  0x04, 0x15, 0x00, 0x00, 0xe4, 0x14, 0x00, 0x00, 0xc4, 0x14, 0x00, 0x00,
  0xa4, 0x14, 0x00, 0x00, 0x84, 0x14, 0x00, 0x00, 0x64, 0x14, 0x00, 0x00,
  0x10, 0x14, 0x00, 0x00, 0xb8, 0x13, 0x00, 0x00, 0x70, 0x13, 0x00, 0x00,
  0x3c, 0x13, 0x00, 0x00, 0x14, 0x13, 0x00, 0x00, 0xb4, 0x12, 0x00, 0x00,
  0x6c, 0x12, 0x00, 0x00, 0x28, 0x12, 0x00, 0x00, 0x04, 0x12, 0x00, 0x00,
  0xe0, 0x11, 0x00, 0x00, 0xbc, 0x11, 0x00, 0x00, 0x88, 0x11, 0x00, 0x00,
  0x64, 0x11, 0x00, 0x00, 0x30, 0x11, 0x00, 0x00, 0xf8, 0x10, 0x00, 0x00,
  0xd0, 0x10, 0x00, 0x00, 0x98, 0x10, 0x00, 0x00, 0x60, 0x10, 0x00, 0x00,
  0x28, 0x10, 0x00, 0x00, 0xf4, 0x0f, 0x00, 0x00, 0xc0, 0x0f, 0x00, 0x00,
  0x7c, 0x0f, 0x00, 0x00, 0x58, 0x0f, 0x00, 0x00, 0x34, 0x0f, 0x00, 0x00,
  0x00, 0x0f, 0x00, 0x00, 0xdc, 0x0e, 0x00, 0x00, 0xb8, 0x0e, 0x00, 0x00,
  0x84, 0x0e, 0x00, 0x00, 0x50, 0x0e, 0x00, 0x00, 0x2c, 0x0e, 0x00, 0x00,
  0xf8, 0x0d, 0x00, 0x00, 0xc0, 0x0d, 0x00, 0x00, 0x98, 0x0d, 0x00, 0x00,
  0x60, 0x0d, 0x00, 0x00, 0x2c, 0x0d, 0x00, 0x00, 0xf8, 0x0c, 0x00, 0x00,
  0xb4, 0x0c, 0x00, 0x00, 0x90, 0x0c, 0x00, 0x00, 0x6c, 0x0c, 0x00, 0x00,
  0x38, 0x0c, 0x00, 0x00, 0x14, 0x0c, 0x00, 0x00, 0xf0, 0x0b, 0x00, 0x00,
  0xbc, 0x0b, 0x00, 0x00, 0x88, 0x0b, 0x00, 0x00, 0x64, 0x0b, 0x00, 0x00,
  0x30, 0x0b, 0x00, 0x00, 0xf8, 0x0a, 0x00, 0x00, 0xd0, 0x0a, 0x00, 0x00,
  0x98, 0x0a, 0x00, 0x00, 0x64, 0x0a, 0x00, 0x00, 0x30, 0x0a, 0x00, 0x00,
  0xec, 0x09, 0x00, 0x00, 0xc8, 0x09, 0x00, 0x00, 0xa4, 0x09, 0x00, 0x00,
  0x70, 0x09, 0x00, 0x00, 0x4c, 0x09, 0x00, 0x00, 0x28, 0x09, 0x00, 0x00,
  0xf4, 0x08, 0x00, 0x00, 0xc0, 0x08, 0x00, 0x00, 0x9c, 0x08, 0x00, 0x00,
  0x68, 0x08, 0x00, 0x00, 0x30, 0x08, 0x00, 0x00, 0x08, 0x08, 0x00, 0x00,
  0xd0, 0x07, 0x00, 0x00, 0x9c, 0x07, 0x00, 0x00, 0x68, 0x07, 0x00, 0x00,
  0x24, 0x07, 0x00, 0x00, 0x00, 0x07, 0x00, 0x00, 0xdc, 0x06, 0x00, 0x00,
  0xa8, 0x06, 0x00, 0x00, 0x84, 0x06, 0x00, 0x00, 0x60, 0x06, 0x00, 0x00,
  0x2c, 0x06, 0x00, 0x00, 0xf8, 0x05, 0x00, 0x00, 0xd4, 0x05, 0x00, 0x00,
  0xa0, 0x05, 0x00, 0x00, 0x68, 0x05, 0x00, 0x00, 0x40, 0x05, 0x00, 0x00,
  0x0c, 0x05, 0x00, 0x00, 0xd8, 0x04, 0x00, 0x00, 0x94, 0x04, 0x00, 0x00,
  0x70, 0x04, 0x00, 0x00, 0x4c, 0x04, 0x00, 0x00, 0x18, 0x04, 0x00, 0x00,
  0xf4, 0x03, 0x00, 0x00, 0xd0, 0x03, 0x00, 0x00, 0x9c, 0x03, 0x00, 0x00,
  0x68, 0x03, 0x00, 0x00, 0x44, 0x03, 0x00, 0x00, 0x10, 0x03, 0x00, 0x00,
  0xd8, 0x02, 0x00, 0x00, 0xb0, 0x02, 0x00, 0x00, 0x7c, 0x02, 0x00, 0x00,
  0x48, 0x02, 0x00, 0x00, 0x04, 0x02, 0x00, 0x00, 0xe0, 0x01, 0x00, 0x00,
  0xbc, 0x01, 0x00, 0x00, 0x88, 0x01, 0x00, 0x00, 0x64, 0x01, 0x00, 0x00,
  0x40, 0x01, 0x00, 0x00, 0x0c, 0x01, 0x00, 0x00, 0xd8, 0x00, 0x00, 0x00,
  0xb4, 0x00, 0x00, 0x00, 0x80, 0x00, 0x00, 0x00, 0x3c, 0x00, 0x00, 0x00,
  0x04, 0x00, 0x00, 0x00, 0xa6, 0xed, 0xff, 0xff, 0x14, 0x00, 0x00, 0x00,
  0x00, 0x00, 0x00, 0x08, 0x10, 0x00, 0x00, 0x00, 0x14, 0x00, 0x00, 0x00,
  0x05, 0x00, 0x00, 0x00, 0xa8, 0xac, 0xff, 0xff, 0x01, 0x00, 0x00, 0x00,
  0xa2, 0x00, 0x00, 0x00, 0x03, 0x00, 0x00, 0x00, 0xa1, 0x00, 0x00, 0x00,
  0x17, 0x00, 0x00, 0x00, 0x14, 0x00, 0x00, 0x00, 0x22, 0xef, 0xff, 0xff,
  0x1c, 0x00, 0x00, 0x00, 0x00, 0x00, 0x00, 0x08, 0x1c, 0x00, 0x00, 0x00,
  0x20, 0x00, 0x00, 0x00, 0x05, 0x00, 0x00, 0x00, 0x00, 0x00, 0x06, 0x00,
  0x08, 0x00, 0x07, 0x00, 0x06, 0x00, 0x00, 0x00, 0x00, 0x00, 0x00, 0x01,
  0x01, 0x00, 0x00, 0x00, 0xa1, 0x00, 0x00, 0x00, 0x03, 0x00, 0x00, 0x00,
  0xa0, 0x00, 0x00, 0x00, 0x18, 0x00, 0x00, 0x00, 0x11, 0x00, 0x00, 0x00,
  0x1a, 0xee, 0xff, 0xff, 0x14, 0x00, 0x00, 0x00, 0x00, 0x00, 0x00, 0x15,
  0x10, 0x00, 0x00, 0x00, 0x14, 0x00, 0x00, 0x00, 0x09, 0x00, 0x00, 0x00,
  0x1c, 0xad, 0xff, 0xff, 0x01, 0x00, 0x00, 0x00, 0xa0, 0x00, 0x00, 0x00,
  0x02, 0x00, 0x00, 0x00, 0x9b, 0x00, 0x00, 0x00, 0x9f, 0x00, 0x00, 0x00,
  0x32, 0xef, 0xff, 0xff, 0x0c, 0x00, 0x00, 0x00, 0x10, 0x00, 0x00, 0x00,
  0x08, 0x00, 0x00, 0x00, 0x01, 0x00, 0x00, 0x00, 0x9f, 0x00, 0x00, 0x00,
  0x01, 0x00, 0x00, 0x00, 0x9e, 0x00, 0x00, 0x00, 0x6a, 0xee, 0xff, 0xff,
  0x14, 0x00, 0x00, 0x00, 0x00, 0x00, 0x00, 0x0b, 0x10, 0x00, 0x00, 0x00,
  0x14, 0x00, 0x00, 0x00, 0x02, 0x00, 0x00, 0x00, 0x6c, 0xad, 0xff, 0xff,
  0x01, 0x00, 0x00, 0x00, 0x9e, 0x00, 0x00, 0x00, 0x02, 0x00, 0x00, 0x00,
  0x9a, 0x00, 0x00, 0x00, 0x9d, 0x00, 0x00, 0x00, 0x9a, 0xee, 0xff, 0xff,
  0x14, 0x00, 0x00, 0x00, 0x00, 0x00, 0x00, 0x15, 0x10, 0x00, 0x00, 0x00,
  0x14, 0x00, 0x00, 0x00, 0x09, 0x00, 0x00, 0x00, 0x9c, 0xad, 0xff, 0xff,
  0x01, 0x00, 0x00, 0x00, 0x9d, 0x00, 0x00, 0x00, 0x02, 0x00, 0x00, 0x00,
  0x98, 0x00, 0x00, 0x00, 0x9c, 0x00, 0x00, 0x00, 0xb2, 0xef, 0xff, 0xff,
  0x0c, 0x00, 0x00, 0x00, 0x10, 0x00, 0x00, 0x00, 0x08, 0x00, 0x00, 0x00,
  0x01, 0x00, 0x00, 0x00, 0x9c, 0x00, 0x00, 0x00, 0x01, 0x00, 0x00, 0x00,
  0x96, 0x00, 0x00, 0x00, 0xd2, 0xef, 0xff, 0xff, 0x0c, 0x00, 0x00, 0x00,
  0x10, 0x00, 0x00, 0x00, 0x07, 0x00, 0x00, 0x00, 0x01, 0x00, 0x00, 0x00,
  0x9b, 0x00, 0x00, 0x00, 0x01, 0x00, 0x00, 0x00, 0x97, 0x00, 0x00, 0x00,
  0x0a, 0xef, 0xff, 0xff, 0x14, 0x00, 0x00, 0x00, 0x00, 0x00, 0x00, 0x15,
  0x10, 0x00, 0x00, 0x00, 0x14, 0x00, 0x00, 0x00, 0x09, 0x00, 0x00, 0x00,
  0x0c, 0xae, 0xff, 0xff, 0x01, 0x00, 0x00, 0x00, 0x9a, 0x00, 0x00, 0x00,
  0x02, 0x00, 0x00, 0x00, 0x99, 0x00, 0x00, 0x00, 0x8d, 0x00, 0x00, 0x00,
  0x22, 0xf0, 0xff, 0xff, 0x0c, 0x00, 0x00, 0x00, 0x10, 0x00, 0x00, 0x00,
  0x07, 0x00, 0x00, 0x00, 0x01, 0x00, 0x00, 0x00, 0x99, 0x00, 0x00, 0x00,
  0x01, 0x00, 0x00, 0x00, 0x95, 0x00, 0x00, 0x00, 0x42, 0xf0, 0xff, 0xff,
  0x0c, 0x00, 0x00, 0x00, 0x10, 0x00, 0x00, 0x00, 0x07, 0x00, 0x00, 0x00,
  0x01, 0x00, 0x00, 0x00, 0x98, 0x00, 0x00, 0x00, 0x01, 0x00, 0x00, 0x00,
  0x94, 0x00, 0x00, 0x00, 0x7a, 0xef, 0xff, 0xff, 0x14, 0x00, 0x00, 0x00,
  0x00, 0x00, 0x00, 0x23, 0x14, 0x00, 0x00, 0x00, 0x24, 0x00, 0x00, 0x00,
  0x06, 0x00, 0x00, 0x00, 0xb2, 0xf0, 0xff, 0xff, 0x04, 0x00, 0x00, 0x00,
  0x04, 0x00, 0x00, 0x00, 0x94, 0x00, 0x00, 0x00, 0x95, 0x00, 0x00, 0x00,
  0x96, 0x00, 0x00, 0x00, 0x97, 0x00, 0x00, 0x00, 0x02, 0x00, 0x00, 0x00,
  0x03, 0x00, 0x00, 0x00, 0x93, 0x00, 0x00, 0x00, 0xba, 0xef, 0xff, 0xff,
  0x14, 0x00, 0x00, 0x00, 0x00, 0x00, 0x00, 0x0b, 0x10, 0x00, 0x00, 0x00,
  0x14, 0x00, 0x00, 0x00, 0x02, 0x00, 0x00, 0x00, 0xbc, 0xae, 0xff, 0xff,
  0x01, 0x00, 0x00, 0x00, 0x93, 0x00, 0x00, 0x00, 0x02, 0x00, 0x00, 0x00,
  0x92, 0x00, 0x00, 0x00, 0x1b, 0x00, 0x00, 0x00, 0xea, 0xef, 0xff, 0xff,
  0x14, 0x00, 0x00, 0x00, 0x00, 0x00, 0x00, 0x0b, 0x10, 0x00, 0x00, 0x00,
  0x14, 0x00, 0x00, 0x00, 0x02, 0x00, 0x00, 0x00, 0xec, 0xae, 0xff, 0xff,
  0x01, 0x00, 0x00, 0x00, 0x92, 0x00, 0x00, 0x00, 0x02, 0x00, 0x00, 0x00,
  0x38, 0x00, 0x00, 0x00, 0x91, 0x00, 0x00, 0x00, 0x02, 0xf1, 0xff, 0xff,
  0x0c, 0x00, 0x00, 0x00, 0x10, 0x00, 0x00, 0x00, 0x03, 0x00, 0x00, 0x00,
  0x01, 0x00, 0x00, 0x00, 0x91, 0x00, 0x00, 0x00, 0x02, 0x00, 0x00, 0x00,
  0x90, 0x00, 0x00, 0x00, 0x0c, 0x00, 0x00, 0x00, 0x3e, 0xf0, 0xff, 0xff,
  0x14, 0x00, 0x00, 0x00, 0x00, 0x00, 0x00, 0x08, 0x10, 0x00, 0x00, 0x00,
  0x14, 0x00, 0x00, 0x00, 0x05, 0x00, 0x00, 0x00, 0x40, 0xaf, 0xff, 0xff,
  0x01, 0x00, 0x00, 0x00, 0x90, 0x00, 0x00, 0x00, 0x03, 0x00, 0x00, 0x00,
  0x8f, 0x00, 0x00, 0x00, 0x19, 0x00, 0x00, 0x00, 0xff, 0xff, 0xff, 0xff,
  0x72, 0xf0, 0xff, 0xff, 0x14, 0x00, 0x00, 0x00, 0x00, 0x00, 0x00, 0x15,
  0x10, 0x00, 0x00, 0x00, 0x14, 0x00, 0x00, 0x00, 0x09, 0x00, 0x00, 0x00,
  0x74, 0xaf, 0xff, 0xff, 0x01, 0x00, 0x00, 0x00, 0x8f, 0x00, 0x00, 0x00,
  0x02, 0x00, 0x00, 0x00, 0x8a, 0x00, 0x00, 0x00, 0x8e, 0x00, 0x00, 0x00,
  0x8a, 0xf1, 0xff, 0xff, 0x0c, 0x00, 0x00, 0x00, 0x10, 0x00, 0x00, 0x00,
  0x08, 0x00, 0x00, 0x00, 0x01, 0x00, 0x00, 0x00, 0x8e, 0x00, 0x00, 0x00,
  0x01, 0x00, 0x00, 0x00, 0x8d, 0x00, 0x00, 0x00, 0xc2, 0xf0, 0xff, 0xff,
  0x14, 0x00, 0x00, 0x00, 0x00, 0x00, 0x00, 0x0b, 0x10, 0x00, 0x00, 0x00,
  0x14, 0x00, 0x00, 0x00, 0x02, 0x00, 0x00, 0x00, 0xc4, 0xaf, 0xff, 0xff,
  0x01, 0x00, 0x00, 0x00, 0x8d, 0x00, 0x00, 0x00, 0x02, 0x00, 0x00, 0x00,
  0x89, 0x00, 0x00, 0x00, 0x8c, 0x00, 0x00, 0x00, 0xf2, 0xf0, 0xff, 0xff,
  0x14, 0x00, 0x00, 0x00, 0x00, 0x00, 0x00, 0x15, 0x10, 0x00, 0x00, 0x00,
  0x14, 0x00, 0x00, 0x00, 0x09, 0x00, 0x00, 0x00, 0xf4, 0xaf, 0xff, 0xff,
  0x01, 0x00, 0x00, 0x00, 0x8c, 0x00, 0x00, 0x00, 0x02, 0x00, 0x00, 0x00,
  0x87, 0x00, 0x00, 0x00, 0x8b, 0x00, 0x00, 0x00, 0x0a, 0xf2, 0xff, 0xff,
  0x0c, 0x00, 0x00, 0x00, 0x10, 0x00, 0x00, 0x00, 0x08, 0x00, 0x00, 0x00,
  0x01, 0x00, 0x00, 0x00, 0x8b, 0x00, 0x00, 0x00, 0x01, 0x00, 0x00, 0x00,
  0x85, 0x00, 0x00, 0x00, 0x2a, 0xf2, 0xff, 0xff, 0x0c, 0x00, 0x00, 0x00,
  0x10, 0x00, 0x00, 0x00, 0x07, 0x00, 0x00, 0x00, 0x01, 0x00, 0x00, 0x00,
  0x8a, 0x00, 0x00, 0x00, 0x01, 0x00, 0x00, 0x00, 0x86, 0x00, 0x00, 0x00,
  0x62, 0xf1, 0xff, 0xff, 0x14, 0x00, 0x00, 0x00, 0x00, 0x00, 0x00, 0x15,
  0x10, 0x00, 0x00, 0x00, 0x14, 0x00, 0x00, 0x00, 0x09, 0x00, 0x00, 0x00,
  0x64, 0xb0, 0xff, 0xff, 0x01, 0x00, 0x00, 0x00, 0x89, 0x00, 0x00, 0x00,
  0x02, 0x00, 0x00, 0x00, 0x88, 0x00, 0x00, 0x00, 0x7c, 0x00, 0x00, 0x00,
  0x7a, 0xf2, 0xff, 0xff, 0x0c, 0x00, 0x00, 0x00, 0x10, 0x00, 0x00, 0x00,
  0x07, 0x00, 0x00, 0x00, 0x01, 0x00, 0x00, 0x00, 0x88, 0x00, 0x00, 0x00,
  0x01, 0x00, 0x00, 0x00, 0x84, 0x00, 0x00, 0x00, 0x9a, 0xf2, 0xff, 0xff,
  0x0c, 0x00, 0x00, 0x00, 0x10, 0x00, 0x00, 0x00, 0x07, 0x00, 0x00, 0x00,
  0x01, 0x00, 0x00, 0x00, 0x87, 0x00, 0x00, 0x00, 0x01, 0x00, 0x00, 0x00,
  0x83, 0x00, 0x00, 0x00, 0xd2, 0xf1, 0xff, 0xff, 0x14, 0x00, 0x00, 0x00,
  0x00, 0x00, 0x00, 0x23, 0x14, 0x00, 0x00, 0x00, 0x24, 0x00, 0x00, 0x00,
  0x06, 0x00, 0x00, 0x00, 0x0a, 0xf3, 0xff, 0xff, 0x04, 0x00, 0x00, 0x00,
  0x04, 0x00, 0x00, 0x00, 0x83, 0x00, 0x00, 0x00, 0x84, 0x00, 0x00, 0x00,
  0x85, 0x00, 0x00, 0x00, 0x86, 0x00, 0x00, 0x00, 0x02, 0x00, 0x00, 0x00,
  0x03, 0x00, 0x00, 0x00, 0x82, 0x00, 0x00, 0x00, 0x12, 0xf2, 0xff, 0xff,
  0x14, 0x00, 0x00, 0x00, 0x00, 0x00, 0x00, 0x0b, 0x10, 0x00, 0x00, 0x00,
  0x14, 0x00, 0x00, 0x00, 0x02, 0x00, 0x00, 0x00, 0x14, 0xb1, 0xff, 0xff,
  0x01, 0x00, 0x00, 0x00, 0x82, 0x00, 0x00, 0x00, 0x02, 0x00, 0x00, 0x00,
  0x81, 0x00, 0x00, 0x00, 0x1b, 0x00, 0x00, 0x00, 0x42, 0xf2, 0xff, 0xff,
  0x14, 0x00, 0x00, 0x00, 0x00, 0x00, 0x00, 0x0b, 0x10, 0x00, 0x00, 0x00,
  0x14, 0x00, 0x00, 0x00, 0x02, 0x00, 0x00, 0x00, 0x44, 0xb1, 0xff, 0xff,
  0x01, 0x00, 0x00, 0x00, 0x81, 0x00, 0x00, 0x00, 0x02, 0x00, 0x00, 0x00,
  0x37, 0x00, 0x00, 0x00, 0x80, 0x00, 0x00, 0x00, 0x5a, 0xf3, 0xff, 0xff,
  0x0c, 0x00, 0x00, 0x00, 0x10, 0x00, 0x00, 0x00, 0x03, 0x00, 0x00, 0x00,
  0x01, 0x00, 0x00, 0x00, 0x80, 0x00, 0x00, 0x00, 0x02, 0x00, 0x00, 0x00,
  0x7f, 0x00, 0x00, 0x00, 0x0c, 0x00, 0x00, 0x00, 0x96, 0xf2, 0xff, 0xff,
  0x14, 0x00, 0x00, 0x00, 0x00, 0x00, 0x00, 0x08, 0x10, 0x00, 0x00, 0x00,
  0x14, 0x00, 0x00, 0x00, 0x05, 0x00, 0x00, 0x00, 0x98, 0xb1, 0xff, 0xff,
  0x01, 0x00, 0x00, 0x00, 0x7f, 0x00, 0x00, 0x00, 0x03, 0x00, 0x00, 0x00,
  0x7e, 0x00, 0x00, 0x00, 0x19, 0x00, 0x00, 0x00, 0xff, 0xff, 0xff, 0xff,
  0xca, 0xf2, 0xff, 0xff, 0x14, 0x00, 0x00, 0x00, 0x00, 0x00, 0x00, 0x15,
  0x10, 0x00, 0x00, 0x00, 0x14, 0x00, 0x00, 0x00, 0x09, 0x00, 0x00, 0x00,
  0xcc, 0xb1, 0xff, 0xff, 0x01, 0x00, 0x00, 0x00, 0x7e, 0x00, 0x00, 0x00,
  0x02, 0x00, 0x00, 0x00, 0x79, 0x00, 0x00, 0x00, 0x7d, 0x00, 0x00, 0x00,
  0xe2, 0xf3, 0xff, 0xff, 0x0c, 0x00, 0x00, 0x00, 0x10, 0x00, 0x00, 0x00,
  0x08, 0x00, 0x00, 0x00, 0x01, 0x00, 0x00, 0x00, 0x7d, 0x00, 0x00, 0x00,
  0x01, 0x00, 0x00, 0x00, 0x7c, 0x00, 0x00, 0x00, 0x1a, 0xf3, 0xff, 0xff,
  0x14, 0x00, 0x00, 0x00, 0x00, 0x00, 0x00, 0x0b, 0x10, 0x00, 0x00, 0x00,
  0x14, 0x00, 0x00, 0x00, 0x02, 0x00, 0x00, 0x00, 0x1c, 0xb2, 0xff, 0xff,
  0x01, 0x00, 0x00, 0x00, 0x7c, 0x00, 0x00, 0x00, 0x02, 0x00, 0x00, 0x00,
  0x78, 0x00, 0x00, 0x00, 0x7b, 0x00, 0x00, 0x00, 0x4a, 0xf3, 0xff, 0xff,
  0x14, 0x00, 0x00, 0x00, 0x00, 0x00, 0x00, 0x15, 0x10, 0x00, 0x00, 0x00,
  0x14, 0x00, 0x00, 0x00, 0x09, 0x00, 0x00, 0x00, 0x4c, 0xb2, 0xff, 0xff,
  0x01, 0x00, 0x00, 0x00, 0x7b, 0x00, 0x00, 0x00, 0x02, 0x00, 0x00, 0x00,
  0x76, 0x00, 0x00, 0x00, 0x7a, 0x00, 0x00, 0x00, 0x62, 0xf4, 0xff, 0xff,
  0x0c, 0x00, 0x00, 0x00, 0x10, 0x00, 0x00, 0x00, 0x08, 0x00, 0x00, 0x00,
  0x01, 0x00, 0x00, 0x00, 0x7a, 0x00, 0x00, 0x00, 0x01, 0x00, 0x00, 0x00,
  0x74, 0x00, 0x00, 0x00, 0x82, 0xf4, 0xff, 0xff, 0x0c, 0x00, 0x00, 0x00,
  0x10, 0x00, 0x00, 0x00, 0x07, 0x00, 0x00, 0x00, 0x01, 0x00, 0x00, 0x00,
  0x79, 0x00, 0x00, 0x00, 0x01, 0x00, 0x00, 0x00, 0x75, 0x00, 0x00, 0x00,
  0xba, 0xf3, 0xff, 0xff, 0x14, 0x00, 0x00, 0x00, 0x00, 0x00, 0x00, 0x15,
  0x10, 0x00, 0x00, 0x00, 0x14, 0x00, 0x00, 0x00, 0x09, 0x00, 0x00, 0x00,
  0xbc, 0xb2, 0xff, 0xff, 0x01, 0x00, 0x00, 0x00, 0x78, 0x00, 0x00, 0x00,
  0x02, 0x00, 0x00, 0x00, 0x77, 0x00, 0x00, 0x00, 0x6a, 0x00, 0x00, 0x00,
  0xd2, 0xf4, 0xff, 0xff, 0x0c, 0x00, 0x00, 0x00, 0x10, 0x00, 0x00, 0x00,
  0x07, 0x00, 0x00, 0x00, 0x01, 0x00, 0x00, 0x00, 0x77, 0x00, 0x00, 0x00,
  0x01, 0x00, 0x00, 0x00, 0x73, 0x00, 0x00, 0x00, 0xf2, 0xf4, 0xff, 0xff,
  0x0c, 0x00, 0x00, 0x00, 0x10, 0x00, 0x00, 0x00, 0x07, 0x00, 0x00, 0x00,
  0x01, 0x00, 0x00, 0x00, 0x76, 0x00, 0x00, 0x00, 0x01, 0x00, 0x00, 0x00,
  0x72, 0x00, 0x00, 0x00, 0x2a, 0xf4, 0xff, 0xff, 0x14, 0x00, 0x00, 0x00,
  0x00, 0x00, 0x00, 0x23, 0x14, 0x00, 0x00, 0x00, 0x24, 0x00, 0x00, 0x00,
  0x06, 0x00, 0x00, 0x00, 0x62, 0xf5, 0xff, 0xff, 0x04, 0x00, 0x00, 0x00,
  0x04, 0x00, 0x00, 0x00, 0x72, 0x00, 0x00, 0x00, 0x73, 0x00, 0x00, 0x00,
  0x74, 0x00, 0x00, 0x00, 0x75, 0x00, 0x00, 0x00, 0x02, 0x00, 0x00, 0x00,
  0x03, 0x00, 0x00, 0x00, 0x71, 0x00, 0x00, 0x00, 0x6a, 0xf4, 0xff, 0xff,
  0x14, 0x00, 0x00, 0x00, 0x00, 0x00, 0x00, 0x0b, 0x10, 0x00, 0x00, 0x00,
  0x14, 0x00, 0x00, 0x00, 0x02, 0x00, 0x00, 0x00, 0x6c, 0xb3, 0xff, 0xff,
  0x01, 0x00, 0x00, 0x00, 0x71, 0x00, 0x00, 0x00, 0x02, 0x00, 0x00, 0x00,
  0x70, 0x00, 0x00, 0x00, 0x1b, 0x00, 0x00, 0x00, 0x9a, 0xf4, 0xff, 0xff,
  0x14, 0x00, 0x00, 0x00, 0x00, 0x00, 0x00, 0x0b, 0x10, 0x00, 0x00, 0x00,
  0x14, 0x00, 0x00, 0x00, 0x02, 0x00, 0x00, 0x00, 0x9c, 0xb3, 0xff, 0xff,
  0x01, 0x00, 0x00, 0x00, 0x70, 0x00, 0x00, 0x00, 0x02, 0x00, 0x00, 0x00,
  0x6f, 0x00, 0x00, 0x00, 0x6e, 0x00, 0x00, 0x00, 0xca, 0xf4, 0xff, 0xff,
  0x14, 0x00, 0x00, 0x00, 0x00, 0x00, 0x00, 0x08, 0x10, 0x00, 0x00, 0x00,
  0x14, 0x00, 0x00, 0x00, 0x05, 0x00, 0x00, 0x00, 0xcc, 0xb3, 0xff, 0xff,
  0x01, 0x00, 0x00, 0x00, 0x6f, 0x00, 0x00, 0x00, 0x03, 0x00, 0x00, 0x00,
  0x27, 0x00, 0x00, 0x00, 0x1a, 0x00, 0x00, 0x00, 0xff, 0xff, 0xff, 0xff,
  0xe6, 0xf5, 0xff, 0xff, 0x0c, 0x00, 0x00, 0x00, 0x10, 0x00, 0x00, 0x00,
  0x03, 0x00, 0x00, 0x00, 0x01, 0x00, 0x00, 0x00, 0x6e, 0x00, 0x00, 0x00,
  0x02, 0x00, 0x00, 0x00, 0x6d, 0x00, 0x00, 0x00, 0x0c, 0x00, 0x00, 0x00,
  0x22, 0xf5, 0xff, 0xff, 0x14, 0x00, 0x00, 0x00, 0x00, 0x00, 0x00, 0x08,
  0x10, 0x00, 0x00, 0x00, 0x14, 0x00, 0x00, 0x00, 0x05, 0x00, 0x00, 0x00,
  0x24, 0xb4, 0xff, 0xff, 0x01, 0x00, 0x00, 0x00, 0x6d, 0x00, 0x00, 0x00,
  0x03, 0x00, 0x00, 0x00, 0x6c, 0x00, 0x00, 0x00, 0x19, 0x00, 0x00, 0x00,
  0xff, 0xff, 0xff, 0xff, 0x56, 0xf5, 0xff, 0xff, 0x14, 0x00, 0x00, 0x00,
  0x00, 0x00, 0x00, 0x15, 0x10, 0x00, 0x00, 0x00, 0x14, 0x00, 0x00, 0x00,
  0x09, 0x00, 0x00, 0x00, 0x58, 0xb4, 0xff, 0xff, 0x01, 0x00, 0x00, 0x00,
  0x6c, 0x00, 0x00, 0x00, 0x02, 0x00, 0x00, 0x00, 0x67, 0x00, 0x00, 0x00,
  0x6b, 0x00, 0x00, 0x00, 0x6e, 0xf6, 0xff, 0xff, 0x0c, 0x00, 0x00, 0x00,
  0x10, 0x00, 0x00, 0x00, 0x08, 0x00, 0x00, 0x00, 0x01, 0x00, 0x00, 0x00,
  0x6b, 0x00, 0x00, 0x00, 0x01, 0x00, 0x00, 0x00, 0x6a, 0x00, 0x00, 0x00,
  0xa6, 0xf5, 0xff, 0xff, 0x14, 0x00, 0x00, 0x00, 0x00, 0x00, 0x00, 0x0b,
  0x10, 0x00, 0x00, 0x00, 0x14, 0x00, 0x00, 0x00, 0x02, 0x00, 0x00, 0x00,
  0xa8, 0xb4, 0xff, 0xff, 0x01, 0x00, 0x00, 0x00, 0x6a, 0x00, 0x00, 0x00,
  0x02, 0x00, 0x00, 0x00, 0x66, 0x00, 0x00, 0x00, 0x69, 0x00, 0x00, 0x00,
  0xd6, 0xf5, 0xff, 0xff, 0x14, 0x00, 0x00, 0x00, 0x00, 0x00, 0x00, 0x15,
  0x10, 0x00, 0x00, 0x00, 0x14, 0x00, 0x00, 0x00, 0x09, 0x00, 0x00, 0x00,
  0xd8, 0xb4, 0xff, 0xff, 0x01, 0x00, 0x00, 0x00, 0x69, 0x00, 0x00, 0x00,
  0x02, 0x00, 0x00, 0x00, 0x64, 0x00, 0x00, 0x00, 0x68, 0x00, 0x00, 0x00,
  0xee, 0xf6, 0xff, 0xff, 0x0c, 0x00, 0x00, 0x00, 0x10, 0x00, 0x00, 0x00,
  0x08, 0x00, 0x00, 0x00, 0x01, 0x00, 0x00, 0x00, 0x68, 0x00, 0x00, 0x00,
  0x01, 0x00, 0x00, 0x00, 0x62, 0x00, 0x00, 0x00, 0x0e, 0xf7, 0xff, 0xff,
  0x0c, 0x00, 0x00, 0x00, 0x10, 0x00, 0x00, 0x00, 0x07, 0x00, 0x00, 0x00,
  0x01, 0x00, 0x00, 0x00, 0x67, 0x00, 0x00, 0x00, 0x01, 0x00, 0x00, 0x00,
  0x63, 0x00, 0x00, 0x00, 0x46, 0xf6, 0xff, 0xff, 0x14, 0x00, 0x00, 0x00,
  0x00, 0x00, 0x00, 0x15, 0x10, 0x00, 0x00, 0x00, 0x14, 0x00, 0x00, 0x00,
  0x09, 0x00, 0x00, 0x00, 0x48, 0xb5, 0xff, 0xff, 0x01, 0x00, 0x00, 0x00,
  0x66, 0x00, 0x00, 0x00, 0x02, 0x00, 0x00, 0x00, 0x65, 0x00, 0x00, 0x00,
  0x58, 0x00, 0x00, 0x00, 0x5e, 0xf7, 0xff, 0xff, 0x0c, 0x00, 0x00, 0x00,
  0x10, 0x00, 0x00, 0x00, 0x07, 0x00, 0x00, 0x00, 0x01, 0x00, 0x00, 0x00,
  0x65, 0x00, 0x00, 0x00, 0x01, 0x00, 0x00, 0x00, 0x61, 0x00, 0x00, 0x00,
  0x7e, 0xf7, 0xff, 0xff, 0x0c, 0x00, 0x00, 0x00, 0x10, 0x00, 0x00, 0x00,
  0x07, 0x00, 0x00, 0x00, 0x01, 0x00, 0x00, 0x00, 0x64, 0x00, 0x00, 0x00,
  0x01, 0x00, 0x00, 0x00, 0x60, 0x00, 0x00, 0x00, 0xb6, 0xf6, 0xff, 0xff,
  0x14, 0x00, 0x00, 0x00, 0x00, 0x00, 0x00, 0x23, 0x14, 0x00, 0x00, 0x00,
  0x24, 0x00, 0x00, 0x00, 0x06, 0x00, 0x00, 0x00, 0xee, 0xf7, 0xff, 0xff,
  0x04, 0x00, 0x00, 0x00, 0x04, 0x00, 0x00, 0x00, 0x60, 0x00, 0x00, 0x00,
  0x61, 0x00, 0x00, 0x00, 0x62, 0x00, 0x00, 0x00, 0x63, 0x00, 0x00, 0x00,
  0x02, 0x00, 0x00, 0x00, 0x03, 0x00, 0x00, 0x00, 0x5f, 0x00, 0x00, 0x00,
  0xf6, 0xf6, 0xff, 0xff, 0x14, 0x00, 0x00, 0x00, 0x00, 0x00, 0x00, 0x0b,
  0x10, 0x00, 0x00, 0x00, 0x14, 0x00, 0x00, 0x00, 0x02, 0x00, 0x00, 0x00,
  0xf8, 0xb5, 0xff, 0xff, 0x01, 0x00, 0x00, 0x00, 0x5f, 0x00, 0x00, 0x00,
  0x02, 0x00, 0x00, 0x00, 0x5e, 0x00, 0x00, 0x00, 0x1b, 0x00, 0x00, 0x00,
  0x26, 0xf7, 0xff, 0xff, 0x14, 0x00, 0x00, 0x00, 0x00, 0x00, 0x00, 0x0b,
  0x10, 0x00, 0x00, 0x00, 0x14, 0x00, 0x00, 0x00, 0x02, 0x00, 0x00, 0x00,
  0x28, 0xb6, 0xff, 0xff, 0x01, 0x00, 0x00, 0x00, 0x5e, 0x00, 0x00, 0x00,
  0x02, 0x00, 0x00, 0x00, 0x5d, 0x00, 0x00, 0x00, 0x5c, 0x00, 0x00, 0x00,
  0x56, 0xf7, 0xff, 0xff, 0x14, 0x00, 0x00, 0x00, 0x00, 0x00, 0x00, 0x08,
  0x10, 0x00, 0x00, 0x00, 0x14, 0x00, 0x00, 0x00, 0x05, 0x00, 0x00, 0x00,
  0x58, 0xb6, 0xff, 0xff, 0x01, 0x00, 0x00, 0x00, 0x5d, 0x00, 0x00, 0x00,
  0x03, 0x00, 0x00, 0x00, 0x26, 0x00, 0x00, 0x00, 0x1a, 0x00, 0x00, 0x00,
  0xff, 0xff, 0xff, 0xff, 0x72, 0xf8, 0xff, 0xff, 0x0c, 0x00, 0x00, 0x00,
  0x10, 0x00, 0x00, 0x00, 0x03, 0x00, 0x00, 0x00, 0x01, 0x00, 0x00, 0x00,
  0x5c, 0x00, 0x00, 0x00, 0x02, 0x00, 0x00, 0x00, 0x5b, 0x00, 0x00, 0x00,
  0x0c, 0x00, 0x00, 0x00, 0xae, 0xf7, 0xff, 0xff, 0x14, 0x00, 0x00, 0x00,
  0x00, 0x00, 0x00, 0x08, 0x10, 0x00, 0x00, 0x00, 0x14, 0x00, 0x00, 0x00,
  0x05, 0x00, 0x00, 0x00, 0xb0, 0xb6, 0xff, 0xff, 0x01, 0x00, 0x00, 0x00,
  0x5b, 0x00, 0x00, 0x00, 0x03, 0x00, 0x00, 0x00, 0x5a, 0x00, 0x00, 0x00,
  0x19, 0x00, 0x00, 0x00, 0xff, 0xff, 0xff, 0xff, 0xe2, 0xf7, 0xff, 0xff,
  0x14, 0x00, 0x00, 0x00, 0x00, 0x00, 0x00, 0x15, 0x10, 0x00, 0x00, 0x00,
  0x14, 0x00, 0x00, 0x00, 0x09, 0x00, 0x00, 0x00, 0xe4, 0xb6, 0xff, 0xff,
  0x01, 0x00, 0x00, 0x00, 0x5a, 0x00, 0x00, 0x00, 0x02, 0x00, 0x00, 0x00,
  0x55, 0x00, 0x00, 0x00, 0x59, 0x00, 0x00, 0x00, 0xfa, 0xf8, 0xff, 0xff,
  0x0c, 0x00, 0x00, 0x00, 0x10, 0x00, 0x00, 0x00, 0x08, 0x00, 0x00, 0x00,
  0x01, 0x00, 0x00, 0x00, 0x59, 0x00, 0x00, 0x00, 0x01, 0x00, 0x00, 0x00,
  0x58, 0x00, 0x00, 0x00, 0x32, 0xf8, 0xff, 0xff, 0x14, 0x00, 0x00, 0x00,
  0x00, 0x00, 0x00, 0x0b, 0x10, 0x00, 0x00, 0x00, 0x14, 0x00, 0x00, 0x00,
  0x02, 0x00, 0x00, 0x00, 0x34, 0xb7, 0xff, 0xff, 0x01, 0x00, 0x00, 0x00,
  0x58, 0x00, 0x00, 0x00, 0x02, 0x00, 0x00, 0x00, 0x54, 0x00, 0x00, 0x00,
  0x57, 0x00, 0x00, 0x00, 0x62, 0xf8, 0xff, 0xff, 0x14, 0x00, 0x00, 0x00,
  0x00, 0x00, 0x00, 0x15, 0x10, 0x00, 0x00, 0x00, 0x14, 0x00, 0x00, 0x00,
  0x09, 0x00, 0x00, 0x00, 0x64, 0xb7, 0xff, 0xff, 0x01, 0x00, 0x00, 0x00,
  0x57, 0x00, 0x00, 0x00, 0x02, 0x00, 0x00, 0x00, 0x52, 0x00, 0x00, 0x00,
  0x56, 0x00, 0x00, 0x00, 0x7a, 0xf9, 0xff, 0xff, 0x0c, 0x00, 0x00, 0x00,
  0x10, 0x00, 0x00, 0x00, 0x08, 0x00, 0x00, 0x00, 0x01, 0x00, 0x00, 0x00,
  0x56, 0x00, 0x00, 0x00, 0x01, 0x00, 0x00, 0x00, 0x50, 0x00, 0x00, 0x00,
  0x9a, 0xf9, 0xff, 0xff, 0x0c, 0x00, 0x00, 0x00, 0x10, 0x00, 0x00, 0x00,
  0x07, 0x00, 0x00, 0x00, 0x01, 0x00, 0x00, 0x00, 0x55, 0x00, 0x00, 0x00,
  0x01, 0x00, 0x00, 0x00, 0x51, 0x00, 0x00, 0x00, 0xd2, 0xf8, 0xff, 0xff,
  0x14, 0x00, 0x00, 0x00, 0x00, 0x00, 0x00, 0x15, 0x10, 0x00, 0x00, 0x00,
  0x14, 0x00, 0x00, 0x00, 0x09, 0x00, 0x00, 0x00, 0xd4, 0xb7, 0xff, 0xff,
  0x01, 0x00, 0x00, 0x00, 0x54, 0x00, 0x00, 0x00, 0x02, 0x00, 0x00, 0x00,
  0x53, 0x00, 0x00, 0x00, 0x46, 0x00, 0x00, 0x00, 0xea, 0xf9, 0xff, 0xff,
  0x0c, 0x00, 0x00, 0x00, 0x10, 0x00, 0x00, 0x00, 0x07, 0x00, 0x00, 0x00,
  0x01, 0x00, 0x00, 0x00, 0x53, 0x00, 0x00, 0x00, 0x01, 0x00, 0x00, 0x00,
  0x4f, 0x00, 0x00, 0x00, 0x0a, 0xfa, 0xff, 0xff, 0x0c, 0x00, 0x00, 0x00,
  0x10, 0x00, 0x00, 0x00, 0x07, 0x00, 0x00, 0x00, 0x01, 0x00, 0x00, 0x00,
  0x52, 0x00, 0x00, 0x00, 0x01, 0x00, 0x00, 0x00, 0x4e, 0x00, 0x00, 0x00,
  0x42, 0xf9, 0xff, 0xff, 0x14, 0x00, 0x00, 0x00, 0x00, 0x00, 0x00, 0x23,
  0x14, 0x00, 0x00, 0x00, 0x24, 0x00, 0x00, 0x00, 0x06, 0x00, 0x00, 0x00,
  0x7a, 0xfa, 0xff, 0xff, 0x04, 0x00, 0x00, 0x00, 0x04, 0x00, 0x00, 0x00,
  0x4e, 0x00, 0x00, 0x00, 0x4f, 0x00, 0x00, 0x00, 0x50, 0x00, 0x00, 0x00,
  0x51, 0x00, 0x00, 0x00, 0x02, 0x00, 0x00, 0x00, 0x03, 0x00, 0x00, 0x00,
  0x4d, 0x00, 0x00, 0x00, 0x82, 0xf9, 0xff, 0xff, 0x14, 0x00, 0x00, 0x00,
  0x00, 0x00, 0x00, 0x0b, 0x10, 0x00, 0x00, 0x00, 0x14, 0x00, 0x00, 0x00,
  0x02, 0x00, 0x00, 0x00, 0x84, 0xb8, 0xff, 0xff, 0x01, 0x00, 0x00, 0x00,
  0x4d, 0x00, 0x00, 0x00, 0x02, 0x00, 0x00, 0x00, 0x4c, 0x00, 0x00, 0x00,
  0x1b, 0x00, 0x00, 0x00, 0xb2, 0xf9, 0xff, 0xff, 0x14, 0x00, 0x00, 0x00,
  0x00, 0x00, 0x00, 0x0b, 0x10, 0x00, 0x00, 0x00, 0x14, 0x00, 0x00, 0x00,
  0x02, 0x00, 0x00, 0x00, 0xb4, 0xb8, 0xff, 0xff, 0x01, 0x00, 0x00, 0x00,
  0x4c, 0x00, 0x00, 0x00, 0x02, 0x00, 0x00, 0x00, 0x4b, 0x00, 0x00, 0x00,
  0x4a, 0x00, 0x00, 0x00, 0xe2, 0xf9, 0xff, 0xff, 0x14, 0x00, 0x00, 0x00,
  0x00, 0x00, 0x00, 0x08, 0x10, 0x00, 0x00, 0x00, 0x14, 0x00, 0x00, 0x00,
  0x05, 0x00, 0x00, 0x00, 0xe4, 0xb8, 0xff, 0xff, 0x01, 0x00, 0x00, 0x00,
  0x4b, 0x00, 0x00, 0x00, 0x03, 0x00, 0x00, 0x00, 0x25, 0x00, 0x00, 0x00,
  0x1a, 0x00, 0x00, 0x00, 0xff, 0xff, 0xff, 0xff, 0xfe, 0xfa, 0xff, 0xff,
  0x0c, 0x00, 0x00, 0x00, 0x10, 0x00, 0x00, 0x00, 0x03, 0x00, 0x00, 0x00,
  0x01, 0x00, 0x00, 0x00, 0x4a, 0x00, 0x00, 0x00, 0x02, 0x00, 0x00, 0x00,
  0x49, 0x00, 0x00, 0x00, 0x0c, 0x00, 0x00, 0x00, 0x3a, 0xfa, 0xff, 0xff,
  0x14, 0x00, 0x00, 0x00, 0x00, 0x00, 0x00, 0x08, 0x10, 0x00, 0x00, 0x00,
  0x14, 0x00, 0x00, 0x00, 0x05, 0x00, 0x00, 0x00, 0x3c, 0xb9, 0xff, 0xff,
  0x01, 0x00, 0x00, 0x00, 0x49, 0x00, 0x00, 0x00, 0x03, 0x00, 0x00, 0x00,
  0x48, 0x00, 0x00, 0x00, 0x19, 0x00, 0x00, 0x00, 0xff, 0xff, 0xff, 0xff,
  0x6e, 0xfa, 0xff, 0xff, 0x14, 0x00, 0x00, 0x00, 0x00, 0x00, 0x00, 0x15,
  0x10, 0x00, 0x00, 0x00, 0x14, 0x00, 0x00, 0x00, 0x09, 0x00, 0x00, 0x00,
  0x70, 0xb9, 0xff, 0xff, 0x01, 0x00, 0x00, 0x00, 0x48, 0x00, 0x00, 0x00,
  0x02, 0x00, 0x00, 0x00, 0x43, 0x00, 0x00, 0x00, 0x47, 0x00, 0x00, 0x00,
  0x86, 0xfb, 0xff, 0xff, 0x0c, 0x00, 0x00, 0x00, 0x10, 0x00, 0x00, 0x00,
  0x08, 0x00, 0x00, 0x00, 0x01, 0x00, 0x00, 0x00, 0x47, 0x00, 0x00, 0x00,
  0x01, 0x00, 0x00, 0x00, 0x46, 0x00, 0x00, 0x00, 0xbe, 0xfa, 0xff, 0xff,
  0x14, 0x00, 0x00, 0x00, 0x00, 0x00, 0x00, 0x0b, 0x10, 0x00, 0x00, 0x00,
  0x14, 0x00, 0x00, 0x00, 0x02, 0x00, 0x00, 0x00, 0xc0, 0xb9, 0xff, 0xff,
  0x01, 0x00, 0x00, 0x00, 0x46, 0x00, 0x00, 0x00, 0x02, 0x00, 0x00, 0x00,
  0x42, 0x00, 0x00, 0x00, 0x45, 0x00, 0x00, 0x00, 0xee, 0xfa, 0xff, 0xff,
  0x14, 0x00, 0x00, 0x00, 0x00, 0x00, 0x00, 0x15, 0x10, 0x00, 0x00, 0x00,
  0x14, 0x00, 0x00, 0x00, 0x09, 0x00, 0x00, 0x00, 0xf0, 0xb9, 0xff, 0xff,
  0x01, 0x00, 0x00, 0x00, 0x45, 0x00, 0x00, 0x00, 0x02, 0x00, 0x00, 0x00,
  0x40, 0x00, 0x00, 0x00, 0x44, 0x00, 0x00, 0x00, 0x06, 0xfc, 0xff, 0xff,
  0x0c, 0x00, 0x00, 0x00, 0x10, 0x00, 0x00, 0x00, 0x08, 0x00, 0x00, 0x00,
  0x01, 0x00, 0x00, 0x00, 0x44, 0x00, 0x00, 0x00, 0x01, 0x00, 0x00, 0x00,
  0x3e, 0x00, 0x00, 0x00, 0x26, 0xfc, 0xff, 0xff, 0x0c, 0x00, 0x00, 0x00,
  0x10, 0x00, 0x00, 0x00, 0x07, 0x00, 0x00, 0x00, 0x01, 0x00, 0x00, 0x00,
  0x43, 0x00, 0x00, 0x00, 0x01, 0x00, 0x00, 0x00, 0x3f, 0x00, 0x00, 0x00,
  0x5e, 0xfb, 0xff, 0xff, 0x14, 0x00, 0x00, 0x00, 0x00, 0x00, 0x00, 0x15,
  0x10, 0x00, 0x00, 0x00, 0x14, 0x00, 0x00, 0x00, 0x09, 0x00, 0x00, 0x00,
  0x60, 0xba, 0xff, 0xff, 0x01, 0x00, 0x00, 0x00, 0x42, 0x00, 0x00, 0x00,
  0x02, 0x00, 0x00, 0x00, 0x41, 0x00, 0x00, 0x00, 0x32, 0x00, 0x00, 0x00,
  0x76, 0xfc, 0xff, 0xff, 0x0c, 0x00, 0x00, 0x00, 0x10, 0x00, 0x00, 0x00,
  0x07, 0x00, 0x00, 0x00, 0x01, 0x00, 0x00, 0x00, 0x41, 0x00, 0x00, 0x00,
  0x01, 0x00, 0x00, 0x00, 0x3d, 0x00, 0x00, 0x00, 0x96, 0xfc, 0xff, 0xff,
  0x0c, 0x00, 0x00, 0x00, 0x10, 0x00, 0x00, 0x00, 0x07, 0x00, 0x00, 0x00,
  0x01, 0x00, 0x00, 0x00, 0x40, 0x00, 0x00, 0x00, 0x01, 0x00, 0x00, 0x00,
  0x3c, 0x00, 0x00, 0x00, 0xce, 0xfb, 0xff, 0xff, 0x14, 0x00, 0x00, 0x00,
  0x00, 0x00, 0x00, 0x23, 0x14, 0x00, 0x00, 0x00, 0x24, 0x00, 0x00, 0x00,
  0x06, 0x00, 0x00, 0x00, 0x06, 0xfd, 0xff, 0xff, 0x04, 0x00, 0x00, 0x00,
  0x04, 0x00, 0x00, 0x00, 0x3c, 0x00, 0x00, 0x00, 0x3d, 0x00, 0x00, 0x00,
  0x3e, 0x00, 0x00, 0x00, 0x3f, 0x00, 0x00, 0x00, 0x02, 0x00, 0x00, 0x00,
  0x03, 0x00, 0x00, 0x00, 0x3b, 0x00, 0x00, 0x00, 0x0e, 0xfc, 0xff, 0xff,
  0x14, 0x00, 0x00, 0x00, 0x00, 0x00, 0x00, 0x0b, 0x10, 0x00, 0x00, 0x00,
  0x14, 0x00, 0x00, 0x00, 0x02, 0x00, 0x00, 0x00, 0x10, 0xbb, 0xff, 0xff,
  0x01, 0x00, 0x00, 0x00, 0x3b, 0x00, 0x00, 0x00, 0x02, 0x00, 0x00, 0x00,
  0x3a, 0x00, 0x00, 0x00, 0x1b, 0x00, 0x00, 0x00, 0x3e, 0xfc, 0xff, 0xff,
  0x14, 0x00, 0x00, 0x00, 0x00, 0x00, 0x00, 0x0b, 0x10, 0x00, 0x00, 0x00,
  0x14, 0x00, 0x00, 0x00, 0x02, 0x00, 0x00, 0x00, 0x40, 0xbb, 0xff, 0xff,
  0x01, 0x00, 0x00, 0x00, 0x3a, 0x00, 0x00, 0x00, 0x02, 0x00, 0x00, 0x00,
  0x39, 0x00, 0x00, 0x00, 0x36, 0x00, 0x00, 0x00, 0x6e, 0xfc, 0xff, 0xff,
  0x14, 0x00, 0x00, 0x00, 0x00, 0x00, 0x00, 0x08, 0x10, 0x00, 0x00, 0x00,
  0x14, 0x00, 0x00, 0x00, 0x05, 0x00, 0x00, 0x00, 0x70, 0xbb, 0xff, 0xff,
  0x01, 0x00, 0x00, 0x00, 0x39, 0x00, 0x00, 0x00, 0x03, 0x00, 0x00, 0x00,
  0x24, 0x00, 0x00, 0x00, 0x1a, 0x00, 0x00, 0x00, 0xff, 0xff, 0xff, 0xff,
  0xa2, 0xfc, 0xff, 0xff, 0x14, 0x00, 0x00, 0x00, 0x00, 0x00, 0x00, 0x08,
  0x10, 0x00, 0x00, 0x00, 0x14, 0x00, 0x00, 0x00, 0x05, 0x00, 0x00, 0x00,
  0xa4, 0xbb, 0xff, 0xff, 0x01, 0x00, 0x00, 0x00, 0x38, 0x00, 0x00, 0x00,
  0x03, 0x00, 0x00, 0x00, 0x29, 0x00, 0x00, 0x00, 0x1a, 0x00, 0x00, 0x00,
  0xff, 0xff, 0xff, 0xff, 0xd6, 0xfc, 0xff, 0xff, 0x14, 0x00, 0x00, 0x00,
  0x00, 0x00, 0x00, 0x08, 0x10, 0x00, 0x00, 0x00, 0x14, 0x00, 0x00, 0x00,
  0x05, 0x00, 0x00, 0x00, 0xd8, 0xbb, 0xff, 0xff, 0x01, 0x00, 0x00, 0x00,
  0x37, 0x00, 0x00, 0x00, 0x03, 0x00, 0x00, 0x00, 0x28, 0x00, 0x00, 0x00,
  0x1a, 0x00, 0x00, 0x00, 0xff, 0xff, 0xff, 0xff, 0xf2, 0xfd, 0xff, 0xff,
  0x0c, 0x00, 0x00, 0x00, 0x10, 0x00, 0x00, 0x00, 0x03, 0x00, 0x00, 0x00,
  0x01, 0x00, 0x00, 0x00, 0x36, 0x00, 0x00, 0x00, 0x02, 0x00, 0x00, 0x00,
  0x35, 0x00, 0x00, 0x00, 0x0c, 0x00, 0x00, 0x00, 0x2e, 0xfd, 0xff, 0xff,
  0x14, 0x00, 0x00, 0x00, 0x00, 0x00, 0x00, 0x08, 0x10, 0x00, 0x00, 0x00,
  0x14, 0x00, 0x00, 0x00, 0x05, 0x00, 0x00, 0x00, 0x30, 0xbc, 0xff, 0xff,
  0x01, 0x00, 0x00, 0x00, 0x35, 0x00, 0x00, 0x00, 0x03, 0x00, 0x00, 0x00,
  0x34, 0x00, 0x00, 0x00, 0x19, 0x00, 0x00, 0x00, 0xff, 0xff, 0xff, 0xff,
  0x62, 0xfd, 0xff, 0xff, 0x14, 0x00, 0x00, 0x00, 0x00, 0x00, 0x00, 0x15,
  0x10, 0x00, 0x00, 0x00, 0x14, 0x00, 0x00, 0x00, 0x09, 0x00, 0x00, 0x00,
  0x64, 0xbc, 0xff, 0xff, 0x01, 0x00, 0x00, 0x00, 0x34, 0x00, 0x00, 0x00,
  0x02, 0x00, 0x00, 0x00, 0x30, 0x00, 0x00, 0x00, 0x33, 0x00, 0x00, 0x00,
  0x7a, 0xfe, 0xff, 0xff, 0x0c, 0x00, 0x00, 0x00, 0x10, 0x00, 0x00, 0x00,
  0x08, 0x00, 0x00, 0x00, 0x01, 0x00, 0x00, 0x00, 0x33, 0x00, 0x00, 0x00,
  0x01, 0x00, 0x00, 0x00, 0x32, 0x00, 0x00, 0x00, 0xb2, 0xfd, 0xff, 0xff,
  0x14, 0x00, 0x00, 0x00, 0x00, 0x00, 0x00, 0x15, 0x10, 0x00, 0x00, 0x00,
  0x14, 0x00, 0x00, 0x00, 0x09, 0x00, 0x00, 0x00, 0xb4, 0xbc, 0xff, 0xff,
  0x01, 0x00, 0x00, 0x00, 0x32, 0x00, 0x00, 0x00, 0x02, 0x00, 0x00, 0x00,
  0x2f, 0x00, 0x00, 0x00, 0x31, 0x00, 0x00, 0x00, 0xca, 0xfe, 0xff, 0xff,
  0x0c, 0x00, 0x00, 0x00, 0x10, 0x00, 0x00, 0x00, 0x08, 0x00, 0x00, 0x00,
  0x01, 0x00, 0x00, 0x00, 0x31, 0x00, 0x00, 0x00, 0x01, 0x00, 0x00, 0x00,
  0x2d, 0x00, 0x00, 0x00, 0xea, 0xfe, 0xff, 0xff, 0x0c, 0x00, 0x00, 0x00,
  0x10, 0x00, 0x00, 0x00, 0x07, 0x00, 0x00, 0x00, 0x01, 0x00, 0x00, 0x00,
  0x30, 0x00, 0x00, 0x00, 0x01, 0x00, 0x00, 0x00, 0x2e, 0x00, 0x00, 0x00,
  0x0a, 0xff, 0xff, 0xff, 0x0c, 0x00, 0x00, 0x00, 0x10, 0x00, 0x00, 0x00,
  0x07, 0x00, 0x00, 0x00, 0x01, 0x00, 0x00, 0x00, 0x2f, 0x00, 0x00, 0x00,
  0x01, 0x00, 0x00, 0x00, 0x2b, 0x00, 0x00, 0x00, 0x42, 0xfe, 0xff, 0xff,
  0x14, 0x00, 0x00, 0x00, 0x00, 0x00, 0x00, 0x23, 0x14, 0x00, 0x00, 0x00,
  0x24, 0x00, 0x00, 0x00, 0x06, 0x00, 0x00, 0x00, 0x7a, 0xff, 0xff, 0xff,
  0x04, 0x00, 0x00, 0x00, 0x04, 0x00, 0x00, 0x00, 0x2b, 0x00, 0x00, 0x00,
  0x2c, 0x00, 0x00, 0x00, 0x2d, 0x00, 0x00, 0x00, 0x2e, 0x00, 0x00, 0x00,
  0x02, 0x00, 0x00, 0x00, 0x03, 0x00, 0x00, 0x00, 0x2a, 0x00, 0x00, 0x00,
  0x82, 0xfe, 0xff, 0xff, 0x14, 0x00, 0x00, 0x00, 0x00, 0x00, 0x00, 0x08,
  0x10, 0x00, 0x00, 0x00, 0x14, 0x00, 0x00, 0x00, 0x05, 0x00, 0x00, 0x00,
  0x84, 0xbd, 0xff, 0xff, 0x01, 0x00, 0x00, 0x00, 0x2a, 0x00, 0x00, 0x00,
  0x03, 0x00, 0x00, 0x00, 0x23, 0x00, 0x00, 0x00, 0x1a, 0x00, 0x00, 0x00,
  0x1b, 0x00, 0x00, 0x00, 0x00, 0x00, 0x0e, 0x00, 0x1a, 0x00, 0x14, 0x00,
  0x10, 0x00, 0x0c, 0x00, 0x0b, 0x00, 0x04, 0x00, 0x0e, 0x00, 0x00, 0x00,
  0x1c, 0x00, 0x00, 0x00, 0x00, 0x00, 0x00, 0x40, 0x1c, 0x00, 0x00, 0x00,
  0x38, 0x00, 0x00, 0x00, 0x04, 0x00, 0x00, 0x00, 0x00, 0x00, 0x06, 0x00,
  0x08, 0x00, 0x04, 0x00, 0x06, 0x00, 0x00, 0x00, 0x07, 0x00, 0x00, 0x00,
  0x07, 0x00, 0x00, 0x00, 0x23, 0x00, 0x00, 0x00, 0x24, 0x00, 0x00, 0x00,
  0x25, 0x00, 0x00, 0x00, 0x26, 0x00, 0x00, 0x00, 0x27, 0x00, 0x00, 0x00,
  0x28, 0x00, 0x00, 0x00, 0x29, 0x00, 0x00, 0x00, 0x01, 0x00, 0x00, 0x00,
  0x22, 0x00, 0x00, 0x00, 0x00, 0x00, 0x0a, 0x00, 0x10, 0x00, 0x0c, 0x00,
  0x08, 0x00, 0x04, 0x00, 0x0a, 0x00, 0x00, 0x00, 0x0c, 0x00, 0x00, 0x00,
  0x10, 0x00, 0x00, 0x00, 0x03, 0x00, 0x00, 0x00, 0x01, 0x00, 0x00, 0x00,
  0x22, 0x00, 0x00, 0x00, 0x02, 0x00, 0x00, 0x00, 0x21, 0x00, 0x00, 0x00,
  0x0b, 0x00, 0x00, 0x00, 0x46, 0xff, 0xff, 0xff, 0x14, 0x00, 0x00, 0x00,
  0x00, 0x00, 0x00, 0x0b, 0x10, 0x00, 0x00, 0x00, 0x14, 0x00, 0x00, 0x00,
  0x02, 0x00, 0x00, 0x00, 0x48, 0xbe, 0xff, 0xff, 0x01, 0x00, 0x00, 0x00,
  0x21, 0x00, 0x00, 0x00, 0x02, 0x00, 0x00, 0x00, 0x1f, 0x00, 0x00, 0x00,
  0x20, 0x00, 0x00, 0x00, 0x76, 0xff, 0xff, 0xff, 0x14, 0x00, 0x00, 0x00,
  0x00, 0x00, 0x00, 0x01, 0x20, 0x00, 0x00, 0x00, 0x24, 0x00, 0x00, 0x00,
  0x01, 0x00, 0x00, 0x00, 0x68, 0xff, 0xff, 0xff, 0x00, 0x00, 0x00, 0x01,
  0x01, 0x00, 0x00, 0x00, 0x01, 0x00, 0x00, 0x00, 0x00, 0x00, 0x00, 0x01,
  0x01, 0x00, 0x00, 0x00, 0x20, 0x00, 0x00, 0x00, 0x03, 0x00, 0x00, 0x00,
  0x00, 0x00, 0x00, 0x00, 0x15, 0x00, 0x00, 0x00, 0x12, 0x00, 0x00, 0x00,
  0xba, 0xff, 0xff, 0xff, 0x14, 0x00, 0x00, 0x00, 0x00, 0x00, 0x00, 0x01,
  0x20, 0x00, 0x00, 0x00, 0x24, 0x00, 0x00, 0x00, 0x01, 0x00, 0x00, 0x00,
  0xac, 0xff, 0xff, 0xff, 0x00, 0x00, 0x00, 0x01, 0x01, 0x00, 0x00, 0x00,
  0x01, 0x00, 0x00, 0x00, 0x00, 0x00, 0x00, 0x01, 0x01, 0x00, 0x00, 0x00,
  0x1f, 0x00, 0x00, 0x00, 0x03, 0x00, 0x00, 0x00, 0x1e, 0x00, 0x00, 0x00,
  0x16, 0x00, 0x00, 0x00, 0x13, 0x00, 0x00, 0x00, 0x00, 0x00, 0x0e, 0x00,
  0x18, 0x00, 0x14, 0x00, 0x10, 0x00, 0x0c, 0x00, 0x0b, 0x00, 0x04, 0x00,
  0x0e, 0x00, 0x00, 0x00, 0x20, 0x00, 0x00, 0x00, 0x00, 0x00, 0x00, 0x01,
  0x2c, 0x00, 0x00, 0x00, 0x30, 0x00, 0x00, 0x00, 0x01, 0x00, 0x00, 0x00,
  0x0c, 0x00, 0x14, 0x00, 0x13, 0x00, 0x0c, 0x00, 0x08, 0x00, 0x07, 0x00,
  0x0c, 0x00, 0x00, 0x00, 0x00, 0x00, 0x00, 0x01, 0x01, 0x00, 0x00, 0x00,
  0x01, 0x00, 0x00, 0x00, 0x00, 0x00, 0x00, 0x01, 0x01, 0x00, 0x00, 0x00,
  0x1e, 0x00, 0x00, 0x00, 0x03, 0x00, 0x00, 0x00, 0x00, 0x00, 0x00, 0x00,
  0x1c, 0x00, 0x00, 0x00, 0x1d, 0x00, 0x00, 0x00, 0xae, 0xfe, 0xff, 0xff,
  0x08, 0x00, 0x00, 0x00, 0x0c, 0x00, 0x00, 0x00, 0x01, 0x00, 0x00, 0x00,
  0x1d, 0x00, 0x00, 0x00, 0x01, 0x00, 0x00, 0x00, 0x01, 0x00, 0x00, 0x00,
  0xca, 0xfe, 0xff, 0xff, 0x08, 0x00, 0x00, 0x00, 0x0c, 0x00, 0x00, 0x00,
  0x01, 0x00, 0x00, 0x00, 0x1c, 0x00, 0x00, 0x00, 0x01, 0x00, 0x00, 0x00,
  0x02, 0x00, 0x00, 0x00, 0xe6, 0xfe, 0xff, 0xff, 0x08, 0x00, 0x00, 0x00,
  0x0c, 0x00, 0x00, 0x00, 0x01, 0x00, 0x00, 0x00, 0x1b, 0x00, 0x00, 0x00,
  0x01, 0x00, 0x00, 0x00, 0x04, 0x00, 0x00, 0x00, 0x02, 0xff, 0xff, 0xff,
  0x08, 0x00, 0x00, 0x00, 0x0c, 0x00, 0x00, 0x00, 0x01, 0x00, 0x00, 0x00,
  0x1a, 0x00, 0x00, 0x00, 0x01, 0x00, 0x00, 0x00, 0x05, 0x00, 0x00, 0x00,
  0x1e, 0xff, 0xff, 0xff, 0x08, 0x00, 0x00, 0x00, 0x0c, 0x00, 0x00, 0x00,
  0x01, 0x00, 0x00, 0x00, 0x19, 0x00, 0x00, 0x00, 0x01, 0x00, 0x00, 0x00,
  0x06, 0x00, 0x00, 0x00, 0x3a, 0xff, 0xff, 0xff, 0x08, 0x00, 0x00, 0x00,
  0x0c, 0x00, 0x00, 0x00, 0x01, 0x00, 0x00, 0x00, 0x18, 0x00, 0x00, 0x00,
  0x01, 0x00, 0x00, 0x00, 0x07, 0x00, 0x00, 0x00, 0x56, 0xff, 0xff, 0xff,
  0x08, 0x00, 0x00, 0x00, 0x0c, 0x00, 0x00, 0x00, 0x01, 0x00, 0x00, 0x00,
  0x17, 0x00, 0x00, 0x00, 0x01, 0x00, 0x00, 0x00, 0x08, 0x00, 0x00, 0x00,
  0x72, 0xff, 0xff, 0xff, 0x08, 0x00, 0x00, 0x00, 0x0c, 0x00, 0x00, 0x00,
  0x01, 0x00, 0x00, 0x00, 0x16, 0x00, 0x00, 0x00, 0x01, 0x00, 0x00, 0x00,
  0x09, 0x00, 0x00, 0x00, 0x8e, 0xff, 0xff, 0xff, 0x08, 0x00, 0x00, 0x00,
  0x0c, 0x00, 0x00, 0x00, 0x01, 0x00, 0x00, 0x00, 0x15, 0x00, 0x00, 0x00,
  0x01, 0x00, 0x00, 0x00, 0x0a, 0x00, 0x00, 0x00, 0xaa, 0xff, 0xff, 0xff,
  0x08, 0x00, 0x00, 0x00, 0x0c, 0x00, 0x00, 0x00, 0x01, 0x00, 0x00, 0x00,
  0x14, 0x00, 0x00, 0x00, 0x01, 0x00, 0x00, 0x00, 0x0d, 0x00, 0x00, 0x00,
  0xc6, 0xff, 0xff, 0xff, 0x08, 0x00, 0x00, 0x00, 0x0c, 0x00, 0x00, 0x00,
  0x01, 0x00, 0x00, 0x00, 0x13, 0x00, 0x00, 0x00, 0x01, 0x00, 0x00, 0x00,
  0x0e, 0x00, 0x00, 0x00, 0xe2, 0xff, 0xff, 0xff, 0x08, 0x00, 0x00, 0x00,
  0x0c, 0x00, 0x00, 0x00, 0x01, 0x00, 0x00, 0x00, 0x12, 0x00, 0x00, 0x00,
  0x01, 0x00, 0x00, 0x00, 0x0f, 0x00, 0x00, 0x00, 0x00, 0x00, 0x0a, 0x00,
  0x0c, 0x00, 0x00, 0x00, 0x08, 0x00, 0x04, 0x00, 0x0a, 0x00, 0x00, 0x00,
  0x08, 0x00, 0x00, 0x00, 0x0c, 0x00, 0x00, 0x00, 0x01, 0x00, 0x00, 0x00,
  0x11, 0x00, 0x00, 0x00, 0x01, 0x00, 0x00, 0x00, 0x10, 0x00, 0x00, 0x00,
  0x01, 0x00, 0x00, 0x00, 0xa2, 0x00, 0x00, 0x00, 0x01, 0x00, 0x00, 0x00,
  0x00, 0x00, 0x00, 0x00, 0xa3, 0x00, 0x00, 0x00, 0x54, 0x3e, 0x00, 0x00,
  0x7c, 0x3d, 0x00, 0x00, 0x00, 0x3d, 0x00, 0x00, 0xc4, 0x3c, 0x00, 0x00,
  0x84, 0x3c, 0x00, 0x00, 0x40, 0x3c, 0x00, 0x00, 0xfc, 0x3b, 0x00, 0x00,
  0xa4, 0x3b, 0x00, 0x00, 0x4c, 0x3b, 0x00, 0x00, 0xe8, 0x3a, 0x00, 0x00,
  0x84, 0x3a, 0x00, 0x00, 0x08, 0x3a, 0x00, 0x00, 0xc8, 0x39, 0x00, 0x00,
  0x74, 0x39, 0x00, 0x00, 0xb4, 0x38, 0x00, 0x00, 0xf4, 0x37, 0x00, 0x00,
  0x80, 0x37, 0x00, 0x00, 0x10, 0x37, 0x00, 0x00, 0x54, 0x36, 0x00, 0x00,
  0x98, 0x35, 0x00, 0x00, 0x48, 0x35, 0x00, 0x00, 0xe8, 0x34, 0x00, 0x00,
  0x88, 0x34, 0x00, 0x00, 0x34, 0x34, 0x00, 0x00, 0xe0, 0x33, 0x00, 0x00,
  0xa0, 0x33, 0x00, 0x00, 0x60, 0x33, 0x00, 0x00, 0x24, 0x33, 0x00, 0x00,
  0xc4, 0x32, 0x00, 0x00, 0x08, 0x32, 0x00, 0x00, 0x40, 0x31, 0x00, 0x00,
  0x78, 0x30, 0x00, 0x00, 0xb0, 0x2f, 0x00, 0x00, 0x64, 0x2f, 0x00, 0x00,
  0xe4, 0x2e, 0x00, 0x00, 0x90, 0x2e, 0x00, 0x00, 0x3c, 0x2e, 0x00, 0x00,
  0xe8, 0x2d, 0x00, 0x00, 0x94, 0x2d, 0x00, 0x00, 0x40, 0x2d, 0x00, 0x00,
  0xec, 0x2c, 0x00, 0x00, 0x98, 0x2c, 0x00, 0x00, 0x0c, 0x2c, 0x00, 0x00,
  0xb0, 0x2b, 0x00, 0x00, 0x54, 0x2b, 0x00, 0x00, 0xf8, 0x2a, 0x00, 0x00,
  0x9c, 0x2a, 0x00, 0x00, 0x3c, 0x2a, 0x00, 0x00, 0xdc, 0x29, 0x00, 0x00,
  0x80, 0x29, 0x00, 0x00, 0x24, 0x29, 0x00, 0x00, 0xc8, 0x28, 0x00, 0x00,
  0x6c, 0x28, 0x00, 0x00, 0x0c, 0x28, 0x00, 0x00, 0xb0, 0x27, 0x00, 0x00,
  0x50, 0x27, 0x00, 0x00, 0xf0, 0x26, 0x00, 0x00, 0x94, 0x26, 0x00, 0x00,
  0x34, 0x26, 0x00, 0x00, 0xd4, 0x25, 0x00, 0x00, 0x78, 0x25, 0x00, 0x00,
  0x1c, 0x25, 0x00, 0x00, 0xc0, 0x24, 0x00, 0x00, 0x64, 0x24, 0x00, 0x00,
  0x04, 0x24, 0x00, 0x00, 0xa4, 0x23, 0x00, 0x00, 0x48, 0x23, 0x00, 0x00,
  0xe8, 0x22, 0x00, 0x00, 0x8c, 0x22, 0x00, 0x00, 0x30, 0x22, 0x00, 0x00,
  0xd4, 0x21, 0x00, 0x00, 0x78, 0x21, 0x00, 0x00, 0x1c, 0x21, 0x00, 0x00,
  0xbc, 0x20, 0x00, 0x00, 0x60, 0x20, 0x00, 0x00, 0x04, 0x20, 0x00, 0x00,
  0xa4, 0x1f, 0x00, 0x00, 0x44, 0x1f, 0x00, 0x00, 0xe8, 0x1e, 0x00, 0x00,
  0x8c, 0x1e, 0x00, 0x00, 0x30, 0x1e, 0x00, 0x00, 0xd4, 0x1d, 0x00, 0x00,
  0x74, 0x1d, 0x00, 0x00, 0x14, 0x1d, 0x00, 0x00, 0xb8, 0x1c, 0x00, 0x00,
  0x58, 0x1c, 0x00, 0x00, 0xfc, 0x1b, 0x00, 0x00, 0xa0, 0x1b, 0x00, 0x00,
  0x44, 0x1b, 0x00, 0x00, 0xe8, 0x1a, 0x00, 0x00, 0x8c, 0x1a, 0x00, 0x00,
  0x2c, 0x1a, 0x00, 0x00, 0xd0, 0x19, 0x00, 0x00, 0x74, 0x19, 0x00, 0x00,
  0x14, 0x19, 0x00, 0x00, 0xb4, 0x18, 0x00, 0x00, 0x58, 0x18, 0x00, 0x00,
  0xfc, 0x17, 0x00, 0x00, 0xa0, 0x17, 0x00, 0x00, 0x44, 0x17, 0x00, 0x00,
  0xe4, 0x16, 0x00, 0x00, 0x84, 0x16, 0x00, 0x00, 0x28, 0x16, 0x00, 0x00,
  0xc8, 0x15, 0x00, 0x00, 0x6c, 0x15, 0x00, 0x00, 0x10, 0x15, 0x00, 0x00,
  0xb4, 0x14, 0x00, 0x00, 0x58, 0x14, 0x00, 0x00, 0xfc, 0x13, 0x00, 0x00,
  0x9c, 0x13, 0x00, 0x00, 0x40, 0x13, 0x00, 0x00, 0xe4, 0x12, 0x00, 0x00,
  0x84, 0x12, 0x00, 0x00, 0x24, 0x12, 0x00, 0x00, 0xc8, 0x11, 0x00, 0x00,
  0x6c, 0x11, 0x00, 0x00, 0x10, 0x11, 0x00, 0x00, 0xb4, 0x10, 0x00, 0x00,
  0x54, 0x10, 0x00, 0x00, 0xf4, 0x0f, 0x00, 0x00, 0x98, 0x0f, 0x00, 0x00,
  0x38, 0x0f, 0x00, 0x00, 0xdc, 0x0e, 0x00, 0x00, 0x80, 0x0e, 0x00, 0x00,
  0x24, 0x0e, 0x00, 0x00, 0xc8, 0x0d, 0x00, 0x00, 0x6c, 0x0d, 0x00, 0x00,
  0x0c, 0x0d, 0x00, 0x00, 0xb0, 0x0c, 0x00, 0x00, 0x50, 0x0c, 0x00, 0x00,
  0xf0, 0x0b, 0x00, 0x00, 0x94, 0x0b, 0x00, 0x00, 0x34, 0x0b, 0x00, 0x00,
  0xd4, 0x0a, 0x00, 0x00, 0x74, 0x0a, 0x00, 0x00, 0x14, 0x0a, 0x00, 0x00,
  0xb4, 0x09, 0x00, 0x00, 0x58, 0x09, 0x00, 0x00, 0xf8, 0x08, 0x00, 0x00,
  0x9c, 0x08, 0x00, 0x00, 0x40, 0x08, 0x00, 0x00, 0xe4, 0x07, 0x00, 0x00,
  0x84, 0x07, 0x00, 0x00, 0x28, 0x07, 0x00, 0x00, 0xc8, 0x06, 0x00, 0x00,
  0x6c, 0x06, 0x00, 0x00, 0x0c, 0x06, 0x00, 0x00, 0xac, 0x05, 0x00, 0x00,
  0x50, 0x05, 0x00, 0x00, 0xf0, 0x04, 0x00, 0x00, 0x90, 0x04, 0x00, 0x00,
  0x30, 0x04, 0x00, 0x00, 0xd0, 0x03, 0x00, 0x00, 0x70, 0x03, 0x00, 0x00,
  0x14, 0x03, 0x00, 0x00, 0xb4, 0x02, 0x00, 0x00, 0x58, 0x02, 0x00, 0x00,
  0xfc, 0x01, 0x00, 0x00, 0xa0, 0x01, 0x00, 0x00, 0x40, 0x01, 0x00, 0x00,
  0xe4, 0x00, 0x00, 0x00, 0x50, 0x00, 0x00, 0x00, 0x04, 0x00, 0x00, 0x00,
  0x4e, 0xc4, 0xff, 0xff, 0x00, 0x00, 0x00, 0x01, 0x10, 0x00, 0x00, 0x00,
  0x10, 0x00, 0x00, 0x00, 0xa3, 0x00, 0x00, 0x00, 0x28, 0x00, 0x00, 0x00,
  0x78, 0xc3, 0xff, 0xff, 0x1b, 0x00, 0x00, 0x00, 0x53, 0x74, 0x61, 0x74,
  0x65, 0x66, 0x75, 0x6c, 0x50, 0x61, 0x72, 0x74, 0x69, 0x74, 0x69, 0x6f,
  0x6e, 0x65, 0x64, 0x43, 0x61, 0x6c, 0x6c, 0x5f, 0x31, 0x3a, 0x30, 0x00,
  0x02, 0x00, 0x00, 0x00, 0x01, 0x00, 0x00, 0x00, 0x07, 0x00, 0x00, 0x00,
  0x96, 0xc4, 0xff, 0xff, 0x00, 0x00, 0x00, 0x01, 0x10, 0x00, 0x00, 0x00,
  0x10, 0x00, 0x00, 0x00, 0xa2, 0x00, 0x00, 0x00, 0x70, 0x00, 0x00, 0x00,
  0xc0, 0xc3, 0xff, 0xff, 0x61, 0x00, 0x00, 0x00, 0x66, 0x75, 0x6e, 0x63,
  0x74, 0x69, 0x6f, 0x6e, 0x61, 0x6c, 0x5f, 0x31, 0x36, 0x5f, 0x31, 0x2f,
  0x64, 0x65, 0x6e, 0x73, 0x65, 0x5f, 0x32, 0x5f, 0x31, 0x2f, 0x4d, 0x61,
  0x74, 0x4d, 0x75, 0x6c, 0x3b, 0x66, 0x75, 0x6e, 0x63, 0x74, 0x69, 0x6f,
  0x6e, 0x61, 0x6c, 0x5f, 0x31, 0x36, 0x5f, 0x31, 0x2f, 0x64, 0x65, 0x6e,
  0x73, 0x65, 0x5f, 0x32, 0x5f, 0x31, 0x2f, 0x52, 0x65, 0x6c, 0x75, 0x3b,
  0x66, 0x75, 0x6e, 0x63, 0x74, 0x69, 0x6f, 0x6e, 0x61, 0x6c, 0x5f, 0x31,
  0x36, 0x5f, 0x31, 0x2f, 0x64, 0x65, 0x6e, 0x73, 0x65, 0x5f, 0x32, 0x5f,
  0x31, 0x2f, 0x42, 0x69, 0x61, 0x73, 0x41, 0x64, 0x64, 0x00, 0x00, 0x00,
  0x02, 0x00, 0x00, 0x00, 0x01, 0x00, 0x00, 0x00, 0x14, 0x00, 0x00, 0x00,
  0x26, 0xc5, 0xff, 0xff, 0x00, 0x00, 0x00, 0x01, 0x10, 0x00, 0x00, 0x00,
  0x10, 0x00, 0x00, 0x00, 0xa1, 0x00, 0x00, 0x00, 0x38, 0x00, 0x00, 0x00,
  0x50, 0xc4, 0xff, 0xff, 0x2b, 0x00, 0x00, 0x00, 0x66, 0x75, 0x6e, 0x63,
  0x74, 0x69, 0x6f, 0x6e, 0x61, 0x6c, 0x5f, 0x31, 0x36, 0x5f, 0x31, 0x2f,
  0x6c, 0x73, 0x74, 0x6d, 0x5f, 0x31, 0x5f, 0x31, 0x2f, 0x6c, 0x73, 0x74,
  0x6d, 0x5f, 0x63, 0x65, 0x6c, 0x6c, 0x5f, 0x31, 0x33, 0x2f, 0x6d, 0x75,
  0x6c, 0x5f, 0x32, 0x00, 0x02, 0x00, 0x00, 0x00, 0x01, 0x00, 0x00, 0x00,
  0x04, 0x00, 0x00, 0x00, 0x7e, 0xc5, 0xff, 0xff, 0x00, 0x00, 0x00, 0x01,
  0x10, 0x00, 0x00, 0x00, 0x10, 0x00, 0x00, 0x00, 0xa0, 0x00, 0x00, 0x00,
  0x3c, 0x00, 0x00, 0x00, 0xa8, 0xc4, 0xff, 0xff, 0x2c, 0x00, 0x00, 0x00,
  0x66, 0x75, 0x6e, 0x63, 0x74, 0x69, 0x6f, 0x6e, 0x61, 0x6c, 0x5f, 0x31,
  0x36, 0x5f, 0x31, 0x2f, 0x6c, 0x73, 0x74, 0x6d, 0x5f, 0x31, 0x5f, 0x31,
  0x2f, 0x6c, 0x73, 0x74, 0x6d, 0x5f, 0x63, 0x65, 0x6c, 0x6c, 0x5f, 0x31,
  0x33, 0x2f, 0x54, 0x61, 0x6e, 0x68, 0x5f, 0x31, 0x00, 0x00, 0x00, 0x00,
  0x02, 0x00, 0x00, 0x00, 0x01, 0x00, 0x00, 0x00, 0x04, 0x00, 0x00, 0x00,
  0xda, 0xc5, 0xff, 0xff, 0x00, 0x00, 0x00, 0x01, 0x10, 0x00, 0x00, 0x00,
  0x10, 0x00, 0x00, 0x00, 0x9f, 0x00, 0x00, 0x00, 0x38, 0x00, 0x00, 0x00,
  0x04, 0xc5, 0xff, 0xff, 0x29, 0x00, 0x00, 0x00, 0x66, 0x75, 0x6e, 0x63,
  0x74, 0x69, 0x6f, 0x6e, 0x61, 0x6c, 0x5f, 0x31, 0x36, 0x5f, 0x31, 0x2f,
  0x6c, 0x73, 0x74, 0x6d, 0x5f, 0x31, 0x5f, 0x31, 0x2f, 0x6c, 0x73, 0x74,
  0x6d, 0x5f, 0x63, 0x65, 0x6c, 0x6c, 0x5f, 0x31, 0x33, 0x2f, 0x61, 0x64,
  0x64, 0x00, 0x00, 0x00, 0x02, 0x00, 0x00, 0x00, 0x01, 0x00, 0x00, 0x00,
  0x04, 0x00, 0x00, 0x00, 0x32, 0xc6, 0xff, 0xff, 0x00, 0x00, 0x00, 0x01,
  0x10, 0x00, 0x00, 0x00, 0x10, 0x00, 0x00, 0x00, 0x9e, 0x00, 0x00, 0x00,
  0x38, 0x00, 0x00, 0x00, 0x5c, 0xc5, 0xff, 0xff, 0x2b, 0x00, 0x00, 0x00,
  0x66, 0x75, 0x6e, 0x63, 0x74, 0x69, 0x6f, 0x6e, 0x61, 0x6c, 0x5f, 0x31,
  0x36, 0x5f, 0x31, 0x2f, 0x6c, 0x73, 0x74, 0x6d, 0x5f, 0x31, 0x5f, 0x31,
  0x2f, 0x6c, 0x73, 0x74, 0x6d, 0x5f, 0x63, 0x65, 0x6c, 0x6c, 0x5f, 0x31,
  0x33, 0x2f, 0x6d, 0x75, 0x6c, 0x5f, 0x31, 0x00, 0x02, 0x00, 0x00, 0x00,
  0x01, 0x00, 0x00, 0x00, 0x04, 0x00, 0x00, 0x00, 0x8a, 0xc6, 0xff, 0xff,
  0x00, 0x00, 0x00, 0x01, 0x10, 0x00, 0x00, 0x00, 0x10, 0x00, 0x00, 0x00,
  0x9d, 0x00, 0x00, 0x00, 0x38, 0x00, 0x00, 0x00, 0xb4, 0xc5, 0xff, 0xff,
  0x2a, 0x00, 0x00, 0x00, 0x66, 0x75, 0x6e, 0x63, 0x74, 0x69, 0x6f, 0x6e,
  0x61, 0x6c, 0x5f, 0x31, 0x36, 0x5f, 0x31, 0x2f, 0x6c, 0x73, 0x74, 0x6d,
  0x5f, 0x31, 0x5f, 0x31, 0x2f, 0x6c, 0x73, 0x74, 0x6d, 0x5f, 0x63, 0x65,
  0x6c, 0x6c, 0x5f, 0x31, 0x33, 0x2f, 0x54, 0x61, 0x6e, 0x68, 0x00, 0x00,
  0x02, 0x00, 0x00, 0x00, 0x01, 0x00, 0x00, 0x00, 0x04, 0x00, 0x00, 0x00,
  0xe2, 0xc6, 0xff, 0xff, 0x00, 0x00, 0x00, 0x01, 0x10, 0x00, 0x00, 0x00,
  0x10, 0x00, 0x00, 0x00, 0x9c, 0x00, 0x00, 0x00, 0x3c, 0x00, 0x00, 0x00,
  0x0c, 0xc6, 0xff, 0xff, 0x2f, 0x00, 0x00, 0x00, 0x66, 0x75, 0x6e, 0x63,
  0x74, 0x69, 0x6f, 0x6e, 0x61, 0x6c, 0x5f, 0x31, 0x36, 0x5f, 0x31, 0x2f,
  0x6c, 0x73, 0x74, 0x6d, 0x5f, 0x31, 0x5f, 0x31, 0x2f, 0x6c, 0x73, 0x74,
  0x6d, 0x5f, 0x63, 0x65, 0x6c, 0x6c, 0x5f, 0x31, 0x33, 0x2f, 0x53, 0x69,
  0x67, 0x6d, 0x6f, 0x69, 0x64, 0x5f, 0x32, 0x00, 0x02, 0x00, 0x00, 0x00,
  0x01, 0x00, 0x00, 0x00, 0x04, 0x00, 0x00, 0x00, 0x3e, 0xc7, 0xff, 0xff,
  0x00, 0x00, 0x00, 0x01, 0x10, 0x00, 0x00, 0x00, 0x10, 0x00, 0x00, 0x00,
  0x9b, 0x00, 0x00, 0x00, 0x38, 0x00, 0x00, 0x00, 0x68, 0xc6, 0xff, 0xff,
  0x29, 0x00, 0x00, 0x00, 0x66, 0x75, 0x6e, 0x63, 0x74, 0x69, 0x6f, 0x6e,
